{",": 0, "ł": 1, ".": 2, "▁w": 3, "<s>": 4, "▁z": 5, "ę": 6, "ą": 7, "▁i": 8, "z": 9, "ż": 10, "zy": 11, "▁—": 12, "▁się": 13, "ć": 14, "▁nie": 15, "y": 16, "ś": 17, "i": 18, "ie": 19, "u": 20, "c": 21, "w": 22, "▁na": 23, "▁m": 24, "j": 25, "k": 26, "▁k": 27, "ów": 28, "▁o": 29, "▁n": 30, "▁do": 31, "em": 32, "ał": 33, "cz": 34, "ła": 35, "▁p": 36, "ze": 37, "nie": 38, "▁": 39, "a": 40, "▁d": 41, "▁to": 42, "▁t": 43, "▁r": 44, "▁że": 45, "!": 46, "ło": 47, "zi": 48, "ch": 49, "▁W": 50, "ow": 51, "▁c": 52, "ym": 53, "▁prz": 54, "li": 55, "▁u": 56, "ad": 57, "▁od": 58, "r": 59, "d": 60, "ach": 61, "▁g": 62, "▁a": 63, "▁po": 64, "▁b": 65, "za": 66, "▁ch": 67, "▁by": 68, "m": 69, "…": 70, "o": 71, "iem": 72, "?": 73, "▁s": 74, "ki": 75, "▁jak": 76, "ied": 77, "▁j": 78, "od": 79, "aw": 80, "b": 81, "ka": 82, "ce": 83, "ia": 84, "ci": 85, "ó": 86, "ści": 87, "▁wy": 88, "▁za": 89, "ń": 90, "ię": 91, "cie": 92, "ły": 93, "az": 94, "ko": 95, "▁przy": 96, "zą": 97, "▁sz": 98, ":": 99, "ego": 100, "▁pod": 101, "▁cz": 102, "ami": 103, "ść": 104, "ży": 105, "iel": 106, "ac": 107, "ier": 108, "sz": 109, "▁Z": 110, "ni": 111, "▁-": 112, "▁tak": 113, "dy": 114, "▁roz": 115, "na": 116, "n": 117, "ys": 118, "iej": 119, "ar": 120, "aj": 121, "ne": 122, "▁pan": 123, "▁ob": 124, "▁mi": 125, "ien": 126, "zie": 127, "▁jest": 128, "yn": 129, "by": 130, "że": 131, "czy": 132, "▁ś": 133, "ich": 134, "▁co": 135, "▁pow": 136, "wa": 137, "im": 138, "ych": 139, "iał": 140, "p": 141, "t": 142, "▁mo": 143, "ź": 144, "▁K": 145, "▁sp": 146, "je": 147, "▁st": 148, "yst": 149, "dzie": 150, "wo": 151, "g": 152, "ry": 153, "ok": 154, "ud": 155, "cy": 156, "ny": 157, "▁jed": 158, "le": 159, "os": 160, "▁ale": 161, "am": 162, "▁tr": 163, "ak": 164, "at": 165, "l": 166, "▁te": 167, "ob": 168, "ec": 169, "zek": 170, "st": 171, "s": 172, "ali": 173, "▁ż": 174, "▁l": 175, "▁sk": 176, "▁gł": 177, "▁A": 178, "or": 179, "iew": 180, "dz": 181, "▁go": 182, "bie": 183, "ku": 184, "ic": 185, ";": 186, "ro": 187, "oc": 188, "om": 189, "eb": 190, "wi": 191, "raw": 192, "▁który": 193, "an": 194, "go": 195, "si": 196, "▁ci": 197, "▁ju": 198, "owa": 199, "on": 200, "▁kr": 201, "▁–": 202, "nych": 203, "ies": 204, "yl": 205, "▁bo": 206, "us": 207, "no": 208, "as": 209, "anie": 210, "▁Nie": 211, "▁mu": 212, "ją": 213, "ęd": 214, "esz": 215, "owie": 216, "ta": 217, "▁P": 218, "ają": 219, "ią": 220, "▁O": 221, "ną": 222, "ty": 223, "yp": 224, "▁le": 225, "ek": 226, "ale": 227, "cia": 228, "ot": 229, "▁tym": 230, "▁któ": 231, "ra": 232, "wie": 233, "ca": 234, "▁zn": 235, "wn": 236, "▁dz": 237, "ania": 238, "ili": 239, "▁str": 240, "▁on": 241, "nej": 242, "ol": 243, "is": 244, "um": 245, "▁ok": 246, "rz": 247, "▁D": 248, "oj": 249, "▁M": 250, "1": 251, "e": 252, "ował": 253, "▁był": 254, "▁R": 255, "ik": 256, "ana": 257, "▁jego": 258, "nego": 259, "iesz": 260, "▁je": 261, "▁przez": 262, "ała": 263, "to": 264, "▁I": 265, "▁przed": 266, "iego": 267, "ab": 268, "al": 269, "▁C": 270, "▁jej": 271, "uch": 272, "▁naj": 273, "▁sam": 274, "zn": 275, "ział": 276, "my": 277, "▁pot": 278, "en": 279, "▁Pr": 280, "zec": 281, "▁zd": 282, "▁nad": 283, "ada": 284, "ony": 285, "▁poc": 286, "et": 287, "▁nas": 288, "owi": 289, "▁ze": 290, "ost": 291, "da": 292, "ysz": 293, "acz": 294, "▁B": 295, "sk": 296, "zej": 297, "▁T": 298, "▁S": 299, "usz": 300, "ój": 301, "▁wid": 302, "▁kon": 303, "ja": 304, "▁dla": 305, "0": 306, "nym": 307, "▁my": 308, "ić": 309, "row": 310, "▁N": 311, "▁pos": 312, "▁ich": 313, "ast": 314, "ew": 315, "▁J": 316, "▁br": 317, "▁ja": 318, "▁G": 319, "in": 320, "op": 321, "▁wie": 322, "▁op": 323, "▁zap": 324, "ard": 325, "▁świ": 326, "ję": 327, "ając": 328, "ma": 329, "ód": 330, "ion": 331, "▁pr": 332, "wy": 333, "▁\"": 334, "ół": 335, "▁które": 336, "▁woj": 337, "ało": 338, "▁zw": 339, "el": 340, "og": 341, "▁raz": 342, "nia": 343, "▁in": 344, "ład": 345, "▁„": 346, "ór": 347, "▁so": 348, "asz": 349, "▁tam": 350, "any": 351, "óg": 352, "▁ni": 353, "▁czas": 354, "yt": 355, "oz": 356, "ji": 357, "up": 358, "▁są": 359, "icz": 360, "zym": 361, "ęż": 362, "zt": 363, "▁ro": 364, "zk": 365, "▁Ch": 366, "▁Ale": 367, "niej": 368, "▁ma": 369, "▁dw": 370, "zw": 371, "ody": 372, "ują": 373, "nik": 374, "zo": 375, "▁ko": 376, "js": 377, "eg": 378, "ian": 379, "▁L": 380, "ski": 381, "▁pi": 382, "ut": 383, "la": 384, "est": 385, "łu": 386, "ane": 387, "▁(": 388, "▁bez": 389, "▁tw": 390, "▁tu": 391, "▁os": 392, "es": 393, "zu": 394, "2": 395, "owy": 396, "▁Na": 397, "zed": 398, "-": 399, "aki": 400, "ności": 401, "iu": 402, "▁mog": 403, "br": 404, "▁pe": 405, "ług": 406, "res": 407, "▁To": 408, "gn": 409, "ag": 410, "▁ten": 411, "isk": 412, "ul": 413, "▁swo": 414, "uc": 415, "▁pom": 416, "ii": 417, "bi": 418, "uje": 419, "pow": 420, "▁pok": 421, "de": 422, "un": 423, "il": 424, "ks": 425, "ńsk": 426, "nak": 427, "▁pro": 428, "ary": 429, "czas": 430, "ep": 431, "kie": 432, "zen": 433, "iz": 434, "ck": 435, "te": 436, "▁og": 437, "mi": 438, "▁Sz": 439, "gi": 440, "▁dro": 441, "bo": 442, "▁jako": 443, "▁dom": 444, "▁was": 445, "ńst": 446, "▁im": 447, "▁pol": 448, "zenia": 449, "▁dr": 450, "ws": 451, "chod": 452, "▁por": 453, "▁we": 454, "▁prze": 455, "ól": 456, "▁zam": 457, "▁kom": 458, "▁ter": 459, "▁al": 460, "▁sw": 461, "▁lub": 462, "▁mus": 463, "iet": 464, "ona": 465, "▁kil": 466, "▁zm": 467, "łą": 468, "arn": 469, "▁wr": 470, "9": 471, "ienia": 472, "pr": 473, "ur": 474, "iw": 475, "isz": 476, "▁nap": 477, "▁spraw": 478, "tr": 479, "▁us": 480, "ano": 481, "dr": 482, "och": 483, "ij": 484, "▁Po": 485, "oby": 486, "ba": 487, "own": 488, "f": 489, "ków": 490, "ió": 491, "▁pop": 492, "ycz": 493, "▁ry": 494, "icy": 495, "ig": 496, "acji": 497, "▁ka": 498, "arz": 499, "zenie": 500, "ław": 501, "ęp": 502, "▁si": 503, "kn": 504, "uj": 505, "▁now": 506, "owej": 507, "▁an": 508, "ub": 509, "owe": 510, "▁Ż": 511, "we": 512, "aws": 513, "▁ab": 514, "re": 515, "▁Pan": 516, "▁um": 517, "3": 518, "ask": 519, "uk": 520, "▁ot": 521, "skiego": 522, "▁post": 523, "5": 524, "ska": 525, "one": 526, "▁ty": 527, "▁ser": 528, "ga": 529, "▁maj": 530, "▁no": 531, "▁zak": 532, "oni": 533, "ata": 534, "staw": 535, "ina": 536, "kow": 537, "▁zaw": 538, "ej": 539, "▁U": 540, "imi": 541, "▁up": 542, "▁gr": 543, "▁Kr": 544, "zes": 545, "▁Pol": 546, "pi": 547, "▁sie": 548, "▁Co": 549, "owych": 550, "▁St": 551, "▁Jak": 552, "▁Tak": 553, "ory": 554, "▁nic": 555, "▁poz": 556, "▁stan": 557, "sc": 558, "ru": 559, "ap": 560, "rod": 561, "wię": 562, "▁bl": 563, "▁cho": 564, "pe": 565, "ios": 566, "▁wyd": 567, "▁uk": 568, "ierz": 569, "\"": 570, "ocz": 571, "du": 572, "ani": 573, "gl": 574, "ców": 575, "ró": 576, "aka": 577, "▁Bo": 578, "zem": 579, "▁dop": 580, "▁wa": 581, "acy": 582, "▁By": 583, "id": 584, "kt": 585, "▁nast": 586, "eli": 587, "rom": 588, "lic": 589, "oba": 590, "cu": 591, "pie": 592, "▁Je": 593, "▁wsp": 594, "aje": 595, "▁Zag": 596, "4": 597, "▁Cz": 598, "▁nam": 599, "unk": 600, "atr": 601, "▁god": 602, "aniu": 603, "▁Sk": 604, "now": 605, "it": 606, "▁mie": 607, "owski": 608, "▁odd": 609, "▁pat": 610, "ieg": 611, "ron": 612, "kim": 613, "..": 614, "yd": 615, "ób": 616, "ity": 617, "...": 618, "▁rad": 619, "wr": 620, "▁pierws": 621, "zer": 622, "nic": 623, " ": 624, "amy": 625, "▁lat": 626, "aty": 627, "aci": 628, "er": 629, "▁dok": 630, "▁czę": 631, "▁kap": 632, "ówn": 633, "oli": 634, "▁dot": 635, "mu": 636, "8": 637, "▁kl": 638, "ust": 639, "▁drug": 640, "edy": 641, "cer": 642, "str": 643, "▁także": 644, "▁wp": 645, ")": 646, "6": 647, "reg": 648, "ist": 649, "nier": 650, "zel": 651, "emu": 652, "owo": 653, "▁E": 654, "raz": 655, "▁Mo": 656, "▁da": 657, "”": 658, "▁miejsc": 659, "ady": 660, "omo": 661, "art": 662, "ury": 663, "▁ta": 664, "awa": 665, "▁Wo": 666, "tó": 667, "chn": 668, "mic": 669, "ed": 670, "yr": 671, "yle": 672, "ite": 673, "skiej": 674, "stat": 675, "▁pa": 676, "zerw": 677, "▁f": 678, "▁Pod": 679, "ara": 680, "7": 681, "▁mil": 682, "▁nar": 683, "ównie": 684, "ark": 685, "▁of": 686, "▁star": 687, "▁został": 688, "▁pon": 689, "▁pie": 690, "awi": 691, "▁Od": 692, "▁dru": 693, "▁Ja": 694, "iny": 695, "▁wyst": 696, "▁roku": 697, "▁prac": 698, "▁re": 699, "▁rodz": 700, "▁ut": 701, "enc": 702, "par": 703, "ako": 704, "▁wyn": 705, "▁Ś": 706, "yna": 707, "owego": 708, "ześ": 709, "osi": 710, "▁cor": 711, "ocy": 712, "▁par": 713, "▁mas": 714, "Z": 715, "omy": 716, "▁pob": 717, "▁pier": 718, "▁spr": 719, "▁nat": 720, "▁oraz": 721, "▁bud": 722, "▁Bog": 723, "▁Za": 724, "leg": 725, "\".": 726, "owany": 727, "ile": 728, "▁zaj": 729, "raj": 730, "▁tem": 731, "cha": 732, "kr": 733, "ama": 734, "iek": 735, "▁ur": 736, "▁naz": 737, "owym": 738, "ior": 739, "▁Sp": 740, "▁h": 741, "▁Do": 742, "ysk": 743, "▁bog": 744, "skich": 745, "▁On": 746, "iers": 747, "ono": 748, "ib": 749, "▁uw": 750, "iero": 751, "▁gro": 752, "▁wo": 753, "gu": 754, "▁kole": 755, "▁kol": 756, "war": 757, "▁spot": 758, "bro": 759, "wor": 760, "eno": 761, "zech": 762, "wed": 763, "yg": 764, "ika": 765, "▁Ł": 766, "▁dow": 767, "▁H": 768, "ent": 769, "ose": 770, "ński": 771, "pu": 772, "▁tro": 773, "▁pre": 774, "▁du": 775, "emy": 776, "▁bar": 777, "▁dos": 778, "god": 779, "▁sm": 780, "oda": 781, "▁Wy": 782, "▁id": 783, "▁two": 784, "zd": 785, "iera": 786, "ars": 787, "▁sob": 788, "▁pal": 789, "ione": 790, "▁pu": 791, "late": 792, "co": 793, "gr": 794, "ju": 795, "ole": 796, "▁prow": 797, "▁syn": 798, "anna": 799, "ors": 800, "▁pró": 801, "era": 802, "”.": 803, "oko": 804, "▁Jed": 805, "▁spy": 806, "ąz": 807, "zm": 808, "▁ar": 809, "ros": 810, "zone": 811, "yk": 812, "▁lic": 813, "der": 814, "▁ist": 815, "osp": 816, "pl": 817, "▁dod": 818, "zet": 819, "K": 820, "ank": 821, "man": 822, "▁su": 823, "skim": 824, "▁sch": 825, "nal": 826, "pt": 827, "pan": 828, "▁dawn": 829, "▁rus": 830, "onie": 831, "▁same": 832, "▁/": 833, "▁py": 834, "onym": 835, "io": 836, "ade": 837, "ikt": 838, "tar": 839, "▁nog": 840, "kc": 841, "ice": 842, "iska": 843, "mo": 844, "po": 845, "zin": 846, "ter": 847, "osz": 848, "ans": 849, "are": 850, "▁got": 851, "rot": 852, "▁Ma": 853, "este": 854, "agle": 855, "au": 856, "pol": 857, "ann": 858, "tem": 859, "▁Pow": 860, "ót": 861, "oga": 862, "▁list": 863, "iona": 864, ").": 865, "ant": 866, "▁bow": 867, "pos": 868, "iami": 869, "warz": 870, "apy": 871, "▁Ju": 872, "aby": 873, "▁ram": 874, "als": 875, "asy": 876, "jed": 877, "▁Tu": 878, "ora": 879, "and": 880, "asta": 881, "acja": 882, "bra": 883, "ida": 884, "A": 885, "▁swe": 886, "adow": 887, "h": 888, "akt": 889, "ps": 890, "W": 891, "ieck": 892, "▁e": 893, "▁Tr": 894, "chem": 895, "▁Jan": 896, "ado": 897, "ator": 898, "ogo": 899, "▁mat": 900, "▁pole": 901, "azy": 902, "▁Mich": 903, "tk": 904, "noc": 905, "▁kam": 906, "▁dy": 907, "rem": 908, "iat": 909, "▁nau": 910, "▁kor": 911, "▁rac": 912, "▁zu": 913, "ius": 914, "orem": 915, "ostał": 916, "▁No": 917, "ota": 918, "▁Iz": 919, "▁Win": 920, "▁se": 921, "con": 922, "abel": 923, "▁het": 924, "sto": 925, "bow": 926, "▁sto": 927, "imo": 928, "arg": 929, "▁bi": 930, "ini": 931, "ack": 932, "ln": 933, "oi": 934, "▁polic": 935, "▁prost": 936, "oro": 937, "ces": 938, "▁ak": 939, "▁Ob": 940, "ica": 941, "arc": 942, "▁war": 943, "▁pas": 944, "ers": 945, "cen": 946, "ef": 947, "▁Naj": 948, "ip": 949, "zb": 950, "jal": 951, "rok": 952, "▁kw": 953, "▁inn": 954, "▁Pro": 955, "▁or": 956, "acht": 957, "▁och": 958, "),": 959, "sta": 960, "▁An": 961, "iele": 962, "kl": 963, "!”": 964, "osta": 965, "tek": 966, "ial": 967, "got": 968, "roz": 969, "iar": 970, "▁de": 971, "▁gran": 972, "▁me": 973, "▁Ter": 974, "▁Wars": 975, "omi": 976, "▁Rad": 977, "▁uz": 978, "pad": 979, "▁F": 980, "nika": 981, "af": 982, "▁kont": 983, "ir": 984, "▁Pot": 985, "lem": 986, "ety": 987, "▁My": 988, "let": 989, "of": 990, "acyj": 991, "ape": 992, "S": 993, "iki": 994, "▁Ty": 995, "▁nag": 996, "▁far": 997, "▁sal": 998, "uz": 999, "ery": 1000, "db": 1001, "anc": 1002, "óz": 1003, "▁pra": 1004, "▁un": 1005, "▁kar": 1006, "dem": 1007, "aca": 1008, "▁?": 1009, "ita": 1010, "▁có": 1011, "raf": 1012, "▁mod": 1013, "▁spo": 1014, "agn": 1015, "kar": 1016, "N": 1017, "ala": 1018, "oki": 1019, "oci": 1020, "▁min": 1021, "rop": 1022, "ez": 1023, "asi": 1024, "red": 1025, "kom": 1026, "\",": 1027, "kon": 1028, "O": 1029, "pro": 1030, "py": 1031, "▁inter": 1032, "▁wal": 1033, "ate": 1034, "usk": 1035, "▁iz": 1036, "▁Andr": 1037, "▁Mi": 1038, "bez": 1039, "atem": 1040, "pon": 1041, "▁pl": 1042, "▁Dob": 1043, "oma": 1044, "▁Ram": 1045, "▁Now": 1046, "rad": 1047, "nick": 1048, "▁ost": 1049, "ras": 1050, "kle": 1051, "kol": 1052, "▁bit": 1053, "▁ul": 1054, "▁Jur": 1055, "nam": 1056, "P": 1057, "▁Sam": 1058, "▁las": 1059, "▁ub": 1060, "▁ce": 1061, "ick": 1062, "ache": 1063, "▁Kom": 1064, "▁gru": 1065, "olen": 1066, "ern": 1067, "pod": 1068, "gle": 1069, "▁szer": 1070, "▁cel": 1071, "lin": 1072, "uw": 1073, "orn": 1074, "▁sil": 1075, "do": 1076, "ict": 1077, "sch": 1078, "▁win": 1079, "atar": 1080, "ech": 1081, "▁rat": 1082, "olog": 1083, "bud": 1084, "▁Sta": 1085, "sa": 1086, "▁Dan": 1087, "rus": 1088, "arm": 1089, "▁chr": 1090, "▁miejsce": 1091, "not": 1092, "rew": 1093, "aga": 1094, "icer": 1095, "bor": 1096, "aku": 1097, "▁pode": 1098, "arto": 1099, "sy": 1100, "▁pap": 1101, "▁Bas": 1102, "▁bur": 1103, "▁nos": 1104, "unt": 1105, "▁ol": 1106, "atu": 1107, "jon": 1108, "ura": 1109, "J": 1110, "anny": 1111, "▁one": 1112, "gin": 1113, "ran": 1114, "▁pil": 1115, "rog": 1116, "▁ud": 1117, "wal": 1118, "▁obj": 1119, "▁Kon": 1120, "nio": 1121, "ain": 1122, "ah": 1123, "▁stare": 1124, "iot": 1125, "ock": 1126, "▁In": 1127, "▁Boh": 1128, "ila": 1129, "west": 1130, "iety": 1131, "ode": 1132, "oh": 1133, "jem": 1134, "net": 1135, "▁dl": 1136, "▁y": 1137, "ult": 1138, "▁Mus": 1139, "jan": 1140, "▁stra": 1141, "▁Pet": 1142, "inn": 1143, "mar": 1144, "▁pad": 1145, "aza": 1146, "▁tele": 1147, "kw": 1148, "▁Poz": 1149, "▁Al": 1150, "ord": 1151, "ias": 1152, "oku": 1153, "▁kn": 1154, "▁bro": 1155, "▁pt": 1156, "▁Lud": 1157, "▁Tam": 1158, "M": 1159, "▁res": 1160, "end": 1161, "usa": 1162, "pis": 1163, "▁inform": 1164, "▁sen": 1165, "sp": 1166, "iano": 1167, "rawn": 1168, "ament": 1169, "fer": 1170, "▁Jag": 1171, "asto": 1172, "iaz": 1173, "ium": 1174, "▁robot": 1175, "▁mar": 1176, "ure": 1177, "opy": 1178, "rob": 1179, "▁stop": 1180, "▁rob": 1181, "lu": 1182, "sko": 1183, "ede": 1184, "▁Stan": 1185, "ren": 1186, "ore": 1187, "iod": 1188, "▁sn": 1189, "rac": 1190, "▁eg": 1191, "tery": 1192, "ola": 1193, "ari": 1194, "estr": 1195, "▁kur": 1196, "pa": 1197, "▁organiz": 1198, "I": 1199, "agi": 1200, "wart": 1201, "▁wed": 1202, "▁Ten": 1203, "▁Nel": 1204, "olic": 1205, "▁bra": 1206, "iam": 1207, "▁spe": 1208, "▁mor": 1209, "por": 1210, "cio": 1211, "▁at": 1212, "▁Pa": 1213, "▁Pom": 1214, "tu": 1215, "▁public": 1216, "▁met": 1217, "▁Kaz": 1218, "ual": 1219, "tn": 1220, "pat": 1221, "eni": 1222, "bu": 1223, "bre": 1224, "▁Ko": 1225, "G": 1226, "▁Br": 1227, "ds": 1228, "nem": 1229, "C": 1230, "D": 1231, "ows": 1232, "ret": 1233, "tor": 1234, "mat": 1235, "▁Pat": 1236, "▁bu": 1237, "oka": 1238, "▁bos": 1239, "eso": 1240, "▁mur": 1241, "zon": 1242, "▁ek": 1243, "▁Was": 1244, "nek": 1245, "cent": 1246, "”,": 1247, "▁Te": 1248, "▁ele": 1249, "gan": 1250, "▁Ka": 1251, "istrz": 1252, "isa": 1253, "ital": 1254, "▁spec": 1255, "▁Nic": 1256, "▁tut": 1257, "lik": 1258, "istr": 1259, "ha": 1260, "▁walk": 1261, "aju": 1262, "▁Id": 1263, "▁ha": 1264, "▁art": 1265, "▁rub": 1266, "▁Kor": 1267, "buch": 1268, "B": 1269, "R": 1270, "jd": 1271, "▁program": 1272, "▁los": 1273, "▁Nag": 1274, "len": 1275, "gor": 1276, "win": 1277, "▁Her": 1278, "iana": 1279, "▁Jes": 1280, "▁fun": 1281, "▁Str": 1282, "▁be": 1283, "Y": 1284, "▁We": 1285, "wid": 1286, "▁dec": 1287, "che": 1288, "se": 1289, "ace": 1290, "yc": 1291, "▁ple": 1292, "ktor": 1293, "▁prom": 1294, "adem": 1295, "asty": 1296, "wan": 1297, "aden": 1298, "▁Ach": 1299, "dro": 1300, "dn": 1301, "esa": 1302, "ork": 1303, "▁mal": 1304, "ere": 1305, "FE": 1306, "T": 1307, "▁cy": 1308, "FI": 1309, "▁aut": 1310, "uf": 1311, "▁ad": 1312, "cin": 1313, "▁Nad": 1314, "▁dam": 1315, "▁Tut": 1316, "kan": 1317, "ija": 1318, "ote": 1319, "api": 1320, "▁Dop": 1321, "jekt": 1322, "▁ME": 1323, "LES": 1324, "STO": 1325, "cal": 1326, "▁gra": 1327, "ink": 1328, "▁Az": 1329, "ena": 1330, "Ł": 1331, "▁proces": 1332, "▁Jer": 1333, "▁Lub": 1334, "ling": 1335, "▁Pier": 1336, "ació": 1337, "▁sum": 1338, "▁mars": 1339, "sn": 1340, "▁Se": 1341, "▁gard": 1342, "act": 1343, "▁Pos": 1344, "▁Mar": 1345, "iku": 1346, "▁fil": 1347, "▁Ci": 1348, "iste": 1349, "▁des": 1350, "nu": 1351, "▁stars": 1352, "nim": 1353, "ug": 1354, "urs": 1355, "ino": 1356, "ser": 1357, "▁Kar": 1358, "tom": 1359, "▁dar": 1360, "▁inst": 1361, "▁Lit": 1362, "arb": 1363, "▁Mam": 1364, ".”": 1365, "ont": 1366, "ral": 1367, "▁Wa": 1368, "▁led": 1369, "ument": 1370, "▁owe": 1371, "isy": 1372, "▁rum": 1373, "eden": 1374, "▁Pi": 1375, "▁Ze": 1376, "▁Pe": 1377, "iane": 1378, "enn": 1379, "▁fin": 1380, "▁form": 1381, "▁li": 1382, "ste": 1383, "ienne": 1384, "▁Tom": 1385, "▁He": 1386, "kor": 1387, "uki": 1388, "rost": 1389, "moz": 1390, ".,": 1391, "ener": 1392, "ito": 1393, "ero": 1394, "▁Nik": 1395, "alu": 1396, "▁Fen": 1397, "els": 1398, "unkt": 1399, "abi": 1400, "▁proc": 1401, "▁fir": 1402, "▁Ot": 1403, "lad": 1404, "nos": 1405, "sty": 1406, "▁ton": 1407, "▁tob": 1408, "▁Ak": 1409, "▁produ": 1410, "dan": 1411, "span": 1412, "aled": 1413, "afi": 1414, "▁gmin": 1415, "▁bank": 1416, "form": 1417, "▁hand": 1418, "amp": 1419, "iert": 1420, "'": 1421, "ela": 1422, "led": 1423, "nis": 1424, "▁plan": 1425, "▁stud": 1426, "▁kat": 1427, "lib": 1428, "nost": 1429, "▁don": 1430, "rat": 1431, "ule": 1432, "▁sy": 1433, "▁Ros": 1434, "▁Un": 1435, "▁system": 1436, "pc": 1437, "arch": 1438, "▁Or": 1439, "▁FA": 1440, "▁ps": 1441, "▁Bab": 1442, "▁Pop": 1443, "▁kan": 1444, "rc": 1445, "UST": 1446, "▁Ba": 1447, "▁top": 1448, "be": 1449, "▁he": 1450, "try": 1451, "▁Si": 1452, "ista": 1453, "uda": 1454, "una": 1455, "cow": 1456, "umn": 1457, "uli": 1458, "U": 1459, "enta": 1460, "amo": 1461, "▁ap": 1462, "Ó": 1463, "ome": 1464, "lam": 1465, "ens": 1466, "ame": 1467, "rap": 1468, "▁dol": 1469, "▁Gr": 1470, "lit": 1471, "sem": 1472, "▁try": 1473, "egu": 1474, "▁but": 1475, "com": 1476, "▁la": 1477, "▁il": 1478, "▁char": 1479, "anim": 1480, "old": 1481, "▁Nap": 1482, "ort": 1483, "akter": 1484, "▁bij": 1485, "zial": 1486, "uty": 1487, "▁hr": 1488, "▁latach": 1489, "▁part": 1490, "▁sta": 1491, "astr": 1492, "dk": 1493, "▁Cho": 1494, "▁Le": 1495, "tw": 1496, "ment": 1497, "ram": 1498, "▁reg": 1499, "anka": 1500, "omin": 1501, "bit": 1502, "▁Franc": 1503, "▁Mas": 1504, "osa": 1505, "bur": 1506, "su": 1507, "▁Just": 1508, "bl": 1509, "▁Wol": 1510, "▁Ry": 1511, "▁gaz": 1512, "▁Tw": 1513, "▁bom": 1514, "▁per": 1515, "▁akt": 1516, "awn": 1517, "ater": 1518, "state": 1519, "▁fot": 1520, "fa": 1521, "ekt": 1522, "▁Ign": 1523, "obi": 1524, "cers": 1525, "abl": 1526, "aler": 1527, "aja": 1528, "▁her": 1529, "▁am": 1530, "eto": 1531, "kap": 1532, "▁Wi": 1533, "▁bad": 1534, "▁lot": 1535, "kk": 1536, "▁minut": 1537, "▁obs": 1538, "▁minister": 1539, "▁Op": 1540, "▁Re": 1541, "ograf": 1542, "ine": 1543, "▁problem": 1544, "zas": 1545, "hor": 1546, "ereg": 1547, "▁et": 1548, "▁di": 1549, "▁diab": 1550, "▁Kl": 1551, "▁As": 1552, "min": 1553, "▁stat": 1554, "bot": 1555, "tpl": 1556, "rab": 1557, "▁histor": 1558, "▁em": 1559, "▁mater": 1560, "ign": 1561, "▁nom": 1562, "▁Pent": 1563, "ts": 1564, "ward": 1565, "▁pose": 1566, "▁Nar": 1567, "nat": 1568, "▁gar": 1569, "▁ba": 1570, "▁Dom": 1571, "▁doc": 1572, "ri": 1573, "?!": 1574, "ele": 1575, "▁Czech": 1576, "▁step": 1577, "chan": 1578, "▁Eg": 1579, "amt": 1580, "▁Pre": 1581, "▁Wil": 1582, "nica": 1583, "▁film": 1584, "amb": 1585, "▁Ag": 1586, "▁lip": 1587, "pre": 1588, "rys": 1589, "▁sty": 1590, "lim": 1591, "onal": 1592, "▁mac": 1593, "▁pac": 1594, "▁Europ": 1595, "▁plac": 1596, "▁termin": 1597, "▁Stars": 1598, "▁minist": 1599, "▁Bar": 1600, "enne": 1601, "ons": 1602, "▁west": 1603, "▁Zach": 1604, "▁ind": 1605, "▁as": 1606, "▁franc": 1607, "alk": 1608, "▁Kam": 1609, "▁Nat": 1610, "▁Bez": 1611, "▁rod": 1612, "▁for": 1613, "▁Tele": 1614, "ici": 1615, "cho": 1616, "adr": 1617, "▁Ta": 1618, "▁ran": 1619, "E": 1620, "▁med": 1621, "▁fig": 1622, "ille": 1623, "alen": 1624, "▁fort": 1625, "opol": 1626, "▁techn": 1627, "▁Ur": 1628, "eta": 1629, "▁mach": 1630, "fon": 1631, "▁Hel": 1632, "▁Kal": 1633, "apa": 1634, "uro": 1635, "uni": 1636, "▁Mal": 1637, "gie": 1638, "▁ord": 1639, "▁stro": 1640, "▁Wr": 1641, "▁Sen": 1642, "urn": 1643, "▁II": 1644, "aram": 1645, "/": 1646, "per": 1647, "▁*": 1648, "onom": 1649, "▁Mat": 1650, "azu": 1651, "▁kle": 1652, "▁klub": 1653, "ms": 1654, "▁obra": 1655, "▁Aleks": 1656, "▁V": 1657, "▁Ang": 1658, "▁np": 1659, "▁Gre": 1660, "▁Ok": 1661, "und": 1662, "ten": 1663, "idy": 1664, "▁Go": 1665, "kre": 1666, "aba": 1667, "▁wars": 1668, "▁jam": 1669, "▁wis": 1670, "▁Naz": 1671, "▁premier": 1672, "dar": 1673, "roc": 1674, "▁bab": 1675, "iko": 1676, "isto": 1677, "ula": 1678, "rum": 1679, "lat": 1680, "IE": 1681, "▁arm": 1682, "▁Wed": 1683, "uer": 1684, "aru": 1685, "!\"": 1686, "anda": 1687, "rol": 1688, "▁mg": 1689, "▁Hir": 1690, ".)": 1691, "▁Us": 1692, "▁nr": 1693, ".:": 1694, "▁firm": 1695, "▁dre": 1696, "▁Star": 1697, "ype": 1698, "ai": 1699, "▁park": 1700, "post": 1701, "▁dog": 1702, "▁typ": 1703, "▁Mur": 1704, "stal": 1705, "?”": 1706, "▁Rus": 1707, "ell": 1708, "▁tab": 1709, "ber": 1710, "▁Two": 1711, "▁stru": 1712, "okal": 1713, "▁dys": 1714, "des": 1715, "▁Ha": 1716, "kit": 1717, "won": 1718, "yy": 1719, "▁.": 1720, "ije": 1721, "▁sens": 1722, "▁amer": 1723, "▁Long": 1724, "wd": 1725, "▁om": 1726, "▁mon": 1727, "▁Mos": 1728, "amin": 1729, "▁mis": 1730, "▁del": 1731, "▁is": 1732, "odo": 1733, "put": 1734, "ilon": 1735, "fn": 1736, "▁km": 1737, "▁relig": 1738, "arna": 1739, "iment": 1740, "▁Mac": 1741, "▁tur": 1742, "abe": 1743, "adu": 1744, "▁dragon": 1745, "asa": 1746, "▁af": 1747, "▁fa": 1748, "atel": 1749, "▁Char": 1750, "▁Post": 1751, "▁realiz": 1752, "uh": 1753, "mus": 1754, "▁sub": 1755, "asia": 1756, "▁mart": 1757, "aska": 1758, "agr": 1759, "▁lin": 1760, "▁Ser": 1761, "▁honor": 1762, "arp": 1763, "▁Maz": 1764, "▁lut": 1765, "ós": 1766, "▁lod": 1767, "dp": 1768, "▁Os": 1769, "▁Mart": 1770, "ond": 1771, "▁oper": 1772, "▁ang": 1773, "rec": 1774, "▁Minister": 1775, "▁ces": 1776, "bn": 1777, "▁leg": 1778, "fl": 1779, "▁fund": 1780, "inus": 1781, "razy": 1782, "ute": 1783, "▁liter": 1784, "▁mig": 1785, "▁Por": 1786, "▁chat": 1787, "gra": 1788, "▁Miller": 1789, "set": 1790, "zent": 1791, "bar": 1792, "▁Kil": 1793, "▁red": 1794, "▁Ost": 1795, "▁Lip": 1796, "arius": 1797, "▁Zw": 1798, "▁Pok": 1799, "las": 1800, "ync": 1801, "etr": 1802, "▁sad": 1803, "▁talent": 1804, "▁grud": 1805, "lang": 1806, "ban": 1807, "arta": 1808, "eny": 1809, "lar": 1810, "▁Urs": 1811, "cept": 1812, "▁Kap": 1813, "▁stole": 1814, "▁cod": 1815, "▁mot": 1816, "▁Ad": 1817, "▁Sak": 1818, "agon": 1819, "▁Jam": 1820, "▁Gro": 1821, "▁rel": 1822, "pot": 1823, "▁bru": 1824, "▁tek": 1825, "▁port": 1826, "▁El": 1827, "LD": 1828, "▁Dr": 1829, "▁Og": 1830, "▁numer": 1831, "▁cent": 1832, "▁soc": 1833, "▁set": 1834, "▁amb": 1835, "▁scen": 1836, "uman": 1837, "mer": 1838, "▁twe": 1839, "men": 1840, "▁Mars": 1841, "▁Europe": 1842, "endant": 1843, "▁Bos": 1844, "▁rap": 1845, "▁fant": 1846, "acia": 1847, "bia": 1848, "▁Rob": 1849, "iom": 1850, "▁profes": 1851, "▁Min": 1852, "▁bal": 1853, "ler": 1854, "OR": 1855, "L": 1856, "▁aw": 1857, "ima": 1858, "▁Ant": 1859, "mem": 1860, "arte": 1861, "▁man": 1862, "▁it": 1863, "▁les": 1864, "pn": 1865, "low": 1866, "▁ho": 1867, "▁ru": 1868, "▁Bi": 1869, "▁Sm": 1870, "▁ag": 1871, "▁Tur": 1872, "uta": 1873, "esk": 1874, "jk": 1875, "▁protest": 1876, "ase": 1877, "▁such": 1878, "▁Syn": 1879, "▁trad": 1880, "▁Mem": 1881, "abor": 1882, "▁fr": 1883, "▁Tru": 1884, "pal": 1885, "ert": 1886, "▁Mah": 1887, "▁Tro": 1888, "▁tal": 1889, "iga": 1890, "▁Ni": 1891, "inet": 1892, "▁Up": 1893, "emi": 1894, "▁bor": 1895, "rup": 1896, "nice": 1897, "▁past": 1898, "▁Ukrain": 1899, "aste": 1900, "▁gal": 1901, "inc": 1902, "bs": 1903, "▁tar": 1904, "uba": 1905, "lo": 1906, "▁Amer": 1907, "▁Kur": 1908, "use": 1909, "bara": 1910, "ancer": 1911, "ades": 1912, "▁fur": 1913, "AR": 1914, "esp": 1915, "▁Da": 1916, "▁energ": 1917, "▁Mil": 1918, "ple": 1919, "Pr": 1920, "rud": 1921, "▁Lib": 1922, "▁sym": 1923, "▁sport": 1924, "cl": 1925, "▁Pl": 1926, "▁bas": 1927, "okat": 1928, "inal": 1929, "▁most": 1930, "atur": 1931, "▁won": 1932, "▁natural": 1933, "aro": 1934, "tan": 1935, "▁element": 1936, "organ": 1937, "ulus": 1938, "Ch": 1939, "▁Ar": 1940, "▁Kir": 1941, "psz": 1942, "town": 1943, "water": 1944, "mot": 1945, "dom": 1946, "▁Mark": 1947, "bach": 1948, "▁tor": 1949, "tok": 1950, "eln": 1951, "▁Bl": 1952, "▁fab": 1953, "rw": 1954, "▁niet": 1955, "▁dem": 1956, "▁Bur": 1957, "▁Gor": 1958, "▁pou": 1959, "ema": 1960, "▁administr": 1961, "aks": 1962, "azi": 1963, "▁spl": 1964, "onia": 1965, "▁normal": 1966, "▁Af": 1967, "▁opin": 1968, "rodu": 1969, "icher": 1970, "▁Helen": 1971, "▁Jar": 1972, "▁fal": 1973, "▁gab": 1974, "lan": 1975, "▁Tat": 1976, "▁Led": 1977, "▁Ist": 1978, "dam": 1979, "▁Nas": 1980, "gas": 1981, "iest": 1982, "igi": 1983, "ner": 1984, "den": 1985, "auf": 1986, "Ż": 1987, "▁prof": 1988, "▁Pu": 1989, "▁reprezent": 1990, "▁bod": 1991, "▁Adam": 1992, "▁Sor": 1993, "▁,": 1994, "okrat": 1995, "▁La": 1996, "ref": 1997, "▁proble": 1998, "▁fol": 1999, "rek": 2000, "ilo": 2001, "US": 2002, "itu": 2003, "ton": 2004, "▁europe": 2005, "wc": 2006, "ect": 2007, "▁psych": 2008, "olu": 2009, "▁Dru": 2010, "borg": 2011, "▁cele": 2012, "▁humor": 2013, "enci": 2014, "atura": 2015, "▁Lor": 2016, "▁Bor": 2017, "oles": 2018, "apt": 2019, "itar": 2020, "▁Rot": 2021, "EL": 2022, "iche": 2023, "so": 2024, "ato": 2025, "ient": 2026, "▁listop": 2027, "ander": 2028, "▁arch": 2029, "oto": 2030, "▁gas": 2031, "▁autor": 2032, "onic": 2033, "igr": 2034, "▁neg": 2035, "olar": 2036, "▁Kos": 2037, "tra": 2038, "▁history": 2039, "ente": 2040, "▁drap": 2041, "itan": 2042, "omb": 2043, "▁Fl": 2044, "▁Sy": 2045, "▁USA": 2046, "▁fl": 2047, "ismo": 2048, "aman": 2049, "alone": 2050, "AN": 2051, "gar": 2052, "stan": 2053, "F": 2054, "▁organ": 2055, "▁com": 2056, "▁nu": 2057, "▁Dy": 2058, "▁psy": 2059, "ER": 2060, "▁Mary": 2061, "▁Les": 2062, "▁Im": 2063, "–": 2064, "▁ep": 2065, "▁chron": 2066, "agra": 2067, "hm": 2068, "ega": 2069, "▁row": 2070, "▁CH": 2071, "▁Wal": 2072, "▁Dale": 2073, "▁desper": 2074, "▁Pal": 2075, "▁har": 2076, "▁gl": 2077, "▁ide": 2078, "jes": 2079, "▁parl": 2080, "cip": 2081, "ls": 2082, "ynam": 2083, "▁Mu": 2084, "urm": 2085, "polit": 2086, "▁tre": 2087, "▁Tow": 2088, "▁mom": 2089, "▁Mr": 2090, "les": 2091, "nes": 2092, "atus": 2093, "urt": 2094, "▁ner": 2095, "hen": 2096, "▁Ge": 2097, "▁not": 2098, "▁pers": 2099, "▁gre": 2100, "brew": 2101, "▁Bud": 2102, "gow": 2103, "iale": 2104, "was": 2105, "▁lit": 2106, "▁emer": 2107, "▁Geb": 2108, "apan": 2109, "kal": 2110, "▁stad": 2111, "umi": 2112, "▁Men": 2113, "▁Med": 2114, "▁Bry": 2115, "ider": 2116, "H": 2117, "eder": 2118, "ng": 2119, "anta": 2120, "▁ses": 2121, "▁Kat": 2122, "chron": 2123, "▁ed": 2124, "▁student": 2125, "usta": 2126, "▁Maria": 2127, "▁Sto": 2128, "ular": 2129, "plom": 2130, "*": 2131, "agan": 2132, "▁ki": 2133, "deck": 2134, "Ś": 2135, "jen": 2136, "▁rem": 2137, "able": 2138, "land": 2139, "AT": 2140, "ogn": 2141, "▁int": 2142, "bat": 2143, "▁has": 2144, "▁Dow": 2145, "EN": 2146, "dd": 2147, "▁Of": 2148, "▁test": 2149, "Ź": 2150, "▁gest": 2151, "urg": 2152, "▁Bened": 2153, "ES": 2154, "sun": 2155, "▁Sch": 2156, "▁sem": 2157, "▁Fa": 2158, "▁moment": 2159, "mon": 2160, "▁skin": 2161, "▁XX": 2162, "stru": 2163, "▁Wis": 2164, "▁ne": 2165, "▁pist": 2166, "▁gener": 2167, "izer": 2168, "born": 2169, "md": 2170, "cc": 2171, "▁fe": 2172, "aft": 2173, "▁ins": 2174, "int": 2175, "▁Rod": 2176, "uma": 2177, "▁Dem": 2178, "tern": 2179, "AD": 2180, "wij": 2181, "<0x98>": 2182, "<0xC4>": 2183, "ores": 2184, "%": 2185, "▁dan": 2186, "port": 2187, "▁Lin": 2188, "adas": 2189, "itet": 2190, "▁gen": 2191, "cies": 2192, "acer": 2193, "▁Dor": 2194, "▁sat": 2195, "berg": 2196, "▁atmos": 2197, "vel": 2198, "▁jar": 2199, "▁Gust": 2200, "amil": 2201, "erc": 2202, "ang": 2203, "hy": 2204, "ube": 2205, "▁pur": 2206, "▁regul": 2207, "▁Marc": 2208, "me": 2209, "ld": 2210, "▁Kle": 2211, "▁state": 2212, "▁Ol": 2213, "ierno": 2214, "▁Mon": 2215, "▁rab": 2216, "▁Um": 2217, "▁Gl": 2218, "▁Sara": 2219, "Co": 2220, "asp": 2221, "▁party": 2222, "▁lamp": 2223, "▁Du": 2224, "aster": 2225, "▁Mag": 2226, "list": 2227, "▁pir": 2228, "esty": 2229, "▁Par": 2230, "▁ge": 2231, "fr": 2232, "▁Bod": 2233, "nt": 2234, "▁Sar": 2235, "▁tri": 2236, "▁Bel": 2237, "▁Inst": 2238, "▁ham": 2239, "ares": 2240, "▁Mir": 2241, "▁Em": 2242, "▁Henry": 2243, "▁oder": 2244, "▁Ger": 2245, "▁moral": 2246, "ude": 2247, "cert": 2248, "▁Mak": 2249, "▁AWS": 2250, "ism": 2251, "orne": 2252, "▁Ich": 2253, "▁deleg": 2254, "▁Lab": 2255, "dl": 2256, "▁Dol": 2257, "▁bec": 2258, "▁Fund": 2259, "bin": 2260, "tp": 2261, "▁run": 2262, "▁hus": 2263, "▁rom": 2264, "ustr": 2265, "▁III": 2266, "▁band": 2267, "▁Kol": 2268, "wig": 2269, "▁Lis": 2270, "▁Me": 2271, "ung": 2272, "▁ra": 2273, "▁Ir": 2274, "erm": 2275, "enty": 2276, "▁bag": 2277, "▁So": 2278, "▁hotel": 2279, "ZE": 2280, "▁Tob": 2281, "aset": 2282, "▁es": 2283, "▁Stra": 2284, "▁regular": 2285, "mys": 2286, "he": 2287, "▁Su": 2288, "▁sc": 2289, "anch": 2290, "▁tom": 2291, "lica": 2292, "▁Spr": 2293, "eps": 2294, "ho": 2295, "▁pkt": 2296, "mac": 2297, "andra": 2298, "▁mag": 2299, "mas": 2300, "?\"": 2301, "order": 2302, "ielen": 2303, "erk": 2304, "▁pens": 2305, "▁XIX": 2306, "▁Mor": 2307, "olid": 2308, "▁Got": 2309, "▁reform": 2310, "IA": 2311, "▁Bed": 2312, "▁August": 2313, "▁Lew": 2314, "dc": 2315, "OP": 2316, "▁dal": 2317, "▁Tel": 2318, "atch": 2319, "▁much": 2320, "▁mel": 2321, "▁let": 2322, "▁argument": 2323, "jek": 2324, "stre": 2325, "▁:": 2326, "▁pag": 2327, "▁MA": 2328, "▁general": 2329, "▁De": 2330, "▁XIII": 2331, "▁Cy": 2332, "ister": 2333, "▁Dam": 2334, "nd": 2335, "▁Hor": 2336, "oria": 2337, "▁Ne": 2338, "wer": 2339, "▁At": 2340, "ke": 2341, "▁cha": 2342, "eld": 2343, "▁King": 2344, "To": 2345, "arium": 2346, "▁kilomet": 2347, "uren": 2348, "elle": 2349, "▁sus": 2350, "▁mechan": 2351, "pet": 2352, "▁Jo": 2353, "▁marca": 2354, "ATA": 2355, "eles": 2356, "▁fen": 2357, "gro": 2358, "▁Try": 2359, "▁lik": 2360, "abs": 2361, "▁oc": 2362, "▁Art": 2363, "▁ms": 2364, "▁tan": 2365, "ble": 2366, "▁But": 2367, "ieb": 2368, "▁Port": 2369, "▁bel": 2370, "iece": 2371, "CI": 2372, "▁real": 2373, "▁Hal": 2374, "byte": 2375, "▁sol": 2376, "awk": 2377, "▁dram": 2378, "▁Gru": 2379, "▁pub": 2380, "▁Cent": 2381, "▁central": 2382, "▁jag": 2383, "uchar": 2384, "▁Bank": 2385, "ori": 2386, "▁plus": 2387, "▁von": 2388, "▁imp": 2389, "▁model": 2390, "▁fragment": 2391, "ichten": 2392, "▁Ly": 2393, "▁Dar": 2394, "▁Kas": 2395, "▁wir": 2396, "▁God": 2397, "isi": 2398, "▁Ul": 2399, "▁Bron": 2400, "▁rot": 2401, "nom": 2402, "ing": 2403, "▁inte": 2404, "▁Am": 2405, "▁Mach": 2406, "draw": 2407, "▁Domin": 2408, "▁deb": 2409, "▁atr": 2410, "▁anal": 2411, "gos": 2412, "hr": 2413, "sil": 2414, "▁best": 2415, "ct": 2416, "▁len": 2417, "▁Sud": 2418, "▁Wes": 2419, "bc": 2420, "aria": 2421, "erek": 2422, "▁punk": 2423, "ifik": 2424, "nog": 2425, "▁fut": 2426, "▁Natural": 2427, "▁Mis": 2428, "▁bol": 2429, "▁Raw": 2430, "AL": 2431, "▁sf": 2432, "▁der": 2433, "▁Ku": 2434, "▁Res": 2435, "▁san": 2436, "fy": 2437, "▁Spot": 2438, "if": 2439, "di": 2440, ".),": 2441, "ktur": 2442, "▁It": 2443, "▁el": 2444, "▁Cor": 2445, "uset": 2446, "▁hip": 2447, "orp": 2448, "▁tren": 2449, "▁Anna": 2450, "▁jaw": 2451, "prom": 2452, "▁che": 2453, "▁Arab": 2454, "ience": 2455, "andy": 2456, "▁natur": 2457, "▁proced": 2458, "fu": 2459, "its": 2460, "ison": 2461, "▁yy": 2462, "▁“": 2463, "ktr": 2464, "icia": 2465, "▁iron": 2466, "alt": 2467, "itten": 2468, "aret": 2469, "’": 2470, "rian": 2471, "▁Marian": 2472, "▁Aut": 2473, "th": 2474, "▁Bra": 2475, "▁ig": 2476, "ago": 2477, "▁bibli": 2478, ".).": 2479, "▁X": 2480, "wik": 2481, "▁Ap": 2482, "▁term": 2483, "▁temper": 2484, "chi": 2485, "▁pret": 2486, "nor": 2487, "▁db": 2488, "▁Lic": 2489, "OS": 2490, "▁Suz": 2491, "▁para": 2492, "▁Pen": 2493, "cht": 2494, "amar": 2495, "ON": 2496, "met": 2497, "▁metal": 2498, "dm": 2499, "PR": 2500, "...\"": 2501, "anga": 2502, "▁prote": 2503, "iah": 2504, "▁august": 2505, "jer": 2506, "plet": 2507, "▁Sem": 2508, "▁List": 2509, "bel": 2510, "eter": 2511, "orent": 2512, "ance": 2513, "odes": 2514, "▁ban": 2515, "V": 2516, "atan": 2517, "▁Ber": 2518, "ators": 2519, "▁chem": 2520, "▁cm": 2521, "▁popular": 2522, "▁magaz": 2523, "▁Har": 2524, "▁pobl": 2525, "anno": 2526, "istrzost": 2527, "esta": 2528, "▁Fel": 2529, "▁Daw": 2530, "▁Be": 2531, "▁Organ": 2532, "sen": 2533, "IC": 2534, "stant": 2535, "▁Sw": 2536, "AM": 2537, "▁absolut": 2538, "▁Wik": 2539, "▁magn": 2540, "▁Het": 2541, "▁dad": 2542, "▁Sie": 2543, "▁grab": 2544, "Ć": 2545, "sim": 2546, "▁rank": 2547, "▁ir": 2548, "fin": 2549, "hora": 2550, "▁bat": 2551, "▁work": 2552, "▁Nu": 2553, "▁trans": 2554, "▁Tor": 2555, "sm": 2556, "▁NAT": 2557, "ats": 2558, "ogan": 2559, "enz": 2560, "rael": 2561, "dat": 2562, "▁pian": 2563, "▁strat": 2564, "lane": 2565, "▁md": 2566, "▁XVIII": 2567, "mag": 2568, "ylon": 2569, "▁er": 2570, "▁PO": 2571, "cam": 2572, "org": 2573, "▁IV": 2574, "▁gu": 2575, "iac": 2576, "▁restaur": 2577, "▁turn": 2578, "St": 2579, "▁partner": 2580, "▁Di": 2581, "▁Pil": 2582, "emat": 2583, "anse": 2584, "▁fac": 2585, "▁San": 2586, "▁intel": 2587, "▁Bir": 2588, "!!": 2589, "▁lib": 2590, "▁cer": 2591, "▁trag": 2592, "▁mim": 2593, "▁Leg": 2594, "▁region": 2595, "▁fest": 2596, "▁transport": 2597, "▁Rol": 2598, "▁hen": 2599, "▁bron": 2600, "Je": 2601, "reb": 2602, "▁mark": 2603, "▁ener": 2604, "jo": 2605, "elen": 2606, "rezent": 2607, "▁dat": 2608, "▁TV": 2609, "▁trop": 2610, "lij": 2611, "AG": 2612, "▁Bu": 2613, "onne": 2614, "Ą": 2615, "▁Viv": 2616, "▁das": 2617, "▁Sal": 2618, "▁sur": 2619, "▁Mel": 2620, "Na": 2621, "▁tras": 2622, "▁mand": 2623, "ST": 2624, "cel": 2625, "▁are": 2626, "▁▁": 2627, "orno": 2628, "▁material": 2629, "▁Dod": 2630, "mal": 2631, "▁Lot": 2632, "all": 2633, "▁gle": 2634, "▁Ste": 2635, "▁Part": 2636, "ated": 2637, "▁Ab": 2638, "astro": 2639, "▁autom": 2640, "▁prob": 2641, "pond": 2642, "egr": 2643, "ins": 2644, "▁Gal": 2645, "ils": 2646, "▁Baron": 2647, "ampa": 2648, "AP": 2649, "RO": 2650, "▁front": 2651, "▁ocean": 2652, "▁Ind": 2653, "▁SA": 2654, "▁Gra": 2655, "▁ped": 2656, "ancel": 2657, "fil": 2658, "▁Pas": 2659, "▁symbol": 2660, "▁patron": 2661, "▁Fab": 2662, "uru": 2663, "ender": 2664, "▁Tol": 2665, "how": 2666, "bol": 2667, "▁Nam": 2668, "▁lu": 2669, "stein": 2670, "!!!": 2671, "▁rep": 2672, "amer": 2673, "▁Inter": 2674, "▁wagon": 2675, "▁historia": 2676, "iss": 2677, "▁Py": 2678, "▁nose": 2679, "!)": 2680, "rai": 2681, "ger": 2682, "▁Rat": 2683, "igu": 2684, "▁straw": 2685, "omet": 2686, "▁[": 2687, "▁ref": 2688, "adrat": 2689, "▁domin": 2690, "▁;": 2691, "▁Sol": 2692, "▁Drug": 2693, "rolog": 2694, "▁Anc": 2695, "olas": 2696, "esi": 2697, "▁hur": 2698, "CH": 2699, "▁Robert": 2700, "▁formal": 2701, "oton": 2702, "▁plot": 2703, "nas": 2704, "▁lo": 2705, "▁url": 2706, "kat": 2707, "▁def": 2708, "▁traged": 2709, "▁patri": 2710, "▁Park": 2711, "auc": 2712, "▁ceremon": 2713, "jas": 2714, "▁Ed": 2715, "▁Kot": 2716, "▁Parl": 2717, "mont": 2718, "▁internet": 2719, "▁az": 2720, "▁will": 2721, "enda": 2722, "▁Bal": 2723, "NA": 2724, "SL": 2725, "▁abs": 2726, "atal": 2727, "▁Sc": 2728, "ong": 2729, "▁fos": 2730, "▁Hol": 2731, "▁Kan": 2732, "ijn": 2733, "▁Rom": 2734, "real": 2735, "▁Il": 2736, "▁radi": 2737, "▁Dal": 2738, "▁tum": 2739, "bru": 2740, "▁tow": 2741, "anne": 2742, "▁dyn": 2743, "osto": 2744, "▁Pac": 2745, "▁Wat": 2746, "▁Central": 2747, "▁Maj": 2748, "é": 2749, "▁paras": 2750, "▁Mill": 2751, "item": 2752, "▁est": 2753, "ficie": 2754, "iejsc": 2755, "ö": 2756, "x": 2757, "▁sent": 2758, "▁jun": 2759, "▁mem": 2760, "OM": 2761, "▁Ek": 2762, "bad": 2763, "▁refer": 2764, "▁Chart": 2765, "rium": 2766, "▁roi": 2767, "▁Anton": 2768, "RR": 2769, "▁wer": 2770, "ass": 2771, "ET": 2772, "▁MS": 2773, "▁PR": 2774, "enu": 2775, "empl": 2776, "▁rec": 2777, "▁West": 2778, "▁Arnold": 2779, "jar": 2780, "orus": 2781, "ales": 2782, "top": 2783, "▁PK": 2784, "\"?": 2785, "fit": 2786, "▁ruin": 2787, "uck": 2788, "??": 2789, "ultur": 2790, "gon": 2791, "ster": 2792, "▁Moh": 2793, "sub": 2794, "orsz": 2795, "▁Jack": 2796, "▁Bro": 2797, "ilia": 2798, "Mo": 2799, "ou": 2800, "gen": 2801, "pk": 2802, "▁terr": 2803, "▁nur": 2804, "▁Pap": 2805, "▁Mod": 2806, "▁RO": 2807, "▁Lu": 2808, "ira": 2809, "▁Prof": 2810, "SK": 2811, "hem": 2812, "atom": 2813, "▁...": 2814, "uce": 2815, "ese": 2816, "▁Rog": 2817, "▁Raf": 2818, "store": 2819, "▁FOR": 2820, "for": 2821, "▁font": 2822, "▁XII": 2823, "mun": 2824, "fe": 2825, "AK": 2826, "▁start": 2827, "▁trat": 2828, "▁subst": 2829, "▁norm": 2830, "▁alarm": 2831, "▁Roman": 2832, "----------------": 2833, "aus": 2834, "▁sap": 2835, "▁Ass": 2836, "▁Pad": 2837, "irus": 2838, "▁Berg": 2839, "▁bark": 2840, "alis": 2841, "sts": 2842, "▁Pra": 2843, "ih": 2844, "ural": 2845, "▁mit": 2846, "ogram": 2847, "▁Ran": 2848, "▁hard": 2849, "▁strateg": 2850, "▁lust": 2851, "job": 2852, "▁Ro": 2853, "▁XVII": 2854, "oss": 2855, "ill": 2856, ".\"": 2857, "onda": 2858, "▁Jul": 2859, "▁solid": 2860, "▁policy": 2861, "▁Lond": 2862, "▁Nak": 2863, "▁Sic": 2864, "▁Sn": 2865, "aha": 2866, "eda": 2867, "▁Reg": 2868, "▁Che": 2869, "legal": 2870, "▁tap": 2871, "ilib": 2872, "ua": 2873, "▁fan": 2874, "▁Rud": 2875, "angel": 2876, "epper": 2877, "RL": 2878, "▁Sub": 2879, "▁rebel": 2880, "▁blade": 2881, "▁Ross": 2882, "agog": 2883, "▁bil": 2884, "Pol": 2885, "SP": 2886, "▁bite": 2887, "▁instrument": 2888, "nar": 2889, "▁Mot": 2890, "gram": 2891, "istan": 2892, "▁mos": 2893, "▁interpret": 2894, "ria": 2895, "▁Fe": 2896, "orna": 2897, "ager": 2898, "ss": 2899, "▁Ho": 2900, "oper": 2901, "▁tun": 2902, "IS": 2903, "iant": 2904, "▁ret": 2905, "▁Fin": 2906, "▁mile": 2907, "obre": 2908, "▁Program": 2909, "▁album": 2910, "endar": 2911, "limp": 2912, "bek": 2913, "▁War": 2914, "▁UE": 2915, "him": 2916, "▁Napole": 2917, "▁aud": 2918, "▁deput": 2919, "▁Per": 2920, "▁idea": 2921, "▁Y": 2922, "chor": 2923, "▁hom": 2924, "pty": 2925, "Po": 2926, "ilen": 2927, "▁regional": 2928, "▁Tem": 2929, "▁super": 2930, "iolet": 2931, "ris": 2932, "▁…": 2933, "▁nin": 2934, "ency": 2935, "▁Kont": 2936, "):": 2937, "aid": 2938, "▁Bad": 2939, "▁Don": 2940, "▁kin": 2941, "]": 2942, "▁One": 2943, "ene": 2944, "No": 2945, "oll": 2946, "rug": 2947, "▁ST": 2948, "umb": 2949, "▁Turk": 2950, "olut": 2951, "mut": 2952, "dale": 2953, "▁male": 2954, "wen": 2955, "star": 2956, "▁ast": 2957, "—": 2958, "ident": 2959, "AS": 2960, "▁ds": 2961, "▁mask": 2962, "▁Ele": 2963, "ader": 2964, "▁XVI": 2965, "uar": 2966, "bas": 2967, "zione": 2968, "ultural": 2969, "▁his": 2970, "*.": 2971, "▁Fat": 2972, "aut": 2973, "▁gi": 2974, "▁Sab": 2975, "ules": 2976, "▁All": 2977, "ols": 2978, "▁Bibli": 2979, "hat": 2980, "▁Soc": 2981, "▁Red": 2982, "▁(\"": 2983, "ingu": 2984, "▁resort": 2985, "fi": 2986, "get": 2987, "▁Stefan": 2988, "▁Dec": 2989, "▁Ph": 2990, "▁mir": 2991, "▁Prec": 2992, "▁infl": 2993, "▁echo": 2994, "elin": 2995, "▁Gar": 2996, "▁ó": 2997, "Pan": 2998, "▁His": 2999, "▁energet": 3000, "arde": 3001, "▁Cl": 3002, "pert": 3003, "▁..": 3004, "Do": 3005, "▁map": 3006, "▁Bon": 3007, "▁sun": 3008, "osen": 3009, "▁gan": 3010, "...)": 3011, "▁ber": 3012, "▁Napoleon": 3013, "▁Man": 3014, "MA": 3015, "▁Aust": 3016, "np": 3017, "ben": 3018, "▁rest": 3019, "▁ident": 3020, "ald": 3021, "▁ster": 3022, "▁tra": 3023, "▁rent": 3024, "can": 3025, "▁pros": 3026, "oo": 3027, "sum": 3028, "▁palm": 3029, "ge": 3030, "dep": 3031, "<0xC5>": 3032, "Tr": 3033, "isan": 3034, "ook": 3035, "aze": 3036, "▁sa": 3037, "▁Mer": 3038, "▁Rum": 3039, "▁Wer": 3040, "▁men": 3041, "▁baby": 3042, "aa": 3043, "▁Spec": 3044, "ire": 3045, "orient": 3046, "-)": 3047, "▁propag": 3048, "alin": 3049, "▁ant": 3050, "▁legend": 3051, "▁org": 3052, "▁Fr": 3053, "ologia": 3054, "▁standard": 3055, "▁Ky": 3056, "▁Wald": 3057, "andom": 3058, "▁Stud": 3059, "ime": 3060, "stra": 3061, "▁Jud": 3062, "▁Arm": 3063, "▁person": 3064, "▁bomb": 3065, "ware": 3066, "▁dialog": 3067, "ide": 3068, "▁Internet": 3069, "▁medal": 3070, "acio": 3071, ">>": 3072, "▁Abd": 3073, "▁bob": 3074, "▁nach": 3075, "atz": 3076, "▁fat": 3077, "▁Hass": 3078, "lot": 3079, "OT": 3080, "▁Bart": 3081, "dt": 3082, "▁ent": 3083, "▁Edward": 3084, "▁Mad": 3085, "agu": 3086, "▁unos": 3087, "▁TR": 3088, "▁fi": 3089, "azar": 3090, "urent": 3091, "▁Ins": 3092, "▁opt": 3093, "ope": 3094, "▁<<": 3095, "▁aren": 3096, "▁fam": 3097, "don": 3098, "oral": 3099, "X": 3100, "<0x83>": 3101, "▁sit": 3102, "▁Len": 3103, "ART": 3104, "ae": 3105, "IN": 3106, "....": 3107, "iza": 3108, "▁§": 3109, "son": 3110, "▁Li": 3111, "ois": 3112, "data": 3113, "▁kg": 3114, "▁Barbara": 3115, "psi": 3116, "▁Cha": 3117, "MO": 3118, "▁Ces": 3119, "bian": 3120, "▁genius": 3121, "work": 3122, "▁blond": 3123, "erg": 3124, "▁pul": 3125, "▁Bernard": 3126, "▁Kong": 3127, "av": 3128, "▁intens": 3129, "ateg": 3130, "CE": 3131, "▁ink": 3132, "▁Such": 3133, "car": 3134, "▁dare": 3135, "▁Las": 3136, "resa": 3137, "▁kne": 3138, "▁Carol": 3139, "erd": 3140, "uns": 3141, "▁Raj": 3142, "▁ON": 3143, "▁car": 3144, "▁Leon": 3145, "adi": 3146, "▁AN": 3147, "▁Inn": 3148, "iene": 3149, "sw": 3150, "▁Hand": 3151, "▁atom": 3152, "rown": 3153, "▁log": 3154, "nob": 3155, "air": 3156, "▁!": 3157, "▁labor": 3158, "▁bet": 3159, "fund": 3160, "olent": 3161, "▁chart": 3162, "ake": 3163, "archy": 3164, "▁Lan": 3165, "▁Bit": 3166, "irt": 3167, "▁bul": 3168, "▁det": 3169, "▁ideal": 3170, "pic": 3171, "▁Ham": 3172, "ull": 3173, "bank": 3174, "pes": 3175, "▁legal": 3176, "▁Francis": 3177, "ulum": 3178, "▁amen": 3179, "▁Din": 3180, "OD": 3181, "oke": 3182, "esto": 3183, "▁fatal": 3184, "▁reput": 3185, "▁media": 3186, "▁partie": 3187, "▁lun": 3188, "▁liberal": 3189, "▁:)": 3190, "uls": 3191, "▁chaos": 3192, "▁Hop": 3193, "▁pd": 3194, "▁music": 3195, "▁bin": 3196, "▁fundament": 3197, "▁Fil": 3198, "▁General": 3199, "II": 3200, "@": 3201, "▁nit": 3202, "▁Berlin": 3203, "non": 3204, "ategor": 3205, "perty": 3206, "▁sand": 3207, "▁modern": 3208, "spin": 3209, "iani": 3210, "▁Sil": 3211, "▁Bru": 3212, "▁manifest": 3213, "▁ren": 3214, "inar": 3215, "unic": 3216, "▁import": 3217, "▁stabil": 3218, "ador": 3219, "incl": 3220, "▁frank": 3221, "▁inf": 3222, "▁Psy": 3223, "▁Mol": 3224, "▁hit": 3225, "▁Prom": 3226, "iter": 3227, "▁grat": 3228, "▁alt": 3229, "▁radio": 3230, "WA": 3231, "▁Stop": 3232, "▁gram": 3233, "▁pic": 3234, "Bo": 3235, "olf": 3236, "ft": 3237, "▁ac": 3238, "▁mum": 3239, "arga": 3240, "▁demonstr": 3241, "▁Ben": 3242, "▁lig": 3243, "▁nut": 3244, "▁Much": 3245, "maz": 3246, "▁dep": 3247, "▁Plan": 3248, "atory": 3249, "dyn": 3250, "spi": 3251, "orf": 3252, "elm": 3253, "iba": 3254, "PS": 3255, "▁Hus": 3256, "▁agent": 3257, "▁poet": 3258, "osis": 3259, "▁Herm": 3260, "▁ras": 3261, "▁Top": 3262, "dw": 3263, "▁mist": 3264, "iv": 3265, "▁DO": 3266, "▁harmon": 3267, "▁'": 3268, "▁Put": 3269, "▁Kre": 3270, "▁Techn": 3271, "▁pant": 3272, "▁Com": 3273, "▁ga": 3274, "▁For": 3275, "▁Platform": 3276, "▁integr": 3277, "ump": 3278, "inian": 3279, "(": 3280, "illa": 3281, "▁nomin": 3282, "▁Zu": 3283, "andal": 3284, "mos": 3285, "▁sowie": 3286, "lon": 3287, "▁XIV": 3288, "RE": 3289, "PN": 3290, "SI": 3291, "▁elim": 3292, "▁wind": 3293, "bus": 3294, "AC": 3295, "▁XV": 3296, "GA": 3297, "▁PI": 3298, "omot": 3299, "III": 3300, "RA": 3301, "▁Ep": 3302, "▁Set": 3303, "sek": 3304, "eks": 3305, "▁chi": 3306, "▁lose": 3307, "deg": 3308, "▁Des": 3309, "▁law": 3310, "▁Gen": 3311, "gnu": 3312, "▁pref": 3313, "▁num": 3314, "KS": 3315, "▁Zen": 3316, "elem": 3317, "ico": 3318, "▁Cel": 3319, "▁XXX": 3320, "▁Major": 3321, "▁hal": 3322, "omic": 3323, "▁Hom": 3324, "TA": 3325, "eds": 3326, "AB": 3327, "▁Public": 3328, "▁anim": 3329, "jsce": 3330, "▁Gran": 3331, "▁medi": 3332, "ract": 3333, "zz": 3334, "▁v": 3335, "LI": 3336, "▁auto": 3337, "▁parad": 3338, "OL": 3339, "rena": 3340, "▁Fort": 3341, "▁elegant": 3342, "▁brutal": 3343, "▁toler": 3344, "▁Hum": 3345, "rez": 3346, "▁sank": 3347, "▁Hitler": 3348, "▁Piet": 3349, "tele": 3350, "▁perf": 3351, "▁Same": 3352, "rows": 3353, "aban": 3354, "▁hier": 3355, "abil": 3356, "▁Paul": 3357, "ly": 3358, "▁Dun": 3359, "Pod": 3360, "▁Gaz": 3361, "▁Repub": 3362, "igent": 3363, "▁Urban": 3364, "▁ambit": 3365, "elf": 3366, "WN": 3367, "▁total": 3368, "▁Ren": 3369, "WI": 3370, "nc": 3371, "ess": 3372, "▁orient": 3373, "▁Premier": 3374, "▁tram": 3375, "▁hi": 3376, "v": 3377, "▁weekend": 3378, "▁Sat": 3379, "pop": 3380, "ov": 3381, "ZZ": 3382, "tes": 3383, "NY": 3384, "ax": 3385, "▁sin": 3386, "▁imper": 3387, "▁sow": 3388, "▁polit": 3389, "▁minimal": 3390, "UL": 3391, "….": 3392, "▁Flor": 3393, "ao": 3394, "▁die": 3395, "▁param": 3396, "NI": 3397, "▁Rep": 3398, "burg": 3399, "▁aj": 3400, "▁jap": 3401, "pec": 3402, "▁defin": 3403, "▁dup": 3404, "ante": 3405, "eron": 3406, "erson": 3407, "▁Four": 3408, "▁Nom": 3409, "▁glad": 3410, "▁liber": 3411, "ais": 3412, "▁gras": 3413, "ella": 3414, "▁logic": 3415, "gd": 3416, "▁Dep": 3417, "▁analog": 3418, "▁forma": 3419, "▁magnet": 3420, "\")": 3421, "neg": 3422, "ood": 3423, "front": 3424, "pas": 3425, "ind": 3426, "rypt": 3427, "once": 3428, "▁Sh": 3429, "▁demon": 3430, "unal": 3431, "many": 3432, "▁buf": 3433, "ui": 3434, "▁cal": 3435, "inks": 3436, "gom": 3437, "▁wore": 3438, "uto": 3439, "unc": 3440, "▁gang": 3441, "fem": 3442, "asm": 3443, "fony": 3444, "▁hy": 3445, "▁fel": 3446, "▁Sport": 3447, "erta": 3448, "aton": 3449, "rest": 3450, "▁melod": 3451, "rr": 3452, "▁tend": 3453, "GO": 3454, "ise": 3455, "▁trunk": 3456, "gru": 3457, "ipa": 3458, "▁Regional": 3459, "▁ben": 3460, "▁farm": 3461, "produ": 3462, "▁human": 3463, "▁sed": 3464, "▁Walk": 3465, "down": 3466, "habil": 3467, "▁astronom": 3468, "▁Palest": 3469, "WORK": 3470, "▁han": 3471, "▁fra": 3472, "km": 3473, "▁marg": 3474, "ced": 3475, "WS": 3476, "aps": 3477, "erna": 3478, "onna": 3479, "▁hol": 3480, "grow": 3481, "▁blank": 3482, "▁IP": 3483, "ulu": 3484, "iere": 3485, "▁bre": 3486, "▁zero": 3487, "ue": 3488, "▁Pont": 3489, "▁Mit": 3490, "det": 3491, "ail": 3492, "Pi": 3493, "ti": 3494, "itz": 3495, "▁desk": 3496, "▁Gi": 3497, "▁bamb": 3498, "▁tort": 3499, "oks": 3500, "oso": 3501, "▁Kim": 3502, "amen": 3503, "▁Jah": 3504, "law": 3505, "chr": 3506, "▁Buch": 3507, "▁Grab": 3508, "BA": 3509, "▁Forum": 3510, "uan": 3511, "▁obst": 3512, "▁mont": 3513, "?)": 3514, "ubl": 3515, "lia": 3516, "▁Ann": 3517, "sam": 3518, "▁au": 3519, "▁Lat": 3520, "▁forum": 3521, "▁oh": 3522, "▁PS": 3523, "▁eleg": 3524, "▁Bag": 3525, "▁fasc": 3526, "add": 3527, "▁Car": 3528, "ografia": 3529, "stub": 3530, "allas": 3531, "*,": 3532, "itel": 3533, "▁Gard": 3534, "mk": 3535, "▁»": 3536, "By": 3537, "▁wet": 3538, "ff": 3539, "▁DR": 3540, "dal": 3541, "inter": 3542, "▁SK": 3543, "▁Express": 3544, "▁Belg": 3545, "▁Stat": 3546, "▁mult": 3547, "ete": 3548, "UR": 3549, "BP": 3550, "▁Ple": 3551, "Pro": 3552, "▁ego": 3553, "▁Europa": 3554, "kin": 3555, "://": 3556, "▁Sym": 3557, "ops": 3558, "ality": 3559, "▁prefer": 3560, "but": 3561, "▁Gil": 3562, "▁Met": 3563, "test": 3564, "▁spir": 3565, "format": 3566, "▁Amb": 3567, "long": 3568, "▁Far": 3569, "prot": 3570, "UNK": 3571, "iels": 3572, "▁imagin": 3573, "▁Senator": 3574, "bst": 3575, "My": 3576, "▁bis": 3577, "▁viv": 3578, "IR": 3579, "ID": 3580, "▁Bat": 3581, "ENT": 3582, "▁imm": 3583, "▁Produ": 3584, "hard": 3585, "▁pseud": 3586, "▁fer": 3587, "▁Sul": 3588, "mil": 3589, "Super": 3590, "▁Rub": 3591, "▁Ru": 3592, "warn": 3593, "ee": 3594, "ence": 3595, "anos": 3596, "▁And": 3597, "oe": 3598, "run": 3599, "ads": 3600, "rel": 3601, "▁Gu": 3602, "▁grad": 3603, "mann": 3604, "▁big": 3605, "▁Los": 3606, "uga": 3607, "▁wel": 3608, "uss": 3609, "gest": 3610, "▁porn": 3611, "spir": 3612, "ados": 3613, "NER": 3614, "▁febr": 3615, "▁oz": 3616, "▁hum": 3617, "▁Glen": 3618, "▁mk": 3619, "«": 3620, "ous": 3621, "▁AL": 3622, "▁VI": 3623, "▁Elizabeth": 3624, "▁Dub": 3625, "ll": 3626, "cher": 3627, "▁Pere": 3628, "mit": 3629, "▁major": 3630, "▁prepar": 3631, "▁patrol": 3632, "▁XI": 3633, "▁Rober": 3634, "her": 3635, "Sk": 3636, "urop": 3637, "ED": 3638, "▁Term": 3639, "▁den": 3640, "▁hyd": 3641, "sal": 3642, "PA": 3643, "apis": 3644, "▁Rel": 3645, "▁parking": 3646, "▁redu": 3647, "▁Not": 3648, "nod": 3649, "▁rock": 3650, "▁Fest": 3651, "frastr": 3652, "▁Cec": 3653, "ION": 3654, "pur": 3655, "▁Gas": 3656, "LE": 3657, "▁plug": 3658, "▁Poll": 3659, "▁Ober": 3660, ");": 3661, "plo": 3662, "▁Radio": 3663, "''": 3664, "▁flag": 3665, "▁Dre": 3666, "▁Qu": 3667, "etry": 3668, "qu": 3669, "back": 3670, "rank": 3671, "IO": 3672, "▁Den": 3673, "www": 3674, "apon": 3675, "▁blog": 3676, "▁NA": 3677, "mina": 3678, "▁Sof": 3679, "▁motor": 3680, "▁wide": 3681, "ati": 3682, "▁http": 3683, "▁sele": 3684, "ponent": 3685, "▁Historia": 3686, "olin": 3687, "▁apro": 3688, "▁Euro": 3689, "▁spons": 3690, "▁Bach": 3691, "▁lid": 3692, "▁Hugo": 3693, "▁cub": 3694, "▁chin": 3695, "▁did": 3696, "▁Arg": 3697, "▁qu": 3698, "ered": 3699, "TY": 3700, "▁Roc": 3701, "had": 3702, "Id": 3703, "udo": 3704, "ruct": 3705, "▁Lo": 3706, "RP": 3707, "▁Filip": 3708, "▁Bug": 3709, "aren": 3710, "IP": 3711, "▁Daniel": 3712, "▁PRO": 3713, "orm": 3714, "▁ej": 3715, "▁hurt": 3716, "rub": 3717, "▁kit": 3718, "▁magic": 3719, "ips": 3720, "▁status": 3721, "▁tel": 3722, "AW": 3723, "ubern": 3724, "▁Pak": 3725, "apture": 3726, "▁personal": 3727, "oman": 3728, "▁rund": 3729, "imen": 3730, "▁bald": 3731, "▁sia": 3732, "WO": 3733, "last": 3734, "',": 3735, "hot": 3736, "▁SY": 3737, "atro": 3738, "estro": 3739, "MS": 3740, "ropol": 3741, "▁Atl": 3742, "YN": 3743, "zte": 3744, "▁Gener": 3745, "▁inc": 3746, "▁Most": 3747, "iber": 3748, "tera": 3749, "ello": 3750, "rome": 3751, "▁Rem": 3752, "▁milk": 3753, "▁sche": 3754, "OK": 3755, "▁Feder": 3756, "asion": 3757, "▁oblig": 3758, "orie": 3759, "oin": 3760, "An": 3761, "iner": 3762, "esch": 3763, "aim": 3764, "eria": 3765, "On": 3766, "▁Nr": 3767, "bis": 3768, "fort": 3769, "ley": 3770, "Al": 3771, "▁mer": 3772, "lig": 3773, "▁Eli": 3774, "\":": 3775, "▁sale": 3776, "▁Spe": 3777, "mare": 3778, "▁absurd": 3779, "▁dur": 3780, "▁Palm": 3781, "RAN": 3782, "apache": 3783, "▁Hy": 3784, "mb": 3785, "▁cap": 3786, "omen": 3787, "▁etc": 3788, "pp": 3789, "▁haz": 3790, "ines": 3791, "TO": 3792, "nan": 3793, "rust": 3794, "▁Kab": 3795, "▁Tar": 3796, "olo": 3797, "▁Er": 3798, "▁Doc": 3799, "MP": 3800, "dot": 3801, "grad": 3802, "▁Oper": 3803, "▁System": 3804, "▁Mock": 3805, "UN": 3806, "▁banda": 3807, "unda": 3808, "▁aspir": 3809, "▁Tal": 3810, "NE": 3811, "▁en": 3812, "sh": 3813, "oler": 3814, "▁Nob": 3815, "▁SD": 3816, "▁wat": 3817, "▁www": 3818, "▁spont": 3819, "▁perm": 3820, "▁Dragon": 3821, "UM": 3822, "fg": 3823, "uy": 3824, "ardon": 3825, "▁Fur": 3826, "▁lim": 3827, "gal": 3828, "▁menu": 3829, "▁mol": 3830, "odi": 3831, "▁Cer": 3832, "▁Karl": 3833, "party": 3834, "▁and": 3835, "Sp": 3836, "EM": 3837, "\";": 3838, "DA": 3839, "+": 3840, "▁Hotel": 3841, "▁femin": 3842, "▁Mont": 3843, "gun": 3844, "cle": 3845, "▁folg": 3846, "▁planet": 3847, "▁non": 3848, "▁Bob": 3849, "aper": 3850, "▁pes": 3851, "PO": 3852, "▁Nor": 3853, "PL": 3854, "▁pilot": 3855, "uter": 3856, "mark": 3857, "mm": 3858, "uno": 3859, "▁Nur": 3860, "▁EU": 3861, "▁harm": 3862, "▁Are": 3863, "▁determin": 3864, "<0x9D>": 3865, "<0xCB>": 3866, "TE": 3867, "iji": 3868, "▁van": 3869, "▁SB": 3870, "wp": 3871, "▁idiot": 3872, "arsi": 3873, "IG": 3874, "▁mate": 3875, "▁dynamic": 3876, "emon": 3877, "▁Bre": 3878, "].": 3879, "▁Mama": 3880, "▁VIII": 3881, "▁Aw": 3882, "▁ex": 3883, "▁IX": 3884, "▁anten": 3885, "eca": 3886, "mod": 3887, "▁mobil": 3888, "▁get": 3889, "▁hab": 3890, "▁Est": 3891, "▁prest": 3892, "def": 3893, "sep": 3894, "uster": 3895, "▁mode": 3896, "▁Gab": 3897, "kil": 3898, "ometry": 3899, "▁bon": 3900, "▁NS": 3901, "▁Ark": 3902, "▁transform": 3903, "▁Peters": 3904, "▁Feb": 3905, "ople": 3906, "hu": 3907, "Ang": 3908, "▁Et": 3909, "alf": 3910, "ulo": 3911, "har": 3912, "▁Eu": 3913, "aters": 3914, "▁arom": 3915, "▁uma": 3916, "ize": 3917, "▁piece": 3918, "▁ignor": 3919, "▁faz": 3920, "▁nor": 3921, "hed": 3922, "▁turb": 3923, "▁rang": 3924, "anner": 3925, "▁terror": 3926, "▁Gold": 3927, "▁Edu": 3928, "urd": 3929, "oped": 3930, "▁[...]": 3931, "▁temp": 3932, "aul": 3933, "▁Film": 3934, "icht": 3935, "pack": 3936, "uu": 3937, ".-": 3938, "▁Bol": 3939, "anal": 3940, "▁hor": 3941, "▁tub": 3942, "▁VII": 3943, "rock": 3944, "Br": 3945, "▁Norweg": 3946, "▁depart": 3947, "ikan": 3948, "▁Austral": 3949, "▁Jap": 3950, "ografie": 3951, "harm": 3952, "▁Brand": 3953, "▁Imp": 3954, "IT": 3955, "mail": 3956, "egin": 3957, "▁intr": 3958, "▁wins": 3959, "OLD": 3960, "sin": 3961, "▁obt": 3962, "FOR": 3963, "Bi": 3964, "Go": 3965, "apolis": 3966, "▁Pel": 3967, "NO": 3968, "urb": 3969, "duc": 3970, "LO": 3971, "ulty": 3972, "▁Rome": 3973, "edi": 3974, "▁chrom": 3975, "GR": 3976, "alla": 3977, "anz": 3978, "▁Kamp": 3979, "▁Hen": 3980, "▁poem": 3981, "▁rude": 3982, "▁sl": 3983, "agner": 3984, "VI": 3985, "▁jud": 3986, "Str": 3987, "irm": 3988, "▁fundamental": 3989, "▁lad": 3990, "Ten": 3991, "▁Deb": 3992, "▁Let": 3993, "oster": 3994, "gh": 3995, "▁poder": 3996, "▁Ms": 3997, "▁hig": 3998, "▁Joh": 3999, "▁patent": 4000, "▁glob": 4001, "▁fram": 4002, "ende": 4003, "▁Del": 4004, "BY": 4005, "aron": 4006, "_": 4007, "▁inde": 4008, "▁intu": 4009, "del": 4010, "▁Problem": 4011, "▁Arch": 4012, "▁Form": 4013, "▁report": 4014, "estra": 4015, "▁epid": 4016, "ay": 4017, "role": 4018, "▁manip": 4019, "▁Th": 4020, "program": 4021, "▁Hat": 4022, "▁had": 4023, "asant": 4024, "▁place": 4025, "▁Magn": 4026, "ieri": 4027, "het": 4028, "arl": 4029, "OB": 4030, "▁Bak": 4031, "fur": 4032, "▁Indian": 4033, "dru": 4034, "▁kun": 4035, "▁Parad": 4036, "▁Liga": 4037, "▁Ki": 4038, "▁Mik": 4039, "SW": 4040, "▁habit": 4041, "▁Bow": 4042, "UD": 4043, "▁intern": 4044, "▁jury": 4045, "▁Jug": 4046, "▁altern": 4047, "▁fore": 4048, "▁pri": 4049, "fortun": 4050, "ince": 4051, "enders": 4052, "▁plant": 4053, "mir": 4054, "tl": 4055, "▁Abs": 4056, "dog": 4057, "fab": 4058, "▁Pers": 4059, "ynom": 4060, "ulator": 4061, "link": 4062, "WE": 4063, "%,": 4064, "park": 4065, "▁diet": 4066, "oy": 4067, "▁Stalin": 4068, "rm": 4069, "ham": 4070, "itat": 4071, "das": 4072, "▁Hall": 4073, "▁Bes": 4074, "fas": 4075, "▁ri": 4076, "abol": 4077, "▁Kore": 4078, "▁Kn": 4079, "▁AR": 4080, "▁SI": 4081, "▁brand": 4082, "▁wor": 4083, "▁Barb": 4084, "izon": 4085, "▁link": 4086, "▁role": 4087, "lista": 4088, "vo": 4089, "TV": 4090, "▁minimum": 4091, "▁poster": 4092, "▁forming": 4093, "ieder": 4094, "DER": 4095, "▁Jun": 4096, "Pat": 4097, "▁sod": 4098, "▁Mig": 4099, ")))": 4100, "▁Fi": 4101, "▁Christ": 4102, "imos": 4103, "▁Frank": 4104, "▁sid": 4105, "wald": 4106, "iron": 4107, "mund": 4108, "mart": 4109, "▁OK": 4110, "rb": 4111, "▁Liz": 4112, "▁operator": 4113, "\").": 4114, "cod": 4115, "alo": 4116, "▁Rap": 4117, "▁nod": 4118, "ason": 4119, "▁toast": 4120, "Ob": 4121, "Ty": 4122, "▁Is": 4123, "▁hon": 4124, "▁Om": 4125, "▁hel": 4126, "ement": 4127, "▁MON": 4128, "atalog": 4129, "ened": 4130, "▁asc": 4131, "▁STR": 4132, "°": 4133, "UT": 4134, "▁dynam": 4135, "▁Ocean": 4136, "fic": 4137, "ancy": 4138, "▁Chi": 4139, "▁gig": 4140, "▁tempo": 4141, "chat": 4142, "▁John": 4143, "▁x": 4144, "▁Club": 4145, "▁Bush": 4146, "▁monitor": 4147, "obil": 4148, "▁New": 4149, "▁USD": 4150, "spr": 4151, "▁ss": 4152, "▁popul": 4153, "Mat": 4154, "▁stere": 4155, "PP": 4156, "▁Poly": 4157, "ERE": 4158, "……": 4159, "enh": 4160, "▁Sky": 4161, "▁stern": 4162, "▁gir": 4163, "borne": 4164, "▁poi": 4165, "MAN": 4166, "▁Sept": 4167, "anter": 4168, "SE": 4169, "olk": 4170, "▁cyl": 4171, "▁Natal": 4172, "ides": 4173, "▁Tre": 4174, "▁Andrew": 4175, "cas": 4176, "▁Han": 4177, "He": 4178, "▁adapt": 4179, "ith": 4180, "▁Grad": 4181, "omon": 4182, "▁sop": 4183, "uel": 4184, "▁App": 4185, "▁brut": 4186, "▁Donald": 4187, "▁Sand": 4188, "ibr": 4189, "hol": 4190, "enter": 4191, "▁Sum": 4192, "▁)": 4193, "oche": 4194, "▁Eug": 4195, "IL": 4196, "ROM": 4197, "ric": 4198, "▁Miss": 4199, "▁Ital": 4200, "▁En": 4201, "ieu": 4202, "ioc": 4203, "domin": 4204, "▁Finland": 4205, "%.": 4206, "fel": 4207, "ü": 4208, "▁DVD": 4209, "FN": 4210, "bal": 4211, "mary": 4212, "▁Protest": 4213, "plement": 4214, "porter": 4215, "tal": 4216, "▁Tra": 4217, "▁separ": 4218, "▁Hi": 4219, "▁SP": 4220, "Rad": 4221, "ool": 4222, "orum": 4223, "IV": 4224, "tat": 4225, "▁synd": 4226, "▁respond": 4227, "irtual": 4228, "▁psychiat": 4229, "iler": 4230, "▁jel": 4231, "ices": 4232, "▁Syd": 4233, "agh": 4234, "ropic": 4235, "ipp": 4236, "▁panic": 4237, "▁hub": 4238, "erman": 4239, "Si": 4240, "INK": 4241, "wl": 4242, "▁hosp": 4243, "itary": 4244, "itt": 4245, "▁Der": 4246, "pel": 4247, "bon": 4248, "▁MI": 4249, "▁Col": 4250, "apol": 4251, "▁Johnson": 4252, "urope": 4253, "▁loc": 4254, "olate": 4255, "unit": 4256, "bul": 4257, "▁SS": 4258, "▁Dum": 4259, "▁Lem": 4260, "ates": 4261, "anni": 4262, "▁adm": 4263, "inte": 4264, "rote": 4265, "omer": 4266, "oter": 4267, "pin": 4268, "▁lab": 4269, "▁enc": 4270, "▁net": 4271, "))": 4272, "PE": 4273, "ues": 4274, "Try": 4275, "▁cars": 4276, "▁BM": 4277, "▁Julia": 4278, "sat": 4279, "))))": 4280, "▁Ord": 4281, "'.": 4282, "▁=": 4283, "umer": 4284, "oust": 4285, "Q": 4286, "▁posto": 4287, "▁Ide": 4288, "▁Administr": 4289, "han": 4290, "elli": 4291, "SS": 4292, "▁rug": 4293, "▁alter": 4294, "▁SF": 4295, "▁Gott": 4296, "hew": 4297, "ieme": 4298, "▁saf": 4299, "▁Vic": 4300, "LOG": 4301, "▁Cas": 4302, "▁Jung": 4303, "ey": 4304, "mel": 4305, "▁Fran": 4306, "ault": 4307, "mn": 4308, "▁ke": 4309, "idi": 4310, "▁Mario": 4311, "▁Grand": 4312, "▁GR": 4313, "public": 4314, "ross": 4315, "▁global": 4316, "gate": 4317, "empt": 4318, "Dom": 4319, "▁Int": 4320, "▁transfer": 4321, "▁CD": 4322, "▁Real": 4323, "▁pres": 4324, "▁Hab": 4325, "▁CIA": 4326, "▁brew": 4327, "The": 4328, "▁IN": 4329, "▁jur": 4330, "angu": 4331, "▁more": 4332, "gent": 4333, "▁Max": 4334, "Le": 4335, "ington": 4336, "▁Ped": 4337, "▁Step": 4338, "▁«": 4339, "erie": 4340, "isc": 4341, "oid": 4342, "▁PL": 4343, "▁Wor": 4344, "▁fru": 4345, "ensis": 4346, "ve": 4347, "▁forty": 4348, "pit": 4349, "▁Graf": 4350, "riel": 4351, "fig": 4352, "▁Hind": 4353, "ARD": 4354, "eme": 4355, "▁moder": 4356, "▁Ken": 4357, "IM": 4358, "sl": 4359, "▁Bah": 4360, "SO": 4361, "▁Psych": 4362, "▁LO": 4363, "▁Fed": 4364, "▁Liter": 4365, "▁Luc": 4366, "▁lack": 4367, "▁Bass": 4368, "oly": 4369, "aupt": 4370, "mile": 4371, "iju": 4372, "▁dri": 4373, "▁Ast": 4374, "▁gem": 4375, "PU": 4376, "▁famil": 4377, "▁pel": 4378, "inas": 4379, "▁tf": 4380, "▁Honor": 4381, "eng": 4382, "▁State": 4383, "rep": 4384, "CY": 4385, "acies": 4386, "▁NO": 4387, "▁Brow": 4388, "off": 4389, "way": 4390, "▁Auto": 4391, "▁Hann": 4392, "SM": 4393, "▁pent": 4394, "part": 4395, "lag": 4396, "▁Haw": 4397, "Or": 4398, "▁order": 4399, "▁Fig": 4400, "▁Test": 4401, "EST": 4402, "ish": 4403, "dst": 4404, "plan": 4405, "ronic": 4406, "▁dest": 4407, "alle": 4408, "ix": 4409, "▁deport": 4410, "▁lista": 4411, "▁bunk": 4412, "yman": 4413, "▁Rab": 4414, "fo": 4415, "lap": 4416, "▁bed": 4417, "iser": 4418, "▁Plus": 4419, "loc": 4420, "▁Lil": 4421, "ux": 4422, "▁frustr": 4423, "oca": 4424, "▁propos": 4425, "▁Ex": 4426, "▁Es": 4427, "▁ano": 4428, "endent": 4429, "▁apost": 4430, "▁Das": 4431, "aco": 4432, "▁MO": 4433, "▁Peter": 4434, "▁reprodu": 4435, "▁Tot": 4436, "hel": 4437, "EC": 4438, "heim": 4439, "▁ate": 4440, "▁Anal": 4441, "▁AG": 4442, "\"),": 4443, "▁Fre": 4444, "▁burn": 4445, "ingen": 4446, "▁definit": 4447, "agna": 4448, "entr": 4449, "ANT": 4450, "▁drag": 4451, "ijo": 4452, "▁arc": 4453, "ting": 4454, "▁Lind": 4455, "▁Horn": 4456, "Mus": 4457, "endor": 4458, "▁Pri": 4459, "lich": 4460, "UG": 4461, "▁BO": 4462, "▁Marg": 4463, "Ha": 4464, "bery": 4465, "wick": 4466, "aff": 4467, "▁som": 4468, "▁jazz": 4469, "▁polite": 4470, "uri": 4471, "ogen": 4472, "▁Ce": 4473, "▁Wall": 4474, "inity": 4475, "▁gam": 4476, "▁Mc": 4477, "ver": 4478, "▁Lucy": 4479, "lla": 4480, "Now": 4481, "Ad": 4482, "umin": 4483, "iff": 4484, "aur": 4485, "▁pet": 4486, "▁The": 4487, "▁ml": 4488, "▁pen": 4489, "▁reporter": 4490, "bec": 4491, "!!!!": 4492, "tre": 4493, "USA": 4494, "eller": 4495, "▁Lad": 4496, "▁Sche": 4497, "▁Hans": 4498, "▁notes": 4499, "onial": 4500, "▁junior": 4501, "▁Sim": 4502, "▁Con": 4503, "▁mm": 4504, "WD": 4505, "ARE": 4506, "alia": 4507, "ormal": 4508, "▁Ra": 4509, "▁Chron": 4510, "▁Ster": 4511, "▁Ban": 4512, "asc": 4513, "▁ve": 4514, "▁terminal": 4515, "Fr": 4516, "PI": 4517, "▁mare": 4518, "▁nan": 4519, "▁nost": 4520, "obe": 4521, "▁University": 4522, "▁plat": 4523, "Pos": 4524, "▁Ga": 4525, "▁platform": 4526, "▁ment": 4527, "itas": 4528, "ardi": 4529, "▁pale": 4530, "▁hero": 4531, "▁Big": 4532, "psy": 4533, "▁Bet": 4534, "▁partners": 4535, "▁serial": 4536, "▁George": 4537, "aced": 4538, "▁--": 4539, "▁Pur": 4540, "▁klik": 4541, "▁MP": 4542, "▁US": 4543, "lif": 4544, "oment": 4545, "▁mail": 4546, "▁Emp": 4547, "▁inspir": 4548, "market": 4549, "date": 4550, "lock": 4551, "mp": 4552, "▁Gle": 4553, "▁emit": 4554, "UK": 4555, "obby": 4556, "▁Krist": 4557, "▁cul": 4558, "▁mul": 4559, "URE": 4560, "ARK": 4561, "agram": 4562, "▁cu": 4563, "▁medium": 4564, "▁Niger": 4565, "▁tok": 4566, "▁sup": 4567, "igd": 4568, "ando": 4569, "rah": 4570, "▁Past": 4571, "▁BR": 4572, "▁nob": 4573, "IX": 4574, "uela": 4575, "▁Tes": 4576, "ox": 4577, "entry": 4578, "▁Jeff": 4579, "▁Cyr": 4580, "ental": 4581, "reat": 4582, "▁Mult": 4583, "▁AA": 4584, "▁jo": 4585, "plot": 4586, "▁synt": 4587, "▁Pir": 4588, "▁ger": 4589, "▁mast": 4590, "ulin": 4591, "▁Gol": 4592, "▁lan": 4593, "err": 4594, "▁Sad": 4595, "▁Ukr": 4596, "▁Normal": 4597, "semb": 4598, "imir": 4599, "▁dry": 4600, "▁dealer": 4601, "LA": 4602, "oot": 4603, "bert": 4604, "wood": 4605, "SA": 4606, "walk": 4607, "DR": 4608, "▁Sl": 4609, "mate": 4610, "▁CB": 4611, "ath": 4612, "orter": 4613, "▁MB": 4614, "▁autonom": 4615, "RD": 4616, "ahan": 4617, "▁went": 4618, "▁Pakistan": 4619, "▁fre": 4620, "▁Moz": 4621, "hl": 4622, "rie": 4623, "▁BY": 4624, "▁mineral": 4625, "▁William": 4626, "med": 4627, "ido": 4628, "▁Mechan": 4629, "▁Walter": 4630, "ones": 4631, "UP": 4632, "natural": 4633, "In": 4634, "▁TO": 4635, "▁ded": 4636, "▁+": 4637, "ders": 4638, "▁stark": 4639, "▁new": 4640, "▁face": 4641, "▁Front": 4642, "▁Tok": 4643, "elt": 4644, "▁Chicago": 4645, "wall": 4646, "ifa": 4647, "ugu": 4648, "aurus": 4649, "▁hop": 4650, "WID": 4651, "illes": 4652, "Pe": 4653, "itol": 4654, "▁Portugal": 4655, "inder": 4656, "que": 4657, "▁CO": 4658, "best": 4659, "▁Turn": 4660, "▁Annie": 4661, "▁Burg": 4662, "▁military": 4663, "ials": 4664, "▁cher": 4665, "abul": 4666, "CD": 4667, "WR": 4668, "▁Hoff": 4669, "ex": 4670, "▁Beat": 4671, "ijk": 4672, "▁lord": 4673, "▁Nach": 4674, "▁Buc": 4675, "char": 4676, "utt": 4677, "ses": 4678, "alom": 4679, "▁Region": 4680, "BI": 4681, "▁Albert": 4682, "▁tir": 4683, "▁Tony": 4684, "▁Num": 4685, "ideo": 4686, "▁Jean": 4687, "emp": 4688, "▁pont": 4689, "adora": 4690, "bag": 4691, "DO": 4692, "▁golf": 4693, "óm": 4694, "▁Stein": 4695, "▁Fal": 4696, "obs": 4697, "anti": 4698, "▁limit": 4699, "▁horm": 4700, "opl": 4701, "board": 4702, "oth": 4703, "termin": 4704, "dma": 4705, "DE": 4706, "▁Modern": 4707, "MI": 4708, "TT": 4709, "▁Start": 4710, "▁%": 4711, "utz": 4712, "▁Marcel": 4713, "tos": 4714, ".....": 4715, "▁Emer": 4716, "▁Austria": 4717, "ACH": 4718, "CA": 4719, "▁James": 4720, "▁Ire": 4721, "▁trab": 4722, "stop": 4723, "▁finale": 4724, "▁Monte": 4725, "SC": 4726, "cm": 4727, "▁penetr": 4728, "STR": 4729, "▁Jordan": 4730, "eman": 4731, "▁show": 4732, "ologie": 4733, "▁York": 4734, "orb": 4735, "▁vol": 4736, "system": 4737, "▁Media": 4738, "▁federal": 4739, "ento": 4740, "bet": 4741, "▁Cr": 4742, "▁transparent": 4743, "▁Testament": 4744, "wich": 4745, "▁dit": 4746, "▁sud": 4747, "rcu": 4748, "wards": 4749, "▁modest": 4750, "▁imped": 4751, "▁respons": 4752, "▁tent": 4753, "uct": 4754, "▁deliber": 4755, "CAP": 4756, "alter": 4757, "▁put": 4758, "▁vel": 4759, "▁amaz": 4760, "Mer": 4761, "rt": 4762, "amaz": 4763, "rag": 4764, "▁fle": 4765, "▁flu": 4766, "▁RE": 4767, "▁Sel": 4768, "▁mole": 4769, "▁Prote": 4770, "ylan": 4771, "yll": 4772, "▁PA": 4773, "▁Hamilton": 4774, "TON": 4775, "▁Tan": 4776, "We": 4777, "rey": 4778, "▁kind": 4779, "feld": 4780, "ember": 4781, "gel": 4782, "▁Rank": 4783, "aland": 4784, "▁AB": 4785, "oun": 4786, "stud": 4787, "▁Saint": 4788, "Ag": 4789, "eren": 4790, "▁Link": 4791, "▁Boy": 4792, "▁bus": 4793, "▁hydro": 4794, "▁the": 4795, "▁orb": 4796, "Enter": 4797, "uit": 4798, "’.": 4799, "▁mud": 4800, "▁Gabriel": 4801, "obj": 4802, "▁wand": 4803, "▁apart": 4804, "▁Tab": 4805, "Jan": 4806, "ester": 4807, "ael": 4808, "ott": 4809, "uth": 4810, "▁pour": 4811, "▁Jon": 4812, "▁imperial": 4813, "ait": 4814, "syn": 4815, "Gr": 4816, "▁pp": 4817, "Be": 4818, "HO": 4819, "▁IM": 4820, "▁cum": 4821, "Dr": 4822, "▁Thomas": 4823, "aming": 4824, "▁tand": 4825, "▁senior": 4826, "▁Fer": 4827, "▁Hub": 4828, "▁Sun": 4829, "▁Can": 4830, "edia": 4831, "idd": 4832, "udi": 4833, "our": 4834, "imat": 4835, "▁CS": 4836, "▁FM": 4837, "obal": 4838, "ev": 4839, "▁whisk": 4840, "▁Typ": 4841, "field": 4842, "▁Fred": 4843, "autom": 4844, "fun": 4845, "▁Fac": 4846, "IDS": 4847, "▁OR": 4848, "▁Element": 4849, "▁ing": 4850, "van": 4851, "beta": 4852, "oge": 4853, "▁Fol": 4854, "sche": 4855, "▁Islam": 4856, "CK": 4857, "itos": 4858, "▁Transport": 4859, "▁marketing": 4860, "▁dub": 4861, "ublic": 4862, "...,": 4863, "nent": 4864, "▁rs": 4865, "oct": 4866, "wiki": 4867, "ify": 4868, "ocon": 4869, "amas": 4870, "bled": 4871, "▁Hu": 4872, "drag": 4873, "▁Abu": 4874, "itor": 4875, "▁German": 4876, "bil": 4877, "uum": 4878, "▁Kurt": 4879, "▁teles": 4880, "▁migr": 4881, "▁Abraham": 4882, "rib": 4883, "Her": 4884, "igo": 4885, "att": 4886, "▁Sue": 4887, "▁Bark": 4888, "▁know": 4889, "▁Music": 4890, "▁Hur": 4891, "KK": 4892, "▁pass": 4893, "▁aux": 4894, "▁Meg": 4895, "imal": 4896, "▁mental": 4897, "wind": 4898, "opt": 4899, "▁Had": 4900, "▁sera": 4901, "▁pup": 4902, "▁DNA": 4903, "▁gol": 4904, "▁Mes": 4905, "▁Ford": 4906, "ven": 4907, "▁Trans": 4908, "▁Hun": 4909, "▁urban": 4910, "▁Stad": 4911, "▁Imper": 4912, "▁rece": 4913, "kind": 4914, "Op": 4915, "▁Ke": 4916, "agen": 4917, "▁Wood": 4918, "▁impl": 4919, "▁Band": 4920, "itr": 4921, "MF": 4922, "▁Sebastian": 4923, "ifest": 4924, "iro": 4925, "▁refund": 4926, "atore": 4927, "▁marks": 4928, "▁narr": 4929, "▁Liber": 4930, "iop": 4931, "▁ese": 4932, "PK": 4933, "▁FBI": 4934, "▁aliment": 4935, "▁Mack": 4936, "IEW": 4937, "los": 4938, "▁Def": 4939, "SD": 4940, "▁Alfred": 4941, "▁MR": 4942, "asse": 4943, "▁pseudo": 4944, "lor": 4945, "▁Sup": 4946, "out": 4947, "ursor": 4948, "▁History": 4949, "olt": 4950, "▁lap": 4951, "agnost": 4952, "▁PE": 4953, "▁Has": 4954, "▁neutral": 4955, "ATE": 4956, "▁integral": 4957, "ohl": 4958, "▁lobby": 4959, "▁end": 4960, "▁pin": 4961, "uge": 4962, "▁PH": 4963, "iced": 4964, "url": 4965, "isch": 4966, "▁Bundes": 4967, "ORK": 4968, "▁McDonald": 4969, "oden": 4970, "ette": 4971, "ipe": 4972, "hon": 4973, "▁bars": 4974, "▁Pope": 4975, "blem": 4976, "▁astr": 4977, "Pl": 4978, "Sam": 4979, "▁Q": 4980, "rich": 4981, "Hist": 4982, "▁Relig": 4983, "▁arg": 4984, "inger": 4985, "▁tablet": 4986, "▁Arc": 4987, "▁prem": 4988, "▁Bus": 4989, "▁mad": 4990, "▁news": 4991, "▁_": 4992, "ume": 4993, "SY": 4994, "▁UN": 4995, "igan": 4996, "▁Histor": 4997, "lett": 4998, "▁cos": 4999, "▁Pierre": 5000, "ower": 5001, "manuel": 5002, "▁gap": 5003, "iforn": 5004, "▁mini": 5005, "ocur": 5006, "▁sir": 5007, "▁Saw": 5008, "▁bond": 5009, "▁eff": 5010, "▁foss": 5011, "dim": 5012, "▁drop": 5013, "▁sag": 5014, "know": 5015, "▁nil": 5016, "▁Take": 5017, "▁Jake": 5018, "▁Aug": 5019, "turn": 5020, "ammed": 5021, "▁Must": 5022, "ME": 5023, "▁lac": 5024, "▁Cook": 5025, "▁persona": 5026, "▁Farm": 5027, "amed": 5028, "▁Hell": 5029, "cap": 5030, "▁profile": 5031, "▁Gordon": 5032, "ieron": 5033, "▁gradient": 5034, "bes": 5035, "eters": 5036, "▁Ali": 5037, "▁Cap": 5038, "▁drew": 5039, "▁puls": 5040, "▁sel": 5041, "eward": 5042, "ARY": 5043, "▁MY": 5044, "▁Newton": 5045, "amba": 5046, "▁Hem": 5047, "▁ges": 5048, "▁laser": 5049, "YP": 5050, "IF": 5051, "▁McC": 5052, "▁Student": 5053, "▁Milan": 5054, "▁Sebast": 5055, "imum": 5056, "plic": 5057, "▁att": 5058, "▁Party": 5059, "Pop": 5060, "eres": 5061, "▁studio": 5062, "▁Human": 5063, "▁alg": 5064, "?.": 5065, "nals": 5066, "▁Portug": 5067, "jack": 5068, "▁Zel": 5069, "▁holding": 5070, "BN": 5071, "▁neu": 5072, "%)": 5073, "▁Wild": 5074, "▁Gram": 5075, "▁stre": 5076, "▁Brun": 5077, "GB": 5078, "▁Norm": 5079, "▁).": 5080, "▁Michel": 5081, "ped": 5082, "▁parti": 5083, "▁mes": 5084, "▁Land": 5085, "atomic": 5086, "undial": 5087, "▁OB": 5088, "ahr": 5089, "▁Angel": 5090, "▁idi": 5091, "enum": 5092, "▁Pin": 5093, "tm": 5094, "anger": 5095, "ney": 5096, "▁Alban": 5097, "▁Anders": 5098, "▁brow": 5099, "▁Gren": 5100, "Di": 5101, "rio": 5102, "chet": 5103, "▁Bul": 5104, "MB": 5105, "▁Ferd": 5106, "▁TE": 5107, "▁oct": 5108, "▁Peru": 5109, "▁portal": 5110, "opter": 5111, "▁tank": 5112, "eth": 5113, "▁Herr": 5114, "▁Beck": 5115, "▁Roh": 5116, "hent": 5117, "▁monument": 5118, "▁Integr": 5119, "▁Senior": 5120, "▁AM": 5121, "▁Ash": 5122, "▁ade": 5123, "▁legisl": 5124, "lick": 5125, "▁dial": 5126, "pres": 5127, "far": 5128, "▁miss": 5129, "oder": 5130, "▁laptop": 5131, "html": 5132, "FA": 5133, "▁hind": 5134, "▁fact": 5135, "uv": 5136, "▁Bern": 5137, "▁inaugur": 5138, "TS": 5139, "▁Julian": 5140, "inst": 5141, "pid": 5142, "▁Neg": 5143, "aly": 5144, "sbur": 5145, "▁suff": 5146, "▁side": 5147, "uple": 5148, "▁sports": 5149, "uler": 5150, "ists": 5151, "▁familia": 5152, "▁Did": 5153, "▁monaster": 5154, "bf": 5155, "afka": 5156, "▁Wolf": 5157, "cat": 5158, "alie": 5159, "imper": 5160, "aud": 5161, "olia": 5162, "ulf": 5163, "▁Oz": 5164, "ović": 5165, "ucht": 5166, "ots": 5167, "uo": 5168, "▁Ira": 5169, "▁Sally": 5170, "rs": 5171, "▁Lisa": 5172, "gy": 5173, "pent": 5174, "▁Sir": 5175, "▁late": 5176, "▁First": 5177, "▁BB": 5178, "▁mass": 5179, "AU": 5180, "▁Mess": 5181, "Sy": 5182, "IES": 5183, "anto": 5184, "▁instrumental": 5185, "▁priv": 5186, "fty": 5187, "▁spin": 5188, "over": 5189, "sson": 5190, "▁Astr": 5191, "▁ER": 5192, "▁Clinton": 5193, "kins": 5194, "▁repl": 5195, "▁fu": 5196, "Cur": 5197, "cker": 5198, "CL": 5199, "rou": 5200, "edu": 5201, "▁Floren": 5202, "▁Prem": 5203, "▁PC": 5204, "oret": 5205, "▁Dog": 5206, "poch": 5207, "▁Labor": 5208, "▁Nep": 5209, "ky": 5210, "▁mut": 5211, "▁OP": 5212, "▁(-": 5213, "▁Die": 5214, "▁Sur": 5215, "▁Gon": 5216, "imb": 5217, "▁Bis": 5218, "▁Pam": 5219, "▁Kit": 5220, "web": 5221, "▁seg": 5222, "open": 5223, "▁Nicholas": 5224, "▁Gam": 5225, "▁decent": 5226, "lers": 5227, "ajor": 5228, "],": 5229, "▁osc": 5230, "ystem": 5231, "ategory": 5232, "▁segment": 5233, "▁UEFA": 5234, "▁plans": 5235, "▁benef": 5236, "rik": 5237, "▁Som": 5238, "cedes": 5239, "▁Ald": 5240, "▁Romans": 5241, "▁ring": 5242, "▁Plant": 5243, "▁Ven": 5244, "▁American": 5245, "▁Cat": 5246, "bing": 5247, "▁Male": 5248, "▁Michael": 5249, ")?": 5250, "▁Mand": 5251, "▁drink": 5252, "chen": 5253, "itte": 5254, "▁Armen": 5255, "enas": 5256, "▁Bay": 5257, "▁Hamburg": 5258, "▁trend": 5259, "▁Pub": 5260, "apes": 5261, "proc": 5262, "▁sul": 5263, "▁hall": 5264, "adel": 5265, "une": 5266, "▁jug": 5267, "▁sec": 5268, "ags": 5269, "▁Martin": 5270, "UB": 5271, "▁Super": 5272, "▁Alb": 5273, "acon": 5274, "mid": 5275, "▁tart": 5276, "berger": 5277, "rit": 5278, "▁milit": 5279, "alg": 5280, "aser": 5281, "▁transm": 5282, "wt": 5283, "▁feder": 5284, "emit": 5285, "▁UP": 5286, "ston": 5287, "ée": 5288, "▁regener": 5289, "▁Face": 5290, "▁Street": 5291, "▁Non": 5292, "usion": 5293, "▁emp": 5294, "▁strategic": 5295, "▁mamm": 5296, "▁ts": 5297, "week": 5298, "▁May": 5299, "▁Hong": 5300, "▁Chem": 5301, "▁sab": 5302, "Post": 5303, "▁Policy": 5304, "▁Bund": 5305, "▁Wasser": 5306, "▁Sant": 5307, "▁HIV": 5308, "▁Ott": 5309, "tt": 5310, "▁laboratory": 5311, "▁rand": 5312, "▁Jen": 5313, "▁Island": 5314, "oms": 5315, "q": 5316, "▁Bren": 5317, "▁Av": 5318, "▁”": 5319, "▁q": 5320, "▁Asia": 5321, "ken": 5322, "region": 5323, "▁rid": 5324, "▁Eff": 5325, "assy": 5326, "▁If": 5327, "aked": 5328, "▁vir": 5329, "▁respon": 5330, "▁congress": 5331, "▁inv": 5332, "▁HAL": 5333, "eri": 5334, "cn": 5335, "▁primo": 5336, "bridge": 5337, "som": 5338, "▁alias": 5339, "Bas": 5340, "▁Mai": 5341, "▁Lap": 5342, "▁Ath": 5343, "iens": 5344, "most": 5345, "▁gradu": 5346, "▁insp": 5347, "ea": 5348, "lez": 5349, "▁exempl": 5350, "▁Lam": 5351, "fol": 5352, "▁vac": 5353, "uff": 5354, "“": 5355, "atio": 5356, "▁mong": 5357, "▁Hig": 5358, "▁Eliz": 5359, "▁Anim": 5360, "▁EL": 5361, "ye": 5362, "agne": 5363, "WC": 5364, "wire": 5365, "TER": 5366, "▁Tri": 5367, "▁sar": 5368, "cules": 5369, "▁Model": 5370, "▁Tim": 5371, "▁Pand": 5372, "amm": 5373, "ANK": 5374, "▁BE": 5375, "▁Best": 5376, "▁Cambridge": 5377, "aran": 5378, "▁vous": 5379, "▁Air": 5380, "▁Saud": 5381, "▁Pass": 5382, "▁Att": 5383, "inis": 5384, "▁col": 5385, "▁bill": 5386, "▁embr": 5387, "licht": 5388, "ahu": 5389, "News": 5390, "unn": 5391, "HP": 5392, "WAR": 5393, "▁multi": 5394, "▁Diet": 5395, "prof": 5396, "▁WR": 5397, "isse": 5398, "▁Jacques": 5399, "▁March": 5400, "osc": 5401, "▁sense": 5402, "col": 5403, "nen": 5404, "imm": 5405, "erst": 5406, "▁Eng": 5407, "film": 5408, "ird": 5409, "▁Aud": 5410, "Te": 5411, "num": 5412, "▁mob": 5413, "▁meg": 5414, "▁tot": 5415, "▁max": 5416, "▁defens": 5417, "oul": 5418, "werk": 5419, "log": 5420, "nr": 5421, "▁Roland": 5422, "▁marginal": 5423, "▁Vir": 5424, "▁logo": 5425, "▁table": 5426, "La": 5427, "▁Sa": 5428, "▁Georg": 5429, "LP": 5430, "▁Medic": 5431, "ove": 5432, "▁Charles": 5433, "AND": 5434, "▁America": 5435, "▁Lim": 5436, "liter": 5437, "▁angl": 5438, "▁Churchill": 5439, "▁militar": 5440, "▁World": 5441, "▁Nov": 5442, "umen": 5443, "BO": 5444, "▁Sydney": 5445, "▁Bin": 5446, "ush": 5447, "▁Strateg": 5448, "▁Green": 5449, "▁Microsoft": 5450, "▁Claud": 5451, "`": 5452, "▁Gib": 5453, "WP": 5454, "▁jog": 5455, "start": 5456, "▁Sony": 5457, "▁Hist": 5458, "▁preced": 5459, "▁Jackson": 5460, "ú": 5461, "ón": 5462, "........": 5463, "▁nice": 5464, "Pre": 5465, "KE": 5466, "▁Police": 5467, "MON": 5468, "▁Partner": 5469, "▁Bere": 5470, "▁Alt": 5471, "▁Sorry": 5472, "▁Leonard": 5473, "Re": 5474, "▁Val": 5475, "▁Master": 5476, "▁Iran": 5477, "▁MD": 5478, "midt": 5479, "Bar": 5480, "izi": 5481, "▁Baby": 5482, "▁Run": 5483, "beck": 5484, "sf": 5485, "▁orbit": 5486, "▁market": 5487, "▁dent": 5488, "lli": 5489, ".(": 5490, "Ar": 5491, "typ": 5492, "▁Illinois": 5493, "ford": 5494, "▁Log": 5495, "▁Alf": 5496, "▁Rich": 5497, "eton": 5498, "▁Mom": 5499, "Hz": 5500, "▁Made": 5501, "▁data": 5502, "▁Francisco": 5503, "deleg": 5504, "▁Korea": 5505, "▁Vol": 5506, "▁Gall": 5507, "▁bek": 5508, "▁Smith": 5509, "soc": 5510, "▁Nin": 5511, "▁toy": 5512, "odot": 5513, "interpret": 5514, "▁AS": 5515, "enburg": 5516, "▁Joe": 5517, "▁•": 5518, "▁Standard": 5519, "▁Dark": 5520, "Tw": 5521, "Nd": 5522, "▁fell": 5523, "▁nah": 5524, "▁Nut": 5525, "ém": 5526, "▁take": 5527, "▁vis": 5528, "▁Esc": 5529, "▁vict": 5530, "▁vest": 5531, "▁hyp": 5532, "compar": 5533, "▁modo": 5534, "▁Ox": 5535, "jos": 5536, "json": 5537, "cil": 5538, "▁paste": 5539, "▁ill": 5540, "▁Won": 5541, "Fac": 5542, "resc": 5543, "fs": 5544, "inde": 5545, "▁tres": 5546, "▁Hug": 5547, "▁host": 5548, "▁Ret": 5549, "▁vot": 5550, "▁stub": 5551, "▁Chat": 5552, "neum": 5553, "▁Deutsch": 5554, "▁jan": 5555, "Win": 5556, "ific": 5557, "▁arbitr": 5558, "»": 5559, "▁Margaret": 5560, "▁stor": 5561, "▁DA": 5562, "▁trap": 5563, "imag": 5564, "MY": 5565, "▁Harm": 5566, "▁GD": 5567, "sb": 5568, "▁und": 5569, "ams": 5570, "▁Opt": 5571, "ics": 5572, "cul": 5573, "oes": 5574, "alion": 5575, "▁plural": 5576, "▁pig": 5577, "▁sole": 5578, "roe": 5579, "tab": 5580, "ayer": 5581, "▁nuc": 5582, "Os": 5583, "▁ver": 5584, "▁Gest": 5585, "▁FC": 5586, "▁Draw": 5587, "▁Net": 5588, "Min": 5589, "▁Harr": 5590, "▁à": 5591, "▁Leb": 5592, "▁FILE": 5593, "sys": 5594, "elly": 5595, "▁tragic": 5596, "▁Hil": 5597, "▁ib": 5598, "▁bere": 5599, "▁qui": 5600, "▁Miche": 5601, "IZ": 5602, "flow": 5603, "iors": 5604, "▁Regular": 5605, "▁fres": 5606, "ICE": 5607, "▁adopt": 5608, "▁cere": 5609, "▁Lou": 5610, "irk": 5611, "▁permanent": 5612, "▁Shir": 5613, "****": 5614, "PH": 5615, "El": 5616, "▁bub": 5617, "TRY": 5618, "DS": 5619, "holm": 5620, "atori": 5621, "▁land": 5622, "atos": 5623, "ive": 5624, "▁cons": 5625, "▁ere": 5626, "oport": 5627, "mber": 5628, "▁cas": 5629, "▁Toronto": 5630, "▁Prop": 5631, "„": 5632, "▁fet": 5633, "▁Hold": 5634, "▁Hey": 5635, "▁Allen": 5636, "▁BT": 5637, "▁Sin": 5638, "SU": 5639, "uso": 5640, "▁Nina": 5641, "▁Greg": 5642, "plac": 5643, "▁cit": 5644, "For": 5645, "imp": 5646, "ublice": 5647, "DT": 5648, "▁BBC": 5649, "▁Well": 5650, "▁off": 5651, "▁play": 5652, "▁Diego": 5653, "▁Harry": 5654, "agment": 5655, "New": 5656, "▁cl": 5657, "▁Son": 5658, "▁Mount": 5659, "icus": 5660, "▁sex": 5661, "ava": 5662, "Un": 5663, "▁just": 5664, "▁can": 5665, "ucc": 5666, "istry": 5667, "etz": 5668, "DP": 5669, "osti": 5670, "age": 5671, "▁Van": 5672, "idal": 5673, "GI": 5674, "▁Rest": 5675, "▁Bond": 5676, "▁Legisl": 5677, "acher": 5678, "gener": 5679, "▁format": 5680, "▁lambda": 5681, "▁neut": 5682, "sel": 5683, "▁vit": 5684, "▁Delhi": 5685, "▁pip": 5686, "oser": 5687, "frag": 5688, "▁Plot": 5689, "kir": 5690, "NT": 5691, "Mag": 5692, "aring": 5693, "uary": 5694, "▁Sing": 5695, "▁Diana": 5696, "▁Dur": 5697, "▁gut": 5698, "GM": 5699, "diag": 5700, "▁torn": 5701, "▁span": 5702, "redu": 5703, "Organ": 5704, "▁Mass": 5705, "GE": 5706, "ges": 5707, "RI": 5708, "▁mant": 5709, "▁SO": 5710, "▁Medal": 5711, "Fl": 5712, "eland": 5713, "▁bot": 5714, "Mart": 5715, "▁Santa": 5716, "▁Bour": 5717, "chiat": 5718, "prec": 5719, "▁Reich": 5720, "▁SPD": 5721, "dest": 5722, "▁Poland": 5723, "irat": 5724, "▁Pres": 5725, "sor": 5726, "▁Harold": 5727, "--": 5728, "▁panel": 5729, "▁Hunt": 5730, "▁Motor": 5731, "cut": 5732, "▁Will": 5733, "apeut": 5734, "hal": 5735, "Mar": 5736, "▁Center": 5737, "▁ult": 5738, "▁OS": 5739, "ww": 5740, "▁sort": 5741, "▁march": 5742, "cup": 5743, "▁Mul": 5744, "▁Kate": 5745, "tol": 5746, "▁raw": 5747, "▁neuro": 5748, "lav": 5749, "▁Rock": 5750, "▁Bil": 5751, "hn": 5752, "ids": 5753, "hop": 5754, "▁Monitor": 5755, "▁Hill": 5756, "▁Hon": 5757, "hist": 5758, "▁Cast": 5759, "idel": 5760, "▁Cass": 5761, "▁Jim": 5762, "▁MIN": 5763, "▁Order": 5764, "oux": 5765, "pus": 5766, "aug": 5767, "▁▁▁": 5768, "ygon": 5769, "▁Mend": 5770, "▁Para": 5771, "DI": 5772, "rd": 5773, "rl": 5774, "▁geometry": 5775, "▁Angeles": 5776, "▁Black": 5777, "arian": 5778, "▁Mode": 5779, "ation": 5780, "▁promot": 5781, "roll": 5782, "▁aur": 5783, "▁UK": 5784, "▁WP": 5785, "ethe": 5786, "key": 5787, "hend": 5788, "▁jeho": 5789, "aye": 5790, "roup": 5791, "▁prince": 5792, "▁script": 5793, "▁deren": 5794, "▁Dad": 5795, "▁gun": 5796, "▁foi": 5797, "▁contra": 5798, "▁Regiment": 5799, "▁nem": 5800, "quis": 5801, "▁zip": 5802, "▁cord": 5803, "▁must": 5804, "▁ny": 5805, "▁hat": 5806, "opic": 5807, "▁comme": 5808, "▁Bell": 5809, "▁dict": 5810, "▁miser": 5811, "CUR": 5812, "▁lag": 5813, "“.": 5814, "achi": 5815, "LOT": 5816, "pen": 5817, "ova": 5818, "onder": 5819, "▁Rav": 5820, "▁>>": 5821, ".;": 5822, "▁Inc": 5823, "Med": 5824, "¨": 5825, "▁vul": 5826, "oup": 5827, "▁Bomb": 5828, "script": 5829, "ph": 5830, "hom": 5831, "▁Neb": 5832, "▁Agent": 5833, "▁happening": 5834, "▁jeans": 5835, "uti": 5836, "▁Mum": 5837, "anel": 5838, "GL": 5839, "inz": 5840, "▁fals": 5841, "iesa": 5842, "▁gene": 5843, "LIN": 5844, "▁WIT": 5845, "En": 5846, "▁aus": 5847, "▁animal": 5848, "Hel": 5849, "▁luc": 5850, "▁Terr": 5851, "iance": 5852, "more": 5853, "▁Toy": 5854, "atic": 5855, "iva": 5856, "▁Peg": 5857, "sters": 5858, "Media": 5859, "▁rul": 5860, "▁Friedrich": 5861, "▁dou": 5862, "▁ble": 5863, "Star": 5864, "▁heter": 5865, "nil": 5866, "▁gren": 5867, "Me": 5868, "▁Bun": 5869, "elia": 5870, "Bet": 5871, "final": 5872, "▁stadium": 5873, "▁sim": 5874, "want": 5875, "aires": 5876, "TOM": 5877, "ALE": 5878, "MIN": 5879, "inary": 5880, "▁Group": 5881, "iper": 5882, "UC": 5883, "▁Pars": 5884, "=": 5885, "▁Cur": 5886, "▁science": 5887, "▁Chile": 5888, "▁Manhattan": 5889, "▁hist": 5890, "OG": 5891, "▁Alber": 5892, "illon": 5893, "▁Roma": 5894, "▁ball": 5895, "▁Gem": 5896, "erne": 5897, "the": 5898, "nez": 5899, "▁Roll": 5900, "CM": 5901, "ional": 5902, "ours": 5903, "▁PP": 5904, "Fil": 5905, "***": 5906, "ures": 5907, "▁trem": 5908, "▁BL": 5909, "▁Fox": 5910, "▁Service": 5911, "▁Mercedes": 5912, "iqu": 5913, "▁care": 5914, "▁Person": 5915, "uros": 5916, "FW": 5917, "▁Colin": 5918, "olan": 5919, "▁Kum": 5920, "▁Papa": 5921, "ritz": 5922, "▁Josef": 5923, "▁establishment": 5924, "normal": 5925, "Sn": 5926, "TR": 5927, "▁nons": 5928, "ians": 5929, "JO": 5930, "▁style": 5931, "ense": 5932, "▁Loren": 5933, "elo": 5934, "▁Federal": 5935, "▁ti": 5936, "▁Nord": 5937, "oon": 5938, "ovi": 5939, "▁scal": 5940, "pha": 5941, "rika": 5942, "azz": 5943, "intern": 5944, "tle": 5945, "▁Popular": 5946, "▁JO": 5947, "▁Tit": 5948, "ets": 5949, "▁ph": 5950, "▁chronic": 5951, "▁Leop": 5952, "▁Vern": 5953, "iker": 5954, "Sch": 5955, "▁Sav": 5956, "▁rif": 5957, "▁Ca": 5958, "serde": 5959, "ched": 5960, "Sh": 5961, "▁fis": 5962, "▁Hollywood": 5963, "▁Vil": 5964, "▁son": 5965, "shop": 5966, "GU": 5967, "avo": 5968, "utsche": 5969, "Bl": 5970, "app": 5971, "▁Law": 5972, "▁Him": 5973, "▁Fra": 5974, "MR": 5975, "▁aqu": 5976, "▁Ver": 5977, "azure": 5978, "▁\"-": 5979, "▁NOT": 5980, "▁English": 5981, "imedia": 5982, "PEG": 5983, "▁Ric": 5984, "ioni": 5985, "WW": 5986, "pul": 5987, "ther": 5988, "▁Samuel": 5989, "ück": 5990, "Was": 5991, "isen": 5992, "▁Jord": 5993, "▁prosper": 5994, "▁Jose": 5995, "eing": 5996, "▁AC": 5997, "▁Nice": 5998, "▁Argent": 5999, "▁Fire": 6000, "▁Restaur": 6001, "aged": 6002, "▁Vegas": 6003, "▁Beg": 6004, "inator": 6005, "tty": 6006, "ange": 6007, "dsi": 6008, "iller": 6009, "ather": 6010, "▁Flo": 6011, "▁Down": 6012, "Art": 6013, "▁Total": 6014, "▁Cam": 6015, "▁Ult": 6016, "▁Ref": 6017, "▁Schul": 6018, "HA": 6019, "Qu": 6020, "▁Oh": 6021, "▁Anthony": 6022, "▁DE": 6023, "▁\".": 6024, "List": 6025, "held": 6026, "issa": 6027, "▁Pic": 6028, "ash": 6029, "ville": 6030, "▁Temp": 6031, "▁Liberal": 6032, "▁International": 6033, "ight": 6034, "▁David": 6035, "▁Argument": 6036, "▁quasi": 6037, "▁France": 6038, "▁info": 6039, "Ser": 6040, "▁Bert": 6041, "ouch": 6042, "▁Dav": 6043, "ühr": 6044, "▁SE": 6045, "ermo": 6046, "autor": 6047, "etta": 6048, "▁Bill": 6049, "esse": 6050, "PC": 6051, "▁radar": 6052, "ief": 6053, "rix": 6054, "▁lady": 6055, "▁Cos": 6056, "ivo": 6057, "▁Amsterdam": 6058, "CO": 6059, "LIC": 6060, "IB": 6061, "▁Anderson": 6062, "ift": 6063, "▁Roberts": 6064, "|": 6065, "▁Rose": 6066, "▁Leo": 6067, "▁Vin": 6068, "▁casting": 6069, "Sm": 6070, "atern": 6071, "ablo": 6072, "▁Ny": 6073, "Cent": 6074, "De": 6075, "▁Bot": 6076, "abad": 6077, "ping": 6078, "».": 6079, "▁PG": 6080, "rg": 6081, "ulas": 6082, "ACE": 6083, "ker": 6084, "file": 6085, "▁Hav": 6086, "RT": 6087, "▁Carl": 6088, "▁Anne": 6089, "▁mill": 6090, "insky": 6091, "▁Alex": 6092, "numer": 6093, "▁asym": 6094, "▁Fant": 6095, "haus": 6096, "two": 6097, "rient": 6098, "PT": 6099, "▁Symbol": 6100, "▁pred": 6101, "align": 6102, "▁stom": 6103, "▁British": 6104, "Car": 6105, "ATOR": 6106, "▁AP": 6107, "nament": 6108, "▁beat": 6109, "fan": 6110, "ITY": 6111, "ht": 6112, "doc": 6113, "▁pine": 6114, "iger": 6115, "▁AT": 6116, "anza": 6117, "obb": 6118, "▁frag": 6119, "▁Reb": 6120, "king": 6121, "▁IS": 6122, "SB": 6123, "ajo": 6124, "ordon": 6125, "▁here": 6126, "ames": 6127, "Ma": 6128, "▁Dies": 6129, "ulent": 6130, "ings": 6131, "vent": 6132, "isl": 6133, "Stop": 6134, "²": 6135, "▁con": 6136, "▁Andre": 6137, "▁Old": 6138, "▁buddy": 6139, "▁Patri": 6140, "eral": 6141, "techn": 6142, "inf": 6143, "FO": 6144, "All": 6145, "iri": 6146, "▁nd": 6147, "▁Sou": 6148, "hin": 6149, "▁volunt": 6150, "▁dumb": 6151, "▁except": 6152, "üt": 6153, "▁lev": 6154, "▁beg": 6155, "▁ops": 6156, "enden": 6157, "▁geld": 6158, "▁ca": 6159, "▁vom": 6160, "▁arena": 6161, "▁capit": 6162, "esser": 6163, "▁Afr": 6164, "ikel": 6165, "entes": 6166, "encer": 6167, "▁Bald": 6168, "▁Ave": 6169, "uid": 6170, "urch": 6171, "▁dies": 6172, "hof": 6173, "▁insult": 6174, "icit": 6175, "ups": 6176, "ensor": 6177, "▁capt": 6178, "▁que": 6179, "▁Nem": 6180, "▁immer": 6181, "▁div": 6182, "▁schon": 6183, "▁poor": 6184, "▁wire": 6185, "▁SER": 6186, "ptr": 6187, "amic": 6188, "▁Venez": 6189, "▁Mons": 6190, "pdf": 6191, "books": 6192, "▁dign": 6193, "Ab": 6194, "ifer": 6195, "▁GEN": 6196, "ORY": 6197, "oya": 6198, "▁mens": 6199, "▁Dak": 6200, "▁bid": 6201, "▁Chen": 6202, "antes": 6203, "▁disc": 6204, "▁Mut": 6205, "<": 6206, "▁Mau": 6207, "▁NBA": 6208, "vis": 6209, "▁disco": 6210, "vik": 6211, "hang": 6212, "▁Jersey": 6213, "umph": 6214, "asma": 6215, "▁IF": 6216, "▁sign": 6217, "Ap": 6218, "▁obsc": 6219, "▁Phil": 6220, "▁Kh": 6221, "ining": 6222, "▁Klein": 6223, "stack": 6224, "▁stem": 6225, "oren": 6226, "▁Inf": 6227, "▁Aber": 6228, "▁agency": 6229, "▁ske": 6230, "▁Status": 6231, "▁dej": 6232, "oco": 6233, "▁bull": 6234, "▁fro": 6235, "▁prop": 6236, "eu": 6237, "▁Ari": 6238, "▁comb": 6239, "▁FI": 6240, "asing": 6241, "▁Gun": 6242, "▁Rico": 6243, "▁Sed": 6244, "▁Einstein": 6245, "▁Barn": 6246, "▁Santiago": 6247, "▁sympt": 6248, "iver": 6249, "Dam": 6250, "erei": 6251, "▁Press": 6252, "▁Associ": 6253, "▁Fou": 6254, "▁Work": 6255, "aterial": 6256, "ialog": 6257, "▁Open": 6258, "izo": 6259, "▁EC": 6260, "arts": 6261, "Bro": 6262, "(((": 6263, "▁Det": 6264, "▁Gand": 6265, "oir": 6266, "▁Water": 6267, "nant": 6268, "?,": 6269, "▁{": 6270, "hip": 6271, "val": 6272, "auer": 6273, "entin": 6274, "▁sh": 6275, "▁aer": 6276, "▁Cal": 6277, "▁Bau": 6278, "Met": 6279, "solid": 6280, "infl": 6281, "▁Prim": 6282, "arin": 6283, "▁hun": 6284, "▁scent": 6285, "▁Norman": 6286, "▁saw": 6287, "▁Vel": 6288, "iling": 6289, "ROW": 6290, "emony": 6291, "▁North": 6292, "inski": 6293, "▁ful": 6294, "▁Wahl": 6295, "▁ABC": 6296, "JS": 6297, "nell": 6298, "Two": 6299, "▁Roger": 6300, "iii": 6301, "▁GO": 6302, "IST": 6303, "va": 6304, "▁Deg": 6305, "▁Ing": 6306, "▁WIN": 6307, "arr": 6308, "▁End": 6309, "▁Abb": 6310, "rell": 6311, "▁Cool": 6312, "ppen": 6313, "▁Russ": 6314, "▁Germ": 6315, "▁later": 6316, "▁LI": 6317, "hh": 6318, "▁ker": 6319, "▁Hard": 6320, "▁cement": 6321, "▁Erik": 6322, "▁Prix": 6323, "boy": 6324, "Ant": 6325, "▁Ernest": 6326, "▁gentleman": 6327, "▁Fly": 6328, "▁how": 6329, "▁South": 6330, "▁Paris": 6331, "▁LE": 6332, "has": 6333, "ASK": 6334, "card": 6335, "\"\"": 6336, "▁fluid": 6337, "▁Vlad": 6338, "▁Note": 6339, "▁boom": 6340, "▁snow": 6341, "ique": 6342, "ensus": 6343, "▁Cit": 6344, "Az": 6345, "term": 6346, "»,": 6347, "▁Molly": 6348, "ön": 6349, "odd": 6350, "▁Hier": 6351, "Sim": 6352, "bid": 6353, "▁FO": 6354, "emb": 6355, "ave": 6356, "▁Intel": 6357, "▁’": 6358, "Mil": 6359, "▁Holmes": 6360, "▁Sher": 6361, "▁Lie": 6362, "▁admin": 6363, "▁Haus": 6364, "▁Git": 6365, "press": 6366, "$": 6367, "ë": 6368, "atra": 6369, "bio": 6370, "yme": 6371, "▁Cart": 6372, "uld": 6373, "▁File": 6374, "gres": 6375, "Leg": 6376, "▁Ern": 6377, "atis": 6378, "▁indu": 6379, "Il": 6380, "▁Vill": 6381, "At": 6382, "▁Barcel": 6383, "▁subs": 6384, "▁Cons": 6385, "▁Mike": 6386, "esis": 6387, "▁Stanley": 6388, "▁Hart": 6389, "▁Invest": 6390, "▁av": 6391, "▁Card": 6392, "▁East": 6393, "Hit": 6394, "cor": 6395, "▁Ever": 6396, "ife": 6397, "▁PAR": 6398, "God": 6399, "sd": 6400, "-,": 6401, "▁final": 6402, "▁City": 6403, "▁Cab": 6404, "▁you": 6405, "▁Nich": 6406, "▁Miles": 6407, "CS": 6408, "abet": 6409, "unter": 6410, "ydro": 6411, "▁Rec": 6412, "uring": 6413, "▁Math": 6414, "▁Windows": 6415, "rin": 6416, "pse": 6417, "▁RAM": 6418, "▁SC": 6419, "▁Blue": 6420, "ness": 6421, "▁beta": 6422, "gart": 6423, "▁underground": 6424, "▁&": 6425, "ainer": 6426, "▁Video": 6427, "▁Google": 6428, "iness": 6429, "line": 6430, "’,": 6431, "▁hell": 6432, "▁Portal": 6433, "reck": 6434, "material": 6435, "auch": 6436, "ilar": 6437, "▁Adams": 6438, "hand": 6439, "orge": 6440, "▁Richard": 6441, "▁expos": 6442, "Par": 6443, "▁Linda": 6444, "ett": 6445, "ande": 6446, "lette": 6447, "▁Kel": 6448, "▁Ac": 6449, "pose": 6450, "▁yes": 6451, "▁Parker": 6452, "Pt": 6453, "▁Heinrich": 6454, "▁vi": 6455, "▁Guy": 6456, "tot": 6457, "▁spray": 6458, "uras": 6459, "▁Warner": 6460, "▁tant": 6461, "apor": 6462, "▁Get": 6463, "▁zo": 6464, "▁Zeit": 6465, "▁Staff": 6466, "▁image": 6467, "▁pare": 6468, "▁stand": 6469, "ibli": 6470, "▁Union": 6471, "AI": 6472, "fore": 6473, "▁Rosa": 6474, "well": 6475, "atri": 6476, "HE": 6477, "▁Kennedy": 6478, "▁Rh": 6479, "▁(!": 6480, "▁schol": 6481, "Com": 6482, "▁White": 6483, "Dem": 6484, "CP": 6485, "igen": 6486, "CC": 6487, "▁Ax": 6488, "ctr": 6489, "san": 6490, "▁bast": 6491, "▁Villa": 6492, "▁Houston": 6493, "▁Ron": 6494, "imil": 6495, "▁Thom": 6496, "kel": 6497, "brand": 6498, "▁Ut": 6499, "▁fiction": 6500, "break": 6501, "▁Aus": 6502, "▁Jones": 6503, "GD": 6504, "▁Unit": 6505, "ifier": 6506, "á": 6507, "▁gli": 6508, "Cl": 6509, "▁Ward": 6510, "ike": 6511, "▁sorry": 6512, "recht": 6513, "GT": 6514, "tras": 6515, "aker": 6516, "▁cin": 6517, "▁Ev": 6518, "▁Dialog": 6519, "▁bio": 6520, "Ga": 6521, "Most": 6522, "Tur": 6523, "ô": 6524, "ookie": 6525, "kg": 6526, "▁Dick": 6527, "pers": 6528, "avel": 6529, "▁neur": 6530, "symbol": 6531, "▁Williams": 6532, "▁Valent": 6533, "Ok": 6534, "▁Bruno": 6535, "▁prima": 6536, "Mu": 6537, "▁Rain": 6538, "ondo": 6539, "amps": 6540, "GN": 6541, "▁Manchester": 6542, "▁MC": 6543, "Se": 6544, "▁Born": 6545, "ün": 6546, "sole": 6547, "eler": 6548, "▁Von": 6549, "care": 6550, "▁College": 6551, "Wr": 6552, "ared": 6553, "enez": 6554, "▁era": 6555, "#": 6556, "news": 6557, "▁civ": 6558, "▁Victor": 6559, "▁premi": 6560, "▁musical": 6561, "▁WAR": 6562, "▁Zero": 6563, "▁Eric": 6564, "Im": 6565, "Rob": 6566, "▁deg": 6567, "▁Ton": 6568, "▁austral": 6569, "ilda": 6570, "í": 6571, "nit": 6572, "idas": 6573, "▁Spiel": 6574, "▁boy": 6575, "▁lunch": 6576, "unch": 6577, "FP": 6578, "▁Mann": 6579, "pub": 6580, "▁$": 6581, "▁Wel": 6582, "▁Wilhelm": 6583, "Mark": 6584, "cost": 6585, "under": 6586, "rent": 6587, "▁Data": 6588, "BS": 6589, "▁Vict": 6590, "arge": 6591, "▁pid": 6592, "bt": 6593, "▁artic": 6594, "unct": 6595, "▁WM": 6596, "▁girl": 6597, "skin": 6598, "▁prospect": 6599, "reed": 6600, "vre": 6601, "▁hass": 6602, "▁ski": 6603, "cite": 6604, "▁bore": 6605, "▁right": 6606, "▁só": 6607, "ocom": 6608, "enses": 6609, "▁circ": 6610, "▁Aqu": 6611, "akte": 6612, "plica": 6613, "▁cur": 6614, "thon": 6615, "anes": 6616, "elles": 6617, "ters": 6618, "▁Kent": 6619, "▁otro": 6620, "rito": 6621, "ei": 6622, "onte": 6623, "uen": 6624, "undo": 6625, "▁ass": 6626, "equ": 6627, "ctor": 6628, "▁excit": 6629, "imit": 6630, "éc": 6631, "▁sep": 6632, "▁necess": 6633, "mor": 6634, "first": 6635, "▁Ec": 6636, "etes": 6637, "perf": 6638, "*;": 6639, "▁mobile": 6640, "▁perpet": 6641, "▁lie": 6642, "ches": 6643, "▁date": 6644, "▁desen": 6645, "▁Kinder": 6646, "▁any": 6647, "▁Famil": 6648, "BER": 6649, "▁secur": 6650, "▁dude": 6651, "▁cet": 6652, "▁multiple": 6653, "CTOR": 6654, "ieur": 6655, "Ms": 6656, "▁vill": 6657, "▁patch": 6658, "hus": 6659, "▁gau": 6660, "anas": 6661, "rant": 6662, "▁HP": 6663, "helm": 6664, "▁liberty": 6665, "▁sj": 6666, "▁water": 6667, "mul": 6668, "▁sched": 6669, "▁desp": 6670, "▁Zur": 6671, "ress": 6672, "▁hast": 6673, "▁folk": 6674, "plit": 6675, "CN": 6676, "pler": 6677, "Will": 6678, "▁Ellen": 6679, "▁mp": 6680, "Mult": 6681, "▁trois": 6682, "sym": 6683, "osten": 6684, "abb": 6685, "▁Carlo": 6686, "▁Haupt": 6687, "▁Dis": 6688, "▁pron": 6689, "▁expose": 6690, "▁Perry": 6691, "▁National": 6692, "▁Hay": 6693, "▁Ji": 6694, "pass": 6695, "▁vin": 6696, "ifi": 6697, "▁Emb": 6698, "Reg": 6699, "ways": 6700, "▁NAS": 6701, "viv": 6702, "ischer": 6703, "sec": 6704, "sur": 6705, "anges": 6706, "ép": 6707, "▁Frankfurt": 6708, "▁Rhe": 6709, "ür": 6710, "▁Jenny": 6711, "RM": 6712, "▁mort": 6713, "pton": 6714, "BU": 6715, "▁cand": 6716, "cé": 6717, "▁Fut": 6718, "Produ": 6719, "▁Benjamin": 6720, "TI": 6721, "▁Arena": 6722, "▁home": 6723, "▁boot": 6724, "▁Maur": 6725, "Len": 6726, "▁Wow": 6727, "▁Metal": 6728, "ynamic": 6729, "▁Web": 6730, "▁Fu": 6731, "▁wen": 6732, "▁Conne": 6733, "▁Marshall": 6734, "▁January": 6735, "DM": 6736, "▁(*": 6737, "▁instr": 6738, "indow": 6739, "oooo": 6740, "▁cyber": 6741, "aggio": 6742, "hib": 6743, "▁delle": 6744, "▁Later": 6745, "imer": 6746, "eline": 6747, "▁Jac": 6748, "▁SU": 6749, "inta": 6750, "rij": 6751, "▁OF": 6752, "▁Volk": 6753, "▁Coll": 6754, "▁Royal": 6755, "▁talk": 6756, "▁prim": 6757, "▁Scient": 6758, "spec": 6759, "spe": 6760, "integr": 6761, "▁sac": 6762, "▁nov": 6763, "▁Aires": 6764, "▁Buenos": 6765, "är": 6766, "▁Garden": 6767, "▁Jonathan": 6768, "▁western": 6769, "aml": 6770, "▁opera": 6771, "▁cast": 6772, "lect": 6773, "▁Khan": 6774, "▁camp": 6775, "aux": 6776, "▁dev": 6777, "itut": 6778, "▁Blake": 6779, "▁Graph": 6780, "▁Vis": 6781, "PG": 6782, "▁ende": 6783, "RC": 6784, "▁Jesus": 6785, "Sup": 6786, "▁Harvey": 6787, "▁bes": 6788, "show": 6789, "grid": 6790, "usch": 6791, "FL": 6792, "iso": 6793, "▁all": 6794, "▁song": 6795, "asso": 6796, "head": 6797, "▁Map": 6798, "▁BA": 6799, "▁Sach": 6800, "▁Columbia": 6801, "bed": 6802, "ried": 6803, "▁Autom": 6804, "Rep": 6805, "Mac": 6806, "Stat": 6807, "omp": 6808, "aph": 6809, "As": 6810, "▁Lol": 6811, "▁transc": 6812, "Ne": 6813, "▁cred": 6814, "▁Arkansas": 6815, "lab": 6816, "▁Apple": 6817, "▁jer": 6818, "▁vista": 6819, "separ": 6820, "vy": 6821, "▁Stuart": 6822, "Part": 6823, "aven": 6824, "▁Lev": 6825, "▁SW": 6826, "▁WA": 6827, "hab": 6828, "▁diagram": 6829, "ND": 6830, "xt": 6831, "▁race": 6832, "▁Camp": 6833, "▁More": 6834, "▁ign": 6835, "ques": 6836, "affe": 6837, "▁Luft": 6838, "hum": 6839, "▁Home": 6840, "▁DL": 6841, "ansk": 6842, "ilt": 6843, "inceton": 6844, "▁literal": 6845, "▁NT": 6846, "▁NY": 6847, "▁Lyn": 6848, "HS": 6849, "▁wanna": 6850, "▁Prince": 6851, "▁Leader": 6852, "▁Comp": 6853, "▁embargo": 6854, "▁''": 6855, "Play": 6856, "▁PM": 6857, "BB": 6858, "▁Gel": 6859, "▁Mull": 6860, "▁Ill": 6861, "XX": 6862, "ational": 6863, "erset": 6864, "▁folder": 6865, "BR": 6866, "emic": 6867, ".\",": 6868, "▁Tour": 6869, "▁Charl": 6870, "▁Davis": 6871, "idge": 6872, "plus": 6873, "BE": 6874, "HL": 6875, "Res": 6876, "ORT": 6877, "spl": 6878, "▁Cro": 6879, "pio": 6880, "▁Matt": 6881, "^": 6882, "xa": 6883, "▁ONE": 6884, "Tom": 6885, "▁femme": 6886, "▁Grace": 6887, "pite": 6888, "▁ferm": 6889, "ahl": 6890, "▁Mans": 6891, "▁Isa": 6892, "▁Massachusetts": 6893, "ober": 6894, "bias": 6895, "▁Larry": 6896, "▁Kentucky": 6897, "▁Arist": 6898, "▁Wh": 6899, "▁Punk": 6900, "▁Baltimore": 6901, "iti": 6902, "Ind": 6903, "▁Moore": 6904, "▁Hof": 6905, "▁Berkeley": 6906, "▁Brown": 6907, "▁Vo": 6908, "▁Brook": 6909, "▁monitoring": 6910, "argo": 6911, "▁pam": 6912, "▁Office": 6913, "▁Great": 6914, "▁lemon": 6915, "▁serie": 6916, "rid": 6917, "▁long": 6918, "▁deter": 6919, "ERY": 6920, "oline": 6921, "ische": 6922, "ITE": 6923, "▁okay": 6924, "imes": 6925, "iral": 6926, "▁BS": 6927, "▁Carter": 6928, "apse": 6929, "▁grav": 6930, "Off": 6931, "▁Intelligence": 6932, "▁bew": 6933, "Rom": 6934, "iten": 6935, "izz": 6936, "▁ultra": 6937, "▁Times": 6938, "▁Fem": 6939, "heart": 6940, "▁propaganda": 6941, "▁Technology": 6942, "▁tod": 6943, "bars": 6944, "▁Smart": 6945, "aves": 6946, "Pen": 6947, "▁solo": 6948, "▁Serie": 6949, "sky": 6950, "▁Brad": 6951, "▁attach": 6952, "▁synchron": 6953, "▁SN": 6954, "▁meta": 6955, "aat": 6956, "▁Mort": 6957, "▁mai": 6958, "FT": 6959, "▁Cell": 6960, "fred": 6961, "lement": 6962, "rate": 6963, "atti": 6964, "▁Lee": 6965, "▁causa": 6966, "ns": 6967, "▁fo": 6968, "▁Blo": 6969, "ners": 6970, "▁Rachel": 6971, "othes": 6972, "▁Barr": 6973, "▁bien": 6974, "MAT": 6975, "ropy": 6976, "rale": 6977, "mt": 6978, "http": 6979, "▁point": 6980, "rend": 6981, "▁HE": 6982, "▁CR": 6983, "Sequ": 6984, "▁single": 6985, "▁oral": 6986, "indo": 6987, "airo": 6988, "Black": 6989, "ske": 6990, "note": 6991, "inen": 6992, ":-": 6993, "ya": 6994, "▁CNN": 6995, "ilers": 6996, "▁Denver": 6997, "<0xA2>": 6998, "▁Touch": 6999, "uis": 7000, "▁Festival": 7001, "engu": 7002, "▁Ez": 7003, "oint": 7004, "Am": 7005, "▁Cop": 7006, "▁Ort": 7007, "▁bare": 7008, "▁Ah": 7009, "Man": 7010, "ening": 7011, "▁tech": 7012, "▁DJ": 7013, "▁Ende": 7014, "▁`": 7015, "orio": 7016, "▁Karen": 7017, "olly": 7018, "▁Lawrence": 7019, "▁ramp": 7020, "▁Metro": 7021, "▁\"+": 7022, "▁transl": 7023, "▁Advanced": 7024, "▁Div": 7025, "▁chip": 7026, "▁Read": 7027, "▁fire": 7028, "▁Serial": 7029, "▁TH": 7030, "▁ai": 7031, "▁fit": 7032, "▁blues": 7033, "itory": 7034, "tha": 7035, "▁Kin": 7036, "ovie": 7037, "▁cool": 7038, "ever": 7039, "ä": 7040, "▁Vi": 7041, "Mod": 7042, "Af": 7043, "▁templ": 7044, "WF": 7045, "ARB": 7046, "izia": 7047, "▁AUT": 7048, "▁demol": 7049, "▁team": 7050, "onto": 7051, "▁Jane": 7052, "▁Dat": 7053, "ilde": 7054, "▁prohib": 7055, "▁Scott": 7056, "▁Cher": 7057, "iffer": 7058, "aya": 7059, "▁Ay": 7060, "▁emb": 7061, "▁Spencer": 7062, "anton": 7063, "oop": 7064, "iros": 7065, "lov": 7066, "▁memor": 7067, "Ber": 7068, "▁Altern": 7069, ")\"": 7070, "Bag": 7071, "▁happy": 7072, "ielle": 7073, "▁Special": 7074, "pson": 7075, "server": 7076, "▁Jos": 7077, "▁Church": 7078, "▁pied": 7079, "irl": 7080, "▁ranking": 7081, "▁Mall": 7082, "▁Navy": 7083, "Jack": 7084, "▁Saf": 7085, "▁Washington": 7086, "▁Rule": 7087, "▁Chris": 7088, "▁fix": 7089, "▁police": 7090, "super": 7091, "learn": 7092, "upiter": 7093, "▁Centre": 7094, "▁Business": 7095, "▁Imm": 7096, "emen": 7097, "GG": 7098, "▁ik": 7099, "▁beh": 7100, "dap": 7101, "▁Sec": 7102, "ACHE": 7103, "ached": 7104, "▁Space": 7105, "ichen": 7106, "Pal": 7107, "č": 7108, "▁Duke": 7109, "watch": 7110, "tti": 7111, "▁Cameron": 7112, "▁Wind": 7113, "▁Crist": 7114, ".[": 7115, "▁zur": 7116, "useppe": 7117, "PB": 7118, "▁Wilson": 7119, "▁News": 7120, "▁bell": 7121, "cord": 7122, "▁Esp": 7123, "▁Mask": 7124, "Aut": 7125, "xx": 7126, "ems": 7127, "Not": 7128, "ashington": 7129, "▁Springs": 7130, "intel": 7131, "▁Sep": 7132, "▁Ess": 7133, "Requ": 7134, "vin": 7135, "TP": 7136, "gio": 7137, "▁fast": 7138, "▁arte": 7139, "ering": 7140, "ierre": 7141, "▁lob": 7142, "onde": 7143, "▁Kultur": 7144, "▁Host": 7145, "roke": 7146, "▁Ontario": 7147, "▁cam": 7148, "▁Lar": 7149, "box": 7150, "▁Louis": 7151, "▁Steve": 7152, "spot": 7153, "▁FE": 7154, "roy": 7155, "sburg": 7156, "▁Pitt": 7157, "gov": 7158, "Univers": 7159, "▁NE": 7160, "▁hem": 7161, "▁Scotland": 7162, "Col": 7163, "▁Tommy": 7164, "▁Sig": 7165, "▁tendency": 7166, "▁Miami": 7167, "▁Var": 7168, "▁Shell": 7169, "▁Atlantic": 7170, "ved": 7171, "arter": 7172, "Intern": 7173, "▁video": 7174, "▁McG": 7175, "SR": 7176, "▁Holland": 7177, "ugar": 7178, "isten": 7179, "ONE": 7180, "ml": 7181, "▁Franco": 7182, "▁FIFA": 7183, "BC": 7184, "bers": 7185, "esc": 7186, "arry": 7187, "mitt": 7188, "DN": 7189, "▁Bent": 7190, "jav": 7191, "▁Company": 7192, "▁cru": 7193, "▁Cann": 7194, "riv": 7195, "équ": 7196, "▁flo": 7197, "▁use": 7198, "enze": 7199, "tail": 7200, "▁sudd": 7201, "Fat": 7202, "Char": 7203, "▁Dit": 7204, "▁sor": 7205, "Sir": 7206, "▁adoles": 7207, "▁Ts": 7208, "▁ministry": 7209, "▁legit": 7210, "istic": 7211, "▁serv": 7212, "irs": 7213, "▁Schw": 7214, "enti": 7215, "nico": 7216, "Dot": 7217, "Hor": 7218, "▁tail": 7219, "▁cad": 7220, "▁sanct": 7221, "iface": 7222, "Grad": 7223, "▁cler": 7224, "▁Hud": 7225, "▁Fitz": 7226, "lb": 7227, "sis": 7228, "▁regia": 7229, "bg": 7230, "mans": 7231, "nut": 7232, "aiser": 7233, "▁rav": 7234, "▁clos": 7235, "▁aussi": 7236, "owing": 7237, "ennes": 7238, "ét": 7239, "isson": 7240, "Fig": 7241, "kem": 7242, "▁pace": 7243, "ussy": 7244, "▁quantum": 7245, "▁cert": 7246, "▁Balt": 7247, "▁cogn": 7248, "▁candid": 7249, "▁compar": 7250, "page": 7251, "▁Amazon": 7252, "▁uns": 7253, "▁Wend": 7254, "▁Vor": 7255, "▁Requ": 7256, "▁parte": 7257, "Best": 7258, "▁corpor": 7259, "esar": 7260, "▁>": 7261, "▁ven": 7262, "▁Circ": 7263, "cell": 7264, "▁Tun": 7265, "tim": 7266, "▁Kirk": 7267, "▁track": 7268, "atre": 7269, "▁Ker": 7270, "omed": 7271, "▁Hero": 7272, "▁miles": 7273, "▁conf": 7274, "▁innoc": 7275, "▁requ": 7276, "▁punct": 7277, "▁figure": 7278, "▁pile": 7279, "aces": 7280, "▁Brew": 7281, "▁Rug": 7282, "iders": 7283, "▁extrem": 7284, "▁Ext": 7285, "▁exped": 7286, "person": 7287, "emet": 7288, "bere": 7289, "tc": 7290, "▁convent": 7291, "HER": 7292, "▁ali": 7293, "▁vale": 7294, "Ir": 7295, "pag": 7296, "öd": 7297, "essen": 7298, "▁voll": 7299, "▁sich": 7300, "▁noch": 7301, "▁terra": 7302, "▁ave": 7303, "▁tamb": 7304, "▁rule": 7305, "▁fert": 7306, "▁handle": 7307, "rn": 7308, "AST": 7309, "pare": 7310, "upt": 7311, "illo": 7312, "▁ingred": 7313, "▁dun": 7314, "It": 7315, "mr": 7316, "▁Institut": 7317, "alth": 7318, "AME": 7319, "▁Cert": 7320, "older": 7321, "▁−": 7322, "š": 7323, "▁Sex": 7324, "System": 7325, "onen": 7326, "Gu": 7327, "ieux": 7328, "rov": 7329, "▁wird": 7330, "▁momentum": 7331, "âte": 7332, "ça": 7333, "▁arr": 7334, "ISTER": 7335, "side": 7336, "Det": 7337, "bury": 7338, "itter": 7339, "nels": 7340, "▁enough": 7341, "▁This": 7342, "▁this": 7343, "td": 7344, "▁pack": 7345, "rass": 7346, "▁Dest": 7347, "▁jet": 7348, "check": 7349, "lex": 7350, "▁Cob": 7351, "`)": 7352, "export": 7353, "▁Cre": 7354, "▁Brend": 7355, "otto": 7356, "GF": 7357, "arth": 7358, "▁Button": 7359, "ör": 7360, "annot": 7361, "zs": 7362, "▁cre": 7363, "And": 7364, "▁campus": 7365, "WIN": 7366, "ERN": 7367, "ILE": 7368, "▁puzzle": 7369, "cca": 7370, "Che": 7371, "▁Clay": 7372, "ktop": 7373, "▁Queens": 7374, "▁Kön": 7375, "/(": 7376, "orders": 7377, "▁Scottish": 7378, "▁Pul": 7379, "ICK": 7380, "▁open": 7381, "▁Junior": 7382, "ées": 7383, "▁Taylor": 7384, "mad": 7385, "insi": 7386, "▁Que": 7387, "▁Road": 7388, "▁Drag": 7389, "▁GA": 7390, "FACE": 7391, "▁MAC": 7392, "arden": 7393, "PRO": 7394, "HD": 7395, "ancia": 7396, "▁Universal": 7397, "Scan": 7398, "fee": 7399, "▁Emma": 7400, "tegr": 7401, "▁rein": 7402, "Chart": 7403, "oping": 7404, "ves": 7405, "▁Wien": 7406, "--)": 7407, "▁Scre": 7408, "FR": 7409, "▁Progress": 7410, "stad": 7411, "')": 7412, "▁ISO": 7413, "▁Personal": 7414, "▁sav": 7415, "▁main": 7416, "▁cat": 7417, "OO": 7418, "ULE": 7419, "eva": 7420, "./": 7421, "SQL": 7422, "és": 7423, "▁House": 7424, "▁Nash": 7425, "▁Point": 7426, "▁Geoff": 7427, "acs": 7428, "Test": 7429, "▁Play": 7430, "▁roman": 7431, "Mon": 7432, "Amer": 7433, "trim": 7434, "ites": 7435, "▁Bangl": 7436, "▁Charlie": 7437, "▁Systems": 7438, "oor": 7439, "▁venture": 7440, "▁SPE": 7441, "oine": 7442, "▁Fro": 7443, "▁bug": 7444, "▁Laura": 7445, "▁Howard": 7446, "seh": 7447, "Mc": 7448, "▁Hudson": 7449, "elling": 7450, "▁Bryan": 7451, "▁princip": 7452, "oph": 7453, "▁Jerry": 7454, "rench": 7455, "▁Roche": 7456, "▁Buck": 7457, "▁good": 7458, "ML": 7459, "CR": 7460, "clock": 7461, "▁Yellow": 7462, "▁Fresh": 7463, "▁bitmap": 7464, "Page": 7465, "aver": 7466, "▁Check": 7467, "▁Wire": 7468, "▁Science": 7469, "▁Practice": 7470, "▁Oct": 7471, "izio": 7472, "▁scient": 7473, "▁relief": 7474, "▁swing": 7475, "▁definition": 7476, "berry": 7477, "itive": 7478, "▁grant": 7479, "▁Temple": 7480, "Symbol": 7481, "▁out": 7482, "omm": 7483, "othy": 7484, "▁Fernando": 7485, "Bay": 7486, "▁Institute": 7487, "arent": 7488, "▁EM": 7489, "IAL": 7490, "ological": 7491, "▁Stephen": 7492, "call": 7493, "ical": 7494, "▁NASA": 7495, "rand": 7496, "▁Austin": 7497, "▁Association": 7498, "AA": 7499, "CT": 7500, "metry": 7501, "▁organic": 7502, "avis": 7503, "ology": 7504, "Monitor": 7505, "Hand": 7506, "Sal": 7507, "rade": 7508, "_.": 7509, ":\"": 7510, "ceptor": 7511, "Ext": 7512, "ellen": 7513, "aint": 7514, "wend": 7515, "aware": 7516, "▁alien": 7517, "▁Gh": 7518, "▁managers": 7519, "▁manager": 7520, "▁Dublin": 7521, "▁skip": 7522, "city": 7523, "Inter": 7524, "▁juni": 7525, "▁germ": 7526, "inea": 7527, "▁aug": 7528, "▁Ship": 7529, "▁Jason": 7530, "ROL": 7531, "pend": 7532, ".]": 7533, "▁minim": 7534, "▁Trade": 7535, "▁prolong": 7536, "▁hot": 7537, "rig": 7538, "▁%.": 7539, "▁Brooklyn": 7540, "▁vice": 7541, "STEM": 7542, "GIN": 7543, "ò": 7544, "ographic": 7545, "National": 7546, "else": 7547, "lean": 7548, "antal": 7549, "ocus": 7550, "ror": 7551, "vet": 7552, "▁DOM": 7553, "▁legis": 7554, "▁shop": 7555, "▁TL": 7556, "▁uno": 7557, "▁Sac": 7558, "▁bass": 7559, "otta": 7560, "Your": 7561, "eur": 7562, "▁Focus": 7563, "▁Show": 7564, "▁GM": 7565, "Dec": 7566, "▁Ray": 7567, "EP": 7568, "reme": 7569, "kers": 7570, "▁extra": 7571, "▁anom": 7572, "▁area": 7573, "Mal": 7574, "fragment": 7575, "▁champion": 7576, "▁Hoch": 7577, "▁Halloween": 7578, "▁substant": 7579, "Manifest": 7580, "▁Studio": 7581, "Luc": 7582, "▁nicht": 7583, "Prom": 7584, "▁your": 7585, "▁cir": 7586, "▁Mission": 7587, "zh": 7588, "df": 7589, "illet": 7590, "TC": 7591, "▁Orange": 7592, "▁Fried": 7593, "▁Construction": 7594, "▁Multi": 7595, "▁Cin": 7596, "trag": 7597, "pm": 7598, "Sc": 7599, "vi": 7600, "Tor": 7601, "avier": 7602, "▁Sale": 7603, "erv": 7604, "ulation": 7605, "Mail": 7606, "aning": 7607, "rer": 7608, "leen": 7609, "▁monde": 7610, "▁color": 7611, "}": 7612, "},": 7613, "prop": 7614, "▁JavaScript": 7615, "++": 7616, "▁Observ": 7617, "utter": 7618, "Is": 7619, "▁drum": 7620, "info": 7621, "▁Alaska": 7622, "▁Lux": 7623, "▁Force": 7624, "▁Tag": 7625, "oud": 7626, "▁tv": 7627, "idade": 7628, "▁tie": 7629, "▁Celt": 7630, "▁Johnny": 7631, "▁Seth": 7632, "▁Girl": 7633, "seau": 7634, "▁Deutschland": 7635, "▁Holy": 7636, "adt": 7637, "fica": 7638, "Cons": 7639, "umm": 7640, "▁IBM": 7641, "qa": 7642, "▁Thor": 7643, "▁Giov": 7644, "Stud": 7645, "▁Jew": 7646, "sterdam": 7647, "arrow": 7648, "ucky": 7649, "IGHT": 7650, "ohn": 7651, "▁Span": 7652, "▁Lang": 7653, "lc": 7654, "otos": 7655, "▁°": 7656, "▁Lov": 7657, "▁transmit": 7658, "▁Dir": 7659, "▁rt": 7660, "ples": 7661, "ière": 7662, "ère": 7663, "resse": 7664, "Du": 7665, "▁make": 7666, "gue": 7667, "ín": 7668, "hren": 7669, "Alt": 7670, "▁alumin": 7671, "▁generator": 7672, "READ": 7673, "liga": 7674, "▁Ball": 7675, "▁ext": 7676, "general": 7677, "▁Johann": 7678, "▁Neil": 7679, "▁Price": 7680, "▁tip": 7681, "ound": 7682, "▁bicy": 7683, "▁Rand": 7684, "RET": 7685, "▁file": 7686, "▁una": 7687, "▁Raymond": 7688, ")).": 7689, "▁Lion": 7690, "osh": 7691, "Int": 7692, "vers": 7693, "Love": 7694, "▁stri": 7695, "▁Rou": 7696, "Shop": 7697, "▁Marie": 7698, "▁Elle": 7699, "▁aim": 7700, "MARK": 7701, "PY": 7702, "▁Culture": 7703, "kee": 7704, "▁Joel": 7705, "dorf": 7706, "olds": 7707, "▁Arn": 7708, "▁polar": 7709, "cb": 7710, "azzo": 7711, "vp": 7712, "▁online": 7713, "gmail": 7714, "▁AD": 7715, "]).": 7716, "▁Arbe": 7717, "▁GPU": 7718, "vec": 7719, "Of": 7720, "▁kick": 7721, "Wh": 7722, "DL": 7723, "andon": 7724, "▁rib": 7725, "element": 7726, "qq": 7727, "▁notable": 7728, "▁offset": 7729, "▁Bou": 7730, "▁sing": 7731, "▁^": 7732, "▁Studies": 7733, "FF": 7734, "lene": 7735, "border": 7736, "▁Control": 7737, "amos": 7738, ",.": 7739, "▁Michelle": 7740, "ardo": 7741, "iking": 7742, "uelle": 7743, "rar": 7744, "▁aster": 7745, "▁Catherine": 7746, "Que": 7747, "▁Wayne": 7748, "▁Aff": 7749, "▁Rosen": 7750, "▁slip": 7751, "LC": 7752, "Arc": 7753, "inos": 7754, "brit": 7755, "▁Boys": 7756, "▁Beach": 7757, "cole": 7758, "▁É": 7759, "▁Seattle": 7760, "▁soul": 7761, "▁Veg": 7762, "Card": 7763, "').": 7764, "Th": 7765, "lle": 7766, "see": 7767, "▁coron": 7768, "ţ": 7769, "▁hang": 7770, "▁Nick": 7771, "▁free": 7772, "Blue": 7773, "West": 7774, "▁London": 7775, "chter": 7776, "▁Perfect": 7777, "play": 7778, "▁Pearl": 7779, "ball": 7780, "hit": 7781, "Us": 7782, "▁Hou": 7783, "▁Job": 7784, "lee": 7785, "▁labour": 7786, "▁Brig": 7787, "ages": 7788, "▁Ana": 7789, "PF": 7790, "▁Philippe": 7791, "reich": 7792, "▁Alabama": 7793, "▁Liverpool": 7794, "ouw": 7795, "▁audio": 7796, "gg": 7797, "var": 7798, "piece": 7799, "▁JS": 7800, "▁func": 7801, "EE": 7802, "▁Wu": 7803, "▁Ti": 7804, "ises": 7805, "ér": 7806, "▁Disney": 7807, "fter": 7808, "▁Place": 7809, "▁puzz": 7810, "aal": 7811, "▁Buff": 7812, "pect": 7813, "▁black": 7814, "LS": 7815, "eting": 7816, "▁Pink": 7817, "▁strong": 7818, "atte": 7819, "refer": 7820, "▁Airlines": 7821, "▁reality": 7822, "▁Dry": 7823, "▁perturb": 7824, "▁air": 7825, "▁relations": 7826, "John": 7827, "ains": 7828, "▁Consult": 7829, "▁dil": 7830, "aught": 7831, "Su": 7832, "▁hers": 7833, "▁size": 7834, "akes": 7835, "▁beer": 7836, "NU": 7837, "▁Connection": 7838, "Make": 7839, "▁Oak": 7840, "▁Manuel": 7841, "▁WE": 7842, "▁Free": 7843, "▁Bright": 7844, "norm": 7845, "▁uniform": 7846, "▁Liv": 7847, "▁Soph": 7848, "bb": 7849, "icago": 7850, "▁Lady": 7851, "tag": 7852, "ERT": 7853, "Work": 7854, "essa": 7855, "▁Bruce": 7856, "Cal": 7857, "▁Network": 7858, "horn": 7859, "▁COP": 7860, "▁Lac": 7861, "ague": 7862, "amon": 7863, "▁exc": 7864, "▁Hend": 7865, "▁besk": 7866, "▁Gy": 7867, "ány": 7868, "ár": 7869, "ős": 7870, "bd": 7871, "▁Darwin": 7872, "heimer": 7873, "ULAR": 7874, "amma": 7875, "▁cross": 7876, "VS": 7877, "EMP": 7878, "Sa": 7879, "▁Lex": 7880, "”)": 7881, "child": 7882, "▁You": 7883, "▁Make": 7884, "▁Brit": 7885, "▁Nah": 7886, "▁Seg": 7887, "look": 7888, "▁Out": 7889, "Real": 7890, "▁rag": 7891, "▁Avenue": 7892, "Plan": 7893, "robe": 7894, "▁Corporation": 7895, "uper": 7896, "▁Au": 7897, "▁Call": 7898, ",,": 7899, "▁Steven": 7900, "anska": 7901, "▁Kings": 7902, "acter": 7903, "▁Amy": 7904, "▁Eth": 7905, "▁Case": 7906, "▁Fle": 7907, "▁AF": 7908, "mers": 7909, "▁Brian": 7910, "führ": 7911, "arten": 7912, "Stand": 7913, "gs": 7914, "▁Lanc": 7915, "▁Journal": 7916, "▁Commercial": 7917, "▁Hunter": 7918, "▁Lake": 7919, "▁Salt": 7920, "▁SM": 7921, "allow": 7922, "same": 7923, "idad": 7924, "step": 7925, "▁Memory": 7926, "▁Disc": 7927, "Comp": 7928, "▁Alan": 7929, "[": 7930, "Ctrl": 7931, "▁CC": 7932, "▁backup": 7933, "▁CM": 7934, "▁AMD": 7935, "NS": 7936, "▁Power": 7937, "▁Name": 7938, "▁Param": 7939, "PM": 7940, "DC": 7941, "▁DMA": 7942, "▁Computer": 7943, "Video": 7944, "▁Creative": 7945, "▁REG": 7946, "▁Import": 7947, "▁Image": 7948, "▁Legend": 7949, "param": 7950, "▁delta": 7951, "▁multip": 7952, "atter": 7953, "▁ling": 7954, "avid": 7955, "▁europ": 7956, "▁Wells": 7957, "ollar": 7958, "▁Eisen": 7959, "oti": 7960, "▁Ryan": 7961, "edo": 7962, "▁Lord": 7963, "×": 7964, "elta": 7965, "▁fair": 7966, "▁Marketing": 7967, "▁deal": 7968, "▁Flag": 7969, "▁Vancouver": 7970, "YPE": 7971, "▁Happy": 7972, "cean": 7973, "Arch": 7974, "▁Legal": 7975, "▁Rio": 7976, "▁smoking": 7977, "SN": 7978, "▁Juan": 7979, "stock": 7980, "▁Ralph": 7981, "▁Rev": 7982, "▁Barcelona": 7983, "Imp": 7984, "▁bonus": 7985, "zza": 7986, "▁degener": 7987, "▁ec": 7988, "bee": 7989, "BF": 7990, "plant": 7991, "radio": 7992, "Em": 7993, "rees": 7994, "▁BU": 7995, "ingo": 7996, "omas": 7997, "▁string": 7998, "▁horror": 7999, "▁Joseph": 8000, "▁draw": 8001, "aine": 8002, "▁Hob": 8003, "▁prominent": 8004, "ivi": 8005, "avia": 8006, "ocal": 8007, "▁Lock": 8008, "uzz": 8009, "dit": 8010, "▁absor": 8011, "▁Supp": 8012, "▁Report": 8013, "▁Society": 8014, "▁California": 8015, "ateral": 8016, "portun": 8017, "aire": 8018, "▁),": 8019, "stadt": 8020, "liche": 8021, "▁dé": 8022, "▁Cour": 8023, "chk": 8024, "▁Hot": 8025, "▁alleg": 8026, "▁Kid": 8027, "Up": 8028, ">": 8029, "▁rott": 8030, "ario": 8031, "ays": 8032, "▁Schl": 8033, "▁Shel": 8034, "ician": 8035, "▁fon": 8036, "▁Oscar": 8037, "▁Ent": 8038, "band": 8039, "▁Nation": 8040, "▁Simon": 8041, "pf": 8042, "▁IT": 8043, "▁Love": 8044, "▁with": 8045, "▁Giovanni": 8046, "▁Night": 8047, "▁story": 8048, "▁How": 8049, "▁[...": 8050, "SEL": 8051, "▁political": 8052, "voir": 8053, "furt": 8054, "▁Oxford": 8055, "▁Sus": 8056, "▁Week": 8057, "▁Jesse": 8058, "rier": 8059, "aceae": 8060, "▁Field": 8061, "▁Wikipedia": 8062, "Hal": 8063, "War": 8064, "▁Chap": 8065, "ear": 8066, "Cap": 8067, "▁Whit": 8068, "▁Freud": 8069, "ree": 8070, ",-": 8071, "endo": 8072, "▁cheer": 8073, "food": 8074, "▁Roth": 8075, "▁Energy": 8076, "▁Gary": 8077, "▁sexy": 8078, "▁Cou": 8079, "▁full": 8080, "▁Add": 8081, "▁golden": 8082, "etti": 8083, "▁prior": 8084, "media": 8085, "▁dif": 8086, "user": 8087, "blog": 8088, "▁Cir": 8089, "ril": 8090, "achment": 8091, "▁Frances": 8092, "üh": 8093, "▁Cleveland": 8094, "rim": 8095, "CU": 8096, "▁manual": 8097, "▁United": 8098, "NP": 8099, "uber": 8100, "▁SET": 8101, "anks": 8102, "▁Oil": 8103, "▁Iv": 8104, "▁Lag": 8105, "▁pit": 8106, "▁CT": 8107, "▁dance": 8108, "Tab": 8109, "_,": 8110, "▁Cars": 8111, "lear": 8112, "Bu": 8113, "Bon": 8114, "▁him": 8115, "▁tim": 8116, "CON": 8117, "▁EN": 8118, "▁Extra": 8119, "camp": 8120, "global": 8121, "kov": 8122, "igator": 8123, "ellow": 8124, "Don": 8125, "ök": 8126, "ý": 8127, "icon": 8128, "▁nej": 8129, "lay": 8130, "cre": 8131, "vol": 8132, "▁Admiral": 8133, "imet": 8134, "Non": 8135, "index": 8136, "▁Script": 8137, "▁Action": 8138, "nab": 8139, "▁ii": 8140, "▁apolog": 8141, "ielt": 8142, "▁tons": 8143, "anth": 8144, "▁consensus": 8145, "▁Optim": 8146, "&": 8147, "writer": 8148, "▁copy": 8149, "isco": 8150, "▁Ring": 8151, "ican": 8152, "Los": 8153, "▁Pack": 8154, "▁Era": 8155}