{
  "version": "1.0",
  "truncation": null,
  "padding": null,
  "added_tokens": [
    {
      "id": 0,
      "content": "[UNK]",
      "single_word": false,
      "lstrip": false,
      "rstrip": false,
      "normalized": false,
      "special": true
    },
    {
      "id": 1,
      "content": "[CLS]",
      "single_word": false,
      "lstrip": false,
      "rstrip": false,
      "normalized": false,
      "special": true
    },
    {
      "id": 2,
      "content": "[SEP]",
      "single_word": false,
      "lstrip": false,
      "rstrip": false,
      "normalized": false,
      "special": true
    },
    {
      "id": 3,
      "content": "[PAD]",
      "single_word": false,
      "lstrip": false,
      "rstrip": false,
      "normalized": false,
      "special": true
    },
    {
      "id": 4,
      "content": "[MASK]",
      "single_word": false,
      "lstrip": false,
      "rstrip": false,
      "normalized": false,
      "special": true
    }
  ],
  "normalizer": null,
  "pre_tokenizer": {
    "type": "Whitespace"
  },
  "post_processor": null,
  "decoder": null,
  "model": {
    "type": "BPE",
    "dropout": null,
    "unk_token": "[UNK]",
    "continuing_subword_prefix": null,
    "end_of_word_suffix": null,
    "fuse_unk": false,
    "byte_fallback": false,
    "ignore_merges": false,
    "vocab": {
      "[UNK]": 0,
      "[CLS]": 1,
      "[SEP]": 2,
      "[PAD]": 3,
      "[MASK]": 4,
      "!": 5,
      "\"": 6,
      "#": 7,
      "$": 8,
      "%": 9,
      "&": 10,
      "'": 11,
      "(": 12,
      ")": 13,
      "*": 14,
      "+": 15,
      ",": 16,
      "-": 17,
      ".": 18,
      "/": 19,
      "0": 20,
      "1": 21,
      "2": 22,
      "3": 23,
      "4": 24,
      "5": 25,
      "6": 26,
      "7": 27,
      "8": 28,
      "9": 29,
      ":": 30,
      ";": 31,
      "<": 32,
      "=": 33,
      ">": 34,
      "?": 35,
      "@": 36,
      "A": 37,
      "B": 38,
      "C": 39,
      "D": 40,
      "E": 41,
      "F": 42,
      "G": 43,
      "H": 44,
      "I": 45,
      "J": 46,
      "K": 47,
      "L": 48,
      "M": 49,
      "N": 50,
      "O": 51,
      "P": 52,
      "Q": 53,
      "R": 54,
      "S": 55,
      "T": 56,
      "U": 57,
      "V": 58,
      "W": 59,
      "X": 60,
      "Y": 61,
      "Z": 62,
      "[": 63,
      "\\": 64,
      "]": 65,
      "^": 66,
      "_": 67,
      "`": 68,
      "a": 69,
      "b": 70,
      "c": 71,
      "d": 72,
      "e": 73,
      "f": 74,
      "g": 75,
      "h": 76,
      "i": 77,
      "j": 78,
      "k": 79,
      "l": 80,
      "m": 81,
      "n": 82,
      "o": 83,
      "p": 84,
      "q": 85,
      "r": 86,
      "s": 87,
      "t": 88,
      "u": 89,
      "v": 90,
      "w": 91,
      "x": 92,
      "y": 93,
      "z": 94,
      "{": 95,
      "|": 96,
      "}": 97,
      "~": 98,
      "§": 99,
      "¨": 100,
      "«": 101,
      "­": 102,
      "°": 103,
      "²": 104,
      "´": 105,
      "·": 106,
      "»": 107,
      "À": 108,
      "É": 109,
      "Ñ": 110,
      "Ó": 111,
      "×": 112,
      "Ü": 113,
      "à": 114,
      "á": 115,
      "â": 116,
      "ä": 117,
      "ç": 118,
      "è": 119,
      "é": 120,
      "ê": 121,
      "ë": 122,
      "í": 123,
      "ò": 124,
      "ó": 125,
      "ô": 126,
      "ö": 127,
      "ú": 128,
      "û": 129,
      "ü": 130,
      "ý": 131,
      "Ą": 132,
      "ą": 133,
      "Ć": 134,
      "ć": 135,
      "Č": 136,
      "č": 137,
      "Ę": 138,
      "ę": 139,
      "ě": 140,
      "Ł": 141,
      "ł": 142,
      "Ń": 143,
      "ń": 144,
      "ō": 145,
      "ő": 146,
      "ŕ": 147,
      "ř": 148,
      "Ś": 149,
      "ś": 150,
      "š": 151,
      "Ţ": 152,
      "ţ": 153,
      "Ź": 154,
      "ź": 155,
      "Ż": 156,
      "ż": 157,
      "˝": 158,
      "–": 159,
      "—": 160,
      "‘": 161,
      "’": 162,
      "“": 163,
      "”": 164,
      "„": 165,
      "•": 166,
      "…": 167,
      "−": 168,
      "ie": 169,
      "rz": 170,
      "nie": 171,
      "na": 172,
      "cz": 173,
      "ch": 174,
      "sz": 175,
      "po": 176,
      "st": 177,
      "ni": 178,
      "ał": 179,
      "dz": 180,
      "ię": 181,
      "ra": 182,
      "ow": 183,
      "ro": 184,
      "rze": 185,
      "li": 186,
      "je": 187,
      "go": 188,
      "za": 189,
      "się": 190,
      "ci": 191,
      "ko": 192,
      "le": 193,
      "do": 194,
      "mi": 195,
      "ka": 196,
      "wi": 197,
      "ta": 198,
      "by": 199,
      "ki": 200,
      "rzy": 201,
      "ny": 202,
      "ła": 203,
      "te": 204,
      "że": 205,
      "wa": 206,
      "ja": 207,
      "pa": 208,
      "wy": 209,
      "ne": 210,
      "ło": 211,
      "to": 212,
      "ty": 213,
      "wie": 214,
      "ów": 215,
      "wo": 216,
      "dzi": 217,
      "da": 218,
      "no": 219,
      "czy": 220,
      "dzie": 221,
      "ry": 222,
      "la": 223,
      "prze": 224,
      "ma": 225,
      "re": 226,
      "kie": 227,
      "od": 228,
      "cie": 229,
      "dy": 230,
      "ją": 231,
      "mo": 232,
      "ce": 233,
      "ku": 234,
      "szy": 235,
      "sta": 236,
      "cze": 237,
      "mie": 238,
      "em": 239,
      "kt": 240,
      "si": 241,
      "ści": 242,
      "przy": 243,
      "owa": 244,
      "ob": 245,
      "cy": 246,
      "nia": 247,
      "mu": 248,
      "my": 249,
      "ru": 250,
      "któ": 251,
      "ną": 252,
      "ły": 253,
      "sze": 254,
      "ba": 255,
      "bo": 256,
      "ała": 257,
      "sa": 258,
      "pie": 259,
      "tu": 260,
      "we": 261,
      "cza": 262,
      "co": 263,
      "pra": 264,
      "lu": 265,
      "bi": 266,
      "ży": 267,
      "ga": 268,
      "pi": 269,
      "raz": 270,
      "roz": 271,
      "łu": 272,
      "de": 273,
      "jak": 274,
      "ró": 275,
      "ski": 276,
      "ść": 277,
      "ze": 278,
      "ca": 279,
      "ju": 280,
      "wia": 281,
      "spo": 282,
      "jest": 283,
      "cho": 284,
      "wszy": 285,
      "nych": 286,
      "bie": 287,
      "tak": 288,
      "ale": 289,
      "zna": 290,
      "sza": 291,
      "pod": 292,
      "pe": 293,
      "gi": 294,
      "ały": 295,
      "rę": 296,
      "owie": 297,
      "du": 298,
      "owi": 299,
      "skie": 300,
      "pan": 301,
      "wię": 302,
      "sk": 303,
      "sie": 304,
      "Po": 305,
      "mó": 306,
      "gł": 307,
      "Nie": 308,
      "niej": 309,
      "owy": 310,
      "sto": 311,
      "zy": 312,
      "in": 313,
      "ało": 314,
      "pro": 315,
      "me": 316,
      "cha": 317,
      "nę": 318,
      "be": 319,
      "sy": 320,
      "pu": 321,
      "nym": 322,
      "lo": 323,
      "który": 324,
      "ję": 325,
      "owe": 326,
      "su": 327,
      "ar": 328,
      "Na": 329,
      "nej": 330,
      "ska": 331,
      "szcze": 332,
      "już": 333,
      "se": 334,
      "gdy": 335,
      "jed": 336,
      "czę": 337,
      "nego": 338,
      "an": 339,
      "bę": 340,
      "Za": 341,
      "powie": 342,
      "kł": 343,
      "jąc": 344,
      "tym": 345,
      "on": 346,
      "or": 347,
      "mnie": 348,
      "sob": 349,
      "ich": 350,
      "lko": 351,
      "bu": 352,
      "ji": 353,
      "fi": 354,
      "gło": 355,
      "py": 356,
      "niu": 357,
      "jej": 358,
      "Ja": 359,
      "ża": 360,
      "jego": 361,
      "tego": 362,
      "które": 363,
      "dla": 364,
      "ków": 365,
      "wał": 366,
      "czą": 367,
      "sią": 368,
      "naj": 369,
      "dział": 370,
      "mówi": 371,
      "przed": 372,
      "myś": 373,
      "..": 374,
      "nął": 375,
      "ąd": 376,
      "rzekł": 377,
      "był": 378,
      "tylko": 379,
      "przez": 380,
      "wszyst": 381,
      "pó": 382,
      "Je": 383,
      "ście": 384,
      "nic": 385,
      "dob": 386,
      "rza": 387,
      "rą": 388,
      "mię": 389,
      "trzy": 390,
      "tem": 391,
      "było": 392,
      "sty": 393,
      "og": 394,
      "praw": 395,
      "wz": 396,
      "czas": 397,
      "wła": 398,
      "czo": 399,
      "dł": 400,
      "mia": 401,
      "rów": 402,
      "cji": 403,
      "kę": 404,
      "słu": 405,
      "jeszcze": 406,
      "sł": 407,
      "trze": 408,
      "cu": 409,
      "al": 410,
      "cia": 411,
      "Ch": 412,
      "zo": 413,
      "tej": 414,
      "nu": 415,
      "tam": 416,
      "sko": 417,
      "lę": 418,
      "nt": 419,
      "sła": 420,
      "bez": 421,
      "bra": 422,
      "może": 423,
      "żo": 424,
      "kiem": 425,
      "ok": 426,
      "zu": 427,
      "Wo": 428,
      "zie": 429,
      "nad": 430,
      "tę": 431,
      "cią": 432,
      "są": 433,
      "dze": 434,
      "Ta": 435,
      "ąc": 436,
      "ności": 437,
      "ką": 438,
      "bli": 439,
      "im": 440,
      "kła": 441,
      "będzie": 442,
      "pier": 443,
      "Ale": 444,
      "dzo": 445,
      "To": 446,
      "bar": 447,
      "ten": 448,
      "tych": 449,
      "wó": 450,
      "cię": 451,
      "nim": 452,
      "chwi": 453,
      "stra": 454,
      "tra": 455,
      "sobie": 456,
      "dę": 457,
      "nio": 458,
      "niem": 459,
      "kich": 460,
      "twa": 461,
      "śli": 462,
      "skiego": 463,
      "rowa": 464,
      "pła": 465,
      "dzy": 466,
      "zd": 467,
      "wsze": 468,
      "sia": 469,
      "czu": 470,
      "gie": 471,
      "ste": 472,
      "cał": 473,
      "stę": 474,
      "kim": 475,
      "ował": 476,
      "gu": 477,
      "chy": 478,
      "Ma": 479,
      "wiel": 480,
      "Bo": 481,
      "miał": 482,
      "też": 483,
      "!…": 484,
      "zi": 485,
      "ona": 486,
      "śmie": 487,
      "ri": 488,
      "wać": 489,
      "swo": 490,
      "rzu": 491,
      "stro": 492,
      "świa": 493,
      "wet": 494,
      "so": 495,
      "jako": 496,
      "cja": 497,
      "jedna": 498,
      "nią": 499,
      "two": 500,
      "łe": 501,
      "jący": 502,
      "tał": 503,
      "kró": 504,
      "Pa": 505,
      "Wi": 506,
      "wią": 507,
      "śnie": 508,
      "gra": 509,
      "wró": 510,
      "woj": 511,
      "chodzi": 512,
      "par": 513,
      "więc": 514,
      "dni": 515,
      "owo": 516,
      "dro": 517,
      "dą": 518,
      "tro": 519,
      "kto": 520,
      "cił": 521,
      "zaś": 522,
      "ować": 523,
      "dru": 524,
      "peł": 525,
      "kra": 526,
      "fa": 527,
      "gó": 528,
      "nawet": 529,
      "nik": 530,
      "być": 531,
      "rzą": 532,
      "ność": 533,
      "mog": 534,
      "nię": 535,
      "myśl": 536,
      "żę": 537,
      "pew": 538,
      "pię": 539,
      "kiego": 540,
      "kon": 541,
      "stu": 542,
      "dłu": 543,
      "dać": 544,
      "lski": 545,
      "ńst": 546,
      "gro": 547,
      "Sta": 548,
      "ksią": 549,
      "cznie": 550,
      "den": 551,
      "Le": 552,
      "sły": 553,
      "Ka": 554,
      "?…": 555,
      "owych": 556,
      "wą": 557,
      "oczy": 558,
      "śmy": 559,
      "pad": 560,
      "sam": 561,
      "jednak": 562,
      "dza": 563,
      "krzy": 564,
      "mę": 565,
      "daw": 566,
      "resz": 567,
      "sku": 568,
      "tą": 569,
      "owej": 570,
      "Ko": 571,
      "cej": 572,
      "Do": 573,
      "robi": 574,
      "łem": 575,
      "ej": 576,
      "bym": 577,
      "Ra": 578,
      "lą": 579,
      "Prze": 580,
      "gdzie": 581,
      "szą": 582,
      "kil": 583,
      "lub": 584,
      "strze": 585,
      "była": 586,
      "prowa": 587,
      "pow": 588,
      "er": 589,
      "ser": 590,
      "skiej": 591,
      "dał": 592,
      "Ty": 593,
      "war": 594,
      "zło": 595,
      "kaz": 596,
      "nów": 597,
      "nich": 598,
      "lej": 599,
      "dź": 600,
      "teraz": 601,
      "moż": 602,
      "stał": 603,
      "owski": 604,
      "szczę": 605,
      "ha": 606,
      "mar": 607,
      "Co": 608,
      "rzę": 609,
      "chci": 610,
      "ców": 611,
      "Ro": 612,
      "Wy": 613,
      "łowie": 614,
      "ową": 615,
      "szę": 616,
      "chu": 617,
      "niego": 618,
      "począ": 619,
      "gę": 620,
      "Mo": 621,
      "Te": 622,
      "koń": 623,
      "świe": 624,
      "szka": 625,
      "Sz": 626,
      "Mi": 627,
      "czym": 628,
      "szedł": 629,
      "szu": 630,
      "każ": 631,
      "miej": 632,
      "odpowie": 633,
      "towa": 634,
      "tru": 635,
      "pana": 636,
      "bardzo": 637,
      "sło": 638,
      "ciąg": 639,
      "dzą": 640,
      "pani": 641,
      "wol": 642,
      "bro": 643,
      "żeby": 644,
      "pół": 645,
      "nas": 646,
      "men": 647,
      "pre": 648,
      "kiej": 649,
      "nika": 650,
      "Ju": 651,
      "kry": 652,
      "mło": 653,
      "róż": 654,
      "ran": 655,
      "czył": 656,
      "kro": 657,
      "czego": 658,
      "di": 659,
      "aby": 660,
      "między": 661,
      "łą": 662,
      "księ": 663,
      "ałem": 664,
      "chwili": 665,
      "Czy": 666,
      "scy": 667,
      "oj": 668,
      "albo": 669,
      "nem": 670,
      "tów": 671,
      "stęp": 672,
      "Pan": 673,
      "szko": 674,
      "ół": 675,
      "pły": 676,
      "więk": 677,
      "tnie": 678,
      "działa": 679,
      "miejs": 680,
      "powia": 681,
      "którzy": 682,
      "książę": 683,
      "ński": 684,
      "zwy": 685,
      "cą": 686,
      "Wie": 687,
      "ludzi": 688,
      "waż": 689,
      "stan": 690,
      "dził": 691,
      "By": 692,
      "ani": 693,
      "kiedy": 694,
      "człowie": 695,
      "których": 696,
      "zosta": 697,
      "tr": 698,
      "rozu": 699,
      "choć": 700,
      "tka": 701,
      "rem": 702,
      "musi": 703,
      "mówił": 704,
      "wier": 705,
      "spra": 706,
      "ścia": 707,
      "wszystko": 708,
      "ws": 709,
      "for": 710,
      "Przy": 711,
      "głos": 712,
      "mniej": 713,
      "Sa": 714,
      "...": 715,
      "fe": 716,
      "stą": 717,
      "owego": 718,
      "óg": 719,
      "nymi": 720,
      "jące": 721,
      "jakby": 722,
      "chło": 723,
      "trz": 724,
      "oba": 725,
      "ód": 726,
      "panie": 727,
      "mógł": 728,
      "lecz": 729,
      "usta": 730,
      "kre": 731,
      "Tak": 732,
      "zda": 733,
      "żą": 734,
      "ter": 735,
      "Woku": 736,
      "przeci": 737,
      "chę": 738,
      "rod": 739,
      "Tu": 740,
      "gar": 741,
      "szych": 742,
      "Ba": 743,
      "Li": 744,
      "óż": 745,
      "et": 746,
      "wił": 747,
      "dnie": 748,
      "mał": 749,
      "wę": 750,
      "dzia": 751,
      "aż": 752,
      "niec": 753,
      "nił": 754,
      "ryce": 755,
      "Lecz": 756,
      "nam": 757,
      "Jak": 758,
      "dwa": 759,
      "kom": 760,
      "now": 761,
      "czasem": 762,
      "pytał": 763,
      "chod": 764,
      "poli": 765,
      "tk": 766,
      "podob": 767,
      "ród": 768,
      "ścią": 769,
      "wali": 770,
      "nąć": 771,
      "owę": 772,
      "nić": 773,
      "Zagło": 774,
      "wej": 775,
      "kar": 776,
      "ój": 777,
      "niż": 778,
      "zaraz": 779,
      "która": 780,
      "więcej": 781,
      "osta": 782,
      "miast": 783,
      "ge": 784,
      "chał": 785,
      "wu": 786,
      "ciu": 787,
      "wio": 788,
      "stwo": 789,
      "poczę": 790,
      "czne": 791,
      "gnie": 792,
      "zawo": 793,
      "przyja": 794,
      "uczy": 795,
      "śmier": 796,
      "dzieć": 797,
      "uro": 798,
      "kach": 799,
      "żył": 800,
      "pę": 801,
      "dziej": 802,
      "zmie": 803,
      "drze": 804,
      "um": 805,
      "żeli": 806,
      "cę": 807,
      "siebie": 808,
      "znaj": 809,
      "szej": 810,
      "chce": 811,
      "łnie": 812,
      "lat": 813,
      "tek": 814,
      "roku": 815,
      "cję": 816,
      "Gdy": 817,
      "br": 818,
      "szcza": 819,
      "samo": 820,
      "nicy": 821,
      "także": 822,
      "nęła": 823,
      "kilka": 824,
      "poko": 825,
      "można": 826,
      "dnia": 827,
      "dzić": 828,
      "coś": 829,
      "przeciw": 830,
      "moc": 831,
      "szla": 832,
      "sił": 833,
      "szo": 834,
      "były": 835,
      "ciem": 836,
      "liśmy": 837,
      "owym": 838,
      "tar": 839,
      "Ni": 840,
      "ór": 841,
      "czyć": 842,
      "jaki": 843,
      "którym": 844,
      "począł": 845,
      "owiem": 846,
      "hu": 847,
      "eś": 848,
      "potem": 849,
      "gru": 850,
      "rzał": 851,
      "ników": 852,
      "kami": 853,
      "nek": 854,
      "włas": 855,
      "mów": 856,
      "Od": 857,
      "raj": 858,
      "nami": 859,
      "mil": 860,
      "gą": 861,
      "cały": 862,
      "jem": 863,
      "nale": 864,
      "której": 865,
      "trzyma": 866,
      "ób": 867,
      "poz": 868,
      "wra": 869,
      "gle": 870,
      "pyta": 871,
      "chać": 872,
      "Kmi": 873,
      "krze": 874,
      "miło": 875,
      "łody": 876,
      "reszcie": 877,
      "An": 878,
      "Kmici": 879,
      "dwie": 880,
      "oko": 881,
      "jeden": 882,
      "dar": 883,
      "żołnie": 884,
      "wała": 885,
      "godzi": 886,
      "czej": 887,
      "sób": 888,
      "star": 889,
      "ską": 890,
      "tedy": 891,
      "Rze": 892,
      "domu": 893,
      "Wokulski": 894,
      "cki": 895,
      "Zagłoba": 896,
      "bowiem": 897,
      "dzień": 898,
      "uwa": 899,
      "trzeba": 900,
      "woje": 901,
      "wem": 902,
      "cić": 903,
      "szym": 904,
      "myśli": 905,
      "Pe": 906,
      "jedno": 907,
      "spoko": 908,
      "świę": 909,
      "jeśli": 910,
      "tki": 911,
      "knął": 912,
      "mieszka": 913,
      "skich": 914,
      "ofi": 915,
      "stwa": 916,
      "00": 917,
      "19": 918,
      "Bóg": 919,
      "szło": 920,
      "lnie": 921,
      "jakie": 922,
      "nku": 923,
      "jących": 924,
      "cznych": 925,
      "dow": 926,
      "zdo": 927,
      "wszystkich": 928,
      "zł": 929,
      "wal": 930,
      "mam": 931,
      "szli": 932,
      "przecie": 933,
      "rzył": 934,
      "ręce": 935,
      "kla": 936,
      "łał": 937,
      "Wię": 938,
      "rami": 939,
      "woli": 940,
      "wego": 941,
      "Zby": 942,
      "szał": 943,
      "dzę": 944,
      "dem": 945,
      "którego": 946,
      "powi": 947,
      "wały": 948,
      "pol": 949,
      "pla": 950,
      "cyj": 951,
      "\".": 952,
      "dobrze": 953,
      "dwo": 954,
      "piero": 955,
      "tere": 956,
      "nki": 957,
      "pli": 958,
      "por": 959,
      "gdyby": 960,
      "tłu": 961,
      "coraz": 962,
      "dów": 963,
      "oraz": 964,
      "kobie": 965,
      "dalej": 966,
      "mają": 967,
      "żyć": 968,
      "szego": 969,
      "bla": 970,
      "lep": 971,
      "właśnie": 972,
      "Wołody": 973,
      "obie": 974,
      "Wołodyj": 975,
      "taki": 976,
      "pom": 977,
      "iż": 978,
      "parł": 979,
      "wiem": 980,
      "czer": 981,
      "pierwszy": 982,
      "stąpi": 983,
      "pło": 984,
      "nk": 985,
      "gna": 986,
      "chciał": 987,
      "wszystkie": 988,
      "fu": 989,
      "chwy": 990,
      "ode": 991,
      "bardziej": 992,
      "Bog": 993,
      "sów": 994,
      "stanowi": 995,
      "wido": 996,
      "kło": 997,
      "rząd": 998,
      "nowu": 999,
      "zam": 1000,
      "cje": 1001,
      "pró": 1002,
      "wym": 1003,
      "sem": 1004,
      "dowa": 1005,
      "patrzy": 1006,
      "ństwa": 1007,
      "nimi": 1008,
      "stała": 1009,
      "rodzi": 1010,
      "dziś": 1011,
      "kona": 1012,
      "zrobi": 1013,
      "wych": 1014,
      "powiada": 1015,
      "masz": 1016,
      "kapła": 1017,
      "śród": 1018,
      "ho": 1019,
      "żej": 1020,
      "Pod": 1021,
      "ek": 1022,
      "zawsze": 1023,
      "Pi": 1024,
      "ruszy": 1025,
      "spraw": 1026,
      "puści": 1027,
      "oni": 1028,
      "bezpie": 1029,
      "Kmicic": 1030,
      "No": 1031,
      "dziew": 1032,
      "każdy": 1033,
      "człowiek": 1034,
      "mości": 1035,
      "el": 1036,
      "wszyscy": 1037,
      "równie": 1038,
      "rzeczy": 1039,
      "głowę": 1040,
      "one": 1041,
      "lepie": 1042,
      "sobą": 1043,
      "czasu": 1044,
      "wój": 1045,
      "szczy": 1046,
      "szła": 1047,
      "dzię": 1048,
      "niech": 1049,
      "Więc": 1050,
      "zby": 1051,
      "lek": 1052,
      "pamię": 1053,
      "dom": 1054,
      "nosi": 1055,
      "świat": 1056,
      "myślał": 1057,
      "noc": 1058,
      "miała": 1059,
      "dra": 1060,
      "spa": 1061,
      "ucie": 1062,
      "świad": 1063,
      "Wa": 1064,
      "razem": 1065,
      "spe": 1066,
      "wło": 1067,
      "isto": 1068,
      "dr": 1069,
      "try": 1070,
      "póź": 1071,
      "ludzie": 1072,
      "pisa": 1073,
      "chem": 1074,
      "rozumie": 1075,
      "kazał": 1076,
      "powo": 1077,
      "żad": 1078,
      "ia": 1079,
      "wyda": 1080,
      "kać": 1081,
      "prz": 1082,
      "pozna": 1083,
      "drugi": 1084,
      "stało": 1085,
      "zale": 1086,
      "cem": 1087,
      "obo": 1088,
      "wrócił": 1089,
      "znowu": 1090,
      "pięk": 1091,
      "prawie": 1092,
      "nach": 1093,
      "tku": 1094,
      "jeno": 1095,
      "dej": 1096,
      "cych": 1097,
      "czar": 1098,
      "dale": 1099,
      "man": 1100,
      "Niech": 1101,
      "om": 1102,
      "cach": 1103,
      "śpie": 1104,
      "owania": 1105,
      "mość": 1106,
      "Lu": 1107,
      "skar": 1108,
      "kr": 1109,
      "”.": 1110,
      "następ": 1111,
      "gdyż": 1112,
      "szcz": 1113,
      "kilku": 1114,
      "dzieci": 1115,
      "tni": 1116,
      "czny": 1117,
      "żu": 1118,
      "posta": 1119,
      "Cze": 1120,
      "Krzy": 1121,
      "dło": 1122,
      "cznej": 1123,
      "owała": 1124,
      "tach": 1125,
      "au": 1126,
      "głę": 1127,
      "oto": 1128,
      "czyna": 1129,
      "przyj": 1130,
      "prę": 1131,
      "Mar": 1132,
      "szlach": 1133,
      "god": 1134,
      "Da": 1135,
      "dząc": 1136,
      ").": 1137,
      "znów": 1138,
      "którą": 1139,
      "Kie": 1140,
      "kał": 1141,
      "będą": 1142,
      "twie": 1143,
      "kocha": 1144,
      "Pol": 1145,
      "odparł": 1146,
      "lne": 1147,
      "zwie": 1148,
      "Dla": 1149,
      "król": 1150,
      "tó": 1151,
      "takie": 1152,
      "tyle": 1153,
      "sław": 1154,
      "czyli": 1155,
      "jcie": 1156,
      "dli": 1157,
      "zę": 1158,
      "gła": 1159,
      "powiedział": 1160,
      "same": 1161,
      "ego": 1162,
      "nió": 1163,
      "trafi": 1164,
      "Ku": 1165,
      "słowa": 1166,
      "drugie": 1167,
      "pole": 1168,
      "wróci": 1169,
      "ziemi": 1170,
      "gów": 1171,
      "rek": 1172,
      "prac": 1173,
      "potrze": 1174,
      "tor": 1175,
      "ner": 1176,
      "dzenia": 1177,
      "mój": 1178,
      "dość": 1179,
      "Wołodyjowski": 1180,
      "Me": 1181,
      "Tym": 1182,
      "jechał": 1183,
      "dwó": 1184,
      "rzecz": 1185,
      "wam": 1186,
      "sami": 1187,
      "zja": 1188,
      "życie": 1189,
      "wreszcie": 1190,
      "środ": 1191,
      "skim": 1192,
      "niósł": 1193,
      "kości": 1194,
      "ludz": 1195,
      "przyjacie": 1196,
      "świą": 1197,
      "niał": 1198,
      "Roz": 1199,
      "Bi": 1200,
      "kow": 1201,
      "potę": 1202,
      "nigdy": 1203,
      "ówczas": 1204,
      "odpowiedział": 1205,
      "Kto": 1206,
      "nowa": 1207,
      "cięż": 1208,
      "glą": 1209,
      "pis": 1210,
      "byli": 1211,
      "Mu": 1212,
      "II": 1213,
      "drz": 1214,
      "rok": 1215,
      "stary": 1216,
      "lem": 1217,
      "dzieli": 1218,
      "ec": 1219,
      "spoj": 1220,
      "brze": 1221,
      "got": 1222,
      "sięcy": 1223,
      "ią": 1224,
      "twarz": 1225,
      "nka": 1226,
      "taj": 1227,
      "ktu": 1228,
      "wyso": 1229,
      "dopiero": 1230,
      "stanie": 1231,
      "wić": 1232,
      "konie": 1233,
      "ntów": 1234,
      "również": 1235,
      "lepiej": 1236,
      "poda": 1237,
      "jestem": 1238,
      "Pro": 1239,
      "ogro": 1240,
      "kle": 1241,
      "nagle": 1242,
      "towarzy": 1243,
      "mina": 1244,
      "zdr": 1245,
      "czenia": 1246,
      "Pra": 1247,
      "wości": 1248,
      "Może": 1249,
      "spokoj": 1250,
      "ony": 1251,
      "kowa": 1252,
      "strony": 1253,
      "Już": 1254,
      "żał": 1255,
      "mor": 1256,
      "czenie": 1257,
      "chyba": 1258,
      "sce": 1259,
      "panu": 1260,
      "dia": 1261,
      "War": 1262,
      "głowy": 1263,
      "zupeł": 1264,
      "ina": 1265,
      "kowi": 1266,
      "osob": 1267,
      "bywa": 1268,
      "kty": 1269,
      "Skrze": 1270,
      "łam": 1271,
      "wiado": 1272,
      "mowa": 1273,
      "pia": 1274,
      "Skrzetu": 1275,
      "padł": 1276,
      "jeżeli": 1277,
      "jął": 1278,
      "lan": 1279,
      "sposób": 1280,
      "chwilę": 1281,
      "Cza": 1282,
      "dek": 1283,
      "ntu": 1284,
      "kład": 1285,
      "Jest": 1286,
      "ństwo": 1287,
      "wyż": 1288,
      "ląd": 1289,
      "pospo": 1290,
      "lew": 1291,
      "twier": 1292,
      "ńca": 1293,
      "jedy": 1294,
      "innych": 1295,
      "długo": 1296,
      "mą": 1297,
      "ude": 1298,
      "zawołał": 1299,
      "mówić": 1300,
      "lił": 1301,
      "pospoli": 1302,
      "zgo": 1303,
      "pierwsze": 1304,
      "jakiś": 1305,
      "życia": 1306,
      "dła": 1307,
      "Wszy": 1308,
      "ciebie": 1309,
      "dna": 1310,
      "chorą": 1311,
      "nikt": 1312,
      "ol": 1313,
      "czki": 1314,
      "dziec": 1315,
      "Mich": 1316,
      "ele": 1317,
      "),": 1318,
      "rozma": 1319,
      "biera": 1320,
      "!”": 1321,
      "dlatego": 1322,
      "mini": 1323,
      "gospo": 1324,
      "żem": 1325,
      "zach": 1326,
      "tel": 1327,
      "odrzekł": 1328,
      "żd": 1329,
      "nością": 1330,
      "ster": 1331,
      "In": 1332,
      "widział": 1333,
      "swoje": 1334,
      "wśród": 1335,
      "pój": 1336,
      "dno": 1337,
      "zes": 1338,
      "strasz": 1339,
      "ostat": 1340,
      "krę": 1341,
      "temu": 1342,
      "trochę": 1343,
      "wraca": 1344,
      "łę": 1345,
      "was": 1346,
      "usz": 1347,
      "mal": 1348,
      "pracy": 1349,
      "grze": 1350,
      "ns": 1351,
      "het": 1352,
      "szep": 1353,
      "wiesz": 1354,
      "gip": 1355,
      "rękę": 1356,
      "spytał": 1357,
      "--": 1358,
      "bą": 1359,
      "kli": 1360,
      "rzekła": 1361,
      "nocy": 1362,
      "krót": 1363,
      "ria": 1364,
      "We": 1365,
      "Że": 1366,
      "ST": 1367,
      "zbli": 1368,
      "wzią": 1369,
      "bia": 1370,
      "Ży": 1371,
      "dal": 1372,
      "nicju": 1373,
      "niach": 1374,
      "prawdę": 1375,
      "Jan": 1376,
      "kol": 1377,
      "ust": 1378,
      "śle": 1379,
      "został": 1380,
      "wiąza": 1381,
      "Winicju": 1382,
      "dwóch": 1383,
      "gał": 1384,
      "polity": 1385,
      "mat": 1386,
      "dziw": 1387,
      "cier": 1388,
      "głu": 1389,
      "skrzy": 1390,
      "wszystkim": 1391,
      "przód": 1392,
      "sztu": 1393,
      "panna": 1394,
      "wiele": 1395,
      "ratu": 1396,
      "pal": 1397,
      "woła": 1398,
      "czeka": 1399,
      "trą": 1400,
      "obec": 1401,
      "sji": 1402,
      "śni": 1403,
      "cznego": 1404,
      "cer": 1405,
      "ile": 1406,
      "sprawie": 1407,
      "dali": 1408,
      "emu": 1409,
      "Szwe": 1410,
      "wość": 1411,
      "Go": 1412,
      "rad": 1413,
      "rywa": 1414,
      "okre": 1415,
      "Zbyszko": 1416,
      "zwa": 1417,
      "zabi": 1418,
      "widzi": 1419,
      "mach": 1420,
      "słucha": 1421,
      "gani": 1422,
      "Dzi": 1423,
      "chłop": 1424,
      "rach": 1425,
      "czaj": 1426,
      "cznym": 1427,
      "tysięcy": 1428,
      "ron": 1429,
      "tery": 1430,
      "Naj": 1431,
      "uśmie": 1432,
      "służ": 1433,
      "ple": 1434,
      "oka": 1435,
      "che": 1436,
      "kamie": 1437,
      "twar": 1438,
      "My": 1439,
      "pią": 1440,
      "licy": 1441,
      "Bogu": 1442,
      "wiek": 1443,
      "byś": 1444,
      "komu": 1445,
      "kogo": 1446,
      "tąd": 1447,
      "śla": 1448,
      "dziesią": 1449,
      "Mać": 1450,
      "Tymczasem": 1451,
      "ażeby": 1452,
      "robo": 1453,
      "puł": 1454,
      "ucz": 1455,
      "dosta": 1456,
      "cami": 1457,
      "później": 1458,
      "On": 1459,
      "rzyć": 1460,
      "najmniej": 1461,
      "stru": 1462,
      "wasz": 1463,
      "daj": 1464,
      "razy": 1465,
      "gły": 1466,
      "tami": 1467,
      "całą": 1468,
      "stały": 1469,
      "razie": 1470,
      "intere": 1471,
      "Jeśli": 1472,
      "swego": 1473,
      "raź": 1474,
      "Re": 1475,
      "Warsza": 1476,
      "umie": 1477,
      "ti": 1478,
      "czasie": 1479,
      "ńskiego": 1480,
      "serce": 1481,
      "wielki": 1482,
      "sen": 1483,
      "klę": 1484,
      "Be": 1485,
      "ono": 1486,
      "widać": 1487,
      "rwał": 1488,
      "bły": 1489,
      "miasta": 1490,
      "ak": 1491,
      "sę": 1492,
      "szły": 1493,
      "szyb": 1494,
      "księcia": 1495,
      "właści": 1496,
      "zbyt": 1497,
      "dach": 1498,
      "mod": 1499,
      "koniec": 1500,
      "czną": 1501,
      "mną": 1502,
      "uj": 1503,
      "wca": 1504,
      "kole": 1505,
      "wania": 1506,
      "spotka": 1507,
      "głosem": 1508,
      "tele": 1509,
      "bó": 1510,
      "mieć": 1511,
      "męż": 1512,
      "zbro": 1513,
      "strzy": 1514,
      "brzy": 1515,
      "zwał": 1516,
      "gli": 1517,
      "głów": 1518,
      "stoj": 1519,
      "szczegó": 1520,
      "świecie": 1521,
      "chi": 1522,
      "nęły": 1523,
      "sek": 1524,
      "resztą": 1525,
      "zupełnie": 1526,
      "per": 1527,
      "nii": 1528,
      "net": 1529,
      "obro": 1530,
      "żenie": 1531,
      "krew": 1532,
      "kój": 1533,
      "dziesię": 1534,
      "mały": 1535,
      "dwu": 1536,
      "będę": 1537,
      "owanie": 1538,
      "pił": 1539,
      "sp": 1540,
      "nadzie": 1541,
      "lnic": 1542,
      "lny": 1543,
      "gości": 1544,
      "rii": 1545,
      "wało": 1546,
      "proce": 1547,
      "gląd": 1548,
      "zoba": 1549,
      "czoraj": 1550,
      "wspo": 1551,
      "patrz": 1552,
      "obu": 1553,
      "ot": 1554,
      "owią": 1555,
      "tom": 1556,
      "chro": 1557,
      "strz": 1558,
      "jeżd": 1559,
      "mogę": 1560,
      "samy": 1561,
      "twarzy": 1562,
      "moje": 1563,
      "młody": 1564,
      "śmierci": 1565,
      "mimo": 1566,
      "ształ": 1567,
      "wody": 1568,
      "wtedy": 1569,
      "wzię": 1570,
      "smu": 1571,
      "wówczas": 1572,
      "zabe": 1573,
      "maga": 1574,
      "he": 1575,
      "zdu": 1576,
      "mogą": 1577,
      "stępu": 1578,
      "Bu": 1579,
      "publi": 1580,
      "nta": 1581,
      "komi": 1582,
      "nęli": 1583,
      "szczęśli": 1584,
      "wicz": 1585,
      "wiście": 1586,
      "łów": 1587,
      "licz": 1588,
      "gach": 1589,
      "chodzą": 1590,
      "mogła": 1591,
      "nieco": 1592,
      "wiał": 1593,
      "swoją": 1594,
      "szczo": 1595,
      "Cho": 1596,
      "drodze": 1597,
      "fara": 1598,
      "kolwiek": 1599,
      "Pie": 1600,
      "decy": 1601,
      "Dob": 1602,
      "drzwi": 1603,
      "Jako": 1604,
      "\",": 1605,
      "dam": 1606,
      "Ram": 1607,
      "mieli": 1608,
      "wraz": 1609,
      "zaczę": 1610,
      "dko": 1611,
      "infor": 1612,
      "puszcza": 1613,
      "jaką": 1614,
      "przedsta": 1615,
      "Panie": 1616,
      "skła": 1617,
      "drogi": 1618,
      "uda": 1619,
      "takim": 1620,
      "powiedzieć": 1621,
      "bud": 1622,
      "gry": 1623,
      "der": 1624,
      "wska": 1625,
      "ciaż": 1626,
      "rycerz": 1627,
      "choćby": 1628,
      "list": 1629,
      "zapa": 1630,
      "jednym": 1631,
      "wil": 1632,
      "Andrze": 1633,
      "Ha": 1634,
      "Izabe": 1635,
      "nowe": 1636,
      "kazu": 1637,
      "duszy": 1638,
      "głową": 1639,
      "czna": 1640,
      "kaza": 1641,
      "sach": 1642,
      "Dzie": 1643,
      "skoń": 1644,
      "row": 1645,
      "słów": 1646,
      "koło": 1647,
      "swoich": 1648,
      "dzien": 1649,
      "jednej": 1650,
      "krzyknął": 1651,
      "takich": 1652,
      "Kiedy": 1653,
      "nau": 1654,
      "tać": 1655,
      "inne": 1656,
      "szczęście": 1657,
      "zwycię": 1658,
      "lnych": 1659,
      "pomo": 1660,
      "jas": 1661,
      "Boże": 1662,
      "zła": 1663,
      "czał": 1664,
      "Mie": 1665,
      "znala": 1666,
      "drogę": 1667,
      "Teraz": 1668,
      "bec": 1669,
      "razu": 1670,
      "wiedział": 1671,
      "groma": 1672,
      "obowią": 1673,
      "dzenie": 1674,
      "rzenia": 1675,
      "powin": 1676,
      "tow": 1677,
      "zmar": 1678,
      "serca": 1679,
      "bił": 1680,
      "organi": 1681,
      "dobry": 1682,
      "chwila": 1683,
      "ckiego": 1684,
      "kształ": 1685,
      "żar": 1686,
      "korzy": 1687,
      "możli": 1688,
      "wro": 1689,
      "ponie": 1690,
      "wiąz": 1691,
      "dobre": 1692,
      "glę": 1693,
      "polski": 1694,
      "zaczą": 1695,
      "kur": 1696,
      "So": 1697,
      "cego": 1698,
      "Egip": 1699,
      "pierw": 1700,
      "naprzód": 1701,
      "win": 1702,
      "przej": 1703,
      "ogó": 1704,
      "prowadzi": 1705,
      "brał": 1706,
      "jedzie": 1707,
      "zamie": 1708,
      "logi": 1709,
      "jechać": 1710,
      "królew": 1711,
      "cją": 1712,
      "Wszyst": 1713,
      "kolej": 1714,
      "Chmie": 1715,
      "śniej": 1716,
      "taka": 1717,
      "wybo": 1718,
      "jącego": 1719,
      "śmierć": 1720,
      "rak": 1721,
      "prawo": 1722,
      "lin": 1723,
      "ńce": 1724,
      "pada": 1725,
      "myśle": 1726,
      "nasz": 1727,
      "zaj": 1728,
      "mili": 1729,
      "całe": 1730,
      "całej": 1731,
      "rado": 1732,
      "trzymał": 1733,
      "kraj": 1734,
      "wszel": 1735,
      "dostoj": 1736,
      "daje": 1737,
      "boga": 1738,
      "lud": 1739,
      "wiać": 1740,
      "wzglę": 1741,
      "łek": 1742,
      "snął": 1743,
      "Boga": 1744,
      "człowieka": 1745,
      "tne": 1746,
      "chnął": 1747,
      "bior": 1748,
      "rzuca": 1749,
      "najwięk": 1750,
      "prawda": 1751,
      "Niem": 1752,
      "inaczej": 1753,
      "cj": 1754,
      "pić": 1755,
      "znale": 1756,
      "tymi": 1757,
      "wielu": 1758,
      "powta": 1759,
      "świąty": 1760,
      "przecież": 1761,
      "tała": 1762,
      "skó": 1763,
      "Dan": 1764,
      "dowie": 1765,
      "rozm": 1766,
      "zami": 1767,
      "Winicjusz": 1768,
      "opie": 1769,
      "nato": 1770,
      "cieka": 1771,
      "czach": 1772,
      "Ksią": 1773,
      "nęło": 1774,
      "dawało": 1775,
      "miejscu": 1776,
      "kosz": 1777,
      "biał": 1778,
      "nowi": 1779,
      "poło": 1780,
      "żenia": 1781,
      "Juran": 1782,
      "jakieś": 1783,
      "cio": 1784,
      "takiego": 1785,
      "żony": 1786,
      "jącym": 1787,
      "Gdzie": 1788,
      "bło": 1789,
      "poja": 1790,
      "kraju": 1791,
      "Ki": 1792,
      "naz": 1793,
      "dziwił": 1794,
      "mogli": 1795,
      "Maćko": 1796,
      "połu": 1797,
      "Rzeczy": 1798,
      "Ze": 1799,
      "często": 1800,
      "brać": 1801,
      "ńców": 1802,
      "niesie": 1803,
      "Ci": 1804,
      "Mó": 1805,
      "sier": 1806,
      "Al": 1807,
      "stry": 1808,
      "bić": 1809,
      "jeź": 1810,
      "swoim": 1811,
      "pał": 1812,
      "maty": 1813,
      "rozle": 1814,
      "piersi": 1815,
      "łó": 1816,
      "rady": 1817,
      "jemy": 1818,
      "czyła": 1819,
      "pio": 1820,
      "hi": 1821,
      "czek": 1822,
      "sio": 1823,
      "taką": 1824,
      "końcu": 1825,
      "chorąg": 1826,
      "Cz": 1827,
      "zię": 1828,
      "cóż": 1829,
      "ścija": 1830,
      "Był": 1831,
      "Skrzetuski": 1832,
      "mru": 1833,
      "tysią": 1834,
      "staro": 1835,
      "owia": 1836,
      "skiem": 1837,
      "ist": 1838,
      "zbie": 1839,
      "niepo": 1840,
      "przyszło": 1841,
      "dziewczy": 1842,
      "otwar": 1843,
      "czyz": 1844,
      "Oto": 1845,
      "lał": 1846,
      "wcze": 1847,
      "chrze": 1848,
      "góry": 1849,
      "ziemię": 1850,
      "Fe": 1851,
      "mało": 1852,
      "świata": 1853,
      "zaję": 1854,
      "osób": 1855,
      "swej": 1856,
      "waćpan": 1857,
      "ble": 1858,
      "La": 1859,
      "jaka": 1860,
      "nogi": 1861,
      "ałam": 1862,
      "chociaż": 1863,
      "inni": 1864,
      "rzucił": 1865,
      "pięć": 1866,
      "należy": 1867,
      "gląda": 1868,
      "ur": 1869,
      "jesz": 1870,
      "ńcu": 1871,
      "nków": 1872,
      "tna": 1873,
      "uczu": 1874,
      "zgi": 1875,
      "zasa": 1876,
      "Przez": 1877,
      "Staś": 1878,
      "zji": 1879,
      "jednego": 1880,
      "ciągnął": 1881,
      "natu": 1882,
      "zapytał": 1883,
      "lnego": 1884,
      "sprze": 1885,
      "ktor": 1886,
      "powtó": 1887,
      "Chmielnic": 1888,
      "otwo": 1889,
      "wyj": 1890,
      "głowie": 1891,
      "pozy": 1892,
      "stare": 1893,
      "ali": 1894,
      "bła": 1895,
      "jakim": 1896,
      "prawa": 1897,
      "wczoraj": 1898,
      "niła": 1899,
      "wasza": 1900,
      "wypad": 1901,
      "siada": 1902,
      "stronę": 1903,
      "wojska": 1904,
      "menta": 1905,
      "bezpiecze": 1906,
      "zapew": 1907,
      "lata": 1908,
      "mienia": 1909,
      "sama": 1910,
      "cząc": 1911,
      "jecha": 1912,
      "moja": 1913,
      "fir": 1914,
      "póki": 1915,
      "okru": 1916,
      "lle": 1917,
      "wanie": 1918,
      "tobie": 1919,
      "ren": 1920,
      "znaczy": 1921,
      "miejsce": 1922,
      "nieprzyjacie": 1923,
      "owskiego": 1924,
      "wąt": 1925,
      "zdy": 1926,
      "giem": 1927,
      "uży": 1928,
      "wale": 1929,
      "lskiego": 1930,
      "wielkie": 1931,
      "preze": 1932,
      "wojny": 1933,
      "czka": 1934,
      "pita": 1935,
      "miłości": 1936,
      "zaczął": 1937,
      "Se": 1938,
      "kazy": 1939,
      "ktoś": 1940,
      "ńskich": 1941,
      "widok": 1942,
      "owali": 1943,
      "rozpa": 1944,
      "EL": 1945,
      "podej": 1946,
      "cieli": 1947,
      "kwi": 1948,
      "ręką": 1949,
      "tny": 1950,
      "wdzię": 1951,
      "miały": 1952,
      "stać": 1953,
      "tymczasem": 1954,
      "nienia": 1955,
      "prezy": 1956,
      "czem": 1957,
      "tychmiast": 1958,
      "krwi": 1959,
      "siadł": 1960,
      "ciał": 1961,
      "miesią": 1962,
      "wódz": 1963,
      "potrzeb": 1964,
      "prosi": 1965,
      "chrześcija": 1966,
      "potęż": 1967,
      "miało": 1968,
      "cym": 1969,
      "zamk": 1970,
      "jąca": 1971,
      "podniósł": 1972,
      "prawdzie": 1973,
      "pokoju": 1974,
      "niebie": 1975,
      "Tam": 1976,
      "chodził": 1977,
      "pospolitej": 1978,
      "mio": 1979,
      "lony": 1980,
      "obok": 1981,
      "niebo": 1982,
      "wojsk": 1983,
      "szwe": 1984,
      "ciec": 1985,
      "200": 1986,
      "bój": 1987,
      "dała": 1988,
      "pusty": 1989,
      "jedną": 1990,
      "daleko": 1991,
      "trza": 1992,
      "dle": 1993,
      "bio": 1994,
      "ckie": 1995,
      "wnę": 1996,
      "gorą": 1997,
      "res": 1998,
      "szwedz": 1999,
      "sąd": 2000,
      "szero": 2001,
      "języ": 2002,
      "jącą": 2003,
      "dziesiąt": 2004,
      "uważa": 2005,
      "głębo": 2006,
      "wcale": 2007,
      "cała": 2008,
      "szem": 2009,
      "wach": 2010,
      "czony": 2011,
      "zdra": 2012,
      "mówię": 2013,
      "ES": 2014,
      "dało": 2015,
      "usza": 2016,
      "konia": 2017,
      "Petro": 2018,
      "cąc": 2019,
      "ckich": 2020,
      "współ": 2021,
      "ramiona": 2022,
      "idzie": 2023,
      "kul": 2024,
      "lnym": 2025,
      "ukry": 2026,
      "zem": 2027,
      "zacji": 2028,
      "czeniu": 2029,
      "wobec": 2030,
      "Petroniu": 2031,
      "lar": 2032,
      "ment": 2033,
      "Gdyby": 2034,
      "parę": 2035,
      "jesteś": 2036,
      "ogrom": 2037,
      "ryka": 2038,
      "spodzie": 2039,
      "właszcza": 2040,
      "patrzył": 2041,
      "olbrzy": 2042,
      "Michał": 2043,
      "ńskie": 2044,
      "poczęła": 2045,
      "gospodar": 2046,
      "samym": 2047,
      "natychmiast": 2048,
      "Tata": 2049,
      "gór": 2050,
      "lnej": 2051,
      "wski": 2052,
      "warto": 2053,
      "około": 2054,
      "czerwo": 2055,
      "pat": 2056,
      "dlaczego": 2057,
      "Słu": 2058,
      "rusze": 2059,
      "dego": 2060,
      "Rzeczypospolitej": 2061,
      "pomoc": 2062,
      "chcesz": 2063,
      "uli": 2064,
      "dziedzi": 2065,
      "Ligi": 2066,
      "iść": 2067,
      "czyn": 2068,
      "ńskiej": 2069,
      "żało": 2070,
      "Ot": 2071,
      "let": 2072,
      "fo": 2073,
      "zwrócił": 2074,
      "muje": 2075,
      "albowiem": 2076,
      "wór": 2077,
      "Sam": 2078,
      "ciła": 2079,
      "przekona": 2080,
      "Czar": 2081,
      "łeś": 2082,
      "pała": 2083,
      "naprawdę": 2084,
      "pali": 2085,
      "prostu": 2086,
      "prawdzi": 2087,
      "grani": 2088,
      "chodzić": 2089,
      "każdym": 2090,
      "Cóż": 2091,
      "gor": 2092,
      "gami": 2093,
      "Ten": 2094,
      "ądź": 2095,
      "drugiej": 2096,
      "chni": 2097,
      "Ody": 2098,
      "społe": 2099,
      "samego": 2100,
      "Potem": 2101,
      "tur": 2102,
      "znać": 2103,
      "Chry": 2104,
      "trud": 2105,
      "Sie": 2106,
      "niez": 2107,
      "znaleź": 2108,
      "mem": 2109,
      "swój": 2110,
      "…”": 2111,
      "com": 2112,
      "Pola": 2113,
      "króla": 2114,
      "oczyma": 2115,
      "Trze": 2116,
      "ul": 2117,
      "wybu": 2118,
      "Wła": 2119,
      "ić": 2120,
      "świ": 2121,
      "prost": 2122,
      "proszę": 2123,
      "hetma": 2124,
      "jeżdża": 2125,
      "ilo": 2126,
      "ceza": 2127,
      "Jeżeli": 2128,
      "słyszał": 2129,
      "Bar": 2130,
      "He": 2131,
      "doty": 2132,
      "Ry": 2133,
      "kola": 2134,
      "odda": 2135,
      "Bohu": 2136,
      "Ne": 2137,
      "nieść": 2138,
      "minu": 2139,
      "tua": 2140,
      "duje": 2141,
      "kły": 2142,
      "musiał": 2143,
      "sja": 2144,
      "komen": 2145,
      "west": 2146,
      "niejsze": 2147,
      "Fa": 2148,
      "przygo": 2149,
      "sma": 2150,
      "yy": 2151,
      "chcę": 2152,
      "państwa": 2153,
      "powiem": 2154,
      "odpowiedzi": 2155,
      "wyja": 2156,
      "ręku": 2157,
      "rzem": 2158,
      "świet": 2159,
      "ciągle": 2160,
      "Nel": 2161,
      "tajem": 2162,
      "wieczo": 2163,
      "Jagie": 2164,
      "dzej": 2165,
      "Wiel": 2166,
      "knia": 2167,
      "siły": 2168,
      "gać": 2169,
      "ojciec": 2170,
      "woda": 2171,
      "wili": 2172,
      "stosu": 2173,
      "nasze": 2174,
      "obra": 2175,
      "pracow": 2176,
      "szybko": 2177,
      "nagro": 2178,
      "koła": 2179,
      "długi": 2180,
      "okaz": 2181,
      "poczęli": 2182,
      "Andrzej": 2183,
      "Przed": 2184,
      "zwykle": 2185,
      "wziął": 2186,
      "Euro": 2187,
      "Spo": 2188,
      "kan": 2189,
      "kup": 2190,
      "przypad": 2191,
      "żna": 2192,
      "znał": 2193,
      "ciąż": 2194,
      "poczęły": 2195,
      "twy": 2196,
      "tmo": 2197,
      "żeś": 2198,
      "mamy": 2199,
      "zio": 2200,
      "grzy": 2201,
      "doj": 2202,
      "ber": 2203,
      "Kon": 2204,
      "poch": 2205,
      "Ramzes": 2206,
      "rski": 2207,
      "obej": 2208,
      "prócz": 2209,
      "wiadomo": 2210,
      "śnia": 2211,
      "żyła": 2212,
      "słusz": 2213,
      "rat": 2214,
      "czone": 2215,
      "miłość": 2216,
      "Ru": 2217,
      "ad": 2218,
      "histo": 2219,
      "rowi": 2220,
      "zwłaszcza": 2221,
      "biegł": 2222,
      "Danu": 2223,
      "Sy": 2224,
      "dużo": 2225,
      "Si": 2226,
      "wnio": 2227,
      "zdzi": 2228,
      "koni": 2229,
      "pozosta": 2230,
      "dodał": 2231,
      "miejsca": 2232,
      "owane": 2233,
      "wnie": 2234,
      "nien": 2235,
      "wzro": 2236,
      "Dzię": 2237,
      "widzę": 2238,
      "swojej": 2239,
      "zim": 2240,
      "nąwszy": 2241,
      "dowo": 2242,
      "niewol": 2243,
      "mojej": 2244,
      "Nic": 2245,
      "Polsce": 2246,
      "naście": 2247,
      "kuję": 2248,
      "Jedna": 2249,
      "ziem": 2250,
      "groź": 2251,
      "części": 2252,
      "pora": 2253,
      "rzeć": 2254,
      "ruszył": 2255,
      "puścił": 2256,
      "cór": 2257,
      "ogar": 2258,
      "poru": 2259,
      "nar": 2260,
      "przyję": 2261,
      "weso": 2262,
      "pil": 2263,
      "zarazem": 2264,
      "jącej": 2265,
      "wer": 2266,
      "całym": 2267,
      "Zy": 2268,
      "innego": 2269,
      "łego": 2270,
      "ojca": 2271,
      "nikiem": 2272,
      "progra": 2273,
      "błę": 2274,
      "szył": 2275,
      "stoi": 2276,
      "chów": 2277,
      "miecz": 2278,
      "górę": 2279,
      "rzenie": 2280,
      "cześnie": 2281,
      "podsta": 2282,
      "szuka": 2283,
      "18": 2284,
      "zało": 2285,
      "listy": 2286,
      "oczach": 2287,
      "ciel": 2288,
      "pienię": 2289,
      "żołnierzy": 2290,
      "urzę": 2291,
      "szak": 2292,
      "powiadał": 2293,
      "trzymać": 2294,
      "speł": 2295,
      "potrafi": 2296,
      "rol": 2297,
      "Praw": 2298,
      "sząc": 2299,
      "199": 2300,
      "nowo": 2301,
      "rew": 2302,
      "stępo": 2303,
      "dawno": 2304,
      "ił": 2305,
      "udział": 2306,
      "ciała": 2307,
      "leń": 2308,
      "Ar": 2309,
      "wyszedł": 2310,
      "obraz": 2311,
      "jutro": 2312,
      "niejszy": 2313,
      "Cie": 2314,
      "grz": 2315,
      "szere": 2316,
      "prawi": 2317,
      "syn": 2318,
      "myśla": 2319,
      "żona": 2320,
      "Książę": 2321,
      "Au": 2322,
      "dzwo": 2323,
      "spostrze": 2324,
      "Bę": 2325,
      "mian": 2326,
      "sytua": 2327,
      "następnie": 2328,
      "ponad": 2329,
      "lić": 2330,
      "ogni": 2331,
      "znajo": 2332,
      "tutaj": 2333,
      "część": 2334,
      "została": 2335,
      "Ce": 2336,
      "De": 2337,
      "dzieje": 2338,
      "dziecko": 2339,
      "Ge": 2340,
      "Kor": 2341,
      "nne": 2342,
      "waru": 2343,
      "początku": 2344,
      "powodu": 2345,
      "jechali": 2346,
      "kont": 2347,
      "kara": 2348,
      "mysł": 2349,
      "życiu": 2350,
      "stos": 2351,
      "pozwoli": 2352,
      "FI": 2353,
      "zmia": 2354,
      "pomina": 2355,
      "tys": 2356,
      "mieniu": 2357,
      "wspó": 2358,
      "Kró": 2359,
      "dąc": 2360,
      "klu": 2361,
      "sposob": 2362,
      "trzech": 2363,
      "pomyślał": 2364,
      "mistrz": 2365,
      "żegna": 2366,
      "moim": 2367,
      "siedzi": 2368,
      "Her": 2369,
      "Powie": 2370,
      "śre": 2371,
      "Jego": 2372,
      "rium": 2373,
      "ńskim": 2374,
      "oczu": 2375,
      "miar": 2376,
      "prowadził": 2377,
      "auto": 2378,
      "pułkow": 2379,
      "spi": 2380,
      "zresztą": 2381,
      "niku": 2382,
      "wiecz": 2383,
      "czyni": 2384,
      "pienią": 2385,
      "zer": 2386,
      "głowa": 2387,
      "kąd": 2388,
      "dotąd": 2389,
      "przewo": 2390,
      "cka": 2391,
      "szczą": 2392,
      "poprzed": 2393,
      "zapła": 2394,
      "mieni": 2395,
      "ściu": 2396,
      "wszech": 2397,
      "pokry": 2398,
      "skał": 2399,
      "dne": 2400,
      "niemie": 2401,
      "zamiast": 2402,
      "proje": 2403,
      "10": 2404,
      "raczej": 2405,
      "prędzej": 2406,
      "wami": 2407,
      "przykład": 2408,
      "soby": 2409,
      "dług": 2410,
      "kwia": 2411,
      "jąć": 2412,
      "skiemu": 2413,
      "znalazł": 2414,
      "mąd": 2415,
      "nom": 2416,
      "kwa": 2417,
      "swych": 2418,
      "wpły": 2419,
      "zni": 2420,
      "jakiej": 2421,
      "Pio": 2422,
      "rąk": 2423,
      "pewno": 2424,
      "widocznie": 2425,
      "lności": 2426,
      "czło": 2427,
      "czych": 2428,
      "Koza": 2429,
      "----": 2430,
      "ckiej": 2431,
      "takiej": 2432,
      "siła": 2433,
      "owany": 2434,
      "fina": 2435,
      "podo": 2436,
      "robić": 2437,
      "spod": 2438,
      "lone": 2439,
      "bry": 2440,
      "rał": 2441,
      "cztery": 2442,
      "poważ": 2443,
      "mienie": 2444,
      "najlep": 2445,
      "informa": 2446,
      "lną": 2447,
      "naszych": 2448,
      "zawie": 2449,
      "lega": 2450,
      "dzili": 2451,
      "myślę": 2452,
      "wielką": 2453,
      "Tylko": 2454,
      "15": 2455,
      "pry": 2456,
      "zgu": 2457,
      "spokojnie": 2458,
      "dniu": 2459,
      "wprawdzie": 2460,
      "para": 2461,
      "głoś": 2462,
      "Woj": 2463,
      "Du": 2464,
      "spie": 2465,
      "pacho": 2466,
      "panem": 2467,
      "Polski": 2468,
      "słał": 2469,
      "ciągu": 2470,
      "krótce": 2471,
      "swą": 2472,
      "zbu": 2473,
      "tan": 2474,
      "dami": 2475,
      "fil": 2476,
      "stron": 2477,
      "ME": 2478,
      "Pu": 2479,
      "gwia": 2480,
      "wciąż": 2481,
      "mią": 2482,
      "doda": 2483,
      "czuł": 2484,
      "krzyw": 2485,
      "ńska": 2486,
      "ksiądz": 2487,
      "natomiast": 2488,
      "ucze": 2489,
      "ukła": 2490,
      "zba": 2491,
      "narod": 2492,
      "szlachci": 2493,
      "brz": 2494,
      "zwo": 2495,
      "lenia": 2496,
      "państ": 2497,
      "rozpo": 2498,
      "nicę": 2499,
      "jakoby": 2500,
      "tłuma": 2501,
      "jda": 2502,
      "wydo": 2503,
      "Jeszcze": 2504,
      "STO": 2505,
      "kowie": 2506,
      "nemu": 2507,
      "stwie": 2508,
      "lach": 2509,
      "mek": 2510,
      "dobro": 2511,
      "sprawiedli": 2512,
      "Izabela": 2513,
      "Chrystu": 2514,
      "am": 2515,
      "liz": 2516,
      "mił": 2517,
      "łatwo": 2518,
      "wyraź": 2519,
      "żołnierz": 2520,
      "prędko": 2521,
      "zaba": 2522,
      "przerwał": 2523,
      "mogło": 2524,
      "podczas": 2525,
      "gniew": 2526,
      "imię": 2527,
      "skąd": 2528,
      "niony": 2529,
      "trwo": 2530,
      "tobli": 2531,
      "stem": 2532,
      "jakiego": 2533,
      "mego": 2534,
      "stej": 2535,
      "Pier": 2536,
      "pochy": 2537,
      "przede": 2538,
      "będziesz": 2539,
      "nowy": 2540,
      "waszej": 2541,
      "pewnie": 2542,
      "doświad": 2543,
      "zywa": 2544,
      "seł": 2545,
      "brak": 2546,
      "prowadzić": 2547,
      "zostanie": 2548,
      "mował": 2549,
      "swe": 2550,
      "lite": 2551,
      "mówiła": 2552,
      "spojrzał": 2553,
      "chmu": 2554,
      "tygo": 2555,
      "stop": 2556,
      "krzyk": 2557,
      "miejsc": 2558,
      "interes": 2559,
      "kół": 2560,
      "ura": 2561,
      "czkę": 2562,
      "chcą": 2563,
      "wiła": 2564,
      "tyka": 2565,
      "panowie": 2566,
      "Wszystko": 2567,
      "ostro": 2568,
      "źle": 2569,
      "poszedł": 2570,
      "postanowi": 2571,
      "gorze": 2572,
      "kor": 2573,
      "gan": 2574,
      "gię": 2575,
      "oce": 2576,
      "wsty": 2577,
      "związ": 2578,
      "kieru": 2579,
      "faraon": 2580,
      "groz": 2581,
      "loka": 2582,
      "set": 2583,
      "sława": 2584,
      "sercu": 2585,
      "Petroniusz": 2586,
      "wnet": 2587,
      "poł": 2588,
      "porząd": 2589,
      "FEL": 2590,
      "Hi": 2591,
      "tre": 2592,
      "znak": 2593,
      "inny": 2594,
      "FISTO": 2595,
      "MEFISTO": 2596,
      "FELES": 2597,
      "MEFISTOFELES": 2598,
      "rob": 2599,
      "doku": 2600,
      "specja": 2601,
      "ocho": 2602,
      "słowo": 2603,
      "funk": 2604,
      "Rozdział": 2605,
      "nice": 2606,
      "szar": 2607,
      "częście": 2608,
      "poza": 2609,
      "mate": 2610,
      "tury": 2611,
      "pej": 2612,
      "ręko": 2613,
      "kobiety": 2614,
      "pierwszej": 2615,
      "Su": 2616,
      "próż": 2617,
      "cili": 2618,
      "przyszedł": 2619,
      "biały": 2620,
      "pory": 2621,
      "min": 2622,
      "równa": 2623,
      "wód": 2624,
      "całkiem": 2625,
      "Oj": 2626,
      "han": 2627,
      "spół": 2628,
      "głosy": 2629,
      "nicja": 2630,
      "siaj": 2631,
      "sre": 2632,
      "pocie": 2633,
      "skoczył": 2634,
      "Dobrze": 2635,
      "pieniądze": 2636,
      "niezmie": 2637,
      "zac": 2638,
      "leka": 2639,
      "pytała": 2640,
      "trzeć": 2641,
      "przyjdzie": 2642,
      "Są": 2643,
      "powa": 2644,
      "zaczyna": 2645,
      "boż": 2646,
      "produ": 2647,
      "Radziwił": 2648,
      "lna": 2649,
      "tkiem": 2650,
      "dziła": 2651,
      "moją": 2652,
      "mówiąc": 2653,
      "żone": 2654,
      "blisko": 2655,
      "chodziło": 2656,
      "gen": 2657,
      "Jakoż": 2658,
      "dny": 2659,
      "przera": 2660,
      "sali": 2661,
      "Wtem": 2662,
      "posła": 2663,
      "liście": 2664,
      "zada": 2665,
      "byle": 2666,
      "piecho": 2667,
      "bel": 2668,
      "wrócić": 2669,
      "wolno": 2670,
      "rozumiał": 2671,
      "muzy": 2672,
      "padła": 2673,
      "ciół": 2674,
      "lubi": 2675,
      "Przecie": 2676,
      "zamku": 2677,
      "hetman": 2678,
      "twój": 2679,
      "nat": 2680,
      "Każ": 2681,
      "zrobić": 2682,
      "powtarza": 2683,
      "ld": 2684,
      "poczy": 2685,
      "stów": 2686,
      "obli": 2687,
      "tychczas": 2688,
      "niosła": 2689,
      "wielkim": 2690,
      "dłuż": 2691,
      "Wokulskiego": 2692,
      "Trzeba": 2693,
      "Rzy": 2694,
      "gnął": 2695,
      "sny": 2696,
      "skę": 2697,
      "Fran": 2698,
      "Pre": 2699,
      "naszej": 2700,
      "bur": 2701,
      "hy": 2702,
      "przynajmniej": 2703,
      "żyli": 2704,
      "rozkaz": 2705,
      "miasto": 2706,
      "stąpił": 2707,
      "30": 2708,
      "chała": 2709,
      "odwie": 2710,
      "Mam": 2711,
      "wojen": 2712,
      "opa": 2713,
      "san": 2714,
      "Ho": 2715,
      "nieu": 2716,
      "szto": 2717,
      "mier": 2718,
      "bij": 2719,
      "pisał": 2720,
      "źni": 2721,
      "nosił": 2722,
      "żywo": 2723,
      "przyjaciół": 2724,
      "świątobli": 2725,
      "ogóle": 2726,
      "dzier": 2727,
      "żyw": 2728,
      "tnych": 2729,
      "chcąc": 2730,
      "cicho": 2731,
      "równo": 2732,
      "Pani": 2733,
      "trudno": 2734,
      "ponieważ": 2735,
      "Ach": 2736,
      "owały": 2737,
      "miesz": 2738,
      "kiedyś": 2739,
      "nazwi": 2740,
      "nieba": 2741,
      "kawale": 2742,
      "stronie": 2743,
      "12": 2744,
      "tale": 2745,
      "mieniem": 2746,
      "rycer": 2747,
      "odzy": 2748,
      "żela": 2749,
      "art": 2750,
      "stytu": 2751,
      "sprawy": 2752,
      "sną": 2753,
      "mogły": 2754,
      "pta": 2755,
      "chle": 2756,
      "książ": 2757,
      "końca": 2758,
      "broni": 2759,
      "Krzyża": 2760,
      "mając": 2761,
      "niami": 2762,
      "arty": 2763,
      "różnych": 2764,
      "zły": 2765,
      "wieku": 2766,
      "moich": 2767,
      "owicz": 2768,
      "sro": 2769,
      "stwem": 2770,
      "stara": 2771,
      "pieniędzy": 2772,
      "łała": 2773,
      "każe": 2774,
      "FA": 2775,
      "zapom": 2776,
      "rum": 2777,
      "Sły": 2778,
      "kolo": 2779,
      "którymi": 2780,
      "wnętrz": 2781,
      ".”": 2782,
      "przer": 2783,
      "bom": 2784,
      "wszedł": 2785,
      "istotnie": 2786,
      "wodę": 2787,
      "innym": 2788,
      "nione": 2789,
      "Kra": 2790,
      "Or": 2791,
      "wtrą": 2792,
      "ńcy": 2793,
      "rabia": 2794,
      "rzekłszy": 2795,
      "pytanie": 2796,
      "Jednak": 2797,
      "pocz": 2798,
      "stanął": 2799,
      "przyczy": 2800,
      "mówią": 2801,
      "Jezu": 2802,
      "nieszczę": 2803,
      "mieście": 2804,
      "okrzy": 2805,
      "zdraj": 2806,
      "ministra": 2807,
      "Eu": 2808,
      "źnie": 2809,
      "straszli": 2810,
      "chwycił": 2811,
      "zakoń": 2812,
      "nor": 2813,
      "staje": 2814,
      "sługi": 2815,
      "zostały": 2816,
      "Komi": 2817,
      "Proszę": 2818,
      "pać": 2819,
      "wyzna": 2820,
      "wierz": 2821,
      "Nagle": 2822,
      "Basia": 2823,
      "gwał": 2824,
      "ńczy": 2825,
      "powinien": 2826,
      "prób": 2827,
      "Bie": 2828,
      "IE": 2829,
      "nóg": 2830,
      "rodza": 2831,
      "szyć": 2832,
      "znajdzie": 2833,
      "opowiada": 2834,
      "rzyła": 2835,
      "wano": 2836,
      "sej": 2837,
      "długie": 2838,
      "godziny": 2839,
      "cierpli": 2840,
      "niezmier": 2841,
      "Zo": 2842,
      "zasta": 2843,
      "przestrze": 2844,
      "bierze": 2845,
      "ręki": 2846,
      ".,": 2847,
      "Ga": 2848,
      "bru": 2849,
      "oby": 2850,
      "”,": 2851,
      "suk": 2852,
      "sunął": 2853,
      "pełni": 2854,
      "powro": 2855,
      "zdrowie": 2856,
      "rt": 2857,
      "naszego": 2858,
      "jakich": 2859,
      "laty": 2860,
      "dziesięć": 2861,
      "opi": 2862,
      "nięte": 2863,
      "Tutmo": 2864,
      "Czarniec": 2865,
      "Tutmozi": 2866,
      "fra": 2867,
      "osie": 2868,
      "dzisiaj": 2869,
      "dobra": 2870,
      "bliż": 2871,
      "chowa": 2872,
      "sti": 2873,
      "widząc": 2874,
      "cent": 2875,
      "znacznie": 2876,
      "ręka": 2877,
      "proc": 2878,
      "ogra": 2879,
      "nowych": 2880,
      "ocze": 2881,
      "śmiał": 2882,
      "nadz": 2883,
      "lenie": 2884,
      "muszę": 2885,
      "panny": 2886,
      "tęsk": 2887,
      "gier": 2888,
      "wcześniej": 2889,
      "20": 2890,
      "swym": 2891,
      "zga": 2892,
      "niena": 2893,
      "rzec": 2894,
      "waj": 2895,
      "stym": 2896,
      "słysz": 2897,
      "Kali": 2898,
      "prowadza": 2899,
      "nkę": 2900,
      "niedo": 2901,
      "niby": 2902,
      "kuje": 2903,
      "rucho": 2904,
      "Myś": 2905,
      "glądał": 2906,
      "zmę": 2907,
      "spokój": 2908,
      "sur": 2909,
      "ustawy": 2910,
      "uczynił": 2911,
      "okoli": 2912,
      "powtórzył": 2913,
      "wienie": 2914,
      "miest": 2915,
      "siedział": 2916,
      "byłem": 2917,
      "gdzieś": 2918,
      "samej": 2919,
      "zów": 2920,
      "tobą": 2921,
      "ruch": 2922,
      "szer": 2923,
      "chaj": 2924,
      "ogie": 2925,
      "okrę": 2926,
      "słysze": 2927,
      "zwyczaj": 2928,
      "żołnierze": 2929,
      "nica": 2930,
      "wienia": 2931,
      "bada": 2932,
      "bądź": 2933,
      "polu": 2934,
      "wiedzieć": 2935,
      "więzie": 2936,
      "dowi": 2937,
      "zm": 2938,
      "kana": 2939,
      "prasza": 2940,
      "Ket": 2941,
      "Ła": 2942,
      "zimie": 2943,
      "prowadzo": 2944,
      "myśleć": 2945,
      "rubli": 2946,
      "skle": 2947,
      "najwyż": 2948,
      "szepnął": 2949,
      "waszmości": 2950,
      "pów": 2951,
      "wają": 2952,
      "skarb": 2953,
      "Kry": 2954,
      "ponu": 2955,
      "panią": 2956,
      "czyło": 2957,
      "żyje": 2958,
      "Nawet": 2959,
      "uczyni": 2960,
      "Ketlin": 2961,
      "nij": 2962,
      "któw": 2963,
      "mentu": 2964,
      "chłopa": 2965,
      "Sej": 2966,
      "dotychczas": 2967,
      "tuż": 2968,
      "wład": 2969,
      "chciała": 2970,
      "Stra": 2971,
      "us": 2972,
      "niewia": 2973,
      "wich": 2974,
      "wysta": 2975,
      "duch": 2976,
      "włosy": 2977,
      "sprzeda": 2978,
      "Któ": 2979,
      "pola": 2980,
      "ryta": 2981,
      "skoro": 2982,
      "wolna": 2983,
      "modli": 2984,
      "wien": 2985,
      "niejszych": 2986,
      "żal": 2987,
      "kroć": 2988,
      "policja": 2989,
      "III": 2990,
      "tyw": 2991,
      "dzian": 2992,
      "środku": 2993,
      "pomocy": 2994,
      "nastu": 2995,
      "czwar": 2996,
      "rom": 2997,
      "ban": 2998,
      "ciąga": 2999,
      "kroków": 3000,
      "kapłan": 3001,
      "Dlaczego": 3002,
      "przygotowa": 3003,
      "osoby": 3004,
      "wszę": 3005,
      "dzał": 3006,
      "racji": 3007,
      "piec": 3008,
      "jęcia": 3009,
      "fał": 3010,
      "żół": 3011,
      "niki": 3012,
      "zakła": 3013,
      "ton": 3014,
      "mer": 3015,
      "żaden": 3016,
      "wielkiego": 3017,
      "księży": 3018,
      "fun": 3019,
      "idą": 3020,
      "mała": 3021,
      "wskiego": 3022,
      "waść": 3023,
      "wese": 3024,
      "Poli": 3025,
      "drob": 3026,
      "słońce": 3027,
      "Dziś": 3028,
      "widzieć": 3029,
      "ryj": 3030,
      "regu": 3031,
      "oddział": 3032,
      "cen": 3033,
      "bara": 3034,
      "wojna": 3035,
      "US": 3036,
      "oz": 3037,
      "ozna": 3038,
      "nienie": 3039,
      "chód": 3040,
      "chcieli": 3041,
      "podróż": 3042,
      "syj": 3043,
      "pójdzie": 3044,
      "har": 3045,
      "zmu": 3046,
      "wyczaj": 3047,
      "ody": 3048,
      "nus": 3049,
      "twoje": 3050,
      "szukać": 3051,
      "kcji": 3052,
      "szczu": 3053,
      "syna": 3054,
      "Chmielnicki": 3055,
      "rzała": 3056,
      "gosła": 3057,
      "jazd": 3058,
      "szek": 3059,
      "bole": 3060,
      "najbardziej": 3061,
      "posa": 3062,
      "wykona": 3063,
      "lami": 3064,
      "rej": 3065,
      "odkry": 3066,
      "Rzecz": 3067,
      "pierwszym": 3068,
      "OR": 3069,
      "wstrzy": 3070,
      "posiada": 3071,
      "owska": 3072,
      "ciało": 3073,
      "rusza": 3074,
      "jeste": 3075,
      "przedsię": 3076,
      "wojsko": 3077,
      "ofia": 3078,
      "związa": 3079,
      "zapo": 3080,
      "ledwie": 3081,
      "meryka": 3082,
      "UST": 3083,
      "kot": 3084,
      "kasz": 3085,
      "regi": 3086,
      "cel": 3087,
      "pracu": 3088,
      "ach": 3089,
      "osa": 3090,
      "wkrótce": 3091,
      "zwróci": 3092,
      "dosko": 3093,
      "mii": 3094,
      "bogów": 3095,
      "możesz": 3096,
      "wielka": 3097,
      "NA": 3098,
      "psy": 3099,
      "prywa": 3100,
      "pogo": 3101,
      "rać": 3102,
      "tali": 3103,
      "pija": 3104,
      "ofice": 3105,
      "Bogusław": 3106,
      "ogień": 3107,
      "Sto": 3108,
      "wierzy": 3109,
      "drugą": 3110,
      "Była": 3111,
      "Wówczas": 3112,
      "dry": 3113,
      "oświad": 3114,
      "wysła": 3115,
      "znaleźć": 3116,
      "FAUST": 3117,
      "wsi": 3118,
      "wizy": 3119,
      "odu": 3120,
      "celu": 3121,
      "marszał": 3122,
      "drzewa": 3123,
      "dziesięciu": 3124,
      "ckim": 3125,
      "przezna": 3126,
      "miłosier": 3127,
      "Warszawie": 3128,
      "niemal": 3129,
      "wymi": 3130,
      "byłby": 3131,
      "kościo": 3132,
      "nauczy": 3133,
      "poży": 3134,
      "nikogo": 3135,
      "ram": 3136,
      "jach": 3137,
      "zostało": 3138,
      "chodu": 3139,
      "częściej": 3140,
      "Zresztą": 3141,
      "fran": 3142,
      "wala": 3143,
      "dziel": 3144,
      "spotk": 3145,
      "dawna": 3146,
      "Było": 3147,
      "ofiar": 3148,
      "zrobił": 3149,
      "tków": 3150,
      "czemu": 3151,
      "bor": 3152,
      "wielkiej": 3153,
      "godzin": 3154,
      "zbroj": 3155,
      "hor": 3156,
      "lka": 3157,
      "ozwał": 3158,
      "wprost": 3159,
      "znik": 3160,
      "stw": 3161,
      "stych": 3162,
      "obaj": 3163,
      "Dziękuję": 3164,
      "nkiem": 3165,
      "ota": 3166,
      "tz": 3167,
      "wając": 3168,
      "kierow": 3169,
      "wen": 3170,
      "oficer": 3171,
      "Piotr": 3172,
      "wst": 3173,
      "leni": 3174,
      "dent": 3175,
      "rój": 3176,
      "stole": 3177,
      "trzeci": 3178,
      "napa": 3179,
      "Kazimie": 3180,
      "jakaś": 3181,
      "strach": 3182,
      "rządu": 3183,
      "Stani": 3184,
      "wojewódz": 3185,
      "stąpić": 3186,
      "patrząc": 3187,
      "spad": 3188,
      "papie": 3189,
      "zek": 3190,
      "mocno": 3191,
      "uwagę": 3192,
      "wybor": 3193,
      "eg": 3194,
      "wście": 3195,
      "pomyśl": 3196,
      "niczego": 3197,
      "kony": 3198,
      "wystar": 3199,
      "wolę": 3200,
      "baron": 3201,
      "któremu": 3202,
      "kobieta": 3203,
      "tną": 3204,
      "ufa": 3205,
      "trak": 3206,
      "zje": 3207,
      "trzydzie": 3208,
      "słychać": 3209,
      "ojczyz": 3210,
      "rękoma": 3211,
      "błą": 3212,
      "twór": 3213,
      "niała": 3214,
      "leżą": 3215,
      "wyro": 3216,
      "bogi": 3217,
      "zyska": 3218,
      "Chy": 3219,
      "większo": 3220,
      "MA": 3221,
      "kru": 3222,
      "nkach": 3223,
      "trzą": 3224,
      "łka": 3225,
      "naszym": 3226,
      "zanie": 3227,
      "bili": 3228,
      "choro": 3229,
      "ktora": 3230,
      "księż": 3231,
      "Czę": 3232,
      "izby": 3233,
      "szki": 3234,
      "wyżej": 3235,
      "noszą": 3236,
      "Babi": 3237,
      "nieraz": 3238,
      "dopodob": 3239,
      "charak": 3240,
      "zuje": 3241,
      "strzela": 3242,
      "Mini": 3243,
      "wina": 3244,
      "kimi": 3245,
      "dłużej": 3246,
      "zdoby": 3247,
      "drugiego": 3248,
      "Choć": 3249,
      "fry": 3250,
      "poczu": 3251,
      "niczym": 3252,
      "gotów": 3253,
      "miły": 3254,
      "wieści": 3255,
      "uroczy": 3256,
      "drugim": 3257,
      "16": 3258,
      "ener": 3259,
      "czli": 3260,
      "ciele": 3261,
      "cenia": 3262,
      "polskich": 3263,
      "at": 3264,
      "wpadł": 3265,
      "szpita": 3266,
      "połą": 3267,
      "owało": 3268,
      "pach": 3269,
      "latach": 3270,
      "pisy": 3271,
      "niebezpiecze": 3272,
      "nara": 3273,
      "koro": 3274,
      "onu": 3275,
      "trzymy": 3276,
      "czonych": 3277,
      "stety": 3278,
      "męża": 3279,
      "wiony": 3280,
      "Wszyscy": 3281,
      "głośno": 3282,
      "TA": 3283,
      "kała": 3284,
      "temat": 3285,
      "reali": 3286,
      "mień": 3287,
      "jednocześnie": 3288,
      "Jurand": 3289,
      "stwier": 3290,
      "stali": 3291,
      "mówili": 3292,
      "brzegu": 3293,
      "istnie": 3294,
      "łowa": 3295,
      "dzieścia": 3296,
      "mawia": 3297,
      "sześć": 3298,
      "arcy": 3299,
      "dźmi": 3300,
      "Aż": 3301,
      "kować": 3302,
      "mn": 3303,
      "przypa": 3304,
      "owymi": 3305,
      "wojnę": 3306,
      "Dopiero": 3307,
      "krwa": 3308,
      "Musi": 3309,
      "Wą": 3310,
      "łzy": 3311,
      "źli": 3312,
      "czność": 3313,
      "stąd": 3314,
      "leż": 3315,
      "znam": 3316,
      "proś": 3317,
      "powiedziała": 3318,
      "zostać": 3319,
      "Zbyszka": 3320,
      "towi": 3321,
      "zauwa": 3322,
      "byśmy": 3323,
      "pas": 3324,
      "mocy": 3325,
      "jakoś": 3326,
      "minister": 3327,
      "wrze": 3328,
      "wyciąg": 3329,
      "bami": 3330,
      "tura": 3331,
      "duży": 3332,
      "sprawę": 3333,
      "mować": 3334,
      "obywa": 3335,
      "dzony": 3336,
      "Fenicja": 3337,
      "prezyden": 3338,
      "spostrzegł": 3339,
      "kowski": 3340,
      "prawy": 3341,
      "ludźmi": 3342,
      "innymi": 3343,
      "kłopo": 3344,
      "świątyni": 3345,
      "dował": 3346,
      "odle": 3347,
      "syć": 3348,
      "złotych": 3349,
      "Justy": 3350,
      "rycerza": 3351,
      "Oleń": 3352,
      "dba": 3353,
      "nowego": 3354,
      "wió": 3355,
      "budy": 3356,
      "sprawa": 3357,
      "kapłani": 3358,
      "żadnej": 3359,
      "drzwia": 3360,
      "spę": 3361,
      "namiest": 3362,
      "len": 3363,
      "dysku": 3364,
      "przypomina": 3365,
      "wedle": 3366,
      "słuchał": 3367,
      "Chilo": 3368,
      "stego": 3369,
      "słysza": 3370,
      "Wiem": 3371,
      "pisać": 3372,
      "finans": 3373,
      "Wreszcie": 3374,
      "cno": 3375,
      "pem": 3376,
      "pobli": 3377,
      "pojedy": 3378,
      "przewi": 3379,
      "czeń": 3380,
      "przyci": 3381,
      "muszą": 3382,
      "Nad": 3383,
      "byłoby": 3384,
      "dzeniu": 3385,
      "Będzie": 3386,
      "Igna": 3387,
      "Sze": 3388,
      "ata": 3389,
      "rop": 3390,
      "dzież": 3391,
      "czekać": 3392,
      "tuje": 3393,
      "bieg": 3394,
      "syła": 3395,
      "oczywiście": 3396,
      "mąż": 3397,
      "krą": 3398,
      "lniej": 3399,
      "uzna": 3400,
      "dają": 3401,
      "zaledwie": 3402,
      "głębi": 3403,
      "rozmawia": 3404,
      "Warszawy": 3405,
      "ostrze": 3406,
      "posą": 3407,
      "droga": 3408,
      "nadzwyczaj": 3409,
      "Szu": 3410,
      "włó": 3411,
      "czności": 3412,
      "wane": 3413,
      "tytu": 3414,
      "przeszło": 3415,
      "matka": 3416,
      "słońca": 3417,
      "cju": 3418,
      "np": 3419,
      "rki": 3420,
      "wygląda": 3421,
      "odpowiada": 3422,
      "gii": 3423,
      "nicą": 3424,
      "siach": 3425,
      "wspani": 3426,
      "dwadzieścia": 3427,
      "Bardzo": 3428,
      "Osta": 3429,
      "upły": 3430,
      "nin": 3431,
      "Jestem": 3432,
      "materi": 3433,
      "Ona": 3434,
      "strza": 3435,
      "tea": 3436,
      "haj": 3437,
      "gospoda": 3438,
      "pomocą": 3439,
      "nny": 3440,
      "zdawało": 3441,
      "niesi": 3442,
      "czyta": 3443,
      "skło": 3444,
      "inter": 3445,
      "twarzą": 3446,
      "Jakże": 3447,
      "żadnych": 3448,
      "obowiąz": 3449,
      "rzeki": 3450,
      "zadowo": 3451,
      "wice": 3452,
      "łaska": 3453,
      "czyły": 3454,
      "reli": 3455,
      "czący": 3456,
      "rować": 3457,
      "Kmicica": 3458,
      "Prawda": 3459,
      "50": 3460,
      "Ob": 3461,
      "bów": 3462,
      "gla": 3463,
      "os": 3464,
      "ńską": 3465,
      "miesza": 3466,
      "wiatr": 3467,
      "pewien": 3468,
      "lon": 3469,
      "wielkich": 3470,
      "świado": 3471,
      "pytać": 3472,
      "szlachta": 3473,
      "Dlatego": 3474,
      "chorągwi": 3475,
      "Lon": 3476,
      "łowi": 3477,
      "potwier": 3478,
      "czele": 3479,
      "bok": 3480,
      "czami": 3481,
      "los": 3482,
      "Sapie": 3483,
      "zbliża": 3484,
      "kniazi": 3485,
      "Bra": 3486,
      "ubra": 3487,
      "ulicy": 3488,
      "łta": 3489,
      "przysię": 3490,
      "prakty": 3491,
      "Pamię": 3492,
      "zwierzę": 3493,
      "RO": 3494,
      "Ur": 3495,
      "fan": 3496,
      "nci": 3497,
      "opuści": 3498,
      "psu": 3499,
      "cenie": 3500,
      "krai": 3501,
      "poznał": 3502,
      "jedynie": 3503,
      "przedstawi": 3504,
      "Hele": 3505,
      "wrza": 3506,
      "Łu": 3507,
      "niemu": 3508,
      "nade": 3509,
      "zatem": 3510,
      "wyją": 3511,
      "czes": 3512,
      "ścić": 3513,
      "bisku": 3514,
      "demo": 3515,
      "Zali": 3516,
      "całego": 3517,
      "dniach": 3518,
      "Dy": 3519,
      "Oczy": 3520,
      "łow": 3521,
      "czter": 3522,
      "lika": 3523,
      "dokona": 3524,
      "patrzeć": 3525,
      "dyna": 3526,
      "baro": 3527,
      "brakło": 3528,
      "będziemy": 3529,
      "faraona": 3530,
      "błogosła": 3531,
      "zrozumie": 3532,
      "rzo": 3533,
      "potrzebu": 3534,
      "powszech": 3535,
      "stki": 3536,
      "przyby": 3537,
      "bija": 3538,
      "puszcz": 3539,
      "miałem": 3540,
      "uczynić": 3541,
      "Zbysz": 3542,
      "dzięki": 3543,
      "ciężko": 3544,
      "Żeby": 3545,
      "radości": 3546,
      "przewodni": 3547,
      "XV": 3548,
      "leś": 3549,
      "wołał": 3550,
      "dyre": 3551,
      "dzać": 3552,
      "rozum": 3553,
      "kilkanaście": 3554,
      "odezwał": 3555,
      "Mef": 3556,
      "błyska": 3557,
      "tysiące": 3558,
      "starego": 3559,
      "hand": 3560,
      "wza": 3561,
      "zała": 3562,
      "łóż": 3563,
      "podzie": 3564,
      "poseł": 3565,
      "strzał": 3566,
      "rana": 3567,
      "zaczęła": 3568,
      "lność": 3569,
      "swa": 3570,
      "rzeź": 3571,
      "miny": 3572,
      "wyraz": 3573,
      "dzisz": 3574,
      "lako": 3575,
      "lada": 3576,
      "mać": 3577,
      "szenie": 3578,
      "okrop": 3579,
      "krotnie": 3580,
      "zależ": 3581,
      "oca": 3582,
      "umar": 3583,
      "uważ": 3584,
      "rano": 3585,
      "ciej": 3586,
      "czeć": 3587,
      "wzgó": 3588,
      "owości": 3589,
      "poznać": 3590,
      "Daj": 3591,
      "wątpli": 3592,
      "tli": 3593,
      "wany": 3594,
      "duszę": 3595,
      "Tade": 3596,
      "Wito": 3597,
      "każdej": 3598,
      "komna": 3599,
      "własną": 3600,
      "pamięta": 3601,
      "wtrącił": 3602,
      "17": 3603,
      "Gre": 3604,
      "Zie": 3605,
      "hra": 3606,
      "oskar": 3607,
      "snu": 3608,
      "urzą": 3609,
      "czona": 3610,
      "podobne": 3611,
      "szony": 3612,
      "twiej": 3613,
      "Tutmozis": 3614,
      "zawi": 3615,
      "wyra": 3616,
      "niejsza": 3617,
      "okry": 3618,
      "ludziom": 3619,
      "kapłanów": 3620,
      "nadzieję": 3621,
      "nieprzyjaciel": 3622,
      "Bohun": 3623,
      "die": 3624,
      "uszy": 3625,
      "wki": 3626,
      "zbo": 3627,
      "pog": 3628,
      "wypa": 3629,
      "zielo": 3630,
      "wrót": 3631,
      "Szcze": 3632,
      "jakąś": 3633,
      "cjona": 3634,
      "SL": 3635,
      "gre": 3636,
      "plu": 3637,
      "pragnie": 3638,
      "biega": 3639,
      "dusza": 3640,
      "skry": 3641,
      "Rzecki": 3642,
      "ludzkie": 3643,
      "wołać": 3644,
      "ostroż": 3645,
      "Oni": 3646,
      "Zna": 3647,
      "zał": 3648,
      "zra": 3649,
      "niać": 3650,
      "czoło": 3651,
      "wojewoda": 3652,
      "okreś": 3653,
      "kształt": 3654,
      "ami": 3655,
      "wną": 3656,
      "złe": 3657,
      "poga": 3658,
      "czyzna": 3659,
      "morze": 3660,
      "cześć": 3661,
      "panów": 3662,
      "wysoko": 3663,
      "Szwedów": 3664,
      "ks": 3665,
      "przyzna": 3666,
      "proble": 3667,
      "Następ": 3668,
      "prawdopodob": 3669,
      "nięty": 3670,
      "Babini": 3671,
      "nera": 3672,
      "odwa": 3673,
      "oglą": 3674,
      "Mille": 3675,
      "ściany": 3676,
      "kobiet": 3677,
      "ctwa": 3678,
      "ide": 3679,
      "jów": 3680,
      "przypom": 3681,
      "słuchać": 3682,
      "Sza": 3683,
      "trów": 3684,
      "Jana": 3685,
      "wóz": 3686,
      "wojow": 3687,
      "sznie": 3688,
      "powiedz": 3689,
      "niom": 3690,
      "jednakże": 3691,
      "widziałem": 3692,
      "kazać": 3693,
      "natura": 3694,
      "lnik": 3695,
      "smo": 3696,
      "ule": 3697,
      "tera": 3698,
      "wieść": 3699,
      "głem": 3700,
      "pun": 3701,
      "puszczo": 3702,
      "powietrze": 3703,
      "któren": 3704,
      "Char": 3705,
      "namio": 3706,
      "Pentu": 3707,
      "dziewczyna": 3708,
      "rozmai": 3709,
      "dwudzie": 3710,
      "rozmowy": 3711,
      "owu": 3712,
      "roli": 3713,
      "jazdy": 3714,
      "siłą": 3715,
      "cony": 3716,
      "wałem": 3717,
      "wszystkiego": 3718,
      "młod": 3719,
      "żąda": 3720,
      "szlachet": 3721,
      "dostać": 3722,
      "Bez": 3723,
      "Zyg": 3724,
      "uczest": 3725,
      "rośli": 3726,
      "wymaga": 3727,
      "cof": 3728,
      "prag": 3729,
      "proku": 3730,
      "mówisz": 3731,
      "Tego": 3732,
      "odpowiedziała": 3733,
      "broń": 3734,
      "ostatni": 3735,
      "własne": 3736,
      "milczeniu": 3737,
      "światło": 3738,
      "Chyba": 3739,
      "tko": 3740,
      "utwo": 3741,
      "cztere": 3742,
      "ciwszy": 3743,
      "przyjechał": 3744,
      "ręcz": 3745,
      "zbliżył": 3746,
      "wziąć": 3747,
      "sch": 3748,
      "tnym": 3749,
      "szale": 3750,
      "gon": 3751,
      "zatrzyma": 3752,
      "zakrzyknął": 3753,
      "wykorzy": 3754,
      "weź": 3755,
      "skrę": 3756,
      "siej": 3757,
      "samą": 3758,
      "tii": 3759,
      "oczeki": 3760,
      "!!": 3761,
      "spó": 3762,
      "umiał": 3763,
      "Łę": 3764,
      "zakon": 3765,
      "kali": 3766,
      "szlachty": 3767,
      "Albo": 3768,
      "szlachcic": 3769,
      "bóg": 3770,
      "śro": 3771,
      "niespo": 3772,
      "pomiędzy": 3773,
      "wyłą": 3774,
      "szenia": 3775,
      "bach": 3776,
      "roze": 3777,
      "rób": 3778,
      "służby": 3779,
      "wesoło": 3780,
      "Rzę": 3781,
      "bał": 3782,
      "ctwo": 3783,
      "dły": 3784,
      "jał": 3785,
      "wielko": 3786,
      "duże": 3787,
      "inwe": 3788,
      "gdyś": 3789,
      "ziemia": 3790,
      "Tele": 3791,
      "zawołała": 3792,
      "Nikt": 3793,
      "własnej": 3794,
      "niezna": 3795,
      "oddał": 3796,
      "przychodzi": 3797,
      "owaniu": 3798,
      "cjach": 3799,
      "aniżeli": 3800,
      "rozumiem": 3801,
      "daleka": 3802,
      "Ketling": 3803,
      "Spy": 3804,
      "opła": 3805,
      "zdecy": 3806,
      "posto": 3807,
      "popraw": 3808,
      "cone": 3809,
      "ognia": 3810,
      "każdego": 3811,
      "mógłby": 3812,
      "drzew": 3813,
      "dowód": 3814,
      "uderzył": 3815,
      "oli": 3816,
      "okiem": 3817,
      "rka": 3818,
      "nasza": 3819,
      "konu": 3820,
      "kawał": 3821,
      "krzyża": 3822,
      "państw": 3823,
      "cało": 3824,
      "podzi": 3825,
      "rodu": 3826,
      "wino": 3827,
      "rzyły": 3828,
      "hań": 3829,
      "prezes": 3830,
      "wschod": 3831,
      "cyjne": 3832,
      "sprzę": 3833,
      "budże": 3834,
      "wieczorem": 3835,
      "wieczór": 3836,
      "tności": 3837,
      "uch": 3838,
      "umy": 3839,
      "wiej": 3840,
      "owana": 3841,
      "owałem": 3842,
      "dii": 3843,
      "ściach": 3844,
      "śmiertel": 3845,
      "Wołodyjowskiego": 3846,
      "Now": 3847,
      "Wtedy": 3848,
      "dka": 3849,
      "tło": 3850,
      "czci": 3851,
      "roni": 3852,
      "rzyło": 3853,
      "żek": 3854,
      "przytom": 3855,
      "czap": 3856,
      "rzeczywi": 3857,
      "stępuje": 3858,
      "zapewne": 3859,
      "błęki": 3860,
      "14": 3861,
      "dną": 3862,
      "obja": 3863,
      "prawia": 3864,
      "prote": 3865,
      "prosił": 3866,
      "wzrok": 3867,
      "pewne": 3868,
      "mieszkania": 3869,
      "ml": 3870,
      "tkę": 3871,
      "poe": 3872,
      "siu": 3873,
      "rus": 3874,
      "zebra": 3875,
      "Zaraz": 3876,
      "powsta": 3877,
      "podobny": 3878,
      "zobaczy": 3879,
      "Nero": 3880,
      "grozi": 3881,
      "Przecież": 3882,
      "Księ": 3883,
      "ab": 3884,
      "gowie": 3885,
      "rację": 3886,
      "zachod": 3887,
      "dotk": 3888,
      "łatwiej": 3889,
      "podło": 3890,
      "ducha": 3891,
      "fika": 3892,
      "drogą": 3893,
      "chętnie": 3894,
      "Szwedzi": 3895,
      "zde": 3896,
      "dostał": 3897,
      "wasze": 3898,
      "tora": 3899,
      "wodą": 3900,
      "podda": 3901,
      "wzbu": 3902,
      "możemy": 3903,
      "niona": 3904,
      "zdą": 3905,
      "mężczyz": 3906,
      "mruknął": 3907,
      "13": 3908,
      "IA": 3909,
      "Ocho": 3910,
      "Pow": 3911,
      "Par": 3912,
      "brzu": 3913,
      "kwest": 3914,
      "lno": 3915,
      "ochro": 3916,
      "poświę": 3917,
      "biegły": 3918,
      "robił": 3919,
      "Rozu": 3920,
      "widzisz": 3921,
      "białe": 3922,
      "francu": 3923,
      "gnąć": 3924,
      "kono": 3925,
      "łach": 3926,
      "państwo": 3927,
      "owanych": 3928,
      "sar": 3929,
      "pracę": 3930,
      "owiej": 3931,
      "budowa": 3932,
      "pytania": 3933,
      "sytuacji": 3934,
      "niedzie": 3935,
      "koza": 3936,
      "koły": 3937,
      "wycie": 3938,
      "działy": 3939,
      "czela": 3940,
      "Jeden": 3941,
      "dzone": 3942,
      "party": 3943,
      "Stary": 3944,
      "polskiego": 3945,
      "cezara": 3946,
      "ograni": 3947,
      "osła": 3948,
      "sor": 3949,
      "uspoko": 3950,
      "zbiera": 3951,
      "czni": 3952,
      "wicza": 3953,
      "żywszy": 3954,
      "bliżej": 3955,
      "dziano": 3956,
      "Bogda": 3957,
      "nosić": 3958,
      "ostatnich": 3959,
      "knie": 3960,
      "kwie": 3961,
      "ćwi": 3962,
      "koście": 3963,
      "leży": 3964,
      "czyk": 3965,
      "jutrz": 3966,
      "podró": 3967,
      "mentów": 3968,
      "Jam": 3969,
      "Alek": 3970,
      "wydaje": 3971,
      "waszmość": 3972,
      "Tar": 3973,
      "nosząc": 3974,
      "czynić": 3975,
      "bej": 3976,
      "głosu": 3977,
      "słow": 3978,
      "różne": 3979,
      "gel": 3980,
      "wrażenie": 3981,
      "minut": 3982,
      "Jagienka": 3983,
      "Często": 3984,
      "niewin": 3985,
      "pożegna": 3986,
      "rada": 3987,
      "zasłu": 3988,
      "chory": 3989,
      "Masz": 3990,
      "większa": 3991,
      "ostate": 3992,
      "wspomnie": 3993,
      "rozmowę": 3994,
      "śred": 3995,
      "Wło": 3996,
      "egip": 3997,
      "nować": 3998,
      "tle": 3999,
      "uf": 4000,
      "cznik": 4001,
      "postępo": 4002,
      "waniu": 4003,
      "cep": 4004,
      "pienia": 4005,
      "czasy": 4006,
      "ludu": 4007,
      "wiary": 4008,
      "Kości": 4009,
      "wione": 4010,
      "Winicjusza": 4011,
      "telef": 4012,
      "wartości": 4013,
      "dotyczą": 4014,
      "Herhor": 4015,
      "Sę": 4016,
      "her": 4017,
      "ope": 4018,
      "Świę": 4019,
      "narze": 4020,
      "zarówno": 4021,
      "cina": 4022,
      "ciły": 4023,
      "żeniem": 4024,
      "wez": 4025,
      "gina": 4026,
      "działem": 4027,
      "wojnie": 4028,
      "Panna": 4029,
      "Ludzie": 4030,
      "okrutnie": 4031,
      "Każdy": 4032,
      "CH": 4033,
      "Jó": 4034,
      "lała": 4035,
      "un": 4036,
      "dole": 4037,
      "tości": 4038,
      "dziewię": 4039,
      "weł": 4040,
      "giew": 4041,
      "dwaj": 4042,
      "postać": 4043,
      "nerał": 4044,
      "Dru": 4045,
      "plo": 4046,
      "tować": 4047,
      "jemu": 4048,
      "lau": 4049,
      "mej": 4050,
      "Chło": 4051,
      "Pary": 4052,
      "dwor": 4053,
      "drago": 4054,
      "chorągwie": 4055,
      "Odys": 4056,
      "przypadku": 4057,
      "Czarniecki": 4058,
      "ameryka": 4059,
      "lie": 4060,
      "radość": 4061,
      "dosyć": 4062,
      "zwykł": 4063,
      "godzinę": 4064,
      "cyjnych": 4065,
      "nienawi": 4066,
      "koniu": 4067,
      "miłu": 4068,
      "tość": 4069,
      "lam": 4070,
      "lum": 4071,
      "żyły": 4072,
      "rozwi": 4073,
      "sym": 4074,
      "pyty": 4075,
      "piersiach": 4076,
      "Tomasz": 4077,
      "twoja": 4078,
      "rycerzy": 4079,
      "Nowowiej": 4080,
      "!\"": 4081,
      ".)": 4082,
      "Hej": 4083,
      "Jo": 4084,
      "Mię": 4085,
      "Py": 4086,
      "nr": 4087,
      "rzch": 4088,
      "roboty": 4089,
      "uczci": 4090,
      "wybuch": 4091,
      "Mnie": 4092,
      "gni": 4093,
      "kam": 4094,
      "tacy": 4095,
      "odej": 4096,
      "przyszły": 4097,
      "dują": 4098,
      "sków": 4099,
      "czasów": 4100,
      "okna": 4101,
      "Oba": 4102,
      "drew": 4103,
      "euro": 4104,
      "lni": 4105,
      "poprze": 4106,
      "zanim": 4107,
      "zagro": 4108,
      "zatrzymał": 4109,
      "miarę": 4110,
      "żadnego": 4111,
      "mln": 4112,
      "?!": 4113,
      "zję": 4114,
      "nierucho": 4115,
      "rachu": 4116,
      "owskiej": 4117,
      "teli": 4118,
      "wynika": 4119,
      "maj": 4120,
      "czekał": 4121,
      "przyszła": 4122,
      "deł": 4123,
      "siedzą": 4124,
      "kładnie": 4125,
      "Pana": 4126,
      "rząt": 4127,
      "Mości": 4128,
      "szuki": 4129,
      "Czu": 4130,
      "KA": 4131,
      "zwraca": 4132,
      "zgroma": 4133,
      "nazywa": 4134,
      "czasach": 4135,
      "cofa": 4136,
      "podobna": 4137,
      "osobi": 4138,
      "Skrzetuskiego": 4139,
      "pierwszego": 4140,
      "Aleksan": 4141,
      "fal": 4142,
      "udało": 4143,
      "pośpie": 4144,
      "roż": 4145,
      "zamy": 4146,
      "przyro": 4147,
      "czam": 4148,
      "biało": 4149,
      "rzawszy": 4150,
      "rzucić": 4151,
      "dawała": 4152,
      "dworze": 4153,
      "rzeczywiście": 4154,
      "dostojność": 4155,
      "poprzednio": 4156,
      "Ignacy": 4157,
      "Ber": 4158,
      "Mój": 4159,
      "dały": 4160,
      "en": 4161,
      "oku": 4162,
      "zor": 4163,
      "Świa": 4164,
      "śka": 4165,
      "poczyna": 4166,
      "niów": 4167,
      "własnym": 4168,
      "dziecka": 4169,
      "Król": 4170,
      "Powiedz": 4171,
      "jesteśmy": 4172,
      "mnó": 4173,
      "rowie": 4174,
      "ślub": 4175,
      "napeł": 4176,
      "potrzeba": 4177,
      "mury": 4178,
      "wek": 4179,
      "rozwiąza": 4180,
      "stycz": 4181,
      "brata": 4182,
      "pełne": 4183,
      "większy": 4184,
      "uśmiechem": 4185,
      "Mówi": 4186,
      "podoba": 4187,
      "rodzaju": 4188,
      ".:": 4189,
      "dować": 4190,
      "usu": 4191,
      "umil": 4192,
      "niepoko": 4193,
      "lina": 4194,
      "jakże": 4195,
      "Patrz": 4196,
      "mencie": 4197,
      "powiadać": 4198,
      "organiza": 4199,
      "postanowił": 4200,
      "Mefres": 4201,
      "wskiej": 4202,
      "posia": 4203,
      "owano": 4204,
      "bitwy": 4205,
      "straż": 4206,
      "mieszkańców": 4207,
      "Lud": 4208,
      "zdrowia": 4209,
      "Michale": 4210,
      "elekt": 4211,
      "komenda": 4212,
      "bem": 4213,
      "utra": 4214,
      "człek": 4215,
      "posu": 4216,
      "stre": 4217,
      "rzeń": 4218,
      "lacji": 4219,
      "rękach": 4220,
      "anty": 4221,
      "Chciał": 4222,
      "zuch": 4223,
      "obecnie": 4224,
      "kazuje": 4225,
      "organiz": 4226,
      "związku": 4227,
      "PR": 4228,
      "dki": 4229,
      "izbie": 4230,
      "wpad": 4231,
      "pochod": 4232,
      "pokój": 4233,
      "lip": 4234,
      "telu": 4235,
      "szef": 4236,
      "boj": 4237,
      "według": 4238,
      "owskim": 4239,
      "zdaje": 4240,
      "Czech": 4241,
      "urzędni": 4242,
      "próżno": 4243,
      "?”": 4244,
      "Krze": 4245,
      "Tru": 4246,
      "ZA": 4247,
      "gnia": 4248,
      "dostrze": 4249,
      "wiedzą": 4250,
      "ruchu": 4251,
      "skra": 4252,
      "żonych": 4253,
      "Ramze": 4254,
      "Dłu": 4255,
      "tował": 4256,
      "minie": 4257,
      "przeba": 4258,
      "kupić": 4259,
      "part": 4260,
      "myślnie": 4261,
      "szczęścia": 4262,
      "odpowiedź": 4263,
      "książęca": 4264,
      "Czemu": 4265,
      "głęboko": 4266,
      "Ligia": 4267,
      "Otóż": 4268,
      "11": 4269,
      "Anu": 4270,
      "Azja": 4271,
      "fer": 4272,
      "trzu": 4273,
      "wów": 4274,
      "tatar": 4275,
      "pami": 4276,
      "przeto": 4277,
      "matki": 4278,
      "przykła": 4279,
      "dusz": 4280,
      "chodziły": 4281,
      "Miał": 4282,
      "menty": 4283,
      "sztur": 4284,
      "procent": 4285,
      "wspom": 4286,
      "wyraźnie": 4287,
      "słyszawszy": 4288,
      "osią": 4289,
      "sfe": 4290,
      "rzały": 4291,
      "wywo": 4292,
      "szyję": 4293,
      "nictwa": 4294,
      "Ak": 4295,
      "lta": 4296,
      "stawia": 4297,
      "rzami": 4298,
      "forma": 4299,
      "ruszyć": 4300,
      "spać": 4301,
      "wypadku": 4302,
      "prosić": 4303,
      "wzajem": 4304,
      "XI": 4305,
      "kowe": 4306,
      "wością": 4307,
      "skach": 4308,
      "najbliż": 4309,
      "policji": 4310,
      "zmieni": 4311,
      "pozwala": 4312,
      "okolicy": 4313,
      "kilkunastu": 4314,
      "Ligii": 4315,
      "Chrystus": 4316,
      "Sło": 4317,
      "fy": 4318,
      "żon": 4319,
      "lik": 4320,
      "zajutrz": 4321,
      "dzisiej": 4322,
      "mych": 4323,
      "życzli": 4324,
      "chodzie": 4325,
      "brat": 4326,
      "myślą": 4327,
      "strzel": 4328,
      "czegoś": 4329,
      "ciemności": 4330,
      "chorągiew": 4331,
      "Pó": 4332,
      "Skąd": 4333,
      "tent": 4334,
      "dając": 4335,
      "lona": 4336,
      "onów": 4337,
      "małe": 4338,
      "pozwo": 4339,
      "--------": 4340,
      "Wszak": 4341,
      "imieniu": 4342,
      "ogło": 4343,
      "znie": 4344,
      "naszą": 4345,
      "chowie": 4346,
      "ciszy": 4347,
      "leci": 4348,
      "dokładnie": 4349,
      "miu": 4350,
      "kape": 4351,
      "wieniem": 4352,
      "miesięcy": 4353,
      "pewny": 4354,
      "myślił": 4355,
      "oboje": 4356,
      "głównie": 4357,
      "rozległ": 4358,
      "gorzej": 4359,
      "żelaz": 4360,
      "osiem": 4361,
      "cła": 4362,
      "imi": 4363,
      "kował": 4364,
      "szkie": 4365,
      "wana": 4366,
      "waża": 4367,
      "sić": 4368,
      "wewnętrz": 4369,
      "nięcie": 4370,
      "prowadzą": 4371,
      "Niechże": 4372,
      "glądać": 4373,
      "telewi": 4374,
      "wspomina": 4375,
      "yyy": 4376,
      "Między": 4377,
      "szta": 4378,
      "pomy": 4379,
      "zali": 4380,
      "czytał": 4381,
      "macie": 4382,
      "kupi": 4383,
      "łych": 4384,
      "Pozna": 4385,
      "gdybym": 4386,
      "zdro": 4387,
      "człowiekiem": 4388,
      "musiała": 4389,
      "postaci": 4390,
      "ból": 4391,
      "czterech": 4392,
      "Mów": 4393,
      "nnych": 4394,
      "sno": 4395,
      "powoli": 4396,
      "zasło": 4397,
      "las": 4398,
      "sekre": 4399,
      "dźwie": 4400,
      "Tur": 4401,
      "znajduje": 4402,
      "rodziny": 4403,
      "Mari": 4404,
      "zobaczyć": 4405,
      "dziennika": 4406,
      "czterdzie": 4407,
      "25": 4408,
      "St": 4409,
      "Wę": 4410,
      "rowe": 4411,
      "wstał": 4412,
      "złego": 4413,
      "leżał": 4414,
      "widziała": 4415,
      "wypowie": 4416,
      "przestęp": 4417,
      "mują": 4418,
      "bawi": 4419,
      "stości": 4420,
      "przedmio": 4421,
      "kazała": 4422,
      "większe": 4423,
      "głosów": 4424,
      "ostatnie": 4425,
      "ujrzał": 4426,
      "błaga": 4427,
      "firmy": 4428,
      "wnątrz": 4429,
      "sję": 4430,
      "uzyska": 4431,
      "zą": 4432,
      "zerwał": 4433,
      "dawniej": 4434,
      "młodego": 4435,
      "przeciwko": 4436,
      "dłoń": 4437,
      "otworzył": 4438,
      "Rzeczpospoli": 4439,
      "zawar": 4440,
      "letni": 4441,
      "piera": 4442,
      "ojczyzny": 4443,
      "Pię": 4444,
      "ke": 4445,
      "nacze": 4446,
      "posłu": 4447,
      "zać": 4448,
      "paść": 4449,
      "ryk": 4450,
      "lasu": 4451,
      "musie": 4452,
      "twarze": 4453,
      "obozu": 4454,
      "krwią": 4455,
      "Polska": 4456,
      "sęp": 4457,
      "sklepu": 4458,
      "cką": 4459,
      "zainteres": 4460,
      "cisza": 4461,
      "rzyli": 4462,
      "wymie": 4463,
      "tyki": 4464,
      "lać": 4465,
      "przyjął": 4466,
      "rumie": 4467,
      "boku": 4468,
      "pień": 4469,
      "szab": 4470,
      "stołu": 4471,
      "przedtem": 4472,
      "stracił": 4473,
      "Wil": 4474,
      "pięciu": 4475,
      "krzyż": 4476,
      "zwykły": 4477,
      "wszędzie": 4478,
      "Minister": 4479,
      "pobliżu": 4480,
      "Fi": 4481,
      "Ow": 4482,
      "posłów": 4483,
      "zakre": 4484,
      "wan": 4485,
      "odrzekła": 4486,
      "stanu": 4487,
      "przygot": 4488,
      "lonych": 4489,
      "uśmiech": 4490,
      "Egiptu": 4491,
      "przedsiębior": 4492,
      "it": 4493,
      "oś": 4494,
      "son": 4495,
      "łat": 4496,
      "mogłem": 4497,
      "najlepiej": 4498,
      "rzach": 4499,
      "tamtej": 4500,
      "konfe": 4501,
      "chody": 4502,
      "Wasza": 4503,
      "Miej": 4504,
      "porządku": 4505,
      "podróży": 4506,
      "mowy": 4507,
      "nową": 4508,
      "rzony": 4509,
      "posł": 4510,
      "pogar": 4511,
      "jeść": 4512,
      "głą": 4513,
      "metrów": 4514,
      "lot": 4515,
      "pór": 4516,
      "faj": 4517,
      "pewnością": 4518,
      "Stach": 4519,
      "ojczy": 4520,
      "zęby": 4521,
      "jeźdź": 4522,
      "Hu": 4523,
      "lod": 4524,
      "pą": 4525,
      "sne": 4526,
      "rego": 4527,
      "czać": 4528,
      "bit": 4529,
      "sklepie": 4530,
      "siedem": 4531,
      "Pom": 4532,
      "nionych": 4533,
      "Wia": 4534,
      "nięcia": 4535,
      "pewnym": 4536,
      "oboję": 4537,
      "kolei": 4538,
      "Mał": 4539,
      "blo": 4540,
      "udzie": 4541,
      "upad": 4542,
      "niegdyś": 4543,
      "poboż": 4544,
      "zaga": 4545,
      "lec": 4546,
      "domów": 4547,
      "jam": 4548,
      "ruje": 4549,
      "boi": 4550,
      "cać": 4551,
      "podnie": 4552,
      "sieni": 4553,
      "niejszym": 4554,
      "brali": 4555,
      "księciu": 4556,
      "Jezus": 4557,
      "słyszeć": 4558,
      "Wal": 4559,
      "blem": 4560,
      "hała": 4561,
      "sna": 4562,
      "potra": 4563,
      "kata": 4564,
      "odde": 4565,
      "rozkazu": 4566,
      "!…”": 4567,
      "Rady": 4568,
      "pogrą": 4569,
      "ana": 4570,
      "gr": 4571,
      "gwa": 4572,
      "nowej": 4573,
      "szów": 4574,
      "działo": 4575,
      "dzieży": 4576,
      "cień": 4577,
      "obfi": 4578,
      "róg": 4579,
      "jącymi": 4580,
      "chwyta": 4581,
      "pamięci": 4582,
      "obozie": 4583,
      "Krzyszto": 4584,
      "miesiąc": 4585,
      "pałacu": 4586,
      "Ursu": 4587,
      "Dro": 4588,
      "Ser": 4589,
      "zrozumiał": 4590,
      "nieważ": 4591,
      "ramię": 4592,
      "winy": 4593,
      "wola": 4594,
      "damy": 4595,
      "kieli": 4596,
      "chodząc": 4597,
      "innej": 4598,
      "ściem": 4599,
      "rycerze": 4600,
      "puścić": 4601,
      "wysokości": 4602,
      "nadziei": 4603,
      "wszelkie": 4604,
      "Pój": 4605,
      "zmniej": 4606,
      "wydał": 4607,
      "nos": 4608,
      "dyda": 4609,
      "przyjem": 4610,
      "obia": 4611,
      "prawił": 4612,
      "lkoho": 4613,
      "wzdłuż": 4614,
      "chwilą": 4615,
      "Raz": 4616,
      "brała": 4617,
      "Nigdy": 4618,
      "Murzy": 4619,
      "sposobem": 4620,
      "srebr": 4621,
      "wstrzą": 4622,
      "Pentuer": 4623,
      "km": 4624,
      "liwie": 4625,
      "bywał": 4626,
      "przybra": 4627,
      "rozkazy": 4628,
      "Podob": 4629,
      "beł": 4630,
      "łeb": 4631,
      "dio": 4632,
      "święty": 4633,
      "198": 4634,
      "tłum": 4635,
      "środowi": 4636,
      "Wszystkie": 4637,
      "nieprzyjaciela": 4638,
      "Właśnie": 4639,
      "Ani": 4640,
      "Gra": 4641,
      "otrzyma": 4642,
      "wsta": 4643,
      "źć": 4644,
      "mując": 4645,
      "boha": 4646,
      "prosto": 4647,
      "jegomość": 4648,
      "dłem": 4649,
      "wielce": 4650,
      "druga": 4651,
      "nikami": 4652,
      "zdanie": 4653,
      "spokoju": 4654,
      "Wąs": 4655,
      "SLD": 4656,
      "Kale": 4657,
      "bł": 4658,
      "dniem": 4659,
      "wtó": 4660,
      "niebezpie": 4661,
      "nieszczęście": 4662,
      "powrót": 4663,
      "liła": 4664,
      "mistrza": 4665,
      "wodzie": 4666,
      "piał": 4667,
      "sklep": 4668,
      "angie": 4669,
      "sług": 4670,
      "grafi": 4671,
      "słyszy": 4672,
      "kazało": 4673,
      "większą": 4674,
      "zwycza": 4675,
      "Tuhaj": 4676,
      "myślisz": 4677,
      "walki": 4678,
      "zgodnie": 4679,
      "100": 4680,
      "San": 4681,
      "gwar": 4682,
      "pomó": 4683,
      "boże": 4684,
      "codzien": 4685,
      "system": 4686,
      "szczerze": 4687,
      "Jedno": 4688,
      "okół": 4689,
      "parła": 4690,
      "szone": 4691,
      "Pewnie": 4692,
      "brzeg": 4693,
      "gałę": 4694,
      "cezar": 4695,
      "NI": 4696,
      "nował": 4697,
      "tność": 4698,
      "Żo": 4699,
      "wysu": 4700,
      "wygląd": 4701,
      "tomiast": 4702,
      "rynku": 4703,
      "remo": 4704,
      "cymi": 4705,
      "strachu": 4706,
      "Można": 4707,
      "każdą": 4708,
      "północ": 4709,
      "polskiej": 4710,
      "powinna": 4711,
      "olbrzymi": 4712,
      "orze": 4713,
      "nadal": 4714,
      "sznu": 4715,
      "zamek": 4716,
      "komo": 4717,
      "kapi": 4718,
      "żebym": 4719,
      "jaw": 4720,
      "nomar": 4721,
      "odga": 4722,
      "pełno": 4723,
      "owskich": 4724,
      "wiono": 4725,
      "ucieka": 4726,
      "Czego": 4727,
      "Bille": 4728,
      "uśmiechnął": 4729,
      "Kro": 4730,
      "Tro": 4731,
      "vi": 4732,
      "nasi": 4733,
      "pomie": 4734,
      "pomaga": 4735,
      "zarzu": 4736,
      "rzym": 4737,
      "manie": 4738,
      "ciela": 4739,
      "pannę": 4740,
      "Natomiast": 4741,
      "Jeste": 4742,
      "warsza": 4743,
      "majątek": 4744,
      "względu": 4745,
      "WS": 4746,
      "Zdawało": 4747,
      "blu": 4748,
      "far": 4749,
      "nce": 4750,
      "wpół": 4751,
      "zwi": 4752,
      "zgło": 4753,
      "jech": 4754,
      "kapita": 4755,
      "dziło": 4756,
      "dala": 4757,
      "profe": 4758,
      "swojego": 4759,
      "ństwie": 4760,
      "dźwię": 4761,
      "Szlan": 4762,
      "gniewu": 4763,
      "polskie": 4764,
      "znaleźli": 4765,
      "odpowiedzial": 4766,
      "Babinicz": 4767,
      "Owszem": 4768,
      "pch": 4769,
      "schro": 4770,
      "chra": 4771,
      "niały": 4772,
      "nikomu": 4773,
      "zatrzy": 4774,
      "zatru": 4775,
      "danie": 4776,
      "prawdy": 4777,
      "mart": 4778,
      "księżna": 4779,
      "akcji": 4780,
      "Tatarów": 4781,
      "Rzędzian": 4782,
      "oszczę": 4783,
      "porozumie": 4784,
      "zachwy": 4785,
      "żoną": 4786,
      "starszy": 4787,
      "Szlang": 4788,
      "bór": 4789,
      "snąć": 4790,
      "twem": 4791,
      "ńcem": 4792,
      "rosły": 4793,
      "lii": 4794,
      "wycię": 4795,
      "wierzyć": 4796,
      "dziły": 4797,
      "oddać": 4798,
      "moło": 4799,
      "łym": 4800,
      "sobo": 4801,
      "bronić": 4802,
      "młodzi": 4803,
      "szkoły": 4804,
      "forte": 4805,
      "fortu": 4806,
      "kompu": 4807,
      "wracał": 4808,
      "klasy": 4809,
      "Europej": 4810,
      "informacji": 4811,
      "Gło": 4812,
      "fol": 4813,
      "rzeniem": 4814,
      "gość": 4815,
      "służą": 4816,
      "chodziła": 4817,
      "szukał": 4818,
      "koniecznie": 4819,
      "pójdę": 4820,
      "Izabeli": 4821,
      "Polaków": 4822,
      "podstaw": 4823,
      "Ol": 4824,
      "kały": 4825,
      "kowych": 4826,
      "ukazał": 4827,
      "śpi": 4828,
      "niwer": 4829,
      "zawzię": 4830,
      "maja": 4831,
      "niają": 4832,
      "szczenia": 4833,
      "będąc": 4834,
      "Toż": 4835,
      "zdję": 4836,
      "chodów": 4837,
      "zawod": 4838,
      "uwagi": 4839,
      "skrzydła": 4840,
      "Juranda": 4841,
      "Chrystusa": 4842,
      "Tadeusz": 4843,
      "Kar": 4844,
      "Two": 4845,
      "Wczoraj": 4846,
      "jmy": 4847,
      "oznaj": 4848,
      "tch": 4849,
      "tnej": 4850,
      "niewiele": 4851,
      "czce": 4852,
      "godnie": 4853,
      "dopóki": 4854,
      "tanie": 4855,
      "czytać": 4856,
      "pisu": 4857,
      "zel": 4858,
      "owiec": 4859,
      "powietrzu": 4860,
      "małego": 4861,
      "własnych": 4862,
      "następca": 4863,
      "wiadomości": 4864,
      "szczęśliwy": 4865,
      "pracowników": 4866,
      "zmiany": 4867,
      "kierunku": 4868,
      "kniaziów": 4869,
      "środek": 4870,
      "niespodzia": 4871,
      "mgnie": 4872,
      "nko": 4873,
      "ńscy": 4874,
      "żała": 4875,
      "nastąpi": 4876,
      "czką": 4877,
      "szty": 4878,
      "żeniu": 4879,
      "wypła": 4880,
      "wychy": 4881,
      "dawał": 4882,
      "skały": 4883,
      "chami": 4884,
      "Jakie": 4885,
      "sąsia": 4886,
      "Star": 4887,
      "spotkanie": 4888,
      "wzrokiem": 4889,
      "tygodni": 4890,
      "praszam": 4891,
      "Szlangba": 4892,
      "bod": 4893,
      "lów": 4894,
      "otwie": 4895,
      "łzami": 4896,
      "zagrani": 4897,
      "ład": 4898,
      "czyński": 4899,
      "pur": 4900,
      "fis": 4901,
      "tronu": 4902,
      "Wyso": 4903,
      "chęć": 4904,
      "wiadomość": 4905,
      "rozmawiać": 4906,
      "seksu": 4907,
      "obrony": 4908,
      "samych": 4909,
      "skóry": 4910,
      "południ": 4911,
      "Aulu": 4912,
      "przyczyny": 4913,
      "40": 4914,
      "alkoho": 4915,
      "śmiało": 4916,
      "żby": 4917,
      "niedźwie": 4918,
      "stó": 4919,
      "jezio": 4920,
      "kilo": 4921,
      "mag": 4922,
      "biła": 4923,
      "piw": 4924,
      "spoczy": 4925,
      "Chce": 4926,
      "sądu": 4927,
      "trwa": 4928,
      "chodź": 4929,
      "brwi": 4930,
      "siłę": 4931,
      "tłumy": 4932,
      "przyjść": 4933,
      "Men": 4934,
      "ostatniej": 4935,
      "słyszałem": 4936,
      "doskonale": 4937,
      "Oleńka": 4938,
      "lały": 4939,
      "trzę": 4940,
      "nieprzyjaciół": 4941,
      "roka": 4942,
      "kato": 4943,
      "nogami": 4944,
      "czynił": 4945,
      "przeszka": 4946,
      "reda": 4947,
      "kiewicz": 4948,
      "skro": 4949,
      "siedli": 4950,
      "budow": 4951,
      "niosły": 4952,
      "górze": 4953,
      "cyjnej": 4954,
      "powinni": 4955,
      "szeroko": 4956,
      "kolana": 4957,
      "Kazimierz": 4958,
      "prezydenta": 4959,
      "dół": 4960,
      "znu": 4961,
      "czały": 4962,
      "lili": 4963,
      "techni": 4964,
      "jan": 4965,
      "wyr": 4966,
      "toż": 4967,
      "tydzień": 4968,
      "kun": 4969,
      "oblę": 4970,
      "podał": 4971,
      "skać": 4972,
      "partii": 4973,
      "Miło": 4974,
      "słod": 4975,
      "zależy": 4976,
      "przyjaciel": 4977,
      "ramionami": 4978,
      "miecznik": 4979,
      "afe": 4980,
      "jo": 4981,
      "otu": 4982,
      "zza": 4983,
      "poszli": 4984,
      "kochał": 4985,
      "wykony": 4986,
      "łożył": 4987,
      "salo": 4988,
      "władzy": 4989,
      "łej": 4990,
      "zmiesza": 4991,
      "pozba": 4992,
      "Według": 4993,
      "Żydów": 4994,
      "pioru": 4995,
      "dziewczyny": 4996,
      "jakimś": 4997,
      "gwałtow": 4998,
      "Powia": 4999,
      "nazy": 5000,
      "chą": 5001,
      "nili": 5002,
      "kat": 5003,
      "wiecznie": 5004,
      "pieśni": 5005,
      "figu": 5006,
      "Chwi": 5007,
      "pewna": 5008,
      "pewnego": 5009,
      "ństw": 5010,
      "porwał": 5011,
      "pamiętam": 5012,
      "środka": 5013,
      "możliwe": 5014,
      "dobrego": 5015,
      "powtarzał": 5016,
      "oficerów": 5017,
      "tzw": 5018,
      "zwło": 5019,
      "śń": 5020,
      "naraz": 5021,
      "pocał": 5022,
      "rosyj": 5023,
      "gom": 5024,
      "wyszła": 5025,
      "Jaki": 5026,
      "trady": 5027,
      "powstrzy": 5028,
      "ekspe": 5029,
      "szczególnie": 5030,
      "młodych": 5031,
      "fanta": 5032,
      "stóp": 5033,
      "ogo": 5034,
      "uwol": 5035,
      "żka": 5036,
      "niekiedy": 5037,
      "zap": 5038,
      "rys": 5039,
      "przeszedł": 5040,
      "mami": 5041,
      "przywi": 5042,
      "dzeniem": 5043,
      "gieł": 5044,
      "skute": 5045,
      "wolał": 5046,
      "dziawszy": 5047,
      "milczenie": 5048,
      "światła": 5049,
      "głupi": 5050,
      "struktu": 5051,
      "projekt": 5052,
      "Stanisław": 5053,
      "Ej": 5054,
      "adwo": 5055,
      "pł": 5056,
      "umyślnie": 5057,
      "wka": 5058,
      "wiły": 5059,
      "pasa": 5060,
      "wyciągnął": 5061,
      "tylu": 5062,
      "rezy": 5063,
      "kier": 5064,
      "dym": 5065,
      "nąc": 5066,
      "pisze": 5067,
      "spor": 5068,
      "problem": 5069,
      "chach": 5070,
      "nadto": 5071,
      "?…”": 5072,
      "Mia": 5073,
      "grupy": 5074,
      "czarne": 5075,
      "społecze": 5076,
      "Hiram": 5077,
      "świątobliwości": 5078,
      "pru": 5079,
      "wne": 5080,
      "gotowa": 5081,
      "zamia": 5082,
      "stal": 5083,
      "delika": 5084,
      "wiam": 5085,
      "najwięcej": 5086,
      "pierwej": 5087,
      "złota": 5088,
      "każda": 5089,
      "próbu": 5090,
      "późno": 5091,
      "dwór": 5092,
      "okazji": 5093,
      "Ste": 5094,
      "pogrze": 5095,
      "liczne": 5096,
      "godz": 5097,
      "zapro": 5098,
      "łańcu": 5099,
      "niając": 5100,
      "niejszą": 5101,
      "inną": 5102,
      "wzrusze": 5103,
      "czono": 5104,
      "Ależ": 5105,
      "tran": 5106,
      "całkowi": 5107,
      "Mimo": 5108,
      "działania": 5109,
      "pierwsza": 5110,
      "wieczora": 5111,
      "świątobliwość": 5112,
      "wściekło": 5113,
      "Żołnie": 5114,
      "AR": 5115,
      "Rob": 5116,
      "nką": 5117,
      "pociąg": 5118,
      "posęp": 5119,
      "ałe": 5120,
      "rab": 5121,
      "rali": 5122,
      "zabie": 5123,
      "koryta": 5124,
      "dostęp": 5125,
      "żeni": 5126,
      "wiedząc": 5127,
      "rea": 5128,
      "remi": 5129,
      "stada": 5130,
      "skier": 5131,
      "Niemie": 5132,
      "służy": 5133,
      "służyć": 5134,
      "cudzo": 5135,
      "Taki": 5136,
      "dawały": 5137,
      "chciałem": 5138,
      "Zagłoby": 5139,
      "należą": 5140,
      "pułki": 5141,
      "interesu": 5142,
      "właściwie": 5143,
      "program": 5144,
      "22": 5145,
      "Mem": 5146,
      "naprzeciw": 5147,
      "szkla": 5148,
      "pojechał": 5149,
      "pozostał": 5150,
      "tył": 5151,
      "noś": 5152,
      "obszer": 5153,
      "chodzili": 5154,
      "Stasia": 5155,
      "począć": 5156,
      "Mikoła": 5157,
      "Lip": 5158,
      "pierwszych": 5159,
      "godny": 5160,
      "Egipt": 5161,
      "logii": 5162,
      "prezydent": 5163,
      "Tatarzy": 5164,
      "jakiegoś": 5165,
      "Longi": 5166,
      "Miller": 5167,
      "Asy": 5168,
      "ck": 5169,
      "efe": 5170,
      "snęła": 5171,
      "zmy": 5172,
      "zowie": 5173,
      "naci": 5174,
      "widzieli": 5175,
      "wyrzu": 5176,
      "wielo": 5177,
      "owarzy": 5178,
      "bogowie": 5179,
      "lubo": 5180,
      "biły": 5181,
      "demu": 5182,
      "dowanie": 5183,
      "pamięć": 5184,
      "Andrzeja": 5185,
      "niepokój": 5186,
      "kandyda": 5187,
      "robię": 5188,
      "puszczał": 5189,
      "wypadek": 5190,
      "mnóstwo": 5191,
      "opo": 5192,
      "pożar": 5193,
      "wata": 5194,
      "szymi": 5195,
      "zechce": 5196,
      "sport": 5197,
      "Woje": 5198,
      "słuchaj": 5199,
      "Niemców": 5200,
      "starosta": 5201,
      "Myśl": 5202,
      "trzydzieści": 5203,
      "Charłam": 5204,
      "słowem": 5205,
      "drewnia": 5206,
      "musieli": 5207,
      "!”.": 5208,
      "dnej": 5209,
      "jona": 5210,
      "spytała": 5211,
      "stka": 5212,
      "tań": 5213,
      "wodz": 5214,
      "przesta": 5215,
      "mien": 5216,
      "szel": 5217,
      "boru": 5218,
      "gij": 5219,
      "niejszego": 5220,
      "meta": 5221,
      "medy": 5222,
      "granicy": 5223,
      "dźwi": 5224,
      "tysiąc": 5225,
      "tęskno": 5226,
      "kaszte": 5227,
      "Gda": 5228,
      "Malbo": 5229,
      "dnym": 5230,
      "kta": 5231,
      "tnego": 5232,
      "uci": 5233,
      "szpa": 5234,
      "jechała": 5235,
      "zar": 5236,
      "łaski": 5237,
      "rep": 5238,
      "pies": 5239,
      "pienie": 5240,
      "kłó": 5241,
      "dobrą": 5242,
      "myślałem": 5243,
      "milczał": 5244,
      "żołnier": 5245,
      "ruszyli": 5246,
      "Kur": 5247,
      "zdrowi": 5248,
      "względem": 5249,
      "więzienia": 5250,
      "mołoj": 5251,
      "Gó": 5252,
      "opuścił": 5253,
      "leciał": 5254,
      "mija": 5255,
      "nocą": 5256,
      "stam": 5257,
      "obser": 5258,
      "sied": 5259,
      "meto": 5260,
      "wól": 5261,
      "wszelako": 5262,
      "klaszto": 5263,
      "składa": 5264,
      "Niemcy": 5265,
      "prezent": 5266,
      "mądro": 5267,
      "Jednakże": 5268,
      "namiestnik": 5269,
      "TO": 5270,
      "schy": 5271,
      "Żmu": 5272,
      "napo": 5273,
      "stół": 5274,
      "wicy": 5275,
      "biegła": 5276,
      "podniosła": 5277,
      "fizy": 5278,
      "dzeń": 5279,
      "mogąc": 5280,
      "ństwem": 5281,
      "premie": 5282,
      "księdza": 5283,
      "zdoła": 5284,
      "piękny": 5285,
      "zwierząt": 5286,
      "kogoś": 5287,
      "pustyni": 5288,
      "nazwisko": 5289,
      "większość": 5290,
      "ER": 5291,
      "Zda": 5292,
      "opan": 5293,
      "spy": 5294,
      "niedawno": 5295,
      "wygra": 5296,
      "przeszko": 5297,
      "maszy": 5298,
      "ture": 5299,
      "Zawsze": 5300,
      "Jej": 5301,
      "żono": 5302,
      "odpowied": 5303,
      "słone": 5304,
      "małże": 5305,
      "walił": 5306,
      "cyjny": 5307,
      "dworu": 5308,
      "lekko": 5309,
      "gotowi": 5310,
      "krótko": 5311,
      "południe": 5312,
      "jeździe": 5313,
      "Chmielnickiego": 5314,
      "Pierwszy": 5315,
      "piechoty": 5316,
      "Justyna": 5317,
      "có": 5318,
      "fla": 5319,
      "udał": 5320,
      "niektórzy": 5321,
      "rany": 5322,
      "dola": 5323,
      "wybiera": 5324,
      "tyłu": 5325,
      "mana": 5326,
      "mojego": 5327,
      "bab": 5328,
      "gaze": 5329,
      "czoną": 5330,
      "trzecie": 5331,
      "stek": 5332,
      "owość": 5333,
      "sercem": 5334,
      "Lit": 5335,
      "szono": 5336,
      "godne": 5337,
      "Janusz": 5338,
      "możliwości": 5339,
      "Radziwiłł": 5340,
      "artyku": 5341,
      "chłopak": 5342,
      "hrabi": 5343,
      "Ochocki": 5344,
      "europej": 5345,
      "Cy": 5346,
      "Idry": 5347,
      "Ró": 5348,
      "okie": 5349,
      "oprócz": 5350,
      "rwo": 5351,
      "napad": 5352,
      "czała": 5353,
      "pojedzie": 5354,
      "koron": 5355,
      "bitwie": 5356,
      "dum": 5357,
      "duchu": 5358,
      "okno": 5359,
      "socja": 5360,
      "Tygel": 5361,
      "podobno": 5362,
      "targ": 5363,
      "rodzin": 5364,
      "osoba": 5365,
      "straszne": 5366,
      "pojedyn": 5367,
      "Witold": 5368,
      "Cię": 5369,
      "Krak": 5370,
      "Szy": 5371,
      "Zbara": 5372,
      "fie": 5373,
      "opowiadał": 5374,
      "swymi": 5375,
      "poto": 5376,
      "listo": 5377,
      "domy": 5378,
      "wybra": 5379,
      "rusz": 5380,
      "gada": 5381,
      "zespo": 5382,
      "jedni": 5383,
      "ącą": 5384,
      "niono": 5385,
      "twoją": 5386,
      "serde": 5387,
      "ważne": 5388,
      "stanow": 5389,
      "ustach": 5390,
      "zdania": 5391,
      "Sejm": 5392,
      "kościoła": 5393,
      "dnych": 5394,
      "grał": 5395,
      "uszu": 5396,
      "złu": 5397,
      "łki": 5398,
      "zaufa": 5399,
      "dokąd": 5400,
      "torów": 5401,
      "eme": 5402,
      "żać": 5403,
      "niosą": 5404,
      "twojej": 5405,
      "łen": 5406,
      "zostali": 5407,
      "tkowo": 5408,
      "tarł": 5409,
      "następcy": 5410,
      "chłopów": 5411,
      "mężczyzna": 5412,
      "radością": 5413,
      "pięćdziesiąt": 5414,
      "słusznie": 5415,
      "wniosek": 5416,
      "otacza": 5417,
      "drzwiach": 5418,
      "klej": 5419,
      "ncie": 5420,
      "oświe": 5421,
      "ołta": 5422,
      "spły": 5423,
      "upo": 5424,
      "ślu": 5425,
      "nina": 5426,
      "goni": 5427,
      "zastęp": 5428,
      "ciło": 5429,
      "waści": 5430,
      "śmiechem": 5431,
      "konta": 5432,
      "konkur": 5433,
      "panii": 5434,
      "kryty": 5435,
      "oficja": 5436,
      "dwoma": 5437,
      "dłonie": 5438,
      "dłoni": 5439,
      "Aposto": 5440,
      "PO": 5441,
      "Trzy": 5442,
      "Vi": 5443,
      "Zło": 5444,
      "niektórych": 5445,
      "wypeł": 5446,
      "woju": 5447,
      "spowo": 5448,
      "biegli": 5449,
      "siedzieć": 5450,
      "Ponieważ": 5451,
      "głe": 5452,
      "Cha": 5453,
      "braci": 5454,
      "Mah": 5455,
      "dzam": 5456,
      "robią": 5457,
      "zdaniem": 5458,
      "draż": 5459,
      "robot": 5460,
      "Cent": 5461,
      "pnia": 5462,
      "ve": 5463,
      "wny": 5464,
      "źre": 5465,
      "żąd": 5466,
      "rzało": 5467,
      "poszła": 5468,
      "zabezpie": 5469,
      "mić": 5470,
      "pania": 5471,
      "cek": 5472,
      "rozmowa": 5473,
      "Wido": 5474,
      "kraty": 5475,
      "kochany": 5476,
      "administra": 5477,
      "Ramzesa": 5478,
      "Gru": 5479,
      "sje": 5480,
      "nań": 5481,
      "napi": 5482,
      "nareszcie": 5483,
      "pomimo": 5484,
      "radę": 5485,
      "zapytała": 5486,
      "dostanie": 5487,
      "dokoła": 5488,
      "obło": 5489,
      "prawić": 5490,
      "pió": 5491,
      "dera": 5492,
      "ing": 5493,
      "inna": 5494,
      "punk": 5495,
      "szczenie": 5496,
      "Takie": 5497,
      "dawnych": 5498,
      "Sakowi": 5499,
      "kilkadziesiąt": 5500,
      "Wać": 5501,
      "spokojny": 5502,
      "sztuki": 5503,
      "zaczęli": 5504,
      "oznacza": 5505,
      "kapelu": 5506,
      "Wró": 5507,
      "awa": 5508,
      "ośmie": 5509,
      "ptak": 5510,
      "niecierpli": 5511,
      "nala": 5512,
      "lidar": 5513,
      "gorz": 5514,
      "przysz": 5515,
      "gabi": 5516,
      "znakomi": 5517,
      "filo": 5518,
      "trakt": 5519,
      "koncer": 5520,
      "milczenia": 5521,
      "potrzeby": 5522,
      "listów": 5523,
      "język": 5524,
      "Malbor": 5525,
      "Flo": 5526,
      "aku": 5527,
      "prowi": 5528,
      "zbi": 5529,
      "szó": 5530,
      "porówna": 5531,
      "zato": 5532,
      "cin": 5533,
      "cicha": 5534,
      "lewo": 5535,
      "łami": 5536,
      "nogach": 5537,
      "ścian": 5538,
      "lono": 5539,
      "ordy": 5540,
      "bracia": 5541,
      "ciął": 5542,
      "Rzekł": 5543,
      "cyjnego": 5544,
      "stanowisko": 5545,
      "przyszłości": 5546,
      "zamknię": 5547,
      "olbrzymie": 5548,
      "USA": 5549,
      "dziewięć": 5550,
      "Bądź": 5551,
      "Tra": 5552,
      "cle": 5553,
      "hm": 5554,
      "ng": 5555,
      "uje": 5556,
      "upadł": 5557,
      "pośred": 5558,
      "nikom": 5559,
      "niżej": 5560,
      "doszło": 5561,
      "jadą": 5562,
      "mas": 5563,
      "bank": 5564,
      "stość": 5565,
      "dzono": 5566,
      "twoim": 5567,
      "trop": 5568,
      "powstał": 5569,
      "wolności": 5570,
      "święt": 5571,
      "śpiewa": 5572,
      "Czasem": 5573,
      "heł": 5574,
      "polskim": 5575,
      "Dnie": 5576,
      "eli": 5577,
      "hoj": 5578,
      "pr": 5579,
      "zwol": 5580,
      "Ślą": 5581,
      "raca": 5582,
      "wiecie": 5583,
      "wiecze": 5584,
      "wierzył": 5585,
      "wozy": 5586,
      "kują": 5587,
      "szeni": 5588,
      "char": 5589,
      "najważ": 5590,
      "króle": 5591,
      "parla": 5592,
      "kończy": 5593,
      "tkach": 5594,
      "port": 5595,
      "czerwie": 5596,
      "piękne": 5597,
      "Kul": 5598,
      "jasno": 5599,
      "położył": 5600,
      "Danusi": 5601,
      "Krzesz": 5602,
      "stamtąd": 5603,
      "Kowa": 5604,
      "mk": 5605,
      "nowym": 5606,
      "th": 5607,
      "ucha": 5608,
      "zg": 5609,
      "nał": 5610,
      "naród": 5611,
      "poty": 5612,
      "sięga": 5613,
      "miot": 5614,
      "mora": 5615,
      "instytu": 5616,
      "bek": 5617,
      "piętna": 5618,
      "złożył": 5619,
      "ściami": 5620,
      "Ligię": 5621,
      "średni": 5622,
      "powrotem": 5623,
      "Oczywiście": 5624,
      "Mę": 5625,
      "tnia": 5626,
      "uję": 5627,
      "niewoli": 5628,
      "szczył": 5629,
      "rzeli": 5630,
      "żeń": 5631,
      "wokół": 5632,
      "czysz": 5633,
      "mani": 5634,
      "sarz": 5635,
      "gim": 5636,
      "okrą": 5637,
      "Kiejda": 5638,
      "pójść": 5639,
      "wracać": 5640,
      "ratować": 5641,
      "sukce": 5642,
      "zauważył": 5643,
      "60": 5644,
      "SA": 5645,
      "żały": 5646,
      "poku": 5647,
      "połowie": 5648,
      "kacji": 5649,
      "pary": 5650,
      "nes": 5651,
      "wiedziała": 5652,
      "moi": 5653,
      "czeniem": 5654,
      "alem": 5655,
      "Niektórzy": 5656,
      "wzdy": 5657,
      "konku": 5658,
      "sprawach": 5659,
      "małżon": 5660,
      "ciężar": 5661,
      "straszny": 5662,
      "Maćka": 5663,
      "stopni": 5664,
      "Następnie": 5665,
      "Lor": 5666,
      "PA": 5667,
      "idąc": 5668,
      "mro": 5669,
      "op": 5670,
      "lia": 5671,
      "liwe": 5672,
      "dostar": 5673,
      "paź": 5674,
      "kupy": 5675,
      "staj": 5676,
      "ścił": 5677,
      "boju": 5678,
      "praca": 5679,
      "szać": 5680,
      "propozy": 5681,
      "syte": 5682,
      "bramy": 5683,
      "Maria": 5684,
      "Inni": 5685,
      "inwesty": 5686,
      "23": 5687,
      "El": 5688,
      "Głu": 5689,
      "Nu": 5690,
      "Pło": 5691,
      "aresz": 5692,
      "poszuki": 5693,
      "wiod": 5694,
      "rejest": 5695,
      "kuzy": 5696,
      "obraź": 5697,
      "druży": 5698,
      "dźcie": 5699,
      "miejscach": 5700,
      "Samo": 5701,
      "środków": 5702,
      "hetmana": 5703,
      "przypatry": 5704,
      "wiózł": 5705,
      "Nowowiejski": 5706,
      "cudzoziem": 5707,
      "Krakowie": 5708,
      "Aby": 5709,
      "Unii": 5710,
      "drę": 5711,
      "utrzyma": 5712,
      "óz": 5713,
      "żki": 5714,
      "rolę": 5715,
      "jesta": 5716,
      "ciałem": 5717,
      "waszą": 5718,
      "odem": 5719,
      "któż": 5720,
      "żyło": 5721,
      "wiają": 5722,
      "skała": 5723,
      "burza": 5724,
      "lskich": 5725,
      "krzyki": 5726,
      "działalności": 5727,
      "wojewody": 5728,
      "patrzyli": 5729,
      "trafił": 5730,
      "wysokie": 5731,
      "dziwne": 5732,
      "chwilami": 5733,
      "filozo": 5734,
      "Ca": 5735,
      "brew": 5736,
      "ekono": 5737,
      "klie": 5738,
      "oży": 5739,
      "usłyszał": 5740,
      "cznymi": 5741,
      "szała": 5742,
      "zaci": 5743,
      "zabrał": 5744,
      "łom": 5745,
      "dywi": 5746,
      "owaniem": 5747,
      "gatu": 5748,
      "bier": 5749,
      "inten": 5750,
      "żonę": 5751,
      "żonym": 5752,
      "rządza": 5753,
      "Coś": 5754,
      "kończył": 5755,
      "każde": 5756,
      "północy": 5757,
      "Wiesz": 5758,
      "śmiercią": 5759,
      "żadna": 5760,
      "komuni": 5761,
      "wiczów": 5762,
      "skończy": 5763,
      "historii": 5764,
      "spotkał": 5765,
      "Józe": 5766,
      "czkach": 5767,
      "leg": 5768,
      "mir": 5769,
      "kary": 5770,
      "wozu": 5771,
      "progu": 5772,
      "głości": 5773,
      "skom": 5774,
      "Basi": 5775,
      "poczęło": 5776,
      "Nilu": 5777,
      "szlachec": 5778,
      "ratury": 5779,
      "zaczęły": 5780,
      "pozwolił": 5781,
      "asy": 5782,
      "cku": 5783,
      "iła": 5784,
      "mode": 5785,
      "trój": 5786,
      "utk": 5787,
      "zachę": 5788,
      "wieki": 5789,
      "rych": 5790,
      "przestał": 5791,
      "pili": 5792,
      "pilnie": 5793,
      "del": 5794,
      "Widzę": 5795,
      "kredy": 5796,
      "zjawi": 5797,
      "ciężkie": 5798,
      "nadzieja": 5799,
      "zobaczył": 5800,
      "komisji": 5801,
      "ogromne": 5802,
      "tajemni": 5803,
      "niewolników": 5804,
      "podstawie": 5805,
      "grzmo": 5806,
      "film": 5807,
      "marszałek": 5808,
      "mgnieniu": 5809,
      "Adam": 5810,
      "CZ": 5811,
      "KO": 5812,
      "Mło": 5813,
      "uści": 5814,
      "nieśli": 5815,
      "poinfor": 5816,
      "radzi": 5817,
      "liwy": 5818,
      "leniem": 5819,
      "każę": 5820,
      "tonem": 5821,
      "lasy": 5822,
      "morza": 5823,
      "rozko": 5824,
      "despe": 5825,
      "podnosi": 5826,
      "lonym": 5827,
      "lonej": 5828,
      "żalu": 5829,
      "ogniem": 5830,
      "rian": 5831,
      "śniegu": 5832,
      "rzędu": 5833,
      "Rot": 5834,
      "własnego": 5835,
      "głup": 5836,
      "ratunek": 5837,
      "południu": 5838,
      "pachoł": 5839,
      "książki": 5840,
      "księżyc": 5841,
      "Im": 5842,
      "Ws": 5843,
      "kcie": 5844,
      "otrzy": 5845,
      "wskim": 5846,
      "zny": 5847,
      "nieprze": 5848,
      "zasy": 5849,
      "cichy": 5850,
      "wyjechał": 5851,
      "wierzę": 5852,
      "obję": 5853,
      "Niestety": 5854,
      "stoją": 5855,
      "nuje": 5856,
      "czymś": 5857,
      "Czyli": 5858,
      "Sara": 5859,
      "mocniej": 5860,
      "197": 5861,
      "Bene": 5862,
      "puszczać": 5863,
      "dobrym": 5864,
      "wyjść": 5865,
      "wicher": 5866,
      "Rozumie": 5867,
      "Pompo": 5868,
      "Mente": 5869,
      "atak": 5870,
      "gminy": 5871,
      "dozna": 5872,
      "wyle": 5873,
      "szacu": 5874,
      "rzadko": 5875,
      "dzona": 5876,
      "konkre": 5877,
      "Karol": 5878,
      "skutek": 5879,
      "podobnych": 5880,
      "kamień": 5881,
      "zwycięstwo": 5882,
      "kosztow": 5883,
      "zginął": 5884,
      "wątpliwości": 5885,
      "wyłącznie": 5886,
      "Dale": 5887,
      "kowej": 5888,
      "wtem": 5889,
      "śmia": 5890,
      "kolum": 5891,
      "odpoczy": 5892,
      "szyi": 5893,
      "przybył": 5894,
      "mur": 5895,
      "deszcz": 5896,
      "szabla": 5897,
      "instru": 5898,
      "chając": 5899,
      "orsza": 5900,
      "czołem": 5901,
      "miaste": 5902,
      "płaci": 5903,
      "złote": 5904,
      "należało": 5905,
      "blask": 5906,
      "piękna": 5907,
      "zabija": 5908,
      "spotkać": 5909,
      "jasne": 5910,
      "otwarte": 5911,
      "gwiazdy": 5912,
      "doskona": 5913,
      "niedzielę": 5914,
      "Lorche": 5915,
      "paździer": 5916,
      "Mog": 5917,
      "SZ": 5918,
      "Sar": 5919,
      "uto": 5920,
      "zbior": 5921,
      "owro": 5922,
      "liczyć": 5923,
      "zawa": 5924,
      "zacja": 5925,
      "zagra": 5926,
      "koł": 5927,
      "wysy": 5928,
      "majesta": 5929,
      "odrzu": 5930,
      "odet": 5931,
      "bitwa": 5932,
      "gadać": 5933,
      "szan": 5934,
      "nędz": 5935,
      "mnieć": 5936,
      "musisz": 5937,
      "dowała": 5938,
      "terenie": 5939,
      "Czeka": 5940,
      "proces": 5941,
      "pierwszą": 5942,
      "Bohuna": 5943,
      "weźmie": 5944,
      "niwersyte": 5945,
      "Mentezu": 5946,
      "Hrabia": 5947,
      "Obec": 5948,
      "Sła": 5949,
      "oczami": 5950,
      "śnię": 5951,
      "poża": 5952,
      "jezd": 5953,
      "wiała": 5954,
      "obsza": 5955,
      "cona": 5956,
      "nictwo": 5957,
      "mięk": 5958,
      "wróciła": 5959,
      "kościół": 5960,
      "glądając": 5961,
      "jakiejś": 5962,
      "pochylił": 5963,
      "ofiary": 5964,
      "stycznia": 5965,
      "Lin": 5966,
      "gno": 5967,
      "ii": 5968,
      "jże": 5969,
      "posie": 5970,
      "potwo": 5971,
      "pomysł": 5972,
      "linie": 5973,
      "doszedł": 5974,
      "bywało": 5975,
      "ładu": 5976,
      "wieś": 5977,
      "wiedzieli": 5978,
      "staw": 5979,
      "muszkie": 5980,
      "tują": 5981,
      "jakkolwiek": 5982,
      "chodzę": 5983,
      "pannie": 5984,
      "Narod": 5985,
      "działu": 5986,
      "Jerzy": 5987,
      "czonym": 5988,
      "waćpanna": 5989,
      "gęst": 5990,
      "mentar": 5991,
      "płynie": 5992,
      "patrzyć": 5993,
      "ludzkich": 5994,
      "natury": 5995,
      "czerwone": 5996,
      "zdziwieniem": 5997,
      "grzbie": 5998,
      "sprawiedliwości": 5999,
      "przypomniał": 6000,
      "Niemiec": 6001,
      "Grze": 6002,
      "Kobie": 6003,
      "Wśród": 6004,
      "otrzymał": 6005,
      "ss": 6006,
      "żan": 6007,
      "nator": 6008,
      "owni": 6009,
      "wiedzy": 6010,
      "dawać": 6011,
      "mawiał": 6012,
      "odź": 6013,
      "pisów": 6014,
      "loną": 6015,
      "bunt": 6016,
      "wszystkimi": 6017,
      "czuje": 6018,
      "Marek": 6019,
      "konsu": 6020,
      "dzają": 6021,
      "wolność": 6022,
      "bladł": 6023,
      "Krzysia": 6024,
      "królowi": 6025,
      "strasznie": 6026,
      "głych": 6027,
      "błyszczą": 6028,
      "jeżdżał": 6029,
      "organizacji": 6030,
      "krzywdy": 6031,
      "Sędzia": 6032,
      "Dwa": 6033,
      "Gro": 6034,
      "Klu": 6035,
      "Kraj": 6036,
      "abym": 6037,
      "rzone": 6038,
      "niektóre": 6039,
      "nasy": 6040,
      "sztor": 6041,
      "pode": 6042,
      "owców": 6043,
      "zaro": 6044,
      "zaprze": 6045,
      "wyglądał": 6046,
      "rozpro": 6047,
      "rio": 6048,
      "Paweł": 6049,
      "Starski": 6050,
      "różno": 6051,
      "krok": 6052,
      "scypli": 6053,
      "sprawo": 6054,
      "twierdzi": 6055,
      "miesiące": 6056,
      "rozporzą": 6057,
      "Sapieha": 6058,
      "dyrektor": 6059,
      "handl": 6060,
      "Spychowa": 6061,
      "seksual": 6062,
      "kowy": 6063,
      "tw": 6064,
      "usiadł": 6065,
      "żne": 6066,
      "człe": 6067,
      "rzeniu": 6068,
      "zaw": 6069,
      "zapowie": 6070,
      "koszu": 6071,
      "oder": 6072,
      "przysłu": 6073,
      "piej": 6074,
      "weszli": 6075,
      "bienia": 6076,
      "prosta": 6077,
      "pusto": 6078,
      "rią": 6079,
      "byłaby": 6080,
      "Jutro": 6081,
      "krokiem": 6082,
      "ojcu": 6083,
      "Pew": 6084,
      "zdołał": 6085,
      "fur": 6086,
      "dowali": 6087,
      "niechże": 6088,
      "ostatnim": 6089,
      "skończył": 6090,
      "uczucia": 6091,
      "wyjdzie": 6092,
      "spodziewał": 6093,
      "okazało": 6094,
      "Dzięki": 6095,
      "pułkownik": 6096,
      "szpitala": 6097,
      "repti": 6098,
      "Twa": 6099,
      "cmenta": 6100,
      "nóż": 6101,
      "sał": 6102,
      "uchy": 6103,
      "pozio": 6104,
      "zacie": 6105,
      "kanie": 6106,
      "waszych": 6107,
      "pane": 6108,
      "wyobra": 6109,
      "dziu": 6110,
      "rety": 6111,
      "oddziały": 6112,
      "przysią": 6113,
      "owanym": 6114,
      "mym": 6115,
      "rozbi": 6116,
      "równi": 6117,
      "trzeź": 6118,
      "kłam": 6119,
      "ojcze": 6120,
      "Wier": 6121,
      "tkami": 6122,
      "Angli": 6123,
      "blasku": 6124,
      "Noc": 6125,
      "żadne": 6126,
      "sędzi": 6127,
      "Ksiądz": 6128,
      "przyszłość": 6129,
      "córki": 6130,
      "szereg": 6131,
      "chmur": 6132,
      "białych": 6133,
      "baronowa": 6134,
      "Zygfry": 6135,
      "kościele": 6136,
      "sobotę": 6137,
      "Głów": 6138,
      "Ukrai": 6139,
      "drą": 6140,
      "emi": 6141,
      "pały": 6142,
      "zle": 6143,
      "zakry": 6144,
      "komó": 6145,
      "widzenia": 6146,
      "torium": 6147,
      "wiemy": 6148,
      "wodza": 6149,
      "ciep": 6150,
      "mon": 6151,
      "pełen": 6152,
      "sub": 6153,
      "Zaś": 6154,
      "władzę": 6155,
      "Mary": 6156,
      "stronach": 6157,
      "plan": 6158,
      "powoła": 6159,
      "służba": 6160,
      "klęski": 6161,
      "zamiar": 6162,
      "białą": 6163,
      "głowami": 6164,
      "niewiasty": 6165,
      "ojczyźnie": 6166,
      "Longinus": 6167,
      "RA": 6168,
      "Tłu": 6169,
      "tnik": 6170,
      "vel": 6171,
      "iem": 6172,
      "niestety": 6173,
      "gory": 6174,
      "wiło": 6175,
      "patry": 6176,
      "wynagro": 6177,
      "lauda": 6178,
      "przerywa": 6179,
      "momencie": 6180,
      "mieszcza": 6181,
      "murów": 6182,
      "bacz": 6183,
      "stoli": 6184,
      "najczęściej": 6185,
      "mówiłem": 6186,
      "styczne": 6187,
      "pierś": 6188,
      "dzonych": 6189,
      "ziar": 6190,
      "łez": 6191,
      "Szko": 6192,
      "Szczy": 6193,
      "ojc": 6194,
      "ojcem": 6195,
      "pływa": 6196,
      "musimy": 6197,
      "godzina": 6198,
      "lepsze": 6199,
      "chciałbym": 6200,
      "dzielić": 6201,
      "Michała": 6202,
      "powinny": 6203,
      "świątyń": 6204,
      "Kilka": 6205,
      "Człowie": 6206,
      "talentów": 6207,
      "Komisji": 6208,
      "abso": 6209,
      "gały": 6210,
      "gnę": 6211,
      "twego": 6212,
      "usa": 6213,
      "wców": 6214,
      "znę": 6215,
      "zgrzy": 6216,
      "niedaleko": 6217,
      "naczy": 6218,
      "lista": 6219,
      "jenerał": 6220,
      "zapad": 6221,
      "zazdro": 6222,
      "miła": 6223,
      "wydało": 6224,
      "czeni": 6225,
      "Tatar": 6226,
      "większej": 6227,
      "książęcej": 6228,
      "stanowie": 6229,
      "zdawał": 6230,
      "zmienia": 6231,
      "okolicz": 6232,
      "dowci": 6233,
      "obiecał": 6234,
      "włosów": 6235,
      "pracować": 6236,
      "uderza": 6237,
      "szepnęła": 6238,
      "Geb": 6239,
      "wieczor": 6240,
      "projektu": 6241,
      "wstyd": 6242,
      "drzwiami": 6243,
      "Łub": 6244,
      "prawdopodobnie": 6245,
      "80": 6246,
      "Min": 6247,
      "Mało": 6248,
      "Wsze": 6249,
      "eta": 6250,
      "opowie": 6251,
      "Ło": 6252,
      "chrz": 6253,
      "szkę": 6254,
      "zabra": 6255,
      "żeć": 6256,
      "mara": 6257,
      "rezu": 6258,
      "kupu": 6259,
      "przywy": 6260,
      "subie": 6261,
      "Naprzód": 6262,
      "Zamo": 6263,
      "orga": 6264,
      "budzi": 6265,
      "zując": 6266,
      "płacić": 6267,
      "Kamie": 6268,
      "złowro": 6269,
      "płomień": 6270,
      "kowskiego": 6271,
      "kręcił": 6272,
      "ratura": 6273,
      "nauki": 6274,
      "zastana": 6275,
      "oficerowie": 6276,
      "materiał": 6277,
      "mężczyzn": 6278,
      "is": 6279,
      "opar": 6280,
      "psa": 6281,
      "ppe": 6282,
      "qu": 6283,
      "uło": 6284,
      "ukło": 6285,
      "stia": 6286,
      "jeńców": 6287,
      "terze": 6288,
      "wysłał": 6289,
      "rekla": 6290,
      "piel": 6291,
      "siadła": 6292,
      "Widać": 6293,
      "Moja": 6294,
      "godzinie": 6295,
      "okresie": 6296,
      "córka": 6297,
      "warunki": 6298,
      "nazwiska": 6299,
      "kawaler": 6300,
      "wszędy": 6301,
      "Rzeczpospolita": 6302,
      "Szlangbaum": 6303,
      "katoli": 6304,
      "Towarzy": 6305,
      "Znowu": 6306,
      "bała": 6307,
      "uniesie": 6308,
      "zma": 6309,
      "porze": 6310,
      "poły": 6311,
      "zasię": 6312,
      "kap": 6313,
      "wypyty": 6314,
      "tory": 6315,
      "wozów": 6316,
      "mali": 6317,
      "ruchem": 6318,
      "podnieść": 6319,
      "sel": 6320,
      "buła": 6321,
      "czom": 6322,
      "będziem": 6323,
      "chwil": 6324,
      "rowania": 6325,
      "wielmoż": 6326,
      "resztę": 6327,
      "Byli": 6328,
      "chłopi": 6329,
      "podobnego": 6330,
      "płoną": 6331,
      "Krzywo": 6332,
      "ludzkiej": 6333,
      "bólu": 6334,
      "poniedział": 6335,
      "gorzeli": 6336,
      "zapomniał": 6337,
      "błyskawi": 6338,
      "Długo": 6339,
      "Krzysztof": 6340,
      "Charłamp": 6341,
      "klo": 6342,
      "następu": 6343,
      "zację": 6344,
      "łaskę": 6345,
      "waha": 6346,
      "wyczer": 6347,
      "dane": 6348,
      "czycy": 6349,
      "stawał": 6350,
      "silniej": 6351,
      "wezwa": 6352,
      "biegu": 6353,
      "podkre": 6354,
      "pek": 6355,
      "chan": 6356,
      "słabo": 6357,
      "Tauro": 6358,
      "Marusze": 6359,
      "góż": 6360,
      "Ledwie": 6361,
      "wargi": 6362,
      "młodzień": 6363,
      "dziećmi": 6364,
      "zmienił": 6365,
      "Gdybym": 6366,
      "huk": 6367,
      "czerwca": 6368,
      "Podbi": 6369,
      "uciekł": 6370,
      "komunika": 6371,
      "Wielki": 6372,
      "długim": 6373,
      "kwiaty": 6374,
      "oblicze": 6375,
      "Rzymie": 6376,
      "Który": 6377,
      "pracuje": 6378,
      "Młody": 6379,
      "Wro": 6380,
      "brzę": 6381,
      "ilu": 6382,
      "onie": 6383,
      "onych": 6384,
      "nazajutrz": 6385,
      "naokół": 6386,
      "nisko": 6387,
      "kochać": 6388,
      "kade": 6389,
      "wyści": 6390,
      "odpowiadał": 6391,
      "dywał": 6392,
      "bal": 6393,
      "spoglądał": 6394,
      "dusze": 6395,
      "chaty": 6396,
      "skaza": 6397,
      "powierz": 6398,
      "najgor": 6399,
      "mówiono": 6400,
      "sławie": 6401,
      "rzucał": 6402,
      "reszty": 6403,
      "Mosk": 6404,
      "ciągnąć": 6405,
      "szkole": 6406,
      "formy": 6407,
      "Przyj": 6408,
      "darł": 6409,
      "pamiętał": 6410,
      "wrócili": 6411,
      "starych": 6412,
      "okres": 6413,
      "Mieszka": 6414,
      "zamierza": 6415,
      "potrzebne": 6416,
      "świetle": 6417,
      "członków": 6418,
      "Prezy": 6419,
      "Myślę": 6420,
      "sekreta": 6421,
      "otwiera": 6422,
      "gabine": 6423,
      "Ban": 6424,
      "Rów": 6425,
      "es": 6426,
      "nieniem": 6427,
      "poby": 6428,
      "roczy": 6429,
      "wisi": 6430,
      "widowi": 6431,
      "tany": 6432,
      "tacji": 6433,
      "paru": 6434,
      "wystąpi": 6435,
      "wyciąga": 6436,
      "tygod": 6437,
      "dzikich": 6438,
      "odbi": 6439,
      "ceny": 6440,
      "kuchni": 6441,
      "miesię": 6442,
      "przywiąza": 6443,
      "pieśń": 6444,
      "żyłem": 6445,
      "fii": 6446,
      "ogród": 6447,
      "wielbłą": 6448,
      "twoich": 6449,
      "pewną": 6450,
      "działalność": 6451,
      "zostaną": 6452,
      "ustawi": 6453,
      "uciekać": 6454,
      "czarny": 6455,
      "spotkania": 6456,
      "Bur": 6457,
      "powinno": 6458,
      "królewskiej": 6459,
      "prezenta": 6460,
      "oświadczył": 6461,
      "niebezpieczeństwo": 6462,
      "Trudno": 6463,
      "For": 6464,
      "Kwa": 6465,
      "Zosta": 6466,
      "płu": 6467,
      "wle": 6468,
      "porę": 6469,
      "dor": 6470,
      "teo": 6471,
      "jami": 6472,
      "wor": 6473,
      "przepa": 6474,
      "przestra": 6475,
      "przeraź": 6476,
      "kule": 6477,
      "gam": 6478,
      "zej": 6479,
      "bieda": 6480,
      "znaczenie": 6481,
      "nionym": 6482,
      "zdrów": 6483,
      "Tyle": 6484,
      "chciało": 6485,
      "Tere": 6486,
      "pismo": 6487,
      "korzysta": 6488,
      "dowiedział": 6489,
      "dodatku": 6490,
      "istnieje": 6491,
      "religij": 6492,
      "potrzebuje": 6493,
      "błąd": 6494,
      "pomóc": 6495,
      "Podbipię": 6496,
      "Pru": 6497,
      "Spraw": 6498,
      "ape": 6499,
      "anio": 6500,
      "fli": 6501,
      "mowała": 6502,
      "pki": 6503,
      "chowski": 6504,
      "przemy": 6505,
      "matu": 6506,
      "mun": 6507,
      "boję": 6508,
      "żynie": 6509,
      "skimi": 6510,
      "spotyka": 6511,
      "biec": 6512,
      "sieci": 6513,
      "zywał": 6514,
      "archi": 6515,
      "impe": 6516,
      "niosło": 6517,
      "swobod": 6518,
      "królem": 6519,
      "Były": 6520,
      "zmienić": 6521,
      "święta": 6522,
      "zabił": 6523,
      "cjon": 6524,
      "Kir": 6525,
      "nieboszczy": 6526,
      "kulba": 6527,
      "wartość": 6528,
      "słuszność": 6529,
      "chleba": 6530,
      "okrzyki": 6531,
      "komnaty": 6532,
      "Zgorzeli": 6533,
      "dnego": 6534,
      "fię": 6535,
      "oże": 6536,
      "opowiadać": 6537,
      "pl": 6538,
      "spło": 6539,
      "zorganiz": 6540,
      "św": 6541,
      "pozostały": 6542,
      "liwszy": 6543,
      "linii": 6544,
      "zasła": 6545,
      "wanych": 6546,
      "machu": 6547,
      "kując": 6548,
      "silnie": 6549,
      "ściga": 6550,
      "życiem": 6551,
      "rozsze": 6552,
      "skali": 6553,
      "gdym": 6554,
      "słoni": 6555,
      "bronił": 6556,
      "stanowią": 6557,
      "hono": 6558,
      "autor": 6559,
      "Marszał": 6560,
      "glądali": 6561,
      "ktual": 6562,
      "diabeł": 6563,
      "Czas": 6564,
      "zgoła": 6565,
      "zabić": 6566,
      "Bogusława": 6567,
      "Solidar": 6568,
      "stryj": 6569,
      "ogromny": 6570,
      "tmosfe": 6571,
      "Francu": 6572,
      "Krakowa": 6573,
      "wiódł": 6574,
      "Ursus": 6575,
      "wtóre": 6576,
      "Ję": 6577,
      "Zoba": 6578,
      "are": 6579,
      "bki": 6580,
      "kwo": 6581,
      "sprzed": 6582,
      "usił": 6583,
      "pokazy": 6584,
      "strów": 6585,
      "wypoczy": 6586,
      "woź": 6587,
      "wodo": 6588,
      "woły": 6589,
      "wolu": 6590,
      "dymu": 6591,
      "staran": 6592,
      "stanęła": 6593,
      "owanego": 6594,
      "szele": 6595,
      "owicie": 6596,
      "owicza": 6597,
      "mery": 6598,
      "armii": 6599,
      "rzuciła": 6600,
      "grom": 6601,
      "drzewo": 6602,
      "chcecie": 6603,
      "samochód": 6604,
      "miałam": 6605,
      "kocham": 6606,
      "spojrzenia": 6607,
      "wysoki": 6608,
      "zdumieniem": 6609,
      "decyzji": 6610,
      "Egipcie": 6611,
      "skórę": 6612,
      "Mówił": 6613,
      "Europy": 6614,
      "Spoj": 6615,
      "kancle": 6616,
      "history": 6617,
      "poważnie": 6618,
      "tygodnie": 6619,
      "wystarczy": 6620,
      "charakter": 6621,
      "Mentezufis": 6622,
      "ON": 6623,
      "Ojcie": 6624,
      "dwoje": 6625,
      "nty": 6626,
      "dosię": 6627,
      "jazda": 6628,
      "czyków": 6629,
      "przesu": 6630,
      "odparła": 6631,
      "przywie": 6632,
      "boży": 6633,
      "czają": 6634,
      "pust": 6635,
      "Wit": 6636,
      "międzynarod": 6637,
      "trwało": 6638,
      "gniewem": 6639,
      "przyjaź": 6640,
      "grunt": 6641,
      "194": 6642,
      "Podczas": 6643,
      "dziękuję": 6644,
      "nerw": 6645,
      "służbę": 6646,
      "dobrej": 6647,
      "Egipcja": 6648,
      "zginąć": 6649,
      "wpływ": 6650,
      "chmury": 6651,
      "połowy": 6652,
      "dwudziestu": 6653,
      "Wąsowska": 6654,
      "zwłoki": 6655,
      "Benedy": 6656,
      "Ojciec": 6657,
      "Af": 6658,
      "DZ": 6659,
      "Skar": 6660,
      "Wz": 6661,
      "akty": 6662,
      "cowi": 6663,
      "lda": 6664,
      "orę": 6665,
      "płó": 6666,
      "ssa": 6667,
      "scho": 6668,
      "upraw": 6669,
      "niegdzie": 6670,
      "pomi": 6671,
      "rocznie": 6672,
      "zago": 6673,
      "zabój": 6674,
      "typu": 6675,
      "nogą": 6676,
      "dziecię": 6677,
      "cien": 6678,
      "boki": 6679,
      "rozdzie": 6680,
      "panną": 6681,
      "nioną": 6682,
      "droż": 6683,
      "myślała": 6684,
      "słyszę": 6685,
      "lubię": 6686,
      "odpowiedzieć": 6687,
      "ciągnie": 6688,
      "księciem": 6689,
      "Wielko": 6690,
      "obawy": 6691,
      "małej": 6692,
      "pokor": 6693,
      "ciemno": 6694,
      "własny": 6695,
      "krzesła": 6696,
      "wemu": 6697,
      "mieszkanie": 6698,
      "zgody": 6699,
      "palce": 6700,
      "obecnych": 6701,
      "strzały": 6702,
      "Dzień": 6703,
      "języka": 6704,
      "Hen": 6705,
      "szeregi": 6706,
      "zrozumieć": 6707,
      "Póź": 6708,
      "Idrys": 6709,
      "24": 6710,
      "27": 6711,
      "AWS": 6712,
      "Cały": 6713,
      "Ile": 6714,
      "Kt": 6715,
      "ary": 6716,
      "kwar": 6717,
      "lskiemu": 6718,
      "opat": 6719,
      "wszak": 6720,
      "źród": 6721,
      "czku": 6722,
      "dztwo": 6723,
      "racja": 6724,
      "ramieniu": 6725,
      "lesie": 6726,
      "kając": 6727,
      "wymia": 6728,
      "ryba": 6729,
      "sal": 6730,
      "pragnął": 6731,
      "biry": 6732,
      "rozmów": 6733,
      "dekla": 6734,
      "wiarę": 6735,
      "podję": 6736,
      "Poz": 6737,
      "czących": 6738,
      "najpierw": 6739,
      "Chodź": 6740,
      "czuję": 6741,
      "śnieg": 6742,
      "samemu": 6743,
      "dźmy": 6744,
      "głosowania": 6745,
      "żołnierza": 6746,
      "klasztor": 6747,
      "lepszy": 6748,
      "dowany": 6749,
      "ratunku": 6750,
      "Najświęt": 6751,
      "wszelkich": 6752,
      "opieku": 6753,
      "uczuł": 6754,
      "Kozacy": 6755,
      "centrum": 6756,
      "regular": 6757,
      "Jesteś": 6758,
      "Któż": 6759,
      "Bro": 6760,
      "Nale": 6761,
      "Pal": 6762,
      "atmosfe": 6763,
      "jne": 6764,
      "kłu": 6765,
      "wbrew": 6766,
      "złem": 6767,
      "tyczne": 6768,
      "mak": 6769,
      "wiając": 6770,
      "rękami": 6771,
      "wznosi": 6772,
      "straży": 6773,
      "czuć": 6774,
      "ziono": 6775,
      "długą": 6776,
      "prowadzenia": 6777,
      "złoty": 6778,
      "żebyś": 6779,
      "mniejsze": 6780,
      "zawoła": 6781,
      "Bogiem": 6782,
      "PiS": 6783,
      "fotelu": 6784,
      "nagrody": 6785,
      "berg": 6786,
      "spółki": 6787,
      "Rzym": 6788,
      "Słysz": 6789,
      "Bogdańca": 6790,
      "snym": 6791,
      "sfor": 6792,
      "tno": 6793,
      "układ": 6794,
      "nieszczęśli": 6795,
      "popu": 6796,
      "popeł": 6797,
      "ponow": 6798,
      "potrzą": 6799,
      "rzej": 6800,
      "roztrop": 6801,
      "spon": 6802,
      "senato": 6803,
      "Toteż": 6804,
      "dawne": 6805,
      "hau": 6806,
      "odez": 6807,
      "słowach": 6808,
      "bywają": 6809,
      "dziwnie": 6810,
      "małym": 6811,
      "dobrych": 6812,
      "krajów": 6813,
      "gorącz": 6814,
      "słyszeli": 6815,
      "bogini": 6816,
      "cjonari": 6817,
      "jeźdźców": 6818,
      "Małgo": 6819,
      "Zale": 6820,
      "mle": 6821,
      "tchu": 6822,
      "ulu": 6823,
      "żąc": 6824,
      "strą": 6825,
      "niczy": 6826,
      "ramach": 6827,
      "rola": 6828,
      "lekar": 6829,
      "tatu": 6830,
      "wykła": 6831,
      "bać": 6832,
      "cono": 6833,
      "stolicy": 6834,
      "ari": 6835,
      "Nastała": 6836,
      "czonej": 6837,
      "ciąć": 6838,
      "złożyć": 6839,
      "Mil": 6840,
      "dium": 6841,
      "małą": 6842,
      "Anzel": 6843,
      "polska": 6844,
      "patrzyła": 6845,
      "trybu": 6846,
      "wstrę": 6847,
      "Helena": 6848,
      "załat": 6849,
      "Kościo": 6850,
      "kapitał": 6851,
      "klejno": 6852,
      "Gusta": 6853,
      "Kan": 6854,
      "chła": 6855,
      "pobi": 6856,
      "owszem": 6857,
      "rzeczą": 6858,
      "jesie": 6859,
      "tara": 6860,
      "mary": 6861,
      "dyplo": 6862,
      "przyjąć": 6863,
      "gia": 6864,
      "duszą": 6865,
      "słem": 6866,
      "sławy": 6867,
      "sąsie": 6868,
      "impre": 6869,
      "płacz": 6870,
      "cjami": 6871,
      "grać": 6872,
      "Lepiej": 6873,
      "genera": 6874,
      "Anto": 6875,
      "rodziców": 6876,
      "wydawał": 6877,
      "pięknie": 6878,
      "polega": 6879,
      "ludzka": 6880,
      "wzięli": 6881,
      "obowiąza": 6882,
      "bezpieczeństwa": 6883,
      "Słuchaj": 6884,
      "programu": 6885,
      "warunkach": 6886,
      "zawiera": 6887,
      "wydobył": 6888,
      "poczci": 6889,
      "województwa": 6890,
      "Zygmu": 6891,
      "codziennie": 6892,
      "Gi": 6893,
      "Mel": 6894,
      "Ofi": 6895,
      "WA": 6896,
      "XIII": 6897,
      "Zbi": 6898,
      "ktem": 6899,
      "ncji": 6900,
      "ory": 6901,
      "zno": 6902,
      "ńsku": 6903,
      "Ża": 6904,
      "narodu": 6905,
      "pokazał": 6906,
      "niało": 6907,
      "rator": 6908,
      "rośnie": 6909,
      "lim": 6910,
      "zamor": 6911,
      "kop": 6912,
      "dziłem": 6913,
      "dano": 6914,
      "danych": 6915,
      "mane": 6916,
      "siód": 6917,
      "przytu": 6918,
      "przyszli": 6919,
      "pij": 6920,
      "rozstrzy": 6921,
      "dur": 6922,
      "Nieraz": 6923,
      "kłę": 6924,
      "najprędzej": 6925,
      "czuła": 6926,
      "guje": 6927,
      "Wiśni": 6928,
      "pewność": 6929,
      "rzędzie": 6930,
      "płyną": 6931,
      "Libij": 6932,
      "pokoj": 6933,
      "świętego": 6934,
      "mieszkańcy": 6935,
      "rozumiesz": 6936,
      "ślady": 6937,
      "Sopli": 6938,
      "dziewczynę": 6939,
      "Kozaków": 6940,
      "Eury": 6941,
      "Policja": 6942,
      "Telemach": 6943,
      "CK": 6944,
      "Związ": 6945,
      "knąć": 6946,
      "nna": 6947,
      "plą": 6948,
      "zon": 6949,
      "chowy": 6950,
      "owca": 6951,
      "rosną": 6952,
      "zabiera": 6953,
      "zamyślił": 6954,
      "ładnie": 6955,
      "pacje": 6956,
      "ryb": 6957,
      "dyscypli": 6958,
      "szyli": 6959,
      "boja": 6960,
      "biała": 6961,
      "niejsi": 6962,
      "synem": 6963,
      "braku": 6964,
      "zują": 6965,
      "Mamy": 6966,
      "wojsku": 6967,
      "dencji": 6968,
      "Dość": 6969,
      "premier": 6970,
      "Czym": 6971,
      "Być": 6972,
      "gardło": 6973,
      "dziane": 6974,
      "umrzeć": 6975,
      "szczyt": 6976,
      "pręd": 6977,
      "Daw": 6978,
      "Kukli": 6979,
      "ludzką": 6980,
      "właściciel": 6981,
      "zwycięstwa": 6982,
      "Danvel": 6983,
      "południa": 6984,
      "Korde": 6985,
      "informacje": 6986,
      "ochotę": 6987,
      "kolor": 6988,
      "poczucie": 6989,
      "obywatel": 6990,
      "biskup": 6991,
      "XIX": 6992,
      "rezulta": 6993,
      "powierzchni": 6994,
      "NIE": 6995,
      "gała": 6996,
      "uzasa": 6997,
      "wkę": 6998,
      "zwró": 6999,
      "niezależ": 7000,
      "posił": 7001,
      "nigdzie": 7002,
      "dzki": 7003,
      "liny": 7004,
      "zastrze": 7005,
      "byście": 7006,
      "wyrok": 7007,
      "wydawało": 7008,
      "oddali": 7009,
      "stanąć": 7010,
      "stanęli": 7011,
      "mieczem": 7012,
      "czasami": 7013,
      "podwó": 7014,
      "cham": 7015,
      "pierście": 7016,
      "dników": 7017,
      "drudzy": 7018,
      "krzyczeć": 7019,
      "prowadzenie": 7020,
      "walić": 7021,
      "wejść": 7022,
      "lepszego": 7023,
      "gnał": 7024,
      "powiedziałem": 7025,
      "Muszę": 7026,
      "Chociaż": 7027,
      "biorą": 7028,
      "dobrodziej": 7029,
      "PZ": 7030,
      "fon": 7031,
      "ger": 7032,
      "lla": 7033,
      "oszu": 7034,
      "sprzeci": 7035,
      "uspo": 7036,
      "niezbyt": 7037,
      "zao": 7038,
      "kość": 7039,
      "miony": 7040,
      "wyszli": 7041,
      "dania": 7042,
      "masze": 7043,
      "majda": 7044,
      "kula": 7045,
      "owanej": 7046,
      "mul": 7047,
      "sześciu": 7048,
      "boska": 7049,
      "sadza": 7050,
      "log": 7051,
      "pytam": 7052,
      "czące": 7053,
      "żonego": 7054,
      "som": 7055,
      "słycha": 7056,
      "słońcu": 7057,
      "Podla": 7058,
      "przod": 7059,
      "Lub": 7060,
      "pracował": 7061,
      "towarzystwie": 7062,
      "zamiesza": 7063,
      "firma": 7064,
      "obyczaj": 7065,
      "Anusia": 7066,
      "niespodzianie": 7067,
      "Chwilami": 7068,
      "śmiać": 7069,
      "26": 7070,
      "Aha": 7071,
      "Tę": 7072,
      "nnej": 7073,
      "umysł": 7074,
      "wcy": 7075,
      "zwro": 7076,
      "zmian": 7077,
      "napisał": 7078,
      "rzeka": 7079,
      "jemnie": 7080,
      "zabrać": 7081,
      "kos": 7082,
      "lecie": 7083,
      "kapli": 7084,
      "wypraw": 7085,
      "lasach": 7086,
      "boli": 7087,
      "prawej": 7088,
      "rozpoczę": 7089,
      "rozpoczął": 7090,
      "zewnątrz": 7091,
      "jutrze": 7092,
      "bierz": 7093,
      "skając": 7094,
      "ogniu": 7095,
      "cudow": 7096,
      "ciach": 7097,
      "Widziałem": 7098,
      "Komu": 7099,
      "bronią": 7100,
      "zostaje": 7101,
      "szonym": 7102,
      "stanowiska": 7103,
      "dłonią": 7104,
      "głębie": 7105,
      "rozmawiał": 7106,
      "Gospo": 7107,
      "gromady": 7108,
      "miłościwy": 7109,
      "szwedzkie": 7110,
      "trudności": 7111,
      "Europie": 7112,
      "Augu": 7113,
      "próbował": 7114,
      "handlu": 7115,
      "ochrony": 7116,
      "lipca": 7117,
      "))": 7118,
      "21": 7119,
      "Han": 7120,
      "Idź": 7121,
      "tór": 7122,
      "usługi": 7123,
      "włą": 7124,
      "yhm": 7125,
      "nasta": 7126,
      "pot": 7127,
      "pokło": 7128,
      "racze": 7129,
      "koali": 7130,
      "wybi": 7131,
      "wychodzi": 7132,
      "wynik": 7133,
      "wynosi": 7134,
      "nozd": 7135,
      "prace": 7136,
      "dentów": 7137,
      "zen": 7138,
      "szaty": 7139,
      "podle": 7140,
      "lom": 7141,
      "powietrza": 7142,
      "burzy": 7143,
      "siąść": 7144,
      "wzru": 7145,
      "czoła": 7146,
      "soli": 7147,
      "wojskiem": 7148,
      "fakt": 7149,
      "Konie": 7150,
      "gęsto": 7151,
      "trwał": 7152,
      "Wokulskiemu": 7153,
      "umowy": 7154,
      "Więk": 7155,
      "Marta": 7156,
      "polityki": 7157,
      "Dzieci": 7158,
      "największą": 7159,
      "westch": 7160,
      "powtarzać": 7161,
      "umarł": 7162,
      "Mikołaj": 7163,
      "premiera": 7164,
      "ekonomi": 7165,
      "Ger": 7166,
      "Ich": 7167,
      "Try": 7168,
      "Zdr": 7169,
      "kowo": 7170,
      "ułat": 7171,
      "usług": 7172,
      "niechaj": 7173,
      "ownie": 7174,
      "likwi": 7175,
      "tana": 7176,
      "jadę": 7177,
      "dama": 7178,
      "latar": 7179,
      "odby": 7180,
      "przykry": 7181,
      "pieczę": 7182,
      "piąc": 7183,
      "świade": 7184,
      "dnicy": 7185,
      "młode": 7186,
      "szkoda": 7187,
      "znajdują": 7188,
      "walce": 7189,
      "nkowie": 7190,
      "eks": 7191,
      "ruszyła": 7192,
      "godna": 7193,
      "Żydzi": 7194,
      "prowadziła": 7195,
      "rzucać": 7196,
      "największym": 7197,
      "gwiazd": 7198,
      "przestrzeni": 7199,
      "Pięk": 7200,
      "oddech": 7201,
      "Fun": 7202,
      "towych": 7203,
      "upa": 7204,
      "niespokoj": 7205,
      "zapowiada": 7206,
      "les": 7207,
      "wypada": 7208,
      "dzieliśmy": 7209,
      "odszedł": 7210,
      "mierz": 7211,
      "szabli": 7212,
      "pens": 7213,
      "chali": 7214,
      "puste": 7215,
      "Zakon": 7216,
      "orszak": 7217,
      "władze": 7218,
      "czonego": 7219,
      "rowany": 7220,
      "Macie": 7221,
      "śmiech": 7222,
      "Stawska": 7223,
      "Rada": 7224,
      "złość": 7225,
      "kazały": 7226,
      "świeżo": 7227,
      "towania": 7228,
      "Byłem": 7229,
      "zostawił": 7230,
      "podobnie": 7231,
      "całych": 7232,
      "honor": 7233,
      "ziemią": 7234,
      "ostatniego": 7235,
      "określa": 7236,
      "sierpnia": 7237,
      "rozpaczy": 7238,
      "westchnął": 7239,
      "stosunku": 7240,
      "okrzyk": 7241,
      "modlitwy": 7242,
      "policjanci": 7243,
      "ozwały": 7244,
      "związane": 7245,
      "września": 7246,
      "Zbyszkowi": 7247,
      "czambu": 7248,
      "Akte": 7249,
      "szablą": 7250,
      "zakresie": 7251,
      "akurat": 7252,
      "tygodniu": 7253,
      "28": 7254,
      "Gór": 7255,
      "towej": 7256,
      "usie": 7257,
      "ucał": 7258,
      "zgła": 7259,
      "poprzez": 7260,
      "owską": 7261,
      "tech": 7262,
      "patro": 7263,
      "czyny": 7264,
      "lana": 7265,
      "lając": 7266,
      "odrę": 7267,
      "kub": 7268,
      "szyła": 7269,
      "przyniósł": 7270,
      "objął": 7271,
      "żywa": 7272,
      "żyją": 7273,
      "rozmyśla": 7274,
      "podnosząc": 7275,
      "niejszej": 7276,
      "Zapo": 7277,
      "budził": 7278,
      "Jaro": 7279,
      "najpięk": 7280,
      "Wojcie": 7281,
      "pełną": 7282,
      "byłam": 7283,
      "ciągną": 7284,
      "dziad": 7285,
      "majątku": 7286,
      "piasku": 7287,
      "piątek": 7288,
      "spał": 7289,
      "liczba": 7290,
      "budowy": 7291,
      "Dziew": 7292,
      "rzucając": 7293,
      "dowiedzieć": 7294,
      "patrzą": 7295,
      "przekonać": 7296,
      "Polacy": 7297,
      "obiad": 7298,
      "Izra": 7299,
      "opad": 7300,
      "trium": 7301,
      "uma": 7302,
      "unik": 7303,
      "ukazy": 7304,
      "zow": 7305,
      "pocho": 7306,
      "pokazać": 7307,
      "owdzie": 7308,
      "rot": 7309,
      "roman": 7310,
      "gościa": 7311,
      "zacznie": 7312,
      "koty": 7313,
      "wyjeżdża": 7314,
      "wiec": 7315,
      "dzikie": 7316,
      "czyste": 7317,
      "przywo": 7318,
      "obró": 7319,
      "bią": 7320,
      "piła": 7321,
      "defi": 7322,
      "ałym": 7323,
      "Chrepti": 7324,
      "płaszcz": 7325,
      "Rozło": 7326,
      "ważnie": 7327,
      "grudnia": 7328,
      "święto": 7329,
      "walkę": 7330,
      "pisarz": 7331,
      "!”,": 7332,
      "czekając": 7333,
      "przedstawia": 7334,
      "możliwość": 7335,
      "prowadzili": 7336,
      "uczuć": 7337,
      "wniosku": 7338,
      "niezmiernie": 7339,
      "Choćby": 7340,
      "tytuł": 7341,
      "Obaj": 7342,
      "Prus": 7343,
      "Sma": 7344,
      "bnie": 7345,
      "hry": 7346,
      "idę": 7347,
      "zgra": 7348,
      "Ów": 7349,
      "śpią": 7350,
      "napełni": 7351,
      "szku": 7352,
      "niny": 7353,
      "zara": 7354,
      "karze": 7355,
      "wiona": 7356,
      "wyła": 7357,
      "tyj": 7358,
      "przepisy": 7359,
      "czeli": 7360,
      "biur": 7361,
      "znasz": 7362,
      "duchy": 7363,
      "siedzieli": 7364,
      "indziej": 7365,
      "proponu": 7366,
      "skami": 7367,
      "senator": 7368,
      "słe": 7369,
      "Chcę": 7370,
      "zdjął": 7371,
      "ris": 7372,
      "ląkł": 7373,
      "wolny": 7374,
      "młoda": 7375,
      "Przypom": 7376,
      "Zagłobę": 7377,
      "pędził": 7378,
      "walka": 7379,
      "czarow": 7380,
      "szeptał": 7381,
      "zbrodni": 7382,
      "zapach": 7383,
      "kazując": 7384,
      "zwycięz": 7385,
      "znalazła": 7386,
      "wyjazd": 7387,
      "kontroli": 7388,
      "dodatk": 7389,
      "chleb": 7390,
      "zdrajca": 7391,
      "funda": 7392,
      "Kazimierza": 7393,
      "realiz": 7394,
      "herba": 7395,
      "gałęzi": 7396,
      "Twarz": 7397,
      "DA": 7398,
      "Ost": 7399,
      "Pró": 7400,
      "Rę": 7401,
      "Sąd": 7402,
      "nkami": 7403,
      "rię": 7404,
      "twej": 7405,
      "wręcz": 7406,
      "czół": 7407,
      "poj": 7408,
      "liści": 7409,
      "dodała": 7410,
      "wyba": 7411,
      "wyprawy": 7412,
      "wieków": 7413,
      "sil": 7414,
      "przyznać": 7415,
      "muję": 7416,
      "życ": 7417,
      "róża": 7418,
      "szans": 7419,
      "szabel": 7420,
      "zywać": 7421,
      "mecha": 7422,
      "mięsa": 7423,
      "służył": 7424,
      "skoczy": 7425,
      "nti": 7426,
      "barba": 7427,
      "rowali": 7428,
      "Stawskiej": 7429,
      "złoto": 7430,
      "diu": 7431,
      "abyś": 7432,
      "ustami": 7433,
      "chęci": 7434,
      "drapie": 7435,
      "drżą": 7436,
      "środki": 7437,
      "Biał": 7438,
      "chłopca": 7439,
      "Myśli": 7440,
      "obronie": 7441,
      "milionów": 7442,
      "biorąc": 7443,
      "Cieka": 7444,
      "powagą": 7445,
      "Radziwiłła": 7446,
      "waszmościowie": 7447,
      "głąb": 7448,
      "całkowicie": 7449,
      "Sakowicz": 7450,
      "Ate": 7451,
      "OS": 7452,
      "Wnet": 7453,
      "Zd": 7454,
      "pkt": 7455,
      "śnią": 7456,
      "niedługo": 7457,
      "niesłycha": 7458,
      "podzię": 7459,
      "niło": 7460,
      "goście": 7461,
      "domo": 7462,
      "waria": 7463,
      "paty": 7464,
      "torzy": 7465,
      "dzią": 7466,
      "dziemy": 7467,
      "przewa": 7468,
      "przemysł": 7469,
      "malu": 7470,
      "maję": 7471,
      "oddy": 7472,
      "ruchy": 7473,
      "rósł": 7474,
      "prof": 7475,
      "póty": 7476,
      "równy": 7477,
      "sławę": 7478,
      "bramą": 7479,
      "śmiejąc": 7480,
      "waćpana": 7481,
      "granic": 7482,
      "rządek": 7483,
      "nięta": 7484,
      "konsek": 7485,
      "Rodzi": 7486,
      "każdemu": 7487,
      "mentem": 7488,
      "Panu": 7489,
      "Biało": 7490,
      "Soroka": 7491,
      "renty": 7492,
      "rencji": 7493,
      "kultury": 7494,
      "Petroniusza": 7495,
      "ambi": 7496,
      "dzierża": 7497,
      "księżyca": 7498,
      "dyskusji": 7499,
      "roślin": 7500,
      "zwracając": 7501,
      "umilkł": 7502,
      "telewizji": 7503,
      "folwar": 7504,
      "Mracze": 7505,
      "Nim": 7506,
      "Obie": 7507,
      "RP": 7508,
      "Sko": 7509,
      "Słowa": 7510,
      "Uważa": 7511,
      "cko": 7512,
      "foto": 7513,
      "gród": 7514,
      "kcję": 7515,
      "wce": 7516,
      "wnu": 7517,
      "zją": 7518,
      "zin": 7519,
      "ślą": 7520,
      "żnych": 7521,
      "nadej": 7522,
      "powy": 7523,
      "pochwy": 7524,
      "waniem": 7525,
      "jacy": 7526,
      "dziwa": 7527,
      "ryzy": 7528,
      "rezer": 7529,
      "dyspo": 7530,
      "moty": 7531,
      "mont": 7532,
      "przymie": 7533,
      "basa": 7534,
      "lubił": 7535,
      "zezna": 7536,
      "znaki": 7537,
      "podpisa": 7538,
      "głosie": 7539,
      "Jaka": 7540,
      "dzeni": 7541,
      "rowane": 7542,
      "Tyś": 7543,
      "placów": 7544,
      "domem": 7545,
      "spadł": 7546,
      "spekty": 7547,
      "przyjaciela": 7548,
      "Szwedom": 7549,
      "mężów": 7550,
      "obowiązek": 7551,
      "Labiry": 7552,
      "psycho": 7553,
      "itp": 7554,
      "Memfi": 7555,
      "29": 7556,
      "Ozy": 7557,
      "Wkrótce": 7558,
      "gl": 7559,
      "hał": 7560,
      "ili": 7561,
      "ochło": 7562,
      "ozdo": 7563,
      "twych": 7564,
      "wchodzi": 7565,
      "niewy": 7566,
      "niewie": 7567,
      "zatrzymy": 7568,
      "cisz": 7569,
      "żeśmy": 7570,
      "pacie": 7571,
      "czyźni": 7572,
      "przeło": 7573,
      "przechy": 7574,
      "odczu": 7575,
      "mogi": 7576,
      "synów": 7577,
      "Napole": 7578,
      "bezrobo": 7579,
      "wiązek": 7580,
      "fakty": 7581,
      "myśląc": 7582,
      "Rosji": 7583,
      "Rosja": 7584,
      "kroku": 7585,
      "płynął": 7586,
      "gdybyś": 7587,
      "głęb": 7588,
      "Polskiej": 7589,
      "Inter": 7590,
      "budowę": 7591,
      "opiekę": 7592,
      "chrześcijan": 7593,
      "prywaty": 7594,
      "Szczegó": 7595,
      "ostrożnie": 7596,
      "wielkości": 7597,
      "Wojewódz": 7598,
      "poniedziałek": 7599,
      "70": 7600,
      "??": 7601,
      "Cała": 7602,
      "ccy": 7603,
      "odz": 7604,
      "towe": 7605,
      "zwia": 7606,
      "ÓR": 7607,
      "chó": 7608,
      "szkół": 7609,
      "don": 7610,
      "winien": 7611,
      "papiero": 7612,
      "wyniku": 7613,
      "cenę": 7614,
      "siod": 7615,
      "cyr": 7616,
      "biu": 7617,
      "piwa": 7618,
      "rozwoju": 7619,
      "delega": 7620,
      "podjazd": 7621,
      "siedziała": 7622,
      "argu": 7623,
      "sens": 7624,
      "anu": 7625,
      "ogląd": 7626,
      "miary": 7627,
      "bramę": 7628,
      "światem": 7629,
      "granicą": 7630,
      "parcie": 7631,
      "konty": 7632,
      "lskim": 7633,
      "złoci": 7634,
      "ciągnęła": 7635,
      "Wielu": 7636,
      "zdarza": 7637,
      "chcemy": 7638,
      "gruby": 7639,
      "grupa": 7640,
      "kilkudziesięciu": 7641,
      "zwierz": 7642,
      "zwierza": 7643,
      "ostatnio": 7644,
      "palcami": 7645,
      "służb": 7646,
      "kolejny": 7647,
      "kolejne": 7648,
      "dostojny": 7649,
      "pozycji": 7650,
      "potrafił": 7651,
      "udziału": 7652,
      "kwiatów": 7653,
      "Rzymu": 7654,
      "wstrzymał": 7655,
      "choroby": 7656,
      "oglądać": 7657,
      "punktu": 7658,
      "Billewiczów": 7659,
      "klasztoru": 7660,
      "okoliczności": 7661,
      "CKM": 7662,
      "Fau": 7663,
      "Gie": 7664,
      "gda": 7665,
      "hr": 7666,
      "mno": 7667,
      "onej": 7668,
      "snę": 7669,
      "zgodzi": 7670,
      "niebu": 7671,
      "naro": 7672,
      "napisa": 7673,
      "cznością": 7674,
      "chł": 7675,
      "szwa": 7676,
      "poję": 7677,
      "potom": 7678,
      "lewej": 7679,
      "dości": 7680,
      "pamią": 7681,
      "wywie": 7682,
      "nosa": 7683,
      "dziesz": 7684,
      "rym": 7685,
      "rysu": 7686,
      "odci": 7687,
      "mono": 7688,
      "silne": 7689,
      "obrazy": 7690,
      "któr": 7691,
      "gania": 7692,
      "lotni": 7693,
      "Nareszcie": 7694,
      "szczem": 7695,
      "orą": 7696,
      "granicę": 7697,
      "wąsi": 7698,
      "ciemne": 7699,
      "dowod": 7700,
      "blady": 7701,
      "godności": 7702,
      "wróciwszy": 7703,
      "gotowe": 7704,
      "dalszych": 7705,
      "głym": 7706,
      "sędzia": 7707,
      "hen": 7708,
      "publicznych": 7709,
      "wcześnie": 7710,
      "sytuacja": 7711,
      "stopniu": 7712,
      "niebawem": 7713,
      "prowadzono": 7714,
      "miłosierdzie": 7715,
      "uważał": 7716,
      "Słońce": 7717,
      "Rober": 7718,
      "Wiśniowie": 7719,
      "Glau": 7720,
      "Lo": 7721,
      "Lich": 7722,
      "bny": 7723,
      "dran": 7724,
      "grywa": 7725,
      "opoda": 7726,
      "tką": 7727,
      "ww": 7728,
      "zbój": 7729,
      "niesio": 7730,
      "chwa": 7731,
      "zapał": 7732,
      "pań": 7733,
      "czytel": 7734,
      "ryby": 7735,
      "przebra": 7736,
      "cieniu": 7737,
      "przynosi": 7738,
      "bogom": 7739,
      "biony": 7740,
      "żywy": 7741,
      "szable": 7742,
      "Poza": 7743,
      "sypi": 7744,
      "jedź": 7745,
      "Chami": 7746,
      "krajach": 7747,
      "pewności": 7748,
      "studen": 7749,
      "Rasz": 7750,
      "początek": 7751,
      "trwały": 7752,
      "formie": 7753,
      "mniejsza": 7754,
      "karku": 7755,
      "kobietę": 7756,
      "pamiętać": 7757,
      "morder": 7758,
      "widzial": 7759,
      "córkę": 7760,
      "znajomy": 7761,
      "wpływem": 7762,
      "Pierwsze": 7763,
      "połowę": 7764,
      "ORZA": 7765,
      "trakcie": 7766,
      "arcykapłan": 7767,
      "telefon": 7768,
      "bohater": 7769,
      "Jednocześnie": 7770,
      "Żołnierze": 7771,
      "Azji": 7772,
      "Nowa": 7773,
      "Skoro": 7774,
      "Wrze": 7775,
      "opuszcza": 7776,
      "tały": 7777,
      "wli": 7778,
      "niły": 7779,
      "kozac": 7780,
      "mis": 7781,
      "kin": 7782,
      "nety": 7783,
      "czynienia": 7784,
      "kupił": 7785,
      "owaną": 7786,
      "oble": 7787,
      "rozło": 7788,
      "rozsąd": 7789,
      "biesia": 7790,
      "podwój": 7791,
      "inżynie": 7792,
      "anga": 7793,
      "Jedy": 7794,
      "numer": 7795,
      "skorzy": 7796,
      "bliska": 7797,
      "Widział": 7798,
      "trwała": 7799,
      "szonych": 7800,
      "193": 7801,
      "walczyć": 7802,
      "obiecy": 7803,
      "światłem": 7804,
      "tryum": 7805,
      "szczał": 7806,
      "diabła": 7807,
      "okazać": 7808,
      "mogłaby": 7809,
      "ludność": 7810,
      "zajęcia": 7811,
      "firm": 7812,
      "stosunki": 7813,
      "rozpoczyna": 7814,
      "krzyknęła": 7815,
      "muzyka": 7816,
      "frag": 7817,
      "napast": 7818,
      "budynku": 7819,
      "Szuman": 7820,
      "cofnął": 7821,
      "przykładem": 7822,
      "Wszakże": 7823,
      "Dal": 7824,
      "Dok": 7825,
      "Ly": 7826,
      "Pla": 7827,
      "Pół": 7828,
      "Stu": 7829,
      "Wał": 7830,
      "XX": 7831,
      "Znam": 7832,
      "idź": 7833,
      "krza": 7834,
      "poci": 7835,
      "pości": 7836,
      "poszczegó": 7837,
      "rzekę": 7838,
      "winem": 7839,
      "tabli": 7840,
      "teor": 7841,
      "pastu": 7842,
      "ówdzie": 7843,
      "przele": 7844,
      "mocą": 7845,
      "stają": 7846,
      "obda": 7847,
      "objęcia": 7848,
      "zeum": 7849,
      "media": 7850,
      "lonego": 7851,
      "Natura": 7852,
      "Jeno": 7853,
      "czole": 7854,
      "bram": 7855,
      "bracie": 7856,
      "Taka": 7857,
      "będziecie": 7858,
      "Mazu": 7859,
      "śmiechu": 7860,
      "Stan": 7861,
      "marca": 7862,
      "młodzieży": 7863,
      "większym": 7864,
      "zostawić": 7865,
      "miastem": 7866,
      "jednostki": 7867,
      "mieszkaniu": 7868,
      "Lubi": 7869,
      "ludzki": 7870,
      "przyjaciele": 7871,
      "Ktoś": 7872,
      "mowali": 7873,
      "wzięła": 7874,
      "wskazał": 7875,
      "porusza": 7876,
      "Sejmu": 7877,
      "cjum": 7878,
      "niesiono": 7879,
      "Później": 7880,
      "Ameryka": 7881,
      "Dia": 7882,
      "Fo": 7883,
      "Grek": 7884,
      "fale": 7885,
      "oporu": 7886,
      "pnie": 7887,
      "schwy": 7888,
      "zgry": 7889,
      "zrazu": 7890,
      "nać": 7891,
      "naby": 7892,
      "naty": 7893,
      "pozo": 7894,
      "pochodzą": 7895,
      "stemu": 7896,
      "lime": 7897,
      "zaszło": 7898,
      "dokład": 7899,
      "dozor": 7900,
      "wyobraź": 7901,
      "magał": 7902,
      "mawiać": 7903,
      "respon": 7904,
      "cielem": 7905,
      "przyda": 7906,
      "obchodzi": 7907,
      "obóz": 7908,
      "ruj": 7909,
      "conych": 7910,
      "biją": 7911,
      "znany": 7912,
      "szach": 7913,
      "Jacek": 7914,
      "Jeremi": 7915,
      "władza": 7916,
      "barwy": 7917,
      "czupry": 7918,
      "rzucili": 7919,
      "pewnych": 7920,
      "szum": 7921,
      "kroki": 7922,
      "Litwie": 7923,
      "dziana": 7924,
      "trzymając": 7925,
      "darmo": 7926,
      "planowa": 7927,
      "cyjna": 7928,
      "śpiewać": 7929,
      "Kiem": 7930,
      "królowa": 7931,
      "królowej": 7932,
      "zębami": 7933,
      "starym": 7934,
      "Jużci": 7935,
      "służbie": 7936,
      "szczególniej": 7937,
      "kazali": 7938,
      "przejść": 7939,
      "Siła": 7940,
      "Będę": 7941,
      "okręt": 7942,
      "jesteście": 7943,
      "osiąg": 7944,
      "----------------": 7945,
      "października": 7946,
      "Bel": 7947,
      "Proku": 7948,
      "Sia": 7949,
      "iny": 7950,
      "jny": 7951,
      "mowę": 7952,
      "sona": 7953,
      "uzy": 7954,
      "von": 7955,
      "zrę": 7956,
      "śnił": 7957,
      "żni": 7958,
      "niesz": 7959,
      "nało": 7960,
      "pochodzi": 7961,
      "zajął": 7962,
      "dziale": 7963,
      "starzec": 7964,
      "bodaj": 7965,
      "gią": 7966,
      "armat": 7967,
      "tamtych": 7968,
      "giel": 7969,
      "Bodaj": 7970,
      "parku": 7971,
      "robisz": 7972,
      "kark": 7973,
      "starał": 7974,
      "rodzice": 7975,
      "spojrzenie": 7976,
      "dzieckiem": 7977,
      "Instytu": 7978,
      "dziwny": 7979,
      "największy": 7980,
      "Zeus": 7981,
      "Mógł": 7982,
      "prezentu": 7983,
      "gospodarki": 7984,
      "przyjęcie": 7985,
      "Herho": 7986,
      "kwadran": 7987,
      "Francji": 7988,
      "przyczyną": 7989,
      "trakta": 7990,
      "ataku": 7991,
      "Aleksandra": 7992,
      "Chciałbym": 7993,
      "Słyszałem": 7994,
      "Bor": 7995,
      "LI": 7996,
      "Znaj": 7997,
      "hod": 7998,
      "hrabia": 7999
    },
    "merges": [
      [
        "i",
        "e"
      ],
      [
        "r",
        "z"
      ],
      [
        "n",
        "ie"
      ],
      [
        "n",
        "a"
      ],
      [
        "c",
        "z"
      ],
      [
        "c",
        "h"
      ],
      [
        "s",
        "z"
      ],
      [
        "p",
        "o"
      ],
      [
        "s",
        "t"
      ],
      [
        "n",
        "i"
      ],
      [
        "a",
        "ł"
      ],
      [
        "d",
        "z"
      ],
      [
        "i",
        "ę"
      ],
      [
        "r",
        "a"
      ],
      [
        "o",
        "w"
      ],
      [
        "r",
        "o"
      ],
      [
        "rz",
        "e"
      ],
      [
        "l",
        "i"
      ],
      [
        "j",
        "e"
      ],
      [
        "g",
        "o"
      ],
      [
        "z",
        "a"
      ],
      [
        "s",
        "ię"
      ],
      [
        "c",
        "i"
      ],
      [
        "k",
        "o"
      ],
      [
        "l",
        "e"
      ],
      [
        "d",
        "o"
      ],
      [
        "m",
        "i"
      ],
      [
        "k",
        "a"
      ],
      [
        "w",
        "i"
      ],
      [
        "t",
        "a"
      ],
      [
        "b",
        "y"
      ],
      [
        "k",
        "i"
      ],
      [
        "rz",
        "y"
      ],
      [
        "n",
        "y"
      ],
      [
        "ł",
        "a"
      ],
      [
        "t",
        "e"
      ],
      [
        "ż",
        "e"
      ],
      [
        "w",
        "a"
      ],
      [
        "j",
        "a"
      ],
      [
        "p",
        "a"
      ],
      [
        "w",
        "y"
      ],
      [
        "n",
        "e"
      ],
      [
        "ł",
        "o"
      ],
      [
        "t",
        "o"
      ],
      [
        "t",
        "y"
      ],
      [
        "w",
        "ie"
      ],
      [
        "ó",
        "w"
      ],
      [
        "w",
        "o"
      ],
      [
        "dz",
        "i"
      ],
      [
        "d",
        "a"
      ],
      [
        "n",
        "o"
      ],
      [
        "cz",
        "y"
      ],
      [
        "dz",
        "ie"
      ],
      [
        "r",
        "y"
      ],
      [
        "l",
        "a"
      ],
      [
        "p",
        "rze"
      ],
      [
        "m",
        "a"
      ],
      [
        "r",
        "e"
      ],
      [
        "k",
        "ie"
      ],
      [
        "o",
        "d"
      ],
      [
        "c",
        "ie"
      ],
      [
        "d",
        "y"
      ],
      [
        "j",
        "ą"
      ],
      [
        "m",
        "o"
      ],
      [
        "c",
        "e"
      ],
      [
        "k",
        "u"
      ],
      [
        "sz",
        "y"
      ],
      [
        "st",
        "a"
      ],
      [
        "cz",
        "e"
      ],
      [
        "m",
        "ie"
      ],
      [
        "e",
        "m"
      ],
      [
        "k",
        "t"
      ],
      [
        "s",
        "i"
      ],
      [
        "ś",
        "ci"
      ],
      [
        "p",
        "rzy"
      ],
      [
        "ow",
        "a"
      ],
      [
        "o",
        "b"
      ],
      [
        "c",
        "y"
      ],
      [
        "ni",
        "a"
      ],
      [
        "m",
        "u"
      ],
      [
        "m",
        "y"
      ],
      [
        "r",
        "u"
      ],
      [
        "kt",
        "ó"
      ],
      [
        "n",
        "ą"
      ],
      [
        "ł",
        "y"
      ],
      [
        "sz",
        "e"
      ],
      [
        "b",
        "a"
      ],
      [
        "b",
        "o"
      ],
      [
        "ał",
        "a"
      ],
      [
        "s",
        "a"
      ],
      [
        "p",
        "ie"
      ],
      [
        "t",
        "u"
      ],
      [
        "w",
        "e"
      ],
      [
        "cz",
        "a"
      ],
      [
        "c",
        "o"
      ],
      [
        "p",
        "ra"
      ],
      [
        "l",
        "u"
      ],
      [
        "b",
        "i"
      ],
      [
        "ż",
        "y"
      ],
      [
        "g",
        "a"
      ],
      [
        "p",
        "i"
      ],
      [
        "ra",
        "z"
      ],
      [
        "ro",
        "z"
      ],
      [
        "ł",
        "u"
      ],
      [
        "d",
        "e"
      ],
      [
        "ja",
        "k"
      ],
      [
        "r",
        "ó"
      ],
      [
        "s",
        "ki"
      ],
      [
        "ś",
        "ć"
      ],
      [
        "z",
        "e"
      ],
      [
        "c",
        "a"
      ],
      [
        "j",
        "u"
      ],
      [
        "wi",
        "a"
      ],
      [
        "s",
        "po"
      ],
      [
        "je",
        "st"
      ],
      [
        "ch",
        "o"
      ],
      [
        "w",
        "szy"
      ],
      [
        "ny",
        "ch"
      ],
      [
        "b",
        "ie"
      ],
      [
        "ta",
        "k"
      ],
      [
        "a",
        "le"
      ],
      [
        "z",
        "na"
      ],
      [
        "sz",
        "a"
      ],
      [
        "po",
        "d"
      ],
      [
        "p",
        "e"
      ],
      [
        "g",
        "i"
      ],
      [
        "ał",
        "y"
      ],
      [
        "r",
        "ę"
      ],
      [
        "ow",
        "ie"
      ],
      [
        "d",
        "u"
      ],
      [
        "ow",
        "i"
      ],
      [
        "s",
        "kie"
      ],
      [
        "pa",
        "n"
      ],
      [
        "w",
        "ię"
      ],
      [
        "s",
        "k"
      ],
      [
        "s",
        "ie"
      ],
      [
        "P",
        "o"
      ],
      [
        "m",
        "ó"
      ],
      [
        "g",
        "ł"
      ],
      [
        "N",
        "ie"
      ],
      [
        "nie",
        "j"
      ],
      [
        "ow",
        "y"
      ],
      [
        "st",
        "o"
      ],
      [
        "z",
        "y"
      ],
      [
        "i",
        "n"
      ],
      [
        "ał",
        "o"
      ],
      [
        "p",
        "ro"
      ],
      [
        "m",
        "e"
      ],
      [
        "ch",
        "a"
      ],
      [
        "n",
        "ę"
      ],
      [
        "b",
        "e"
      ],
      [
        "s",
        "y"
      ],
      [
        "p",
        "u"
      ],
      [
        "ny",
        "m"
      ],
      [
        "l",
        "o"
      ],
      [
        "któ",
        "ry"
      ],
      [
        "j",
        "ę"
      ],
      [
        "ow",
        "e"
      ],
      [
        "s",
        "u"
      ],
      [
        "a",
        "r"
      ],
      [
        "N",
        "a"
      ],
      [
        "ne",
        "j"
      ],
      [
        "s",
        "ka"
      ],
      [
        "sz",
        "cze"
      ],
      [
        "ju",
        "ż"
      ],
      [
        "s",
        "e"
      ],
      [
        "g",
        "dy"
      ],
      [
        "je",
        "d"
      ],
      [
        "cz",
        "ę"
      ],
      [
        "ne",
        "go"
      ],
      [
        "a",
        "n"
      ],
      [
        "b",
        "ę"
      ],
      [
        "Z",
        "a"
      ],
      [
        "po",
        "wie"
      ],
      [
        "k",
        "ł"
      ],
      [
        "ją",
        "c"
      ],
      [
        "ty",
        "m"
      ],
      [
        "o",
        "n"
      ],
      [
        "o",
        "r"
      ],
      [
        "m",
        "nie"
      ],
      [
        "s",
        "ob"
      ],
      [
        "i",
        "ch"
      ],
      [
        "l",
        "ko"
      ],
      [
        "b",
        "u"
      ],
      [
        "j",
        "i"
      ],
      [
        "f",
        "i"
      ],
      [
        "g",
        "ło"
      ],
      [
        "p",
        "y"
      ],
      [
        "ni",
        "u"
      ],
      [
        "je",
        "j"
      ],
      [
        "J",
        "a"
      ],
      [
        "ż",
        "a"
      ],
      [
        "je",
        "go"
      ],
      [
        "te",
        "go"
      ],
      [
        "któ",
        "re"
      ],
      [
        "d",
        "la"
      ],
      [
        "k",
        "ów"
      ],
      [
        "w",
        "ał"
      ],
      [
        "cz",
        "ą"
      ],
      [
        "si",
        "ą"
      ],
      [
        "na",
        "j"
      ],
      [
        "dzi",
        "ał"
      ],
      [
        "mó",
        "wi"
      ],
      [
        "prze",
        "d"
      ],
      [
        "my",
        "ś"
      ],
      [
        ".",
        "."
      ],
      [
        "ną",
        "ł"
      ],
      [
        "ą",
        "d"
      ],
      [
        "rze",
        "kł"
      ],
      [
        "by",
        "ł"
      ],
      [
        "ty",
        "lko"
      ],
      [
        "prze",
        "z"
      ],
      [
        "wszy",
        "st"
      ],
      [
        "p",
        "ó"
      ],
      [
        "J",
        "e"
      ],
      [
        "ś",
        "cie"
      ],
      [
        "ni",
        "c"
      ],
      [
        "do",
        "b"
      ],
      [
        "rz",
        "a"
      ],
      [
        "r",
        "ą"
      ],
      [
        "m",
        "ię"
      ],
      [
        "t",
        "rzy"
      ],
      [
        "te",
        "m"
      ],
      [
        "by",
        "ło"
      ],
      [
        "st",
        "y"
      ],
      [
        "o",
        "g"
      ],
      [
        "pra",
        "w"
      ],
      [
        "w",
        "z"
      ],
      [
        "cza",
        "s"
      ],
      [
        "w",
        "ła"
      ],
      [
        "cz",
        "o"
      ],
      [
        "d",
        "ł"
      ],
      [
        "mi",
        "a"
      ],
      [
        "r",
        "ów"
      ],
      [
        "c",
        "ji"
      ],
      [
        "k",
        "ę"
      ],
      [
        "s",
        "łu"
      ],
      [
        "je",
        "szcze"
      ],
      [
        "s",
        "ł"
      ],
      [
        "t",
        "rze"
      ],
      [
        "c",
        "u"
      ],
      [
        "a",
        "l"
      ],
      [
        "ci",
        "a"
      ],
      [
        "C",
        "h"
      ],
      [
        "z",
        "o"
      ],
      [
        "te",
        "j"
      ],
      [
        "n",
        "u"
      ],
      [
        "ta",
        "m"
      ],
      [
        "s",
        "ko"
      ],
      [
        "l",
        "ę"
      ],
      [
        "n",
        "t"
      ],
      [
        "s",
        "ła"
      ],
      [
        "be",
        "z"
      ],
      [
        "b",
        "ra"
      ],
      [
        "mo",
        "że"
      ],
      [
        "ż",
        "o"
      ],
      [
        "kie",
        "m"
      ],
      [
        "o",
        "k"
      ],
      [
        "z",
        "u"
      ],
      [
        "W",
        "o"
      ],
      [
        "z",
        "ie"
      ],
      [
        "na",
        "d"
      ],
      [
        "t",
        "ę"
      ],
      [
        "ci",
        "ą"
      ],
      [
        "s",
        "ą"
      ],
      [
        "dz",
        "e"
      ],
      [
        "T",
        "a"
      ],
      [
        "ą",
        "c"
      ],
      [
        "no",
        "ści"
      ],
      [
        "k",
        "ą"
      ],
      [
        "b",
        "li"
      ],
      [
        "i",
        "m"
      ],
      [
        "k",
        "ła"
      ],
      [
        "bę",
        "dzie"
      ],
      [
        "pie",
        "r"
      ],
      [
        "A",
        "le"
      ],
      [
        "dz",
        "o"
      ],
      [
        "T",
        "o"
      ],
      [
        "ba",
        "r"
      ],
      [
        "te",
        "n"
      ],
      [
        "ty",
        "ch"
      ],
      [
        "w",
        "ó"
      ],
      [
        "c",
        "ię"
      ],
      [
        "ni",
        "m"
      ],
      [
        "ch",
        "wi"
      ],
      [
        "st",
        "ra"
      ],
      [
        "t",
        "ra"
      ],
      [
        "sob",
        "ie"
      ],
      [
        "d",
        "ę"
      ],
      [
        "ni",
        "o"
      ],
      [
        "nie",
        "m"
      ],
      [
        "ki",
        "ch"
      ],
      [
        "t",
        "wa"
      ],
      [
        "ś",
        "li"
      ],
      [
        "skie",
        "go"
      ],
      [
        "r",
        "owa"
      ],
      [
        "p",
        "ła"
      ],
      [
        "dz",
        "y"
      ],
      [
        "z",
        "d"
      ],
      [
        "w",
        "sze"
      ],
      [
        "si",
        "a"
      ],
      [
        "cz",
        "u"
      ],
      [
        "g",
        "ie"
      ],
      [
        "st",
        "e"
      ],
      [
        "c",
        "ał"
      ],
      [
        "st",
        "ę"
      ],
      [
        "ki",
        "m"
      ],
      [
        "ow",
        "ał"
      ],
      [
        "g",
        "u"
      ],
      [
        "ch",
        "y"
      ],
      [
        "M",
        "a"
      ],
      [
        "wie",
        "l"
      ],
      [
        "B",
        "o"
      ],
      [
        "mi",
        "ał"
      ],
      [
        "te",
        "ż"
      ],
      [
        "!",
        "…"
      ],
      [
        "z",
        "i"
      ],
      [
        "o",
        "na"
      ],
      [
        "ś",
        "mie"
      ],
      [
        "r",
        "i"
      ],
      [
        "wa",
        "ć"
      ],
      [
        "s",
        "wo"
      ],
      [
        "rz",
        "u"
      ],
      [
        "st",
        "ro"
      ],
      [
        "ś",
        "wia"
      ],
      [
        "we",
        "t"
      ],
      [
        "s",
        "o"
      ],
      [
        "ja",
        "ko"
      ],
      [
        "c",
        "ja"
      ],
      [
        "jed",
        "na"
      ],
      [
        "ni",
        "ą"
      ],
      [
        "t",
        "wo"
      ],
      [
        "ł",
        "e"
      ],
      [
        "ją",
        "cy"
      ],
      [
        "t",
        "ał"
      ],
      [
        "k",
        "ró"
      ],
      [
        "P",
        "a"
      ],
      [
        "W",
        "i"
      ],
      [
        "wi",
        "ą"
      ],
      [
        "ś",
        "nie"
      ],
      [
        "g",
        "ra"
      ],
      [
        "w",
        "ró"
      ],
      [
        "wo",
        "j"
      ],
      [
        "cho",
        "dzi"
      ],
      [
        "pa",
        "r"
      ],
      [
        "wię",
        "c"
      ],
      [
        "d",
        "ni"
      ],
      [
        "ow",
        "o"
      ],
      [
        "d",
        "ro"
      ],
      [
        "d",
        "ą"
      ],
      [
        "t",
        "ro"
      ],
      [
        "k",
        "to"
      ],
      [
        "ci",
        "ł"
      ],
      [
        "za",
        "ś"
      ],
      [
        "owa",
        "ć"
      ],
      [
        "d",
        "ru"
      ],
      [
        "pe",
        "ł"
      ],
      [
        "k",
        "ra"
      ],
      [
        "f",
        "a"
      ],
      [
        "g",
        "ó"
      ],
      [
        "na",
        "wet"
      ],
      [
        "ni",
        "k"
      ],
      [
        "by",
        "ć"
      ],
      [
        "rz",
        "ą"
      ],
      [
        "no",
        "ść"
      ],
      [
        "mo",
        "g"
      ],
      [
        "ni",
        "ę"
      ],
      [
        "myś",
        "l"
      ],
      [
        "ż",
        "ę"
      ],
      [
        "pe",
        "w"
      ],
      [
        "p",
        "ię"
      ],
      [
        "kie",
        "go"
      ],
      [
        "ko",
        "n"
      ],
      [
        "st",
        "u"
      ],
      [
        "d",
        "łu"
      ],
      [
        "da",
        "ć"
      ],
      [
        "l",
        "ski"
      ],
      [
        "ń",
        "st"
      ],
      [
        "g",
        "ro"
      ],
      [
        "S",
        "ta"
      ],
      [
        "k",
        "sią"
      ],
      [
        "cz",
        "nie"
      ],
      [
        "de",
        "n"
      ],
      [
        "L",
        "e"
      ],
      [
        "s",
        "ły"
      ],
      [
        "K",
        "a"
      ],
      [
        "?",
        "…"
      ],
      [
        "owy",
        "ch"
      ],
      [
        "w",
        "ą"
      ],
      [
        "o",
        "czy"
      ],
      [
        "ś",
        "my"
      ],
      [
        "pa",
        "d"
      ],
      [
        "sa",
        "m"
      ],
      [
        "jedna",
        "k"
      ],
      [
        "dz",
        "a"
      ],
      [
        "k",
        "rzy"
      ],
      [
        "m",
        "ę"
      ],
      [
        "da",
        "w"
      ],
      [
        "re",
        "sz"
      ],
      [
        "s",
        "ku"
      ],
      [
        "t",
        "ą"
      ],
      [
        "owe",
        "j"
      ],
      [
        "K",
        "o"
      ],
      [
        "ce",
        "j"
      ],
      [
        "D",
        "o"
      ],
      [
        "ro",
        "bi"
      ],
      [
        "ł",
        "em"
      ],
      [
        "e",
        "j"
      ],
      [
        "by",
        "m"
      ],
      [
        "R",
        "a"
      ],
      [
        "l",
        "ą"
      ],
      [
        "P",
        "rze"
      ],
      [
        "g",
        "dzie"
      ],
      [
        "sz",
        "ą"
      ],
      [
        "ki",
        "l"
      ],
      [
        "lu",
        "b"
      ],
      [
        "st",
        "rze"
      ],
      [
        "by",
        "ła"
      ],
      [
        "p",
        "rowa"
      ],
      [
        "po",
        "w"
      ],
      [
        "e",
        "r"
      ],
      [
        "se",
        "r"
      ],
      [
        "skie",
        "j"
      ],
      [
        "d",
        "ał"
      ],
      [
        "T",
        "y"
      ],
      [
        "wa",
        "r"
      ],
      [
        "z",
        "ło"
      ],
      [
        "ka",
        "z"
      ],
      [
        "n",
        "ów"
      ],
      [
        "ni",
        "ch"
      ],
      [
        "le",
        "j"
      ],
      [
        "d",
        "ź"
      ],
      [
        "te",
        "raz"
      ],
      [
        "mo",
        "ż"
      ],
      [
        "st",
        "ał"
      ],
      [
        "ow",
        "ski"
      ],
      [
        "sz",
        "czę"
      ],
      [
        "h",
        "a"
      ],
      [
        "ma",
        "r"
      ],
      [
        "C",
        "o"
      ],
      [
        "rz",
        "ę"
      ],
      [
        "ch",
        "ci"
      ],
      [
        "c",
        "ów"
      ],
      [
        "R",
        "o"
      ],
      [
        "W",
        "y"
      ],
      [
        "ł",
        "owie"
      ],
      [
        "ow",
        "ą"
      ],
      [
        "sz",
        "ę"
      ],
      [
        "ch",
        "u"
      ],
      [
        "nie",
        "go"
      ],
      [
        "po",
        "czą"
      ],
      [
        "g",
        "ę"
      ],
      [
        "M",
        "o"
      ],
      [
        "T",
        "e"
      ],
      [
        "ko",
        "ń"
      ],
      [
        "ś",
        "wie"
      ],
      [
        "sz",
        "ka"
      ],
      [
        "S",
        "z"
      ],
      [
        "M",
        "i"
      ],
      [
        "czy",
        "m"
      ],
      [
        "sze",
        "dł"
      ],
      [
        "sz",
        "u"
      ],
      [
        "ka",
        "ż"
      ],
      [
        "mie",
        "j"
      ],
      [
        "od",
        "powie"
      ],
      [
        "t",
        "owa"
      ],
      [
        "t",
        "ru"
      ],
      [
        "pa",
        "na"
      ],
      [
        "bar",
        "dzo"
      ],
      [
        "s",
        "ło"
      ],
      [
        "cią",
        "g"
      ],
      [
        "dz",
        "ą"
      ],
      [
        "pa",
        "ni"
      ],
      [
        "wo",
        "l"
      ],
      [
        "b",
        "ro"
      ],
      [
        "że",
        "by"
      ],
      [
        "pó",
        "ł"
      ],
      [
        "na",
        "s"
      ],
      [
        "me",
        "n"
      ],
      [
        "p",
        "re"
      ],
      [
        "kie",
        "j"
      ],
      [
        "ni",
        "ka"
      ],
      [
        "J",
        "u"
      ],
      [
        "k",
        "ry"
      ],
      [
        "m",
        "ło"
      ],
      [
        "ró",
        "ż"
      ],
      [
        "ra",
        "n"
      ],
      [
        "czy",
        "ł"
      ],
      [
        "k",
        "ro"
      ],
      [
        "cze",
        "go"
      ],
      [
        "d",
        "i"
      ],
      [
        "a",
        "by"
      ],
      [
        "mię",
        "dzy"
      ],
      [
        "ł",
        "ą"
      ],
      [
        "k",
        "się"
      ],
      [
        "ał",
        "em"
      ],
      [
        "chwi",
        "li"
      ],
      [
        "C",
        "zy"
      ],
      [
        "s",
        "cy"
      ],
      [
        "o",
        "j"
      ],
      [
        "al",
        "bo"
      ],
      [
        "ne",
        "m"
      ],
      [
        "t",
        "ów"
      ],
      [
        "stę",
        "p"
      ],
      [
        "P",
        "an"
      ],
      [
        "sz",
        "ko"
      ],
      [
        "ó",
        "ł"
      ],
      [
        "p",
        "ły"
      ],
      [
        "wię",
        "k"
      ],
      [
        "t",
        "nie"
      ],
      [
        "dzi",
        "ała"
      ],
      [
        "miej",
        "s"
      ],
      [
        "po",
        "wia"
      ],
      [
        "któ",
        "rzy"
      ],
      [
        "ksią",
        "żę"
      ],
      [
        "ń",
        "ski"
      ],
      [
        "z",
        "wy"
      ],
      [
        "c",
        "ą"
      ],
      [
        "W",
        "ie"
      ],
      [
        "lu",
        "dzi"
      ],
      [
        "wa",
        "ż"
      ],
      [
        "sta",
        "n"
      ],
      [
        "dzi",
        "ł"
      ],
      [
        "B",
        "y"
      ],
      [
        "a",
        "ni"
      ],
      [
        "kie",
        "dy"
      ],
      [
        "cz",
        "łowie"
      ],
      [
        "który",
        "ch"
      ],
      [
        "zo",
        "sta"
      ],
      [
        "t",
        "r"
      ],
      [
        "roz",
        "u"
      ],
      [
        "cho",
        "ć"
      ],
      [
        "t",
        "ka"
      ],
      [
        "re",
        "m"
      ],
      [
        "mu",
        "si"
      ],
      [
        "mówi",
        "ł"
      ],
      [
        "wie",
        "r"
      ],
      [
        "s",
        "pra"
      ],
      [
        "ści",
        "a"
      ],
      [
        "wszyst",
        "ko"
      ],
      [
        "w",
        "s"
      ],
      [
        "f",
        "or"
      ],
      [
        "P",
        "rzy"
      ],
      [
        "gło",
        "s"
      ],
      [
        "m",
        "niej"
      ],
      [
        "S",
        "a"
      ],
      [
        "..",
        "."
      ],
      [
        "f",
        "e"
      ],
      [
        "st",
        "ą"
      ],
      [
        "owe",
        "go"
      ],
      [
        "ó",
        "g"
      ],
      [
        "ny",
        "mi"
      ],
      [
        "ją",
        "ce"
      ],
      [
        "jak",
        "by"
      ],
      [
        "ch",
        "ło"
      ],
      [
        "t",
        "rz"
      ],
      [
        "ob",
        "a"
      ],
      [
        "ó",
        "d"
      ],
      [
        "pa",
        "nie"
      ],
      [
        "mó",
        "gł"
      ],
      [
        "le",
        "cz"
      ],
      [
        "u",
        "sta"
      ],
      [
        "k",
        "re"
      ],
      [
        "Ta",
        "k"
      ],
      [
        "z",
        "da"
      ],
      [
        "ż",
        "ą"
      ],
      [
        "te",
        "r"
      ],
      [
        "Wo",
        "ku"
      ],
      [
        "prze",
        "ci"
      ],
      [
        "ch",
        "ę"
      ],
      [
        "ro",
        "d"
      ],
      [
        "T",
        "u"
      ],
      [
        "ga",
        "r"
      ],
      [
        "szy",
        "ch"
      ],
      [
        "B",
        "a"
      ],
      [
        "L",
        "i"
      ],
      [
        "ó",
        "ż"
      ],
      [
        "e",
        "t"
      ],
      [
        "wi",
        "ł"
      ],
      [
        "d",
        "nie"
      ],
      [
        "m",
        "ał"
      ],
      [
        "w",
        "ę"
      ],
      [
        "dzi",
        "a"
      ],
      [
        "a",
        "ż"
      ],
      [
        "nie",
        "c"
      ],
      [
        "ni",
        "ł"
      ],
      [
        "ry",
        "ce"
      ],
      [
        "Le",
        "cz"
      ],
      [
        "na",
        "m"
      ],
      [
        "Ja",
        "k"
      ],
      [
        "d",
        "wa"
      ],
      [
        "ko",
        "m"
      ],
      [
        "n",
        "ow"
      ],
      [
        "czas",
        "em"
      ],
      [
        "py",
        "tał"
      ],
      [
        "ch",
        "od"
      ],
      [
        "po",
        "li"
      ],
      [
        "t",
        "k"
      ],
      [
        "po",
        "dob"
      ],
      [
        "ró",
        "d"
      ],
      [
        "ści",
        "ą"
      ],
      [
        "wa",
        "li"
      ],
      [
        "ną",
        "ć"
      ],
      [
        "ow",
        "ę"
      ],
      [
        "ni",
        "ć"
      ],
      [
        "Za",
        "gło"
      ],
      [
        "we",
        "j"
      ],
      [
        "ka",
        "r"
      ],
      [
        "ó",
        "j"
      ],
      [
        "ni",
        "ż"
      ],
      [
        "za",
        "raz"
      ],
      [
        "któ",
        "ra"
      ],
      [
        "wię",
        "cej"
      ],
      [
        "o",
        "sta"
      ],
      [
        "mia",
        "st"
      ],
      [
        "g",
        "e"
      ],
      [
        "ch",
        "ał"
      ],
      [
        "w",
        "u"
      ],
      [
        "ci",
        "u"
      ],
      [
        "wi",
        "o"
      ],
      [
        "st",
        "wo"
      ],
      [
        "po",
        "czę"
      ],
      [
        "cz",
        "ne"
      ],
      [
        "g",
        "nie"
      ],
      [
        "za",
        "wo"
      ],
      [
        "przy",
        "ja"
      ],
      [
        "u",
        "czy"
      ],
      [
        "śmie",
        "r"
      ],
      [
        "dzie",
        "ć"
      ],
      [
        "u",
        "ro"
      ],
      [
        "ka",
        "ch"
      ],
      [
        "ży",
        "ł"
      ],
      [
        "p",
        "ę"
      ],
      [
        "dzie",
        "j"
      ],
      [
        "z",
        "mie"
      ],
      [
        "d",
        "rze"
      ],
      [
        "u",
        "m"
      ],
      [
        "że",
        "li"
      ],
      [
        "c",
        "ę"
      ],
      [
        "sie",
        "bie"
      ],
      [
        "zna",
        "j"
      ],
      [
        "sze",
        "j"
      ],
      [
        "ch",
        "ce"
      ],
      [
        "ł",
        "nie"
      ],
      [
        "la",
        "t"
      ],
      [
        "te",
        "k"
      ],
      [
        "ro",
        "ku"
      ],
      [
        "c",
        "ję"
      ],
      [
        "G",
        "dy"
      ],
      [
        "b",
        "r"
      ],
      [
        "sz",
        "cza"
      ],
      [
        "sa",
        "mo"
      ],
      [
        "ni",
        "cy"
      ],
      [
        "tak",
        "że"
      ],
      [
        "nę",
        "ła"
      ],
      [
        "kil",
        "ka"
      ],
      [
        "po",
        "ko"
      ],
      [
        "moż",
        "na"
      ],
      [
        "d",
        "nia"
      ],
      [
        "dzi",
        "ć"
      ],
      [
        "co",
        "ś"
      ],
      [
        "przeci",
        "w"
      ],
      [
        "mo",
        "c"
      ],
      [
        "sz",
        "la"
      ],
      [
        "si",
        "ł"
      ],
      [
        "sz",
        "o"
      ],
      [
        "by",
        "ły"
      ],
      [
        "cie",
        "m"
      ],
      [
        "li",
        "śmy"
      ],
      [
        "owy",
        "m"
      ],
      [
        "ta",
        "r"
      ],
      [
        "N",
        "i"
      ],
      [
        "ó",
        "r"
      ],
      [
        "czy",
        "ć"
      ],
      [
        "ja",
        "ki"
      ],
      [
        "który",
        "m"
      ],
      [
        "począ",
        "ł"
      ],
      [
        "owie",
        "m"
      ],
      [
        "h",
        "u"
      ],
      [
        "e",
        "ś"
      ],
      [
        "po",
        "tem"
      ],
      [
        "g",
        "ru"
      ],
      [
        "rz",
        "ał"
      ],
      [
        "ni",
        "ków"
      ],
      [
        "ka",
        "mi"
      ],
      [
        "ne",
        "k"
      ],
      [
        "wła",
        "s"
      ],
      [
        "m",
        "ów"
      ],
      [
        "O",
        "d"
      ],
      [
        "ra",
        "j"
      ],
      [
        "na",
        "mi"
      ],
      [
        "mi",
        "l"
      ],
      [
        "g",
        "ą"
      ],
      [
        "c",
        "ały"
      ],
      [
        "je",
        "m"
      ],
      [
        "na",
        "le"
      ],
      [
        "które",
        "j"
      ],
      [
        "trzy",
        "ma"
      ],
      [
        "ó",
        "b"
      ],
      [
        "po",
        "z"
      ],
      [
        "w",
        "ra"
      ],
      [
        "g",
        "le"
      ],
      [
        "py",
        "ta"
      ],
      [
        "cha",
        "ć"
      ],
      [
        "K",
        "mi"
      ],
      [
        "k",
        "rze"
      ],
      [
        "mi",
        "ło"
      ],
      [
        "ło",
        "dy"
      ],
      [
        "resz",
        "cie"
      ],
      [
        "A",
        "n"
      ],
      [
        "Kmi",
        "ci"
      ],
      [
        "d",
        "wie"
      ],
      [
        "o",
        "ko"
      ],
      [
        "je",
        "den"
      ],
      [
        "da",
        "r"
      ],
      [
        "żo",
        "łnie"
      ],
      [
        "w",
        "ała"
      ],
      [
        "go",
        "dzi"
      ],
      [
        "cze",
        "j"
      ],
      [
        "s",
        "ób"
      ],
      [
        "sta",
        "r"
      ],
      [
        "sk",
        "ą"
      ],
      [
        "te",
        "dy"
      ],
      [
        "R",
        "ze"
      ],
      [
        "do",
        "mu"
      ],
      [
        "Woku",
        "lski"
      ],
      [
        "c",
        "ki"
      ],
      [
        "Zagło",
        "ba"
      ],
      [
        "b",
        "owiem"
      ],
      [
        "dzie",
        "ń"
      ],
      [
        "u",
        "wa"
      ],
      [
        "trze",
        "ba"
      ],
      [
        "wo",
        "je"
      ],
      [
        "w",
        "em"
      ],
      [
        "ci",
        "ć"
      ],
      [
        "szy",
        "m"
      ],
      [
        "myś",
        "li"
      ],
      [
        "P",
        "e"
      ],
      [
        "jed",
        "no"
      ],
      [
        "spo",
        "ko"
      ],
      [
        "ś",
        "wię"
      ],
      [
        "je",
        "śli"
      ],
      [
        "t",
        "ki"
      ],
      [
        "k",
        "nął"
      ],
      [
        "mie",
        "szka"
      ],
      [
        "ski",
        "ch"
      ],
      [
        "o",
        "fi"
      ],
      [
        "st",
        "wa"
      ],
      [
        "0",
        "0"
      ],
      [
        "1",
        "9"
      ],
      [
        "B",
        "óg"
      ],
      [
        "sz",
        "ło"
      ],
      [
        "l",
        "nie"
      ],
      [
        "ja",
        "kie"
      ],
      [
        "n",
        "ku"
      ],
      [
        "jący",
        "ch"
      ],
      [
        "cz",
        "nych"
      ],
      [
        "d",
        "ow"
      ],
      [
        "z",
        "do"
      ],
      [
        "wszyst",
        "kich"
      ],
      [
        "z",
        "ł"
[...]
