{",": 0, "ł": 1, "▁w": 2, "<s>": 3, ".": 4, "ę": 5, "▁z": 6, "ą": 7, "▁—": 8, "▁i": 9, "z": 10, "ż": 11, "zy": 12, "▁się": 13, "ć": 14, "▁nie": 15, "ś": 16, "i": 17, "y": 18, "ie": 19, "c": 20, "▁m": 21, "u": 22, "▁na": 23, "w": 24, "j": 25, "▁n": 26, "ał": 27, "k": 28, "▁k": 29, "em": 30, "▁o": 31, "!": 32, "▁do": 33, "ów": 34, "ła": 35, "▁p": 36, "cz": 37, "ze": 38, "▁d": 39, "nie": 40, "▁r": 41, "…": 42, "a": 43, "ło": 44, "zi": 45, "▁że": 46, "▁t": 47, "▁to": 48, "▁g": 49, "ch": 50, "▁a": 51, "r": 52, "li": 53, "▁c": 54, "▁ch": 55, "ym": 56, "▁W": 57, "▁od": 58, "za": 59, "▁by": 60, "▁j": 61, "▁prz": 62, "ach": 63, "▁s": 64, "m": 65, "▁u": 66, "▁b": 67, "▁po": 68, "?": 69, "▁jak": 70, "iem": 71, "d": 72, "ad": 73, "o": 74, "▁za": 75, "▁": 76, "b": 77, "ki": 78, "ci": 79, "ied": 80, "ły": 81, "ię": 82, ":": 83, "az": 84, "aw": 85, "ó": 86, "ce": 87, "cie": 88, "ow": 89, "ko": 90, "▁sz": 91, "▁cz": 92, "ka": 93, "ń": 94, "▁przy": 95, "ści": 96, "dy": 97, "ami": 98, "ść": 99, "▁pan": 100, "zą": 101, "ia": 102, "od": 103, "iel": 104, "▁pod": 105, "ży": 106, "▁wy": 107, "sz": 108, "▁mi": 109, "▁tak": 110, "▁roz": 111, "ego": 112, "▁Z": 113, "by": 114, "aj": 115, "ys": 116, "ier": 117, "ni": 118, "zek": 119, "że": 120, "▁ś": 121, "ac": 122, "iej": 123, "im": 124, "ich": 125, "na": 126, "▁co": 127, "ar": 128, "▁ob": 129, "czy": 130, "zie": 131, "ź": 132, ";": 133, "n": 134, "ok": 135, "▁sp": 136, "ien": 137, "yn": 138, "ud": 139, "iał": 140, "dzie": 141, "▁go": 142, "p": 143, "ych": 144, "▁mo": 145, "g": 146, "▁K": 147, "▁ale": 148, "▁pow": 149, "▁st": 150, "wo": 151, "ry": 152, "▁ż": 153, "▁gł": 154, "▁A": 155, "t": 156, "l": 157, "le": 158, "▁tr": 159, "ny": 160, "je": 161, "▁kr": 162, "yst": 163, "ali": 164, "▁ci": 165, "wa": 166, "si": 167, "▁jed": 168, "iew": 169, "bie": 170, "ne": 171, "s": 172, "▁l": 173, "▁mu": 174, "os": 175, "ec": 176, "▁sk": 177, "st": 178, "▁te": 179, "am": 180, "▁który": 181, "ob": 182, "▁ju": 183, "cy": 184, "oc": 185, "us": 186, "▁bo": 187, "eb": 188, "om": 189, "ak": 190, "ro": 191, "go": 192, "ic": 193, "dz": 194, "on": 195, "▁jest": 196, "esz": 197, "yl": 198, "owie": 199, "or": 200, "ta": 201, "▁Nie": 202, "ęd": 203, "ną": 204, "wi": 205, "raw": 206, "▁on": 207, "no": 208, "at": 209, "▁le": 210, "▁str": 211, "wie": 212, "ili": 213, "ies": 214, "as": 215, "▁któ": 216, "an": 217, "▁O": 218, "ku": 219, "oj": 220, "▁poc": 221, "owa": 222, "ale": 223, "ca": 224, "rz": 225, "▁jego": 226, "▁I": 227, "yp": 228, "cia": 229, "▁jej": 230, "▁je": 231, "e": 232, "▁zn": 233, "um": 234, "ała": 235, "▁tym": 236, "▁był": 237, "ią": 238, "ją": 239, "ana": 240, "ysz": 241, "to": 242, "▁wid": 243, "ot": 244, "uch": 245, "▁P": 246, "iesz": 247, "wn": 248, "ty": 249, "▁pot": 250, "▁„": 251, "▁R": 252, "▁my": 253, "▁nad": 254, "ział": 255, "ek": 256, "ra": 257, "ada": 258, "▁dz": 259, "ol": 260, "usz": 261, "▁ze": 262, "ab": 263, "ój": 264, "owi": 265, "▁sam": 266, "▁zd": 267, "ają": 268, "zec": 269, "óg": 270, "▁ok": 271, "▁M": 272, "▁T": 273, "▁D": 274, "▁przed": 275, "iego": 276, "▁nas": 277, "ował": 278, "da": 279, "▁ich": 280, "▁br": 281, "nych": 282, "▁ja": 283, "▁B": 284, "ić": 285, "▁C": 286, "ając": 287, "▁woj": 288, "et": 289, "zej": 290, "▁przez": 291, "sk": 292, "▁naj": 293, "acz": 294, "anie": 295, "ost": 296, "▁wie": 297, "is": 298, "ony": 299, "asz": 300, "▁Pr": 301, "▁pos": 302, "wy": 303, "ma": 304, "og": 305, "ęż": 306, "▁ni": 307, "zn": 308, "▁Ale": 309, "ody": 310, "▁świ": 311, "oz": 312, "ód": 313, "nej": 314, "▁kon": 315, "▁L": 316, "ało": 317, "ór": 318, "my": 319, "▁raz": 320, "el": 321, "▁dla": 322, "ast": 323, "▁Ch": 324, "▁N": 325, "▁tam": 326, "▁S": 327, "▁op": 328, "ik": 329, "▁zw": 330, "en": 331, "▁tu": 332, "▁które": 333, "▁so": 334, "▁zap": 335, "la": 336, "nym": 337, "op": 338, "▁dw": 339, "nego": 340, "up": 341, "▁tw": 342, "gn": 343, "ion": 344, "▁czas": 345, "▁was": 346, "al": 347, "▁G": 348, "ew": 349, "zw": 350, "▁J": 351, "ul": 352, "zym": 353, "ws": 354, "▁ko": 355, "▁pr": 356, "ski": 357, "zu": 358, "row": 359, "zt": 360, "▁in": 361, "js": 362, "br": 363, "ut": 364, "eg": 365, "ja": 366, "il": 367, "aki": 368, "łu": 369, "▁Na": 370, "any": 371, "▁mog": 372, "zed": 373, "zk": 374, "gi": 375, "▁pi": 376, "nia": 377, "ół": 378, "niej": 379, "in": 380, "▁ten": 381, "▁bez": 382, "▁ro": 383, "czas": 384, "▁To": 385, "kie": 386, "▁pok": 387, "nik": 388, "ard": 389, "ług": 390, "ian": 391, "bo": 392, "ary": 393, "▁dr": 394, "▁sw": 395, "▁dro": 396, "▁pe": 397, "dr": 398, "ład": 399, "un": 400, "▁ry": 401, "▁ma": 402, "▁im": 403, "icz": 404, "bi": 405, "ania": 406, "pow": 407, "mi": 408, "▁wr": 409, "res": 410, "est": 411, "▁og": 412, "kn": 413, "▁Sz": 414, "▁al": 415, "es": 416, "▁dom": 417, "de": 418, "zo": 419, "iu": 420, "te": 421, "▁jako": 422, "▁pom": 423, "▁swo": 424, "ep": 425, "isz": 426, "nak": 427, "ól": 428, "▁us": 429, "isk": 430, "▁zam": 431, "▁si": 432, "owy": 433, "chod": 434, "▁ser": 435, "ig": 436, "ck": 437, "▁por": 438, "ió": 439, "ij": 440, "▁we": 441, "▁nap": 442, "arn": 443, "uc": 444, "▁ter": 445, "och": 446, "▁ty": 447, "aws": 448, "▁mus": 449, "▁są": 450, "ag": 451, "ję": 452, "▁ot": 453, "ask": 454, "pr": 455, "▁Ż": 456, "ności": 457, "▁Pan": 458, "▁ka": 459, "▁kil": 460, "▁os": 461, "ona": 462, "łą": 463, "▁ab": 464, "ńsk": 465, "ław": 466, "▁Zag": 467, "ują": 468, "oby": 469, "imi": 470, "iet": 471, "▁zm": 472, "ano": 473, "▁an": 474, "▁prze": 475, "ba": 476, "▁Po": 477, "zen": 478, "oni": 479, "▁cho": 480, "ane": 481, "arz": 482, "ęp": 483, "ub": 484, "▁lub": 485, "iw": 486, "▁Co": 487, "ga": 488, "▁pro": 489, "▁Kr": 490, "oba": 491, "▁nic": 492, "▁wa": 493, "▁gr": 494, "uj": 495, "▁um": 496, "▁bl": 497, "pi": 498, "tr": 499, "f": 500, "▁Tak": 501, "yt": 502, "ur": 503, "ków": 504, "icy": 505, "ńst": 506, "zes": 507, "▁Bo": 508, "cer": 509, "ks": 510, "▁pop": 511, "▁pat": 512, "▁sie": 513, "we": 514, "sc": 515, "▁uk": 516, "▁kom": 517, "▁Sk": 518, "uk": 519, "mic": 520, "zem": 521, "▁post": 522, "ej": 523, "▁Wo": 524, "ina": 525, "▁maj": 526, "rom": 527, "▁up": 528, "▁St": 529, "owski": 530, "ró": 531, "nier": 532, "▁kap": 533, "ska": 534, "▁now": 535, "one": 536, "▁Jak": 537, "▁By": 538, "▁nam": 539, "ata": 540, "ienia": 541, "▁mie": 542, "cu": 543, "ru": 544, "▁odd": 545, "ap": 546, "eli": 547, "▁poz": 548, "ieg": 549, "now": 550, "skiego": 551, "wr": 552, "▁zak": 553, "ios": 554, "tó": 555, "”": 556, "own": 557, "ierz": 558, "▁nast": 559, "▁Cz": 560, "▁dop": 561, "▁zaw": 562, "▁pol": 563, "-": 564, "wię": 565, "id": 566, "ocz": 567, "oli": 568, "▁U": 569, "▁rad": 570, "aka": 571, "atr": 572, "zer": 573, "pe": 574, "▁da": 575, "zel": 576, "par": 577, "ust": 578, "ron": 579, "emu": 580, "it": 581, "▁stan": 582, "uje": 583, "ani": 584, "▁pie": 585, "kim": 586, "ii": 587, "re": 588, "ców": 589, "▁drug": 590, "lic": 591, "ory": 592, "eno": 593, "zenia": 594, "ite": 595, "▁god": 596, "reg": 597, "aci": 598, "▁spraw": 599, "▁E": 600, "ed": 601, "wed": 602, "▁bog": 603, "▁Je": 604, "▁wo": 605, "edy": 606, "▁wyd": 607, "▁Bog": 608, "pie": 609, "zenie": 610, "▁star": 611, "▁mil": 612, "▁pierws": 613, "yr": 614, "str": 615, "yle": 616, "▁cor": 617, "yd": 618, "▁Ja": 619, "▁kl": 620, "chn": 621, "ara": 622, "▁On": 623, "raz": 624, "▁Mo": 625, "zerw": 626, "omy": 627, "rod": 628, "anna": 629, "gl": 630, "▁pu": 631, "ako": 632, "aje": 633, "▁dru": 634, "▁spy": 635, "▁/": 636, "iers": 637, "bro": 638, "zet": 639, "▁wp": 640, "▁ta": 641, "cha": 642, "▁gro": 643, "▁pob": 644, "▁Za": 645, "awa": 646, "▁Od": 647, "▁of": 648, "▁two": 649, "▁h": 650, "ówn": 651, "kow": 652, "▁dot": 653, "awi": 654, "omo": 655, "▁par": 656, "”.": 657, "man": 658, "▁bar": 659, "▁sob": 660, "pt": 661, "acy": 662, "ji": 663, "pan": 664, "mo": 665, "kr": 666, "art": 667, "▁sm": 668, "▁id": 669, "▁rus": 670, "▁nar": 671, "owe": 672, "▁pier": 673, "ycz": 674, "▁czę": 675, "▁wsp": 676, "iero": 677, "yna": 678, "▁miejsc": 679, "ocy": 680, "▁nat": 681, "▁także": 682, "amy": 683, "▁syn": 684, "osi": 685, "iny": 686, "ark": 687, "ose": 688, "▁dok": 689, "ama": 690, "▁nog": 691, "er": 692, "aty": 693, "ady": 694, "owej": 695, "leg": 696, "▁Pod": 697, "der": 698, "ile": 699, "du": 700, "▁Ma": 701, "tem": 702, "iek": 703, "agle": 704, "▁mas": 705, "▁kol": 706, "▁dawn": 707, "▁Tu": 708, "▁het": 709, "unk": 710, "▁pal": 711, "zm": 712, "▁Win": 713, "▁ut": 714, "▁H": 715, "▁zaj": 716, "ib": 717, "mu": 718, "raj": 719, "ono": 720, "▁py": 721, "oda": 722, "tar": 723, "stat": 724, "ann": 725, "▁tro": 726, "▁dos": 727, "ity": 728, "oga": 729, "co": 730, "▁sch": 731, "ób": 732, "abel": 733, "▁Sp": 734, "ury": 735, "▁dow": 736, "iz": 737, "▁got": 738, "▁same": 739, "pol": 740, "!”": 741, "ado": 742, "wor": 743, "chem": 744, "▁Ju": 745, "onie": 746, "▁lat": 747, "kt": 748, "▁Do": 749, "apy": 750, "▁Ł": 751, "acht": 752, "▁ar": 753, "▁swe": 754, "pos": 755, "ius": 756, "▁bow": 757, "▁pró": 758, "ida": 759, "▁-": 760, "era": 761, "▁naz": 762, "aniu": 763, "ikt": 764, "ist": 765, "▁ram": 766, "nic": 767, "staw": 768, "▁uw": 769, "nal": 770, "late": 771, "oko": 772, "gu": 773, "▁Mich": 774, "iera": 775, "onym": 776, "▁spot": 777, "▁Ś": 778, "pu": 779, "ank": 780, "zech": 781, "ars": 782, "io": 783, "zd": 784, "ót": 785, "▁ur": 786, "▁list": 787, "▁Iz": 788, "▁pa": 789, "▁kam": 790, "ński": 791, "▁Jed": 792, "jed": 793, "ównie": 794, "▁far": 795, "owo": 796, "oi": 797, "yg": 798, "skich": 799, "▁dod": 800, "h": 801, "▁f": 802, "▁su": 803, "als": 804, "warz": 805, "iona": 806, "ogo": 807, "ione": 808, "bow": 809, "▁zu": 810, "▁ist": 811, "war": 812, "ip": 813, "ota": 814, "▁spr": 815, "▁pon": 816, "ior": 817, "ica": 818, "ros": 819, "▁sto": 820, "▁Ram": 821, "azy": 822, "ieck": 823, "ors": 824, "ole": 825, "ade": 826, "sta": 827, "skim": 828, "▁có": 829, "gr": 830, "bra": 831, "▁Pow": 832, "skiej": 833, "▁Ty": 834, "osz": 835, "iami": 836, "este": 837, "rok": 838, "yk": 839, "Z": 840, "owych": 841, "▁no": 842, "▁Wy": 843, "iska": 844, "▁Jan": 845, "ześ": 846, "▁bit": 847, "au": 848, "ju": 849, "▁wyst": 850, "▁Jur": 851, "zone": 852, "osta": 853, "▁(": 854, "nick": 855, "▁pole": 856, "arg": 857, "ysk": 858, "pad": 859, "pl": 860, "aby": 861, "▁został": 862, "▁wyn": 863, "and": 864, "rem": 865, "ini": 866, "god": 867, "▁rodz": 868, "▁or": 869, "▁Sta": 870, "oro": 871, "▁An": 872, "iat": 873, "rop": 874, "con": 875, "▁mod": 876, "ika": 877, "ps": 878, "▁Dan": 879, "imo": 880, "ack": 881, "agn": 882, "▁iz": 883, "▁mat": 884, "▁kor": 885, "rot": 886, "lem": 887, "asta": 888, "▁Bas": 889, "▁bi": 890, "zin": 891, "atar": 892, "▁My": 893, "▁prow": 894, "▁Rad": 895, "▁tem": 896, "are": 897, "▁Dob": 898, "ache": 899, "▁pas": 900, "▁lic": 901, "sto": 902, "oma": 903, "▁rac": 904, "▁sal": 905, "▁las": 906, "icer": 907, "▁Boh": 908, "▁Pot": 909, "▁me": 910, "A": 911, "▁No": 912, "▁du": 913, "▁Tr": 914, "▁ce": 915, "rew": 916, "orem": 917, "▁ost": 918, "asy": 919, "noc": 920, "adow": 921, "▁och": 922, "ces": 923, "▁Pet": 924, "anny": 925, "▁ol": 926, "oki": 927, "net": 928, "▁Ter": 929, "▁inn": 930, "▁nag": 931, "roz": 932, "ora": 933, "ice": 934, "▁kn": 935, "rus": 936, "ita": 937, "usk": 938, "▁bud": 939, "gle": 940, "ir": 941, "dem": 942, "iar": 943, "ostał": 944, "nam": 945, "ape": 946, "▁chr": 947, "▁win": 948, "▁Nel": 949, "owym": 950, "pro": 951, "▁szer": 952, "ter": 953, "ial": 954, "▁pil": 955, "rog": 956, "do": 957, "osp": 958, "ila": 959, "emy": 960, "jan": 961, "uw": 962, "▁pra": 963, "▁Ob": 964, "▁gran": 965, "▁Jag": 966, "ala": 967, "▁kar": 968, "asi": 969, "not": 970, "tk": 971, "ech": 972, "▁pad": 973, "ock": 974, "▁\"": 975, "▁stare": 976, "ant": 977, "▁rat": 978, "óz": 979, "▁prost": 980, "nika": 981, "sa": 982, "ah": 983, "▁de": 984, "▁bos": 985, "aca": 986, "ern": 987, "pod": 988, "▁nos": 989, "iaz": 990, "oci": 991, "▁un": 992, "▁bro": 993, "▁sil": 994, "gin": 995, "enc": 996, "bez": 997, "iele": 998, "iano": 999, "▁Andr": 1000, "▁Sam": 1001, "▁kw": 1002, "▁rub": 1003, "▁sn": 1004, "▁wal": 1005, "kle": 1006, "▁prac": 1007, "▁min": 1008, "db": 1009, "opy": 1010, "unt": 1011, "▁pt": 1012, "▁bur": 1013, "omi": 1014, "ren": 1015, "eso": 1016, "▁F": 1017, "▁Mus": 1018, "orn": 1019, "kom": 1020, "zb": 1021, "▁Tam": 1022, "ent": 1023, "ate": 1024, "▁mor": 1025, "FE": 1026, "sch": 1027, "▁nau": 1028, "owany": 1029, "atem": 1030, "▁bra": 1031, "▁Naj": 1032, "bud": 1033, "af": 1034, "▁Her": 1035, "LES": 1036, "STO": 1037, "FI": 1038, "▁ME": 1039, "kol": 1040, "ras": 1041, "arm": 1042, "ez": 1043, "usa": 1044, "▁Id": 1045, "py": 1046, "aza": 1047, "▁res": 1048, "ef": 1049, "▁mur": 1050, "lin": 1051, "▁obj": 1052, "iod": 1053, "raf": 1054, "”,": 1055, "of": 1056, "ery": 1057, "▁ub": 1058, "▁bu": 1059, "▁Ach": 1060, "aku": 1061, "ias": 1062, "ers": 1063, "anc": 1064, "▁Kor": 1065, "ling": 1066, "▁re": 1067, "▁Az": 1068, "▁Tut": 1069, "got": 1070, "uz": 1071, "▁Pat": 1072, "ola": 1073, "N": 1074, "▁pre": 1075, "ode": 1076, "▁dam": 1077, ".”": 1078, "▁Was": 1079, "▁sen": 1080, "K": 1081, "▁kole": 1082, "▁war": 1083, "sko": 1084, "▁one": 1085, "▁ha": 1086, "▁Pol": 1087, "▁at": 1088, "oka": 1089, "▁robot": 1090, "▁Kaz": 1091, "oku": 1092, "moz": 1093, "nem": 1094, "▁Mi": 1095, "▁Lud": 1096, "iety": 1097, "jd": 1098, "▁dl": 1099, "▁Al": 1100, "mat": 1101, "W": 1102, "tek": 1103, "▁Now": 1104, "▁Fen": 1105, "▁Pro": 1106, "▁Ten": 1107, "cin": 1108, "tn": 1109, "asto": 1110, "istrz": 1111, "acji": 1112, "oh": 1113, "▁stra": 1114, "▁Wars": 1115, "▁Nag": 1116, "owego": 1117, "▁owe": 1118, "jem": 1119, "gor": 1120, "▁pl": 1121, "mar": 1122, "ure": 1123, "buch": 1124, "po": 1125, "▁Lit": 1126, "▁inter": 1127, "ha": 1128, "win": 1129, "▁gard": 1130, "aga": 1131, "▁Nic": 1132, "cal": 1133, "▁ud": 1134, "uf": 1135, "eni": 1136, "▁wed": 1137, "▁rum": 1138, "aden": 1139, "rad": 1140, "inn": 1141, "arc": 1142, "act": 1143, "▁rob": 1144, "▁dy": 1145, "▁In": 1146, "agi": 1147, "iki": 1148, "estr": 1149, "▁led": 1150, "ord": 1151, "che": 1152, "▁mar": 1153, "ere": 1154, "UST": 1155, "▁FA": 1156, "kar": 1157, "▁Wa": 1158, "wal": 1159, "nu": 1160, "wart": 1161, "end": 1162, "ds": 1163, "lu": 1164, "sy": 1165, "▁tob": 1166, "iot": 1167, "▁dar": 1168, "▁Ot": 1169, "ito": 1170, "▁walk": 1171, "ąz": 1172, "▁Ba": 1173, "ura": 1174, "pon": 1175, "arb": 1176, "dro": 1177, "sn": 1178, "▁pode": 1179, "▁spe": 1180, "ator": 1181, "bre": 1182, "tom": 1183, "▁Pom": 1184, "J": 1185, "▁Ka": 1186, "▁polic": 1187, "▁los": 1188, "O": 1189, "ero": 1190, "kl": 1191, "let": 1192, "zon": 1193, "▁Bab": 1194, "aju": 1195, "ote": 1196, "bu": 1197, "▁Dop": 1198, "▁Br": 1199, "abi": 1200, "▁ple": 1201, "tu": 1202, "olen": 1203, "ació": 1204, "rac": 1205, "▁He": 1206, "olic": 1207, "tery": 1208, "▁Ze": 1209, "nek": 1210, "eden": 1211, "▁top": 1212, "▁miejsce": 1213, "▁eg": 1214, "isa": 1215, "esa": 1216, "gan": 1217, "▁Kon": 1218, "ows": 1219, "▁hr": 1220, "lad": 1221, "kw": 1222, "be": 1223, "iste": 1224, "una": 1225, "hor": 1226, "ede": 1227, "▁roku": 1228, "kap": 1229, "ino": 1230, "sty": 1231, "aled": 1232, "▁prom": 1233, "▁stop": 1234, "ija": 1235, "ug": 1236, "▁li": 1237, "kon": 1238, "▁Pe": 1239, "▁Jes": 1240, "▁stars": 1241, "▁Ign": 1242, "eto": 1243, "cen": 1244, ")": 1245, "▁pap": 1246, "▁Str": 1247, "▁Just": 1248, "cers": 1249, "▁Pos": 1250, "▁kur": 1251, "ain": 1252, "akt": 1253, "lib": 1254, "▁Lub": 1255, "ln": 1256, "▁bij": 1257, "arch": 1258, "▁Poz": 1259, "▁bom": 1260, "nos": 1261, "▁mars": 1262, "aler": 1263, "▁ul": 1264, "▁cel": 1265, "uda": 1266, "▁nom": 1267, "nat": 1268, "▁Pent": 1269, "rap": 1270, "▁step": 1271, "pa": 1272, "▁des": 1273, "se": 1274, "▁se": 1275, "lit": 1276, "umn": 1277, "nio": 1278, "iert": 1279, "Ł": 1280, "▁Nad": 1281, "▁ps": 1282, "ste": 1283, "iana": 1284, "▁Stan": 1285, "asty": 1286, "▁As": 1287, "▁Ci": 1288, "old": 1289, "▁diab": 1290, "ety": 1291, "ener": 1292, "abl": 1293, "ame": 1294, "span": 1295, "ick": 1296, "sp": 1297, "rab": 1298, "Ó": 1299, "▁gra": 1300, "atu": 1301, "▁he": 1302, "▁e": 1303, "▁Si": 1304, "▁la": 1305, "istr": 1306, "▁Nik": 1307, "▁Te": 1308, "pat": 1309, "▁gar": 1310, "api": 1311, "▁Eg": 1312, "▁ba": 1313, "ran": 1314, "S": 1315, "R": 1316, "amo": 1317, "cio": 1318, "egu": 1319, "ram": 1320, "),": 1321, "ille": 1322, "uli": 1323, "▁be": 1324, "B": 1325, "▁ele": 1326, "▁Stars": 1327, "kc": 1328, "▁We": 1329, "▁Cho": 1330, "▁ton": 1331, "C": 1332, "▁don": 1333, "ts": 1334, "ereg": 1335, "zas": 1336, "▁fort": 1337, "▁*": 1338, "▁sum": 1339, "iane": 1340, "dan": 1341, "ela": 1342, "kan": 1343, "wan": 1344, "ari": 1345, "adem": 1346, "▁Hir": 1347, "▁Gre": 1348, "amp": 1349, "▁per": 1350, "rob": 1351, "▁Nap": 1352, "ament": 1353, "uer": 1354, "bur": 1355, "▁ad": 1356, "kk": 1357, "ium": 1358, "uki": 1359, "D": 1360, "iam": 1361, "rat": 1362, "ans": 1363, "nis": 1364, "▁mal": 1365, "▁uz": 1366, "T": 1367, "▁west": 1368, "?”": 1369, "▁jam": 1370, "cow": 1371, "G": 1372, "▁Tom": 1373, "▁mach": 1374, "rys": 1375, "P": 1376, "▁reg": 1377, "amb": 1378, "▁kan": 1379, "amt": 1380, "▁ord": 1381, "▁Long": 1382, "▁Jer": 1383, "ena": 1384, "▁Tw": 1385, "▁dragon": 1386, "iment": 1387, "anim": 1388, "bl": 1389, "alu": 1390, "▁Wi": 1391, "▁Kam": 1392, "lam": 1393, "▁stro": 1394, "▁dol": 1395, "I": 1396, "aja": 1397, "por": 1398, "adr": 1399, "▁Mur": 1400, "▁Hel": 1401, "uh": 1402, "ult": 1403, "enn": 1404, "▁Czech": 1405, "▁Kar": 1406, "gie": 1407, "ule": 1408, "inus": 1409, "▁try": 1410, "ore": 1411, "osa": 1412, "fa": 1413, "▁Mar": 1414, "▁her": 1415, "▁Mam": 1416, "▁for": 1417, "▁kle": 1418, "▁Mas": 1419, "▁Pier": 1420, "red": 1421, "try": 1422, "▁Wil": 1423, "kit": 1424, "▁ran": 1425, "▁am": 1426, "▁Ha": 1427, "lang": 1428, "com": 1429, "su": 1430, "ral": 1431, "ward": 1432, "fn": 1433, "▁fig": 1434, "Y": 1435, "anda": 1436, "\".": 1437, "wd": 1438, "apa": 1439, "ele": 1440, "won": 1441, "▁Tele": 1442, "▁mg": 1443, "tor": 1444, "ace": 1445, "ink": 1446, "▁Kal": 1447, "▁di": 1448, "afi": 1449, "▁wis": 1450, "ome": 1451, "ilon": 1452, "▁chat": 1453, "azu": 1454, "!\"": 1455, "ork": 1456, "anka": 1457, "ell": 1458, "iku": 1459, "ienne": 1460, "ten": 1461, "▁Char": 1462, "asia": 1463, "ici": 1464, "▁Wr": 1465, "▁Rus": 1466, "?!": 1467, "ije": 1468, "abe": 1469, "pis": 1470, "▁twe": 1471, "▁gru": 1472, "▁Pop": 1473, "▁Wol": 1474, "▁Sak": 1475, "▁mac": 1476, "▁mig": 1477, "▁Naz": 1478, "obi": 1479, "▁Urs": 1480, "▁Ry": 1481, "▁Pa": 1482, "chan": 1483, "▁Bar": 1484, "▁Us": 1485, "uman": 1486, "odo": 1487, "▁Jam": 1488, "acja": 1489, "ekt": 1490, "bit": 1491, "▁cy": 1492, "rost": 1493, "dar": 1494, "▁Or": 1495, "sem": 1496, "tw": 1497, "aska": 1498, "aba": 1499, "post": 1500, "ms": 1501, "▁Ak": 1502, "▁Mem": 1503, "ula": 1504, "dk": 1505, "▁spo": 1506, "ista": 1507, "bara": 1508, "▁sy": 1509, "las": 1510, "cho": 1511, "▁sta": 1512, "des": 1513, "▁Mah": 1514, "ort": 1515, "ine": 1516, "agon": 1517, "aram": 1518, "len": 1519, "ync": 1520, "▁Mal": 1521, "emi": 1522, "iko": 1523, "▁talent": 1524, "▁bor": 1525, "ulus": 1526, "omin": 1527, "▁obs": 1528, "▁hand": 1529, "▁Dom": 1530, "▁dog": 1531, "mer": 1532, "▁ces": 1533, "idy": 1534, "▁af": 1535, "▁kont": 1536, "lar": 1537, "▁om": 1538, "▁but": 1539, "enne": 1540, "'": 1541, "ater": 1542, "▁won": 1543, "ri": 1544, "▁lot": 1545, "▁Go": 1546, "▁Kir": 1547, "▁Ni": 1548, "led": 1549, "▁sad": 1550, "▁is": 1551, "acia": 1552, "▁tut": 1553, "▁Lib": 1554, "▁ho": 1555, "awn": 1556, "▁arm": 1557, "M": 1558, "ute": 1559, "▁Miller": 1560, "▁honor": 1561, "icher": 1562, "▁Ost": 1563, "lik": 1564, "▁fur": 1565, "▁Ta": 1566, "▁Sor": 1567, "ades": 1568, "ign": 1569, "▁Lor": 1570, "▁ru": 1571, "▁rod": 1572, "ancer": 1573, "▁such": 1574, "borg": 1575, "▁Up": 1576, "uty": 1577, "▁public": 1578, "nim": 1579, "▁Lip": 1580, "ós": 1581, "rec": 1582, "▁Syn": 1583, "ai": 1584, "▁sub": 1585, "urn": 1586, "mot": 1587, "ima": 1588, "lat": 1589, "alk": 1590, "ente": 1591, "▁obra": 1592, "bar": 1593, "▁tab": 1594, "cl": 1595, "▁fr": 1596, "▁Tat": 1597, "▁Sm": 1598, "water": 1599, "▁Pi": 1600, "nica": 1601, "ilo": 1602, "▁past": 1603, "▁Op": 1604, "▁leg": 1605, "▁proces": 1606, "ban": 1607, "▁fant": 1608, "state": 1609, "▁Led": 1610, "▁Bos": 1611, "dn": 1612, "▁Kap": 1613, "▁Helen": 1614, "arto": 1615, "isy": 1616, "abor": 1617, "▁Maz": 1618, "▁Da": 1619, "arna": 1620, "astr": 1621, "▁ak": 1622, "aru": 1623, "▁com": 1624, "▁set": 1625, "▁del": 1626, "▁Nat": 1627, "iche": 1628, "▁Rot": 1629, "men": 1630, "▁mis": 1631, "fer": 1632, "▁stat": 1633, "▁Geb": 1634, "▁gal": 1635, "▁fot": 1636, "▁as": 1637, "ret": 1638, "▁Tro": 1639, "cent": 1640, "pal": 1641, "▁nu": 1642, "▁fa": 1643, "rawn": 1644, "▁pac": 1645, "azi": 1646, "▁Tur": 1647, "▁les": 1648, "polit": 1649, "urm": 1650, "▁Mat": 1651, "▁spl": 1652, "▁Ko": 1653, "rodu": 1654, "U": 1655, "wid": 1656, "▁stole": 1657, "▁desper": 1658, "ber": 1659, "aro": 1660, "▁Star": 1661, "bor": 1662, "▁mart": 1663, "ict": 1664, "▁Ser": 1665, "▁bod": 1666, "▁rap": 1667, "lim": 1668, "▁man": 1669, "▁il": 1670, "▁Franc": 1671, "▁Men": 1672, "▁Bur": 1673, "▁humor": 1674, "OR": 1675, "▁bab": 1676, "zial": 1677, "ens": 1678, "iom": 1679, "▁franc": 1680, "agr": 1681, "▁Pu": 1682, "▁Mos": 1683, "▁tar": 1684, "psz": 1685, "▁CH": 1686, "▁minut": 1687, "set": 1688, "▁pou": 1689, "esk": 1690, "gas": 1691, "▁Pok": 1692, "▁ek": 1693, "inc": 1694, "▁Ant": 1695, "▁lip": 1696, "▁fal": 1697, "alen": 1698, "ment": 1699, "▁Kom": 1700, "▁Aleks": 1701, "▁Mr": 1702, "adu": 1703, "yc": 1704, "able": 1705, "▁dre": 1706, "bn": 1707, "born": 1708, "▁Gr": 1709, "▁fil": 1710, "razy": 1711, "town": 1712, "ase": 1713, "deck": 1714, "▁drap": 1715, "▁fol": 1716, "bia": 1717, "bach": 1718, "▁bas": 1719, "vel": 1720, "md": 1721, "ema": 1722, "▁Bez": 1723, "▁bru": 1724, "apt": 1725, "▁Fa": 1726, "eta": 1727, "▁Ukrain": 1728, "els": 1729, "arta": 1730, "tpl": 1731, "arp": 1732, "▁Sara": 1733, "▁jar": 1734, "inet": 1735, "▁Fl": 1736, "▁ki": 1737, "oto": 1738, "▁mon": 1739, "nice": 1740, "▁kat": 1741, "▁Ge": 1742, "▁Gust": 1743, "▁gas": 1744, "*": 1745, "mus": 1746, "▁ind": 1747, "▁Gro": 1748, "Ch": 1749, "uba": 1750, "uta": 1751, "▁doc": 1752, "▁Two": 1753, "ogn": 1754, "ont": 1755, "▁Zach": 1756, "aman": 1757, "▁fe": 1758, "▁pur": 1759, "▁Rob": 1760, "▁Kl": 1761, "▁stud": 1762, "▁Ang": 1763, "dp": 1764, "▁bal": 1765, "▁La": 1766, "use": 1767, "tan": 1768, "▁most": 1769, "alone": 1770, "▁ap": 1771, "iga": 1772, "hy": 1773, "eder": 1774, "gra": 1775, "▁Bod": 1776, "▁dys": 1777, "endant": 1778, "okat": 1779, "gar": 1780, "per": 1781, "▁inst": 1782, "arte": 1783, "▁plac": 1784, "▁har": 1785, "▁Dale": 1786, "▁Le": 1787, "▁Lin": 1788, "▁Kil": 1789, "▁Por": 1790, "▁Lab": 1791, "▁hus": 1792, "itan": 1793, "sun": 1794, "ares": 1795, "▁Post": 1796, "pc": 1797, "1": 1798, "▁Gl": 1799, "▁Bened": 1800, "▁Mil": 1801, "lo": 1802, "les": 1803, "itar": 1804, "ktor": 1805, "▁psy": 1806, "▁Mart": 1807, "▁fl": 1808, "pot": 1809, "uma": 1810, "aft": 1811, "apan": 1812, "AR": 1813, "jes": 1814, "cip": 1815, "mon": 1816, "itu": 1817, "▁stru": 1818, "▁Dr": 1819, "berg": 1820, "nt": 1821, "inal": 1822, "▁oraz": 1823, "▁Kle": 1824, "usta": 1825, "aste": 1826, "ype": 1827, "▁Kur": 1828, "▁Zw": 1829, "▁Pal": 1830, "Pr": 1831, "nost": 1832, "ho": 1833, "▁bec": 1834, "umi": 1835, "▁Im": 1836, "▁form": 1837, "▁Gor": 1838, "▁Tel": 1839, "ierno": 1840, "▁run": 1841, "▁gre": 1842, "dl": 1843, "▁tal": 1844, "▁skin": 1845, "rc": 1846, "anch": 1847, "isto": 1848, "und": 1849, "▁Sar": 1850, "▁Bed": 1851, "Co": 1852, "▁Hor": 1853, "▁ang": 1854, "▁tur": 1855, "▁lin": 1856, "etr": 1857, "ichten": 1858, "▁Me": 1859, "ismo": 1860, "▁lut": 1861, "ube": 1862, "▁Mac": 1863, "atch": 1864, "▁cod": 1865, "cies": 1866, "▁Pl": 1867, "▁Re": 1868, "▁bank": 1869, "opol": 1870, "▁MA": 1871, "Ź": 1872, "EL": 1873, "▁state": 1874, "▁El": 1875, "adas": 1876, "ATA": 1877, "▁Lis": 1878, "▁Sen": 1879, "▁cha": 1880, "orne": 1881, "urs": 1882, "igi": 1883, "▁niet": 1884, "atus": 1885, "▁dal": 1886, "hen": 1887, "ital": 1888, "▁sem": 1889, "▁pist": 1890, "asa": 1891, "wc": 1892, "ond": 1893, "▁Ly": 1894, "elle": 1895, "▁Got": 1896, "▁tri": 1897, "▁Ar": 1898, "eln": 1899, "▁pag": 1900, "onia": 1901, "▁ra": 1902, "▁plan": 1903, "west": 1904, "mem": 1905, "cc": 1906, "▁King": 1907, "▁Sud": 1908, "▁rab": 1909, "▁Bi": 1910, "unkt": 1911, "▁Og": 1912, "int": 1913, "▁gl": 1914, "ES": 1915, "bs": 1916, "tra": 1917, "so": 1918, "itten": 1919, "uro": 1920, "erc": 1921, "▁Ok": 1922, "ert": 1923, "▁But": 1924, "▁oder": 1925, "▁rel": 1926, "rw": 1927, "▁Raw": 1928, "▁Mir": 1929, "▁It": 1930, "▁Sy": 1931, "pn": 1932, "▁gab": 1933, "▁Of": 1934, "was": 1935, "eles": 1936, "brew": 1937, "uni": 1938, "▁Dru": 1939, "agan": 1940, "ander": 1941, "iah": 1942, "▁pose": 1943, "▁XIII": 1944, "▁termin": 1945, "ynam": 1946, "▁jag": 1947, "dam": 1948, "amil": 1949, "▁Ist": 1950, "▁much": 1951, "dom": 1952, "▁Dow": 1953, "ER": 1954, "ison": 1955, "▁rot": 1956, "▁Dam": 1957, "min": 1958, "▁Sto": 1959, "▁met": 1960, "▁Nas": 1961, "hr": 1962, "▁Bel": 1963, "orent": 1964, "di": 1965, "list": 1966, "esty": 1967, "ung": 1968, "▁pir": 1969, "▁At": 1970, "byte": 1971, "▁Natural": 1972, "▁chron": 1973, "ato": 1974, "hora": 1975, "fu": 1976, "▁Suz": 1977, "ons": 1978, "▁stad": 1979, "izer": 1980, "eps": 1981, "▁Pen": 1982, "▁Dar": 1983, "▁mot": 1984, "ago": 1985, "▁Um": 1986, "▁Med": 1987, "▁august": 1988, "▁fen": 1989, "▁int": 1990, "atel": 1991, "▁histor": 1992, "gro": 1993, "▁bel": 1994, "▁part": 1995, "nd": 1996, "▁aw": 1997, "▁magn": 1998, "▁lamp": 1999, "fr": 2000, "tern": 2001, "▁Af": 2002, "▁Ger": 2003, "US": 2004, "igr": 2005, "den": 2006, "AD": 2007, "▁Mak": 2008, "auf": 2009, "▁der": 2010, "▁best": 2011, "▁Het": 2012, "rek": 2013, "rud": 2014, "cht": 2015, "ple": 2016, "▁ham": 2017, "▁len": 2018, "▁August": 2019, "▁mater": 2020, "▁XX": 2021, "tok": 2022, "▁et": 2023, "▁akt": 2024, "rian": 2025, "▁Viv": 2026, "its": 2027, "anno": 2028, "tp": 2029, "ler": 2030, "▁park": 2031, "▁natural": 2032, "onom": 2033, "▁Arab": 2034, "▁hen": 2035, "▁Port": 2036, "To": 2037, "▁bat": 2038, "▁energ": 2039, "ieb": 2040, "▁md": 2041, "▁Tru": 2042, "▁Bir": 2043, "▁Nu": 2044, "▁Maria": 2045, "▁che": 2046, "ylon": 2047, "▁Em": 2048, "EN": 2049, "▁Tob": 2050, "wij": 2051, "ega": 2052, "mys": 2053, "▁sc": 2054, "abs": 2055, "th": 2056, "▁Sem": 2057, "▁sur": 2058, "jk": 2059, "▁tor": 2060, "▁char": 2061, "▁Anc": 2062, "olas": 2063, "▁ne": 2064, "wig": 2065, "▁lib": 2066, "stre": 2067, "▁wir": 2068, "▁med": 2069, "▁grab": 2070, "▁Wes": 2071, "▁von": 2072, "▁Mis": 2073, "andra": 2074, "isi": 2075, "▁Baron": 2076, "dd": 2077, "▁rank": 2078, "ct": 2079, "▁fun": 2080, "iece": 2081, "▁sus": 2082, "▁regular": 2083, "▁Mach": 2084, ").": 2085, "▁Bra": 2086, "ils": 2087, "oles": 2088, "acyj": 2089, "▁bag": 2090, "ng": 2091, "▁dad": 2092, "▁tom": 2093, "▁Nar": 2094, "stan": 2095, "aster": 2096, "sil": 2097, "▁es": 2098, "ude": 2099, "stant": 2100, "▁bron": 2101, "▁Mor": 2102, "▁db": 2103, "lica": 2104, "▁Ad": 2105, "▁Am": 2106, "▁para": 2107, "how": 2108, "▁Bl": 2109, "▁gest": 2110, "ton": 2111, "chi": 2112, "▁Bor": 2113, "▁God": 2114, "orp": 2115, "nog": 2116, "▁tum": 2117, "bel": 2118, "fy": 2119, "▁Wis": 2120, "ect": 2121, "▁are": 2122, "▁Ul": 2123, "sen": 2124, "chron": 2125, "▁sf": 2126, "▁Wed": 2127, "▁oc": 2128, "enta": 2129, "ogan": 2130, "▁De": 2131, "▁hur": 2132, "▁prote": 2133, "ience": 2134, "AL": 2135, "▁das": 2136, "▁straw": 2137, "▁Dal": 2138, "me": 2139, "▁Chart": 2140, "auc": 2141, "rium": 2142, "ores": 2143, "▁Daw": 2144, "▁Par": 2145, "acer": 2146, "▁Ne": 2147, "H": 2148, "▁amb": 2149, "▁fab": 2150, "▁bad": 2151, "store": 2152, "▁Arnold": 2153, "▁Tol": 2154, "▁jun": 2155, "sub": 2156, "amar": 2157, "▁port": 2158, "▁lit": 2159, "mag": 2160, "▁pian": 2161, "▁ms": 2162, "▁mem": 2163, "kal": 2164, "▁natur": 2165, "----------------": 2166, "osto": 2167, "bat": 2168, "wik": 2169, "L": 2170, "erm": 2171, "roc": 2172, "asp": 2173, "–": 2174, "▁Fel": 2175, "▁FOR": 2176, "if": 2177, "▁Dol": 2178, "▁Wal": 2179, "all": 2180, "▁iron": 2181, "▁roi": 2182, "jo": 2183, "!!": 2184, "▁Sie": 2185, "▁Har": 2186, "▁dyn": 2187, "ism": 2188, "bin": 2189, "▁mim": 2190, "jas": 2191, "▁ig": 2192, "▁trat": 2193, "stein": 2194, "▁bol": 2195, "mont": 2196, "lij": 2197, "ficie": 2198, "land": 2199, "onne": 2200, "oton": 2201, "agra": 2202, "▁Tow": 2203, "mas": 2204, "▁gaz": 2205, "dm": 2206, "▁Su": 2207, "▁minister": 2208, "eld": 2209, "▁Sic": 2210, "aria": 2211, "▁Ran": 2212, "▁Mel": 2213, "erk": 2214, "▁sap": 2215, "▁Di": 2216, "ampa": 2217, "IA": 2218, "▁mel": 2219, "▁Ros": 2220, "ender": 2221, "AN": 2222, "him": 2223, "▁Ass": 2224, "▁Mark": 2225, "▁imp": 2226, "▁Sn": 2227, "aset": 2228, "▁hard": 2229, "▁relig": 2230, "▁wars": 2231, "▁rom": 2232, "▁ner": 2233, "fl": 2234, "▁pret": 2235, "▁ins": 2236, "▁Berg": 2237, "ö": 2238, "▁dan": 2239, "▁work": 2240, "ori": 2241, "▁Os": 2242, "ilia": 2243, "▁Pil": 2244, "...": 2245, "▁Mars": 2246, "▁jaw": 2247, "▁blade": 2248, "jen": 2249, "▁row": 2250, "IE": 2251, "▁Ross": 2252, "rup": 2253, "eny": 2254, "▁Moh": 2255, "uru": 2256, "anne": 2257, "▁Mary": 2258, "reb": 2259, "esi": 2260, "8": 2261, "uset": 2262, "order": 2263, "omb": 2264, "▁West": 2265, "ager": 2266, "▁will": 2267, "▁Sw": 2268, "mac": 2269, "Je": 2270, "▁Ap": 2271, "▁V": 2272, "▁paras": 2273, "▁Cor": 2274, "▁fos": 2275, "atan": 2276, "▁scen": 2277, "0": 2278, "▁…": 2279, "akter": 2280, "▁Ag": 2281, "▁Fe": 2282, "▁Hal": 2283, "*.": 2284, "▁font": 2285, "org": 2286, "▁latach": 2287, "▁Min": 2288, "E": 2289, "eda": 2290, "▁minist": 2291, "▁ocean": 2292, "▁Sub": 2293, "▁sym": 2294, "bru": 2295, "▁lod": 2296, "▁mir": 2297, "urt": 2298, "▁ceremon": 2299, "icia": 2300, "▁pers": 2301, "▁fir": 2302, "▁wagon": 2303, "▁Turk": 2304, "iac": 2305, "ument": 2306, "ats": 2307, "iss": 2308, "▁Rat": 2309, "uchar": 2310, "ance": 2311, "esta": 2312, "▁Py": 2313, "▁pobl": 2314, "ular": 2315, "▁Nam": 2316, "▁let": 2317, "aid": 2318, "▁Dor": 2319, "▁Fat": 2320, "▁rebel": 2321, "▁XII": 2322, "▁Kos": 2323, "▁Res": 2324, "▁Europ": 2325, "▁Ku": 2326, "▁nose": 2327, "▁fut": 2328, "odes": 2329, "ble": 2330, "▁RO": 2331, "▁Lu": 2332, "▁palm": 2333, "▁Ol": 2334, "ang": 2335, "▁Napoleon": 2336, "sim": 2337, "orsz": 2338, "▁strat": 2339, "▁Ph": 2340, ">>": 2341, "▁ban": 2342, "▁bark": 2343, "dc": 2344, "▁deput": 2345, "▁Fab": 2346, "▁Napole": 2347, "▁<<": 2348, "▁echo": 2349, "oria": 2350, "▁trop": 2351, "iale": 2352, "dat": 2353, "▁gu": 2354, "▁Sch": 2355, "cept": 2356, "▁Hass": 2357, "▁Abd": 2358, "ris": 2359, "▁Ky": 2360, "ria": 2361, "ilib": 2362, "▁X": 2363, "▁ep": 2364, "atz": 2365, "▁test": 2366, "rug": 2367, "fit": 2368, "▁ener": 2369, "ese": 2370, "▁has": 2371, "▁Kas": 2372, "▁Prec": 2373, "jer": 2374, "▁tan": 2375, "nas": 2376, "▁Spr": 2377, "RO": 2378, "resa": 2379, "don": 2380, "▁kne": 2381, "▁Carol": 2382, "fi": 2383, "▁sat": 2384, "ls": 2385, "▁Domin": 2386, "▁Sc": 2387, "▁gi": 2388, "▁bite": 2389, "olu": 2390, "▁Pad": 2391, "kat": 2392, "osen": 2393, "sm": 2394, "▁aren": 2395, "olent": 2396, "▁Sab": 2397, "St": 2398, "arium": 2399, "Mo": 2400, "▁Mot": 2401, "igu": 2402, "▁plus": 2403, "▁sent": 2404, "▁II": 2405, "▁bob": 2406, "?\"": 2407, "▁mile": 2408, "Na": 2409, "▁fam": 2410, "item": 2411, "IC": 2412, "jal": 2413, "star": 2414, "▁gan": 2415, "▁band": 2416, "▁Anna": 2417, "▁Il": 2418, "▁Gal": 2419, "▁gener": 2420, "▁Bu": 2421, "▁sun": 2422, "▁ses": 2423, "jekt": 2424, "V": 2425, "ilen": 2426, "ART": 2427, "▁Mu": 2428, "pk": 2429, "lane": 2430, "<0x98>": 2431, "<0xC4>": 2432, "Ż": 2433, "gon": 2434, "▁sty": 2435, "3": 2436, "ser": 2437, "▁Lan": 2438, "andom": 2439, "▁chart": 2440, "▁Bron": 2441, "▁Mill": 2442, "!)": 2443, "zent": 2444, "jar": 2445, "jon": 2446, "ass": 2447, "▁Dem": 2448, "▁fat": 2449, "olut": 2450, "▁patron": 2451, "prom": 2452, "▁nur": 2453, "ON": 2454, "ules": 2455, "for": 2456, "▁front": 2457, "▁Ho": 2458, "▁List": 2459, "incl": 2460, "▁Hop": 2461, "low": 2462, "▁ruin": 2463, "▁Cha": 2464, "aus": 2465, "▁Pac": 2466, "▁sol": 2467, "mal": 2468, "erek": 2469, "▁tre": 2470, "▁ber": 2471, "orno": 2472, "cel": 2473, "▁gmin": 2474, "wer": 2475, "olog": 2476, "5": 2477, "▁metal": 2478, "ulum": 2479, "archy": 2480, "bol": 2481, "adrat": 2482, "▁Bit": 2483, "ben": 2484, "elen": 2485, "gow": 2486, "▁Sal": 2487, "▁Se": 2488, "▁em": 2489, "atal": 2490, "▁music": 2491, "▁reput": 2492, "hat": 2493, "ake": 2494, "bian": 2495, "ustr": 2496, "put": 2497, "▁gle": 2498, "é": 2499, "▁Du": 2500, "top": 2501, "▁Ur": 2502, "OM": 2503, "▁All": 2504, "▁mag": 2505, "6": 2506, "▁Cy": 2507, "aha": 2508, "pet": 2509, "▁student": 2510, "ull": 2511, "▁Rog": 2512, "▁Bernard": 2513, "acio": 2514, "▁lo": 2515, "▁Ab": 2516, "oll": 2517, "▁Drug": 2518, "ene": 2519, "▁Lot": 2520, "▁Anton": 2521, "▁protest": 2522, "ook": 2523, "orna": 2524, "AG": 2525, "amin": 2526, "elin": 2527, "ZE": 2528, "▁Din": 2529, "▁tun": 2530, "▁az": 2531, "▁Bro": 2532, "▁sand": 2533, "▁Rod": 2534, "bas": 2535, "car": 2536, "nom": 2537, "▁amen": 2538, "▁III": 2539, "▁pens": 2540, "▁y": 2541, "▁Lic": 2542, "▁er": 2543, "▁baby": 2544, "▁Pas": 2545, "▁Per": 2546, "cam": 2547, "▁art": 2548, "▁spec": 2549, "lan": 2550, "2": 2551, "ales": 2552, "▁pref": 2553, "▁party": 2554, "ss": 2555, "▁tow": 2556, "▁fund": 2557, "sts": 2558, "ref": 2559, "▁ag": 2560, "Do": 2561, "▁Henry": 2562, "▁lust": 2563, "▁sit": 2564, "dale": 2565, "uce": 2566, "▁cent": 2567, "enda": 2568, "▁One": 2569, "▁grud": 2570, "mut": 2571, "pre": 2572, "▁dare": 2573, "ua": 2574, "ih": 2575, "chor": 2576, "▁pros": 2577, "agu": 2578, "▁mit": 2579, "osis": 2580, "dt": 2581, "erd": 2582, "uns": 2583, "kre": 2584, "▁turn": 2585, "▁sens": 2586, "▁Jud": 2587, "▁historia": 2588, "atom": 2589, "▁mum": 2590, "▁XXX": 2591, "▁Mol": 2592, "▁Herm": 2593, "elm": 2594, "bad": 2595, "Po": 2596, "olar": 2597, "gram": 2598, "▁nit": 2599, "▁est": 2600, "▁tra": 2601, "▁Ces": 2602, "urg": 2603, "▁mos": 2604, "F": 2605, "▁Kot": 2606, "AT": 2607, "4": 2608, "▁profes": 2609, "▁car": 2610, "▁lu": 2611, "hem": 2612, "▁Stra": 2613, "▁tap": 2614, "▁Bon": 2615, "▁km": 2616, "▁term": 2617, "▁bin": 2618, "▁genius": 2619, "▁ó": 2620, "▁Spot": 2621, "dep": 2622, "aze": 2623, "▁unos": 2624, "Ś": 2625, "▁Four": 2626, "ols": 2627, "irus": 2628, "▁Jar": 2629, "▁Marian": 2630, "▁Hum": 2631, "▁Mer": 2632, "ins": 2633, "No": 2634, "▁elegant": 2635, "he": 2636, "▁ast": 2637, "eds": 2638, "okrat": 2639, "ader": 2640, "arga": 2641, "….": 2642, "irt": 2643, "▁plot": 2644, "many": 2645, "▁Che": 2646, "▁Bry": 2647, "awk": 2648, "▁glad": 2649, "▁Nom": 2650, "aban": 2651, "inks": 2652, "UL": 2653, "esp": 2654, "Bo": 2655, "▁trag": 2656, "ijn": 2657, "arde": 2658, "▁ink": 2659, "ld": 2660, "bek": 2661, "mun": 2662, "adi": 2663, "▁Com": 2664, "▁San": 2665, "▁alt": 2666, "MA": 2667, "iest": 2668, "ware": 2669, "▁Bud": 2670, "▁Ber": 2671, "9": 2672, "amen": 2673, "eron": 2674, "▁Wat": 2675, "▁Set": 2676, "spin": 2677, "iv": 2678, "WORK": 2679, "▁Major": 2680, "▁Top": 2681, "▁Jo": 2682, "iene": 2683, "▁mark": 2684, "ielen": 2685, "eter": 2686, "▁v": 2687, "ae": 2688, "oper": 2689, "▁alarm": 2690, "bot": 2691, "▁kilomet": 2692, "▁Las": 2693, "AM": 2694, "▁cer": 2695, "ators": 2696, "alt": 2697, "stub": 2698, "▁Hus": 2699, "▁So": 2700, "ill": 2701, "allas": 2702, "psi": 2703, "▁Much": 2704, "pes": 2705, "uck": 2706, "▁san": 2707, "fund": 2708, "nob": 2709, "obre": 2710, "▁gras": 2711, "bank": 2712, "gd": 2713, "▁lose": 2714, "▁cele": 2715, "CH": 2716, "▁liter": 2717, "enci": 2718, "▁Ich": 2719, "spi": 2720, "▁Same": 2721, "▁Pont": 2722, "law": 2723, "▁argument": 2724, "Pan": 2725, "ner": 2726, "▁Ind": 2727, "▁ac": 2728, "nc": 2729, "▁magaz": 2730, "form": 2731, "*,": 2732, "▁patri": 2733, "▁prob": 2734, "unc": 2735, "▁chaos": 2736, "▁Dy": 2737, "▁wer": 2738, "▁Ro": 2739, "esto": 2740, "▁Kat": 2741, "▁frank": 2742, "tele": 2743, "▁viv": 2744, "erson": 2745, "sw": 2746, "▁Psy": 2747, "mk": 2748, "uto": 2749, "▁Fort": 2750, "▁Li": 2751, "▁aj": 2752, "prot": 2753, "▁lun": 2754, "▁gen": 2755, "▁Un": 2756, "bc": 2757, "long": 2758, "▁pant": 2759, "aret": 2760, "enty": 2761, "anta": 2762, "aks": 2763, "II": 2764, "▁Mod": 2765, "▁hotel": 2766, "▁moral": 2767, "iolet": 2768, "▁Sat": 2769, "▁Leon": 2770, "▁Des": 2771, "ister": 2772, "▁inf": 2773, "▁sin": 2774, "okal": 2775, "▁Kol": 2776, "egr": 2777, "Tr": 2778, "▁idea": 2779, "▁dem": 2780, "▁Tem": 2781, "urent": 2782, "▁ir": 2783, "NER": 2784, "▁ga": 2785, "kor": 2786, "Ą": 2787, "▁Hugo": 2788, "▁cub": 2789, "▁febr": 2790, "pas": 2791, "UNK": 2792, "▁han": 2793, "▁chin": 2794, "rank": 2795, "▁deleg": 2796, "▁Flor": 2797, "non": 2798, "▁Ham": 2799, "7": 2800, "ograf": 2801, "▁oz": 2802, "▁hip": 2803, "—": 2804, "iels": 2805, "▁nut": 2806, "▁Buch": 2807, "fil": 2808, "...\"": 2809, "OS": 2810, "ated": 2811, "▁imagin": 2812, "warn": 2813, "omet": 2814, "▁blank": 2815, "▁lik": 2816, "▁instrument": 2817, "▁Mag": 2818, "▁TR": 2819, "isan": 2820, "▁Maj": 2821, "▁wet": 2822, "wen": 2823, "▁Glen": 2824, "ax": 2825, "▁bre": 2826, "ail": 2827, "imen": 2828, "III": 2829, "▁Kre": 2830, "▁Such": 2831, "▁bald": 2832, "ke": 2833, "uls": 2834, "rez": 2835, "oke": 2836, "▁»": 2837, "▁numer": 2838, "ui": 2839, "itel": 2840, "▁Cec": 2841, "▁eleg": 2842, "▁Gas": 2843, "▁IV": 2844, "▁Inn": 2845, "▁ed": 2846, "NY": 2847, "▁Ober": 2848, "ire": 2849, "▁wel": 2850, "draw": 2851, "ET": 2852, "CI": 2853, "▁chem": 2854, "▁did": 2855, "umb": 2856, "apture": 2857, "▁partie": 2858, "▁Arg": 2859, "▁nin": 2860, "rows": 2861, "▁dur": 2862, "stra": 2863, ".)": 2864, "▁Gar": 2865, "orf": 2866, "▁Cl": 2867, "▁ster": 2868, "▁bis": 2869, "maz": 2870, "▁grad": 2871, "fe": 2872, "ered": 2873, "ime": 2874, "bst": 2875, "▁mask": 2876, "▁arch": 2877, "lot": 2878, "▁ide": 2879, "▁For": 2880, "▁not": 2881, "gen": 2882, "onal": 2883, "hot": 2884, "▁Pere": 2885, "ti": 2886, "▁Fil": 2887, "▁perm": 2888, "▁Reg": 2889, "▁Wer": 2890, "▁fra": 2891, "▁Mit": 2892, "rolog": 2893, "▁subst": 2894, "pic": 2895, "esch": 2896, "iant": 2897, "ope": 2898, "asm": 2899, "▁person": 2900, "▁Gru": 2901, "rome": 2902, "▁male": 2903, "▁DR": 2904, "jsce": 2905, "WN": 2906, "ico": 2907, "pur": 2908, "ST": 2909, "deg": 2910, "▁nach": 2911, "<0x83>": 2912, "<0xC5>": 2913, "rai": 2914, "aa": 2915, "air": 2916, "▁Far": 2917, "▁plug": 2918, "▁Don": 2919, "arius": 2920, "▁folg": 2921, "▁Dragon": 2922, "run": 2923, "uno": 2924, "ide": 2925, "pty": 2926, "hard": 2927, "fem": 2928, "▁cal": 2929, "rael": 2930, "«": 2931, "▁Wik": 2932, "ubl": 2933, "zione": 2934, "▁europe": 2935, "▁album": 2936, "▁it": 2937, "▁hum": 2938, "▁moment": 2939, "▁Lat": 2940, "▁Adam": 2941, "iejsc": 2942, "x": 2943, "▁sa": 2944, "▁ref": 2945, "ract": 2946, "▁anim": 2947, "ois": 2948, "▁ret": 2949, "RE": 2950, "tes": 2951, "▁system": 2952, "▁Les": 2953, "▁medal": 2954, "iter": 2955, "had": 2956, "inian": 2957, "▁lig": 2958, "ops": 2959, "ION": 2960, "▁Feb": 2961, "▁Hom": 2962, "onic": 2963, "▁Rub": 2964, "▁Y": 2965, "My": 2966, "▁Gard": 2967, "▁dec": 2968, "iani": 2969, "▁restaur": 2970, "ient": 2971, "▁Ru": 2972, "▁Prom": 2973, "▁cm": 2974, "\"": 2975, "iji": 2976, "cert": 2977, "ira": 2978, "▁oh": 2979, "▁AL": 2980, "GA": 2981, "▁sow": 2982, "▁Gra": 2983, "▁Raj": 2984, "arsi": 2985, "ster": 2986, "atro": 2987, "▁bamb": 2988, "▁Ben": 2989, "ulu": 2990, "rest": 2991, "▁listop": 2992, "ident": 2993, "▁Pak": 2994, "alis": 2995, "IR": 2996, "plom": 2997, "jek": 2998, "perty": 2999, "▁opin": 3000, "▁wide": 3001, "▁num": 3002, "ads": 3003, "erna": 3004, "anos": 3005, "▁wins": 3006, "▁mist": 3007, "oral": 3008, "▁War": 3009, "OLD": 3010, "▁cap": 3011, "omic": 3012, "▁proced": 3013, "nor": 3014, "▁milk": 3015, "▁Be": 3016, "▁firm": 3017, "▁oper": 3018, "▁polit": 3019, "unic": 3020, "▁Hat": 3021, "▁Palm": 3022, "sep": 3023, "uy": 3024, "!!!": 3025, "▁Not": 3026, "har": 3027, "▁had": 3028, "rr": 3029, "▁obt": 3030, "sin": 3031, "Ang": 3032, "ople": 3033, "▁bibli": 3034, "▁Lew": 3035, "cher": 3036, "uar": 3037, "▁Bag": 3038, "stal": 3039, "▁Ir": 3040, "▁ge": 3041, "rust": 3042, "▁Sil": 3043, "▁formal": 3044, "▁punk": 3045, "udo": 3046, "rown": 3047, "atur": 3048, "▁org": 3049, "uan": 3050, "▁his": 3051, "▁sed": 3052, "▁poet": 3053, "▁Pra": 3054, "hu": 3055, "estro": 3056, "job": 3057, "▁Nak": 3058, "▁pul": 3059, "anner": 3060, "▁Nur": 3061, "fg": 3062, "apolis": 3063, "ulo": 3064, "▁forming": 3065, "▁Eu": 3066, "▁Jack": 3067, "▁habit": 3068, "chr": 3069, "▁fram": 3070, "▁Fur": 3071, "▁Rum": 3072, "▁Dun": 3073, "limp": 3074, "ge": 3075, "dw": 3076, "▁Stop": 3077, "▁absolut": 3078, "onna": 3079, "work": 3080, "▁Den": 3081, "▁wor": 3082, "illa": 3083, "UM": 3084, "rum": 3085, "OD": 3086, "▁AN": 3087, "▁fan": 3088, "duc": 3089, "▁PRO": 3090, "▁PI": 3091, "▁ideal": 3092, "▁PR": 3093, "aut": 3094, "▁Jah": 3095, "▁Sof": 3096, "▁Hy": 3097, "▁Art": 3098, "▁Poly": 3099, "asant": 3100, "mil": 3101, "olf": 3102, "▁Poll": 3103, "ERE": 3104, "▁SY": 3105, "AK": 3106, "▁EU": 3107, "▁autor": 3108, "▁hal": 3109, "fon": 3110, "▁Pre": 3111, "ou": 3112, "▁fi": 3113, "▁neg": 3114, "……": 3115, "▁qu": 3116, "gom": 3117, "amer": 3118, "▁soc": 3119, "DER": 3120, "RAN": 3121, "▁kun": 3122, "▁grat": 3123, "zz": 3124, "▁big": 3125, "▁Ep": 3126, "▁wore": 3127, "▁dat": 3128, "▁obst": 3129, "▁organiz": 3130, "oso": 3131, "▁temper": 3132, "ieri": 3133, "ieder": 3134, "▁App": 3135, "▁Forum": 3136, "Bi": 3137, "▁Syd": 3138, "▁mult": 3139, "agh": 3140, "abil": 3141, "ess": 3142, "azar": 3143, "ly": 3144, "ropic": 3145, "ous": 3146, "ardon": 3147, "enh": 3148, "▁Lo": 3149, "angel": 3150, "ipp": 3151, "borne": 3152, "uga": 3153, "FOR": 3154, "▁Bak": 3155, "elf": 3156, "▁Rud": 3157, "▁kit": 3158, "ynom": 3159, "bus": 3160, "oss": 3161, "▁major": 3162, "▁Ple": 3163, "▁fundament": 3164, "andal": 3165, "Pat": 3166, "▁place": 3167, "Sk": 3168, "▁Aust": 3169, "▁Soc": 3170, "grow": 3171, "apache": 3172, "On": 3173, "▁Jul": 3174, "▁panic": 3175, "empl": 3176, "pec": 3177, "▁Qu": 3178, "TA": 3179, "▁sid": 3180, "ider": 3181, "NA": 3182, "..": 3183, "Id": 3184, "ood": 3185, "▁desk": 3186, "IS": 3187, "nar": 3188, "▁aut": 3189, "down": 3190, "inar": 3191, "▁Eli": 3192, "▁Marc": 3193, "▁.": 3194, "ll": 3195, "Go": 3196, "▁hosp": 3197, "▁rug": 3198, "▁alter": 3199, "▁domin": 3200, "▁haz": 3201, "Mat": 3202, "▁ex": 3203, "aps": 3204, "▁Jun": 3205, "▁hub": 3206, "INK": 3207, "▁SF": 3208, "▁aud": 3209, "Ten": 3210, "Pod": 3211, "▁Europe": 3212, "▁Gott": 3213, "▁imper": 3214, "▁liber": 3215, "▁fatal": 3216, "ante": 3217, "lia": 3218, "▁nod": 3219, "▁mechan": 3220, "tl": 3221, "▁gir": 3222, "▁buf": 3223, "▁trunk": 3224, "▁blond": 3225, "nan": 3226, "anter": 3227, "By": 3228, "▁Aut": 3229, "▁organ": 3230, "▁legend": 3231, "ioc": 3232, "▁harm": 3233, "▁history": 3234, "▁poi": 3235, "▁mk": 3236, "▁Hol": 3237, "▁lad": 3238, "omot": 3239, "zte": 3240, "▁lack": 3241, "het": 3242, "▁Bass": 3243, "▁Sky": 3244, "oly": 3245, "Si": 3246, "▁Car": 3247, "▁Et": 3248, "▁Sym": 3249, "urop": 3250, "ue": 3251, "aupt": 3252, "▁brand": 3253, "av": 3254, "hew": 3255, "▁moder": 3256, "mile": 3257, "▁sank": 3258, "▁Bach": 3259, "▁banda": 3260, "AP": 3261, "▁Kan": 3262, "▁law": 3263, "rezent": 3264, "▁Ele": 3265, "ais": 3266, "▁magnet": 3267, "pond": 3268, "▁Pap": 3269, "▁labor": 3270, "ruct": 3271, "▁demon": 3272, "Ty": 3273, "add": 3274, "ieme": 3275, "▁Zu": 3276, "▁perf": 3277, "▁bul": 3278, "▁saf": 3279, "last": 3280, "▁mate": 3281, "▁Try": 3282, "▁rem": 3283, "edi": 3284, "IN": 3285, "sek": 3286, "elem": 3287, "SI": 3288, "NI": 3289, "agner": 3290, "▁harmon": 3291, "iza": 3292, "ft": 3293, "AC": 3294, "▁DO": 3295, "▁techn": 3296, "alf": 3297, "▁burn": 3298, "ingen": 3299, "▁Vic": 3300, "pp": 3301, "ides": 3302, "▁stern": 3303, "▁mol": 3304, "▁definit": 3305, "▁rude": 3306, "agna": 3307, "▁pel": 3308, "entr": 3309, "▁Sept": 3310, "▁Bart": 3311, "▁gem": 3312, "empt": 3313, "itat": 3314, "▁dri": 3315, "aters": 3316, "ANT": 3317, "gru": 3318, "▁Ed": 3319, "▁Magn": 3320, "party": 3321, "MAN": 3322, "▁XVIII": 3323, "wl": 3324, "▁intr": 3325, "▁tele": 3326, "neg": 3327, "istan": 3328, "▁IX": 3329, "ikan": 3330, "▁Aw": 3331, "mb": 3332, "park": 3333, "▁VI": 3334, "▁prof": 3335, "▁Cer": 3336, "▁etc": 3337, "iju": 3338, "▁material": 3339, "▁atmos": 3340, "▁drag": 3341, "odi": 3342, "ijo": 3343, "▁symbol": 3344, "▁arc": 3345, "▁log": 3346, "▁sale": 3347, "▁ped": 3348, "▁ego": 3349, "ENT": 3350, "IO": 3351, "LOG": 3352, "Ć": 3353, "plet": 3354, "▁piece": 3355, "eca": 3356, "▁intel": 3357, "▁prepar": 3358, "▁pent": 3359, "ington": 3360, "▁Jung": 3361, "▁Krist": 3362, "▁Sul": 3363, "▁Grad": 3364, "▁Christ": 3365, "▁Kamp": 3366, "ensis": 3367, "erta": 3368, "▁cul": 3369, "▁Lind": 3370, "▁posto": 3371, "VI": 3372, "IV": 3373, "▁Tor": 3374, "ende": 3375, "ubern": 3376, "▁Horn": 3377, "▁Dub": 3378, "▁Ste": 3379, "▁Spe": 3380, "TE": 3381, "inas": 3382, "rypt": 3383, "ince": 3384, "▁Los": 3385, "gate": 3386, "urd": 3387, "▁astronom": 3388, "▁ambit": 3389, "▁XI": 3390, "det": 3391, "fin": 3392, "ise": 3393, "▁model": 3394, "▁Mig": 3395, "ize": 3396, "ponent": 3397, "He": 3398, "▁mul": 3399, "▁fin": 3400, "Ha": 3401, "aren": 3402, "AS": 3403, "UT": 3404, "▁brew": 3405, "▁klub": 3406, "gos": 3407, "▁parad": 3408, "▁hon": 3409, "TY": 3410, "SK": 3411, "▁loc": 3412, "▁glob": 3413, "AB": 3414, "▁PO": 3415, "▁rec": 3416, "▁transport": 3417, "▁fore": 3418, "uel": 3419, "andy": 3420, "wall": 3421, "▁van": 3422, "ger": 3423, "▁Liga": 3424, "▁Hab": 3425, "ifa": 3426, "▁Bow": 3427, "ugu": 3428, "nod": 3429, "▁hab": 3430, "▁Dod": 3431, "▁Leg": 3432, "mel": 3433, "▁general": 3434, "ateg": 3435, "▁Ann": 3436, "anni": 3437, "Br": 3438, "aurus": 3439, "▁Pel": 3440, "tera": 3441, "oster": 3442, "WO": 3443, "omon": 3444, "ind": 3445, "▁Mario": 3446, "▁XVII": 3447, "▁Rome": 3448, "▁XVI": 3449, "▁XV": 3450, "▁XIV": 3451, "ancel": 3452, "ete": 3453, "Pro": 3454, "▁real": 3455, "▁VIII": 3456, "igd": 3457, "▁VII": 3458, "▁famil": 3459, "▁cyl": 3460, "eria": 3461, "▁lab": 3462, "iron": 3463, "▁mom": 3464, "▁pic": 3465, "▁Mon": 3466, "▁det": 3467, "anse": 3468, "can": 3469, "rep": 3470, "TO": 3471, "▁ej": 3472, "fur": 3473, "▁param": 3474, "uter": 3475, "mart": 3476, "mod": 3477, "▁fest": 3478, "▁dram": 3479, "gnu": 3480, "WI": 3481, "atory": 3482, "▁Inst": 3483, "hed": 3484, "▁dit": 3485, "▁Niger": 3486, "uri": 3487, "unda": 3488, "▁Tra": 3489, "▁Liz": 3490, "▁Er": 3491, "▁sud": 3492, "▁apro": 3493, "itol": 3494, "acies": 3495, "▁tf": 3496, "rcu": 3497, "An": 3498, "▁adm": 3499, "wards": 3500, "▁manifest": 3501, "▁modest": 3502, "▁imped": 3503, "▁respons": 3504, "▁tent": 3505, "uct": 3506, "▁Bat": 3507, "▁Cas": 3508, "▁deliber": 3509, "CAP": 3510, "▁Pri": 3511, "illes": 3512, "fony": 3513, "▁Emp": 3514, "oche": 3515, "ella": 3516, "data": 3517, "dog": 3518, "▁cu": 3519, "orient": 3520, "▁Amer": 3521, "fas": 3522, "▁Lucy": 3523, "rub": 3524, "▁traged": 3525, "▁Piet": 3526, "her": 3527, "lich": 3528, "▁ke": 3529, "Mus": 3530, "▁Ukr": 3531, "link": 3532, "ati": 3533, "▁inform": 3534, "alter": 3535, "▁hi": 3536, "▁marca": 3537, "▁gam": 3538, "que": 3539, "port": 3540, "eme": 3541, "rol": 3542, "▁sup": 3543, "Pi": 3544, "qu": 3545, "apol": 3546, "▁put": 3547, "aco": 3548, "▁sia": 3549, "alla": 3550, "▁hop": 3551, "UG": 3552, "▁toast": 3553, "WS": 3554, "▁melod": 3555, "ED": 3556, "▁Grab": 3557, "▁ST": 3558, "▁policy": 3559, "▁produ": 3560, "▁sod": 3561, "mary": 3562, "▁Prof": 3563, "anz": 3564, "▁ri": 3565, "▁medium": 3566, "dyn": 3567, "▁Urban": 3568, "isc": 3569, "’": 3570, "▁stark": 3571, "▁Part": 3572, "▁Pers": 3573, "mn": 3574, "▁vel": 3575, "▁apost": 3576, "▁nan": 3577, "▁Bob": 3578, "▁His": 3579, "son": 3580, "dst": 3581, "idi": 3582, "▁turb": 3583, "▁non": 3584, "ando": 3585, "IX": 3586, "▁men": 3587, "URE": 3588, "▁PL": 3589, "endor": 3590, "▁asc": 3591, "▁plat": 3592, "▁XIX": 3593, "once": 3594, "▁amaz": 3595, "▁Ra": 3596, "▁Fr": 3597, ");": 3598, "ald": 3599, "▁administr": 3600, "best": 3601, "?)": 3602, "▁den": 3603, "nent": 3604, "▁Brow": 3605, "▁rs": 3606, "▁Num": 3607, "ieu": 3608, "▁Gen": 3609, "▁Der": 3610, "▁rep": 3611, "icht": 3612, "ates": 3613, "umin": 3614, "Rad": 3615, "ement": 3616, "▁poder": 3617, "ders": 3618, "▁Del": 3619, "iere": 3620, "oler": 3621, "bul": 3622, "oct": 3623, "wiki": 3624, "ency": 3625, "▁Walk": 3626, "▁order": 3627, "BA": 3628, "▁cum": 3629, "OP": 3630, "▁cher": 3631, "plement": 3632, "ados": 3633, "▁ras": 3634, "▁uma": 3635, "met": 3636, "ross": 3637, "▁Stud": 3638, "▁bond": 3639, "▁Tot": 3640, "Mer": 3641, "ulty": 3642, "kind": 3643, "▁Step": 3644, "▁eff": 3645, "▁Arc": 3646, "▁Mult": 3647, "▁som": 3648, "burg": 3649, "▁Pir": 3650, "▁foss": 3651, "▁Cyr": 3652, "▁Ital": 3653, "▁German": 3654, "anti": 3655, "aur": 3656, "▁Fed": 3657, "kin": 3658, "dim": 3659, "psy": 3660, "▁State": 3661, "▁Bark": 3662, "▁drop": 3663, "▁Bug": 3664, "▁Stefan": 3665, "obs": 3666, "▁Gran": 3667, "▁Dep": 3668, "rib": 3669, "drag": 3670, "urb": 3671, "▁ml": 3672, "▁Ek": 3673, "etry": 3674, "▁rest": 3675, "Ob": 3676, "amas": 3677, "▁aux": 3678, "▁Rank": 3679, "▁Ex": 3680, "iber": 3681, "▁pale": 3682, "▁trab": 3683, "▁hier": 3684, "aced": 3685, "fortun": 3686, "▁Prote": 3687, "arl": 3688, "▁Sum": 3689, "Al": 3690, "▁Bah": 3691, "erie": 3692, "▁gram": 3693, "endar": 3694, "uum": 3695, "part": 3696, "▁Hotel": 3697, "▁ant": 3698, "▁sag": 3699, "front": 3700, "olk": 3701, "emon": 3702, "organ": 3703, "▁Honor": 3704, "▁kind": 3705, "▁Atl": 3706, "▁Austria": 3707, "▁Das": 3708, "aff": 3709, "gal": 3710, "ham": 3711, "inder": 3712, "▁Inter": 3713, "▁Let": 3714, "Sp": 3715, "▁Are": 3716, "rag": 3717, "▁arom": 3718, "▁Ki": 3719, "Str": 3720, "orie": 3721, "uster": 3722, "▁fru": 3723, "ocon": 3724, "ence": 3725, "▁dry": 3726, "UR": 3727, "lista": 3728, "CY": 3729, "know": 3730, "ARK": 3731, "▁nil": 3732, "▁nor": 3733, "ido": 3734, "das": 3735, "ials": 3736, "tre": 3737, "sh": 3738, "plot": 3739, "▁Take": 3740, "▁Jake": 3741, "▁Abu": 3742, "▁Cook": 3743, "▁Sue": 3744, "ember": 3745, "aper": 3746, "enz": 3747, "ay": 3748, "rock": 3749, "▁Must": 3750, "ipe": 3751, "Her": 3752, "wald": 3753, "ting": 3754, "▁medi": 3755, "\",": 3756, "ael": 3757, "▁lan": 3758, "itor": 3759, "aming": 3760, "lla": 3761, "iba": 3762, "ylan": 3763, "aly": 3764, "Pe": 3765, "Pos": 3766, "uv": 3767, "sbur": 3768, "▁att": 3769, "▁Most": 3770, "ened": 3771, "itas": 3772, "▁suff": 3773, "bis": 3774, "▁Mont": 3775, "▁tort": 3776, "estra": 3777, "▁dep": 3778, "▁side": 3779, "uple": 3780, "▁jel": 3781, "yll": 3782, "TON": 3783, "ID": 3784, "lon": 3785, "▁hel": 3786, "▁Tes": 3787, "nes": 3788, "▁mand": 3789, "▁hor": 3790, "▁GR": 3791, "▁trad": 3792, "▁Tan": 3793, "test": 3794, "bled": 3795, "▁Peters": 3796, "We": 3797, "amed": 3798, "▁program": 3799, "ify": 3800, "uth": 3801, "▁Aug": 3802, "▁reprezent": 3803, "dal": 3804, "▁sports": 3805, "uler": 3806, "iler": 3807, "▁emer": 3808, "itz": 3809, "elt": 3810, "▁el": 3811, "turn": 3812, "eng": 3813, "▁def": 3814, "oot": 3815, "▁Plan": 3816, "▁propos": 3817, "asion": 3818, "ists": 3819, "▁fer": 3820, "▁Hu": 3821, "▁oct": 3822, "ipa": 3823, "mate": 3824, "▁profile": 3825, "bal": 3826, "▁hy": 3827, "▁pin": 3828, "gun": 3829, "▁AR": 3830, "UK": 3831, "abol": 3832, "ith": 3833, "▁Fig": 3834, "▁ment": 3835, "▁familia": 3836, "▁tok": 3837, "▁wat": 3838, "▁poem": 3839, "agram": 3840, "▁element": 3841, "spr": 3842, "cas": 3843, "ual": 3844, ".,": 3845, "ing": 3846, "▁ges": 3847, "▁get": 3848, "CE": 3849, "LI": 3850, "cap": 3851, "▁bunk": 3852, "atura": 3853, "▁typ": 3854, "ammed": 3855, "▁Gordon": 3856, "ahr": 3857, "oun": 3858, "▁fu": 3859, "▁monaster": 3860, "▁rid": 3861, "▁Did": 3862, "▁Hamilton": 3863, "▁plant": 3864, "▁fle": 3865, "▁Arm": 3866, "opl": 3867, "cat": 3868, "▁Eff": 3869, "▁Tar": 3870, "assy": 3871, "▁New": 3872, "▁sul": 3873, "orum": 3874, "bon": 3875, "ric": 3876, "▁lac": 3877, "▁If": 3878, "iop": 3879, "aked": 3880, "▁nomin": 3881, "▁vir": 3882, "▁Ster": 3883, "▁Wolf": 3884, "▁know": 3885, "▁drew": 3886, "▁bus": 3887, "▁Graf": 3888, "▁respon": 3889, "aim": 3890, "▁Hur": 3891, "▁jud": 3892, "eres": 3893, "▁congress": 3894, "▁inv": 3895, "dot": 3896, "▁Hell": 3897, "EM": 3898, "orus": 3899, "▁Past": 3900, "▁PA": 3901, "▁Rap": 3902, "▁Meg": 3903, "▁Park": 3904, "▁SK": 3905, "▁Ast": 3906, "aton": 3907, "▁Sup": 3908, "▁fac": 3909, "▁Hand": 3910, "alie": 3911, "ong": 3912, "▁ent": 3913, "▁Herr": 3914, "imper": 3915, "mit": 3916, "▁ger": 3917, "aud": 3918, "astro": 3919, "natural": 3920, "▁pet": 3921, "onial": 3922, "▁url": 3923, "dma": 3924, "pent": 3925, "▁map": 3926, "ips": 3927, "▁bon": 3928, "▁Kim": 3929, "▁Fran": 3930, "▁proc": 3931, "uit": 3932, "ME": 3933, "▁Lil": 3934, "▁HAL": 3935, "▁persona": 3936, "▁!": 3937, "▁red": 3938, "▁Bad": 3939, "alin": 3940, "▁Es": 3941, "▁Tre": 3942, "▁Nach": 3943, "OK": 3944, "▁Doc": 3945, "off": 3946, "alle": 3947, "Nd": 3948, "amba": 3949, "▁fell": 3950, "mail": 3951, "▁mud": 3952, "▁nah": 3953, "▁determin": 3954, "start": 3955, "▁Nut": 3956, "ém": 3957, "▁take": 3958, "▁Wald": 3959, "▁miss": 3960, "uela": 3961, "▁vis": 3962, "▁Julian": 3963, "▁solid": 3964, "▁agent": 3965, "▁Esc": 3966, "▁Grand": 3967, "▁vict": 3968, "▁mass": 3969, "Bas": 3970, "▁Wor": 3971, "▁Barbara": 3972, "bridge": 3973, "▁Fal": 3974, "▁Gam": 3975, "▁Bes": 3976, "▁Palest": 3977, "▁Burg": 3978, "syn": 3979, "pop": 3980, "▁Annie": 3981, "ues": 3982, "▁Bol": 3983, "rote": 3984, "▁Rab": 3985, "▁Senator": 3986, "ume": 3987, "▁Hist": 3988, "ux": 3989, "olin": 3990, "▁Zen": 3991, "▁impl": 3992, "web": 3993, "▁vest": 3994, "▁hyp": 3995, "▁Had": 3996, "ea": 3997, "sat": 3998, "▁Sun": 3999, "rm": 4000, "han": 4001, "gy": 4002, "jack": 4003, "bag": 4004, "compar": 4005, "▁sera": 4006, "▁Len": 4007, "aul": 4008, "▁modo": 4009, "pin": 4010, "▁sir": 4011, "ajor": 4012, "▁Historia": 4013, "▁alias": 4014, "ird": 4015, "▁cars": 4016, "▁infl": 4017, "lez": 4018, "▁Roc": 4019, "▁pour": 4020, "▁gradu": 4021, "▁Hann": 4022, "sal": 4023, "ieron": 4024, "▁Ox": 4025, "rah": 4026, "▁Francis": 4027, "▁”": 4028, "▁Lem": 4029, "▁tub": 4030, "▁Kab": 4031, "▁nice": 4032, "loc": 4033, "SY": 4034, "jos": 4035, "▁Arch": 4036, "edu": 4037, "▁Ga": 4038, "MON": 4039, "▁ate": 4040, "CL": 4041, "riel": 4042, "agog": 4043, "bf": 4044, "uo": 4045, "▁Term": 4046, "rt": 4047, "but": 4048, "▁Rom": 4049, "▁Pope": 4050, "mir": 4051, "erman": 4052, "json": 4053, "cil": 4054, "▁popular": 4055, "uren": 4056, "▁lord": 4057, "rel": 4058, "▁Parad": 4059, "inter": 4060, "▁Bank": 4061, "▁sop": 4062, "▁amer": 4063, "eri": 4064, "▁Ocean": 4065, "▁Berlin": 4066, "▁Wall": 4067, "▁atr": 4068, "▁dub": 4069, "som": 4070, "stru": 4071, "orb": 4072, "In": 4073, "▁autom": 4074, "ural": 4075, "▁paste": 4076, "igent": 4077, "back": 4078, "▁new": 4079, "▁Tal": 4080, "ucht": 4081, "▁planet": 4082, "):": 4083, "DA": 4084, "▁STR": 4085, "▁ill": 4086, "AU": 4087, "▁ano": 4088, "▁prefer": 4089, "▁Filip": 4090, "▁Brand": 4091, "▁Won": 4092, "▁Raf": 4093, "apis": 4094, "▁Public": 4095, "WA": 4096, "▁–": 4097, "óm": 4098, "▁Bru": 4099, "▁sele": 4100, "▁bomb": 4101, "NE": 4102, "STR": 4103, "mann": 4104, "key": 4105, "Fac": 4106, "elly": 4107, "hend": 4108, "ids": 4109, "▁Kore": 4110, "ropol": 4111, "▁jeho": 4112, "uff": 4113, "aye": 4114, "ye": 4115, "ific": 4116, "roup": 4117, "▁prince": 4118, "▁ve": 4119, "▁wind": 4120, "▁Oper": 4121, "asse": 4122, "oret": 4123, "▁Link": 4124, "▁astr": 4125, "▁adopt": 4126, "▁Sir": 4127, "▁York": 4128, "▁Gil": 4129, "num": 4130, "▁Jen": 4131, "inde": 4132, "▁Best": 4133, "vo": 4134, "▁mast": 4135, "▁Put": 4136, "▁Alban": 4137, "oman": 4138, "fic": 4139, "▁script": 4140, "rb": 4141, "iens": 4142, "▁Ped": 4143, "inis": 4144, "▁,": 4145, "▁Cap": 4146, "▁Armen": 4147, "bes": 4148, "▁Lap": 4149, "itos": 4150, "▁Pand": 4151, "lli": 4152, "▁deren": 4153, "▁chrom": 4154, "▁tram": 4155, "▁Pur": 4156, "▁trap": 4157, "▁Dad": 4158, "▁«": 4159, "oes": 4160, "▁Gon": 4161, "▁jan": 4162, "▁primo": 4163, "▁gun": 4164, "cn": 4165, "stud": 4166, "▁Cel": 4167, "▁Barb": 4168, "egin": 4169, "▁terr": 4170, "▁orb": 4171, "▁hol": 4172, "▁vac": 4173, "▁Bal": 4174, "▁start": 4175, "most": 4176, "Sam": 4177, "▁foi": 4178, "▁Om": 4179, "uso": 4180, "▁contra": 4181, "cules": 4182, "▁Regiment": 4183, "▁patrol": 4184, "▁jur": 4185, "▁nem": 4186, "quis": 4187, "▁host": 4188, "▁cons": 4189, "licht": 4190, "▁bet": 4191, "▁zip": 4192, "▁hyd": 4193, "▁FILE": 4194, "▁cord": 4195, "wich": 4196, "▁Mai": 4197, "MP": 4198, "wire": 4199, "anto": 4200, "▁late": 4201, "▁stub": 4202, "▁must": 4203, "oo": 4204, "▁magic": 4205, "date": 4206, "BN": 4207, "eters": 4208, "fty": 4209, "▁ny": 4210, "▁Rol": 4211, "ahan": 4212, "▁role": 4213, "▁nob": 4214, "ots": 4215, "▁vous": 4216, "anga": 4217, "▁brutal": 4218, "▁Protest": 4219, "▁mer": 4220, "▁pes": 4221, "▁tand": 4222, "▁hat": 4223, "▁patent": 4224, "▁Stein": 4225, "olia": 4226, "role": 4227, "▁Sur": 4228, "▁Music": 4229, "▁Man": 4230, "Win": 4231, "▁Lam": 4232, "bery": 4233, "odot": 4234, "nen": 4235, "▁jap": 4236, "rena": 4237, "▁qui": 4238, "ation": 4239, "ve": 4240, "▁Lond": 4241, "entry": 4242, "▁Ira": 4243, "aron": 4244, "▁And": 4245, "ee": 4246, "▁Hi": 4247, "▁Hug": 4248, "▁nuc": 4249, "opic": 4250, "cle": 4251, "▁reform": 4252, "opt": 4253, "▁comme": 4254, "▁forma": 4255, "fol": 4256, "fo": 4257, "▁bek": 4258, "▁Romans": 4259, "eton": 4260, "▁Mes": 4261, "obe": 4262, "▁legal": 4263, "▁Bell": 4264, "▁Saw": 4265, "▁chi": 4266, "irm": 4267, "UN": 4268, "PI": 4269, "tos": 4270, "LO": 4271, "▁orient": 4272, "▁inc": 4273, "▁Minister": 4274, "▁dict": 4275, "▁miser": 4276, "▁Sol": 4277, "▁Anim": 4278, "CUR": 4279, "▁Dum": 4280, "▁tres": 4281, "izi": 4282, "▁IN": 4283, "mos": 4284, "far": 4285, "▁Dre": 4286, "MI": 4287, "IES": 4288, "▁lag": 4289, "enu": 4290, "atomic": 4291, "▁Harr": 4292, "aires": 4293, "iri": 4294, "▁nd": 4295, "▁Mad": 4296, "▁Sou": 4297, "med": 4298, "▁Albert": 4299, "hin": 4300, "▁volunt": 4301, "iser": 4302, "▁dumb": 4303, "kir": 4304, "▁except": 4305, "enter": 4306, "▁Dog": 4307, "lif": 4308, "ulf": 4309, "tat": 4310, "üt": 4311, "▁Face": 4312, "Hel": 4313, "▁Regular": 4314, "▁lev": 4315, "▁Karl": 4316, "▁Plus": 4317, "iesa": 4318, "All": 4319, "▁mad": 4320, "wp": 4321, "▁beg": 4322, "▁Lad": 4323, "sam": 4324, "▁max": 4325, "udi": 4326, "▁just": 4327, "▁ops": 4328, "stop": 4329, "walk": 4330, "▁fel": 4331, "▁John": 4332, "▁nost": 4333, "enden": 4334, "▁Lisa": 4335, "▁geld": 4336, "',": 4337, "oden": 4338, "▁ca": 4339, "▁and": 4340, "▁vom": 4341, "▁arbitr": 4342, "Be": 4343, "▁arena": 4344, "▁capit": 4345, "▁Luc": 4346, "esser": 4347, "oge": 4348, "▁trans": 4349, "▁Afr": 4350, "plic": 4351, "oms": 4352, "ikel": 4353, "igan": 4354, "▁Sad": 4355, "unn": 4356, "▁Nin": 4357, "Sn": 4358, "▁Run": 4359, "▁ss": 4360, "▁Male": 4361, "olate": 4362, "entes": 4363, "bec": 4364, "▁Tab": 4365, "▁Bre": 4366, "ritz": 4367, "Gr": 4368, "ahu": 4369, "encer": 4370, "▁Bald": 4371, "▁Att": 4372, "▁Jordan": 4373, "▁Ave": 4374, "▁Has": 4375, "▁raw": 4376, "uid": 4377, "achi": 4378, "urch": 4379, "km": 4380, "fun": 4381, "▁dies": 4382, "hof": 4383, "enders": 4384, "▁Neb": 4385, "ello": 4386, "▁mut": 4387, "omen": 4388, "▁exempl": 4389, "alom": 4390, "▁insult": 4391, "▁Prop": 4392, "▁Is": 4393, "▁Imper": 4394, "▁Roh": 4395, "icit": 4396, "ijk": 4397, "▁personal": 4398, "endent": 4399, "▁cas": 4400, "ures": 4401, "imag": 4402, "ups": 4403, "▁Ord": 4404, "ensor": 4405, "▁parl": 4406, "▁Imp": 4407, "▁Big": 4408, "aland": 4409, "file": 4410, "url": 4411, "▁spin": 4412, "▁Stat": 4413, "olt": 4414, "ouch": 4415, "oe": 4416, "▁Mess": 4417, "igo": 4418, "▁arg": 4419, "▁pen": 4420, "▁Sim": 4421, "oin": 4422, "LOT": 4423, "IM": 4424, "▁capt": 4425, "▁hig": 4426, "▁Gu": 4427, "▁idiot": 4428, "apon": 4429, "▁Sel": 4430, "▁que": 4431, "ait": 4432, "enas": 4433, "▁Nem": 4434, "ced": 4435, "yman": 4436, "▁Gab": 4437, "▁bil": 4438, "▁aspir": 4439, "▁Bot": 4440, "▁polite": 4441, "char": 4442, "idal": 4443, "▁pup": 4444, "▁Col": 4445, "del": 4446, "itt": 4447, "▁gut": 4448, "▁immer": 4449, "istry": 4450, "▁torn": 4451, "▁rul": 4452, "▁demonstr": 4453, "script": 4454, "▁sec": 4455, "▁div": 4456, "▁à": 4457, "▁vot": 4458, "Te": 4459, "▁Saint": 4460, "manuel": 4461, "amaz": 4462, "▁schon": 4463, "Le": 4464, "emat": 4465, "▁regul": 4466, "▁pub": 4467, "▁hom": 4468, "fel": 4469, "▁Abs": 4470, "▁poor": 4471, "▁Kn": 4472, "▁luc": 4473, "▁wire": 4474, "▁stre": 4475, "afka": 4476, "rio": 4477, "▁Roman": 4478, "icus": 4479, "▁face": 4480, "▁fet": 4481, "▁Peter": 4482, "bet": 4483, "▁span": 4484, "▁NA": 4485, "AW": 4486, "▁OR": 4487, "▁NO": 4488, "TER": 4489, "▁SER": 4490, "OB": 4491, "obj": 4492, "▁marg": 4493, "ptr": 4494, "▁Th": 4495, "amic": 4496, "ibr": 4497, "olo": 4498, "▁puls": 4499, "▁und": 4500, "▁cere": 4501, "ANK": 4502, "CA": 4503, "WAR": 4504, "UD": 4505, "▁BR": 4506, "IEW": 4507, "▁mole": 4508, "▁SI": 4509, "▁Gabriel": 4510, "itet": 4511, "▁tek": 4512, "▁terror": 4513, "OT": 4514, "OL": 4515, "GO": 4516, "▁Gest": 4517, "ück": 4518, "▁Rav": 4519, "izon": 4520, "alion": 4521, "▁boy": 4522, "▁bub": 4523, "▁ib": 4524, "▁pass": 4525, "Ab": 4526, "arge": 4527, "▁Kh": 4528, "Med": 4529, "▁Bomb": 4530, "▁pri": 4531, "▁pid": 4532, "obal": 4533, "\";": 4534, "▁vul": 4535, "dru": 4536, "osti": 4537, "▁Bin": 4538, "Dom": 4539, "uti": 4540, "bt": 4541, "ometry": 4542, "▁Mut": 4543, "▁artic": 4544, "unct": 4545, "dest": 4546, "tol": 4547, "▁dign": 4548, "▁WM": 4549, "ott": 4550, "▁march": 4551, "▁girl": 4552, "▁Inf": 4553, "skin": 4554, "iver": 4555, "▁prospect": 4556, "reed": 4557, "▁Samuel": 4558, "▁Non": 4559, "tal": 4560, "▁Ken": 4561, "oup": 4562, "▁toler": 4563, "▁atom": 4564, "▁Baby": 4565, "▁Astr": 4566, "abul": 4567, "▁Av": 4568, "▁Kont": 4569, "▁media": 4570, "▁logic": 4571, "pit": 4572, "vre": 4573, "▁Lou": 4574, "fab": 4575, "▁Central": 4576, "umer": 4577, "fs": 4578, "▁ph": 4579, "▁ver": 4580, "▁forty": 4581, "hent": 4582, "imir": 4583, "▁animal": 4584, "▁Islam": 4585, "▁Buc": 4586, "Az": 4587, "Ad": 4588, "▁hass": 4589, "▁Bus": 4590, "▁ski": 4591, "▁cl": 4592, "▁Fant": 4593, "▁multi": 4594, "cite": 4595, "▁bore": 4596, "arts": 4597, "fort": 4598, "▁mes": 4599, "▁col": 4600, "▁sign": 4601, "▁Mons": 4602, "▁stor": 4603, "▁epid": 4604, "▁Indian": 4605, "▁right": 4606, "iner": 4607, "Post": 4608, "▁só": 4609, "aran": 4610, "▁Hard": 4611, "agne": 4612, "▁Natal": 4613, "ocom": 4614, "poch": 4615, "atos": 4616, "▁bed": 4617, "nit": 4618, "▁Gol": 4619, "bil": 4620, "▁Chron": 4621, "enses": 4622, "▁circ": 4623, "izo": 4624, "▁Aqu": 4625, "ense": 4626, "▁Bren": 4627, "ov": 4628, "▁Gall": 4629, "▁Diana": 4630, "akte": 4631, "plica": 4632, "▁cur": 4633, "atio": 4634, "▁Liber": 4635, "▁Log": 4636, "oport": 4637, "▁Max": 4638, "thon": 4639, "anes": 4640, "eler": 4641, "cm": 4642, "elles": 4643, "ters": 4644, "▁Kent": 4645, "alo": 4646, "erei": 4647, "mark": 4648, "▁Chat": 4649, "▁otro": 4650, "rito": 4651, "ei": 4652, "pen": 4653, "hom": 4654, "chat": 4655, "onte": 4656, "nil": 4657, "▁porn": 4658, "▁Fer": 4659, "▁Hen": 4660, "ken": 4661, "uen": 4662, "▁rang": 4663, "stack": 4664, "rit": 4665, "undo": 4666, "Os": 4667, "▁Vir": 4668, "▁ass": 4669, "▁benef": 4670, "equ": 4671, "Me": 4672, "oy": 4673, "▁Rep": 4674, "erg": 4675, "▁Harm": 4676, "▁Para": 4677, "▁Daniel": 4678, "▁Marcel": 4679, "▁Han": 4680, "▁Est": 4681, "▁bid": 4682, "itr": 4683, "▁Int": 4684, "▁Europa": 4685, "ctor": 4686, "▁jury": 4687, "▁excit": 4688, "Pop": 4689, "imit": 4690, "frag": 4691, "▁care": 4692, "éc": 4693, "Ap": 4694, "▁sep": 4695, "iper": 4696, "imat": 4697, "X": 4698, "▁Ren": 4699, "▁necess": 4700, "mor": 4701, "Op": 4702, "▁av": 4703, "itte": 4704, "▁Sh": 4705, "▁Tok": 4706, "oca": 4707, "first": 4708, "▁Note": 4709, "sd": 4710, "▁Rem": 4711, "▁dou": 4712, "Jan": 4713, "▁Oz": 4714, "chet": 4715, "Ser": 4716, "▁Stad": 4717, "▁Testament": 4718, "▁Moz": 4719, "▁Mul": 4720, "rix": 4721, "▁Ec": 4722, "▁File": 4723, "▁Ven": 4724, "istrzost": 4725, "Di": 4726, "▁Euro": 4727, "get": 4728, "▁Ali": 4729, "ORY": 4730, "cup": 4731, "IG": 4732, "▁MR": 4733, "YP": 4734, "▁sim": 4735, "USA": 4736, "LE": 4737, "etes": 4738, "plac": 4739, "▁dent": 4740, "▁Tri": 4741, "▁Ton": 4742, "perf": 4743, "▁tragic": 4744, "▁Gold": 4745, "▁menu": 4746, "▁Eug": 4747, "▁Julia": 4748, "▁dynam": 4749, "wind": 4750, "▁Ut": 4751, "gel": 4752, "▁En": 4753, "*;": 4754, "ktur": 4755, "▁mobile": 4756, "▁perpet": 4757, "▁ful": 4758, "▁notes": 4759, "iling": 4760, "▁lie": 4761, "▁apart": 4762, "ifik": 4763, "▁tart": 4764, "vis": 4765, "lor": 4766, "ches": 4767, "▁Floren": 4768, "▁date": 4769, "▁en": 4770, "ver": 4771, "rou": 4772, "▁desen": 4773, "sl": 4774, "▁liberal": 4775, "ifer": 4776, "▁Kinder": 4777, "▁any": 4778, "ston": 4779, "field": 4780, "atalog": 4781, "ett": 4782, "resc": 4783, "cul": 4784, "▁sel": 4785, "▁spir": 4786, "fig": 4787, "▁Ins": 4788, "▁Nob": 4789, "▁ren": 4790, "rg": 4791, "▁strateg": 4792, "▁Gaz": 4793, "▁Alt": 4794, "▁Famil": 4795, "ronic": 4796, "ygon": 4797, "▁abs": 4798, "▁mant": 4799, "ón": 4800, "Pol": 4801, "▁:": 4802, "▁gren": 4803, "▁bars": 4804, "▁ble": 4805, "IST": 4806, "pus": 4807, "BER": 4808, "ZZ": 4809, "▁secur": 4810, "▁Git": 4811, "▁dude": 4812, "LIC": 4813, "SC": 4814, "▁?": 4815, "▁Inc": 4816, "▁Test": 4817, "▁orbit": 4818, "BY": 4819, "RI": 4820, "▁norm": 4821, "feld": 4822, "real": 4823, "▁Ide": 4824, "atori": 4825, "▁poster": 4826, "▁Belg": 4827, "EC": 4828, "WE": 4829, "grad": 4830, "▁Bun": 4831, "▁sowie": 4832, "erst": 4833, "▁cet": 4834, "ogram": 4835, "▁SS": 4836, "ohl": 4837, "équ": 4838, "▁Cr": 4839, "▁flo": 4840, "sole": 4841, "▁femme": 4842, "▁Ce": 4843, "▁Sach": 4844, "As": 4845, "▁use": 4846, "▁Farm": 4847, "enze": 4848, "▁Stanley": 4849, "mina": 4850, "Sim": 4851, "Ms": 4852, "tail": 4853, "▁Abb": 4854, "▁sudd": 4855, "▁Dak": 4856, "Tur": 4857, "ley": 4858, "Fat": 4859, "▁Tim": 4860, "▁tant": 4861, "är": 4862, "Char": 4863, "▁Dit": 4864, "rij": 4865, "lick": 4866, "elo": 4867, "ven": 4868, "▁sor": 4869, "▁tel": 4870, "apor": 4871, "Sir": 4872, "▁Reb": 4873, "▁adoles": 4874, "cé": 4875, "rient": 4876, "▁teles": 4877, ".-": 4878, "▁Ts": 4879, "▁ministry": 4880, "▁legit": 4881, "istic": 4882, "▁Wow": 4883, "▁serv": 4884, "idd": 4885, "▁prop": 4886, "plit": 4887, "▁Bond": 4888, "irs": 4889, "isten": 4890, "▁Schw": 4891, "enti": 4892, "nico": 4893, "Dot": 4894, "Pt": 4895, "▁lap": 4896, "▁Cher": 4897, "iten": 4898, "ifi": 4899, "Hor": 4900, "hip": 4901, "▁fals": 4902, "▁Mum": 4903, "▁gang": 4904, "▁Zur": 4905, "lab": 4906, "▁mort": 4907, "„": 4908, "Two": 4909, "▁tail": 4910, "▁aqu": 4911, "▁cad": 4912, "▁vi": 4913, "▁comb": 4914, "ality": 4915, "ielle": 4916, "▁ign": 4917, "▁sanct": 4918, "iface": 4919, "Grad": 4920, "▁Maur": 4921, "▁cler": 4922, "ublic": 4923, "▁Hud": 4924, "▁Norman": 4925, "ove": 4926, "▁Fitz": 4927, "▁WP": 4928, "▁Chi": 4929, "lb": 4930, "▁parti": 4931, "sis": 4932, "▁vill": 4933, "▁regia": 4934, "bg": 4935, "holm": 4936, "sb": 4937, "mans": 4938, "oks": 4939, "enburg": 4940, "nut": 4941, "utt": 4942, "ü": 4943, "aml": 4944, "well": 4945, "▁Temp": 4946, "ief": 4947, "▁super": 4948, "ones": 4949, "▁Walter": 4950, "▁Ern": 4951, "▁Rel": 4952, "▁desp": 4953, "imer": 4954, "uu": 4955, "▁Roberts": 4956, "▁Robert": 4957, "habil": 4958, "▁sport": 4959, "oid": 4960, "▁Peg": 4961, "anel": 4962, "ental": 4963, "ool": 4964, "aiser": 4965, "▁rav": 4966, "▁clos": 4967, "▁aussi": 4968, "ses": 4969, "▁pres": 4970, "ografia": 4971, "owing": 4972, "ennes": 4973, "ét": 4974, "Bag": 4975, "▁rent": 4976, "isson": 4977, "▁trois": 4978, "Fig": 4979, "ette": 4980, "Par": 4981, "kem": 4982, "▁trem": 4983, "agen": 4984, "▁land": 4985, "▁pace": 4986, "Requ": 4987, "▁bast": 4988, "onde": 4989, "align": 4990, "▁stem": 4991, "ussy": 4992, "▁dev": 4993, "▁quantum": 4994, "▁cert": 4995, "▁ker": 4996, "▁Balt": 4997, "▁Human": 4998, "Or": 4999, "osc": 5000, "▁cogn": 5001, "▁disc": 5002, "▁aur": 5003, "ey": 5004, "▁candid": 5005, "▁compar": 5006, "▁vit": 5007, "page": 5008, "alg": 5009, "v": 5010, "▁Amazon": 5011, "▁Well": 5012, "▁Die": 5013, "▁uns": 5014, "▁Wend": 5015, "ulin": 5016, "sf": 5017, "▁Alf": 5018, "▁Vor": 5019, "ump": 5020, "ön": 5021, "▁Requ": 5022, "▁Ms": 5023, "▁parte": 5024, "rie": 5025, "▁Gle": 5026, "semb": 5027, "heim": 5028, "▁Bern": 5029, "azure": 5030, "▁Nep": 5031, "Pl": 5032, "Best": 5033, "Bro": 5034, "▁Later": 5035, "▁corpor": 5036, "ox": 5037, "▁Arena": 5038, "▁arte": 5039, "esar": 5040, "▁>": 5041, "atic": 5042, "▁Law": 5043, "Hist": 5044, "▁tod": 5045, "▁Vel": 5046, "rate": 5047, "ices": 5048, "iva": 5049, "▁ven": 5050, "eth": 5051, "ath": 5052, "▁pont": 5053, "emb": 5054, "▁Circ": 5055, "cell": 5056, "▁Vol": 5057, "▁human": 5058, "▁Tun": 5059, "Mark": 5060, "▁Anne": 5061, "ovi": 5062, "▁bull": 5063, "hus": 5064, "▁mens": 5065, "othes": 5066, "ookie": 5067, "ystem": 5068, "▁Zel": 5069, "alia": 5070, "Mil": 5071, "Dam": 5072, "Pen": 5073, "▁Fem": 5074, "Wr": 5075, "La": 5076, "tim": 5077, "ife": 5078, "iro": 5079, "▁Kirk": 5080, "▁track": 5081, "atre": 5082, "ky": 5083, "▁Ker": 5084, "▁mai": 5085, "los": 5086, "omed": 5087, "»,": 5088, "▁Hero": 5089, "Ant": 5090, "▁Van": 5091, "▁bot": 5092, "▁Jesus": 5093, "▁miles": 5094, "yme": 5095, "▁how": 5096, "blem": 5097, "▁conf": 5098, "▁innoc": 5099, "ifest": 5100, "▁requ": 5101, "▁punct": 5102, "ames": 5103, "▁figure": 5104, "ioni": 5105, "▁refer": 5106, "▁pile": 5107, "orm": 5108, "eman": 5109, "oust": 5110, "irat": 5111, "emp": 5112, "▁Hans": 5113, "aces": 5114, "▁vol": 5115, "▁mill": 5116, "▁gol": 5117, "ador": 5118, "▁Sebastian": 5119, "▁Brew": 5120, "▁Rug": 5121, "omer": 5122, "▁Fin": 5123, "▁brow": 5124, "▁Peru": 5125, "iders": 5126, "▁Band": 5127, "\")": 5128, "▁(\"": 5129, "itary": 5130, "Pal": 5131, "▁redu": 5132, "ancy": 5133, "▁Cons": 5134, "▁Rec": 5135, "▁extrem": 5136, "▁Ext": 5137, "acon": 5138, "▁exped": 5139, "▁Form": 5140, "▁Joh": 5141, "▁Wilhelm": 5142, "-,": 5143, "person": 5144, "▁Heinrich": 5145, "Ag": 5146, "esse": 5147, "hol": 5148, "▁grav": 5149, "tty": 5150, "emet": 5151, "ex": 5152, "rant": 5153, "bere": 5154, "atore": 5155, "tc": 5156, "Ok": 5157, "lig": 5158, "▁Mend": 5159, "▁Abraham": 5160, "IT": 5161, "CTOR": 5162, "▁solo": 5163, "▁WIN": 5164, "RA": 5165, "ROW": 5166, "▁Bau": 5167, "▁convent": 5168, "▁sar": 5169, "▁Nor": 5170, "SE": 5171, "PK": 5172, "HER": 5173, "▁ali": 5174, "▁Jon": 5175, "▁Ark": 5176, "ropy": 5177, "ialog": 5178, "ACE": 5179, "▁hero": 5180, "▁Dec": 5181, "BI": 5182, "▁SE": 5183, "▁tren": 5184, "iqu": 5185, "SP": 5186, "ologia": 5187, "▁vale": 5188, "▁sab": 5189, "▁Ret": 5190, "▁problem": 5191, "ester": 5192, "▁frag": 5193, "▁DA": 5194, "▁Brun": 5195, "▁Ban": 5196, "werk": 5197, "iti": 5198, "▁hun": 5199, "▁sj": 5200, "GE": 5201, "TOM": 5202, "YN": 5203, "oren": 5204, "▁nov": 5205, "▁saw": 5206, "osten": 5207, "Ir": 5208, "▁lim": 5209, "lett": 5210, "▁Germ": 5211, "pag": 5212, "beta": 5213, "▁bes": 5214, "▁separ": 5215, "▁Hem": 5216, "Fil": 5217, "▁Monte": 5218, "▁repl": 5219, "Mar": 5220, "▁flu": 5221, "▁partner": 5222, "tm": 5223, "ieur": 5224, "▁psych": 5225, "mund": 5226, "oped": 5227, "▁bere": 5228, "▁Newton": 5229, "▁literal": 5230, "▁Colin": 5231, "recht": 5232, "hel": 5233, "öd": 5234, "ür": 5235, "essen": 5236, "▁voll": 5237, "▁sich": 5238, "▁noch": 5239, "▁Aber": 5240, "▁Vil": 5241, "▁hast": 5242, "▁motor": 5243, "▁Bul": 5244, "▁terra": 5245, "▁depart": 5246, "kins": 5247, "▁Papa": 5248, "att": 5249, "oul": 5250, "▁ave": 5251, "▁ben": 5252, "▁tamb": 5253, "▁fro": 5254, "▁water": 5255, "▁rule": 5256, "▁fert": 5257, "▁Sed": 5258, "emony": 5259, "▁neutral": 5260, "neum": 5261, "▁handle": 5262, "▁Mask": 5263, "rn": 5264, "▁absurd": 5265, "bias": 5266, "tle": 5267, "ours": 5268, "▁prem": 5269, "out": 5270, "uss": 5271, "▁Organ": 5272, "▁instr": 5273, "▁Pin": 5274, "▁Policy": 5275, "imum": 5276, "MY": 5277, "AST": 5278, "ACH": 5279, "PE": 5280, "NO": 5281, "TI": 5282, "▁Ari": 5283, "q": 5284, "▁GEN": 5285, "▁lid": 5286, "ix": 5287, "pare": 5288, "▁Dies": 5289, "san": 5290, "▁wen": 5291, "▁gene": 5292, "GR": 5293, "upt": 5294, "illo": 5295, "▁ingred": 5296, "ocur": 5297, "▁dun": 5298, "▁temp": 5299, "mare": 5300, "▁Bibli": 5301, "▁schol": 5302, "ARY": 5303, "HA": 5304, "▁TE": 5305, "▁May": 5306, "imm": 5307, "▁central": 5308, "▁Norweg": 5309, "▁auto": 5310, "It": 5311, "mr": 5312, "ASK": 5313, "▁BL": 5314, "▁aer": 5315, "▁Hig": 5316, "▁Institut": 5317, "▁cement": 5318}