{",": 0, "<0x80>": 1, "<0xE2>": 2, "<s>": 3, ".": 4, "▁": 5, "<0x94>": 6, "▁i": 7, "▁się": 8, "▁w": 9, "▁nie": 10, "▁na": 11, "▁z": 12, "!": 13, "▁do": 14, "<0xA6>": 15, "▁że": 16, "▁to": 17, "?": 18, "▁a": 19, ":": 20, "▁po": 21, "▁za": 22, "▁o": 23, "▁jak": 24, ";": 25, "▁od": 26, "▁ale": 27, "▁go": 28, "▁A": 29, "▁co": 30, "li": 31, "▁mu": 32, "▁tak": 33, "ć": 34, "▁bo": 35, "▁już": 36, "▁pan": 37, "▁mi": 38, "▁przy": 39, "▁mnie": 40, "ł": 41, "nie": 42, "▁rzekł": 43, "▁jego": 44, "▁I": 45, "▁jest": 46, "sz": 47, "▁Nie": 48, "▁jej": 49, "▁W": 50, "▁u": 51, "▁ja": 52, "m": 53, "▁pod": 54, "▁tylko": 55, "▁ze": 56, "ny": 57, "mi": 58, "▁by": 59, "▁jeszcze": 60, "<0x9D>": 61, "<0x9E>": 62, "ni": 63, "▁było": 64, "ch": 65, "na": 66, "▁wy": 67, "▁Za": 68, "▁tym": 69, "cie": 70, "▁ich": 71, "ły": 72, "▁był": 73, "ła": 74, "ś": 75, "▁przez": 76, "ci": 77, "ka": 78, "▁gdy": 79, "ki": 80, "▁który": 81, "ku": 82, "j": 83, "▁Na": 84, "▁tu": 85, "c": 86, "ż": 87, "▁ci": 88, "▁dla": 89, "▁Ale": 90, "▁ją": 91, "▁ma": 92, "▁nim": 93, "▁roz": 94, "no": 95, "▁ku": 96, "rze": 97, "▁zaś": 98, "▁on": 99, "▁czy": 100, "▁sobie": 101, "▁tego": 102, "▁tam": 103, "▁nad": 104, "ba": 105, "▁przed": 106, "ta": 107, "że": 108, "▁Po": 109, "ną": 110, "wał": 111, "dy": 112, "by": 113, "▁więc": 114, "▁może": 115, "▁Z": 116, "ło": 117, "▁To": 118, "ra": 119, "▁O": 120, "ne": 121, "▁K": 122, "▁ten": 123, "jąc": 124, "wszy": 125, "▁tej": 126, "ty": 127, "▁prze": 128, "szy": 129, "▁nawet": 130, "▁będzie": 131, "k": 132, "ko": 133, "▁też": 134, "▁Wo": 135, "wa": 136, "tu": 137, "▁sam": 138, "owi": 139, "▁które": 140, "cy": 141, "ów": 142, "▁książę": 143, "ał": 144, "▁bez": 145, "▁jako": 146, "ski": 147, "dzie": 148, "ją": 149, "my": 150, "ce": 151, "gło": 152, "t": 153, "b": 154, "le": 155, "ca": 156, "ść": 157, "▁chwili": 158, "rzy": 159, "▁wa": 160, "▁teraz": 161, "nia": 162, "▁pa": 163, "s": 164, "▁je": 165, "▁pana": 166, "ści": 167, "▁oczy": 168, "w": 169, "p": 170, "▁ty": 171, "czy": 172, "▁Ja": 173, "▁Lecz": 174, "wi": 175, "la": 176, "▁być": 177, "ały": 178, "g": 179, "▁miał": 180, "▁im": 181, "ma": 182, "▁jakby": 183, "si": 184, "je": 185, "▁niego": 186, "▁cię": 187, "sa": 188, "▁mówił": 189, "▁jednak": 190, "ń": 191, "nę": 192, "owie": 193, "cz": 194, "d": 195, "▁gdzie": 196, "▁nas": 197, "▁Co": 198, "nym": 199, "▁nic": 200, "n": 201, "dzi": 202, "▁nich": 203, "▁była": 204, "ków": 205, "▁albo": 206, "▁Bo": 207, "▁lecz": 208, "gi": 209, "ry": 210, "▁wie": 211, "▁aby": 212, "wie": 213, "te": 214, "▁Sta": 215, "▁wo": 216, "łem": 217, "▁aż": 218, "▁niej": 219, "ował": 220, "cki": 221, "▁panie": 222, "▁wi": 223, "▁wszystko": 224, "▁czym": 225, "ą": 226, "▁począł": 227, "▁poczę": 228, "▁między": 229, "▁tych": 230, "nych": 231, "lski": 232, "mu": 233, "▁Wi": 234, "wy": 235, "sza": 236, "▁Tak": 237, "ę": 238, "▁ko": 239, "▁Pan": 240, "▁pani": 241, "da": 242, "cze": 243, "▁ba": 244, "▁ludzi": 245, "▁których": 246, "▁ob": 247, "▁ani": 248, "▁ta": 249, "▁Woło": 250, "cha": 251, "kiem": 252, "owski": 253, "-": 254, "em": 255, "▁są": 256, "▁bardzo": 257, "dyj": 258, "wać": 259, "▁mo": 260, "▁mógł": 261, "dził": 262, "▁Zby": 263, "tem": 264, "ga": 265, "▁którzy": 266, "▁te": 267, "z": 268, "▁Bóg": 269, "▁siebie": 270, "u": 271, "▁lub": 272, "ro": 273, "nej": 274, "▁ni": 275, "▁zaraz": 276, "i": 277, "▁kto": 278, "ja": 279, "▁raz": 280, "▁k": 281, "▁nią": 282, "mie": 283, "▁ręce": 284, "kę": 285, "ska": 286, "▁sz": 287, "rza": 288, "▁nam": 289, "sia": 290, "skiego": 291, "sie": 292, "▁potem": 293, "▁U": 294, "▁więcej": 295, "▁ła": 296, "nął": 297, "ję": 298, "▁we": 299, "ało": 300, "▁której": 301, "▁sza": 302, "ście": 303, "▁która": 304, "▁naj": 305, "▁choć": 306, "▁Czy": 307, "rz": 308, "▁tę": 309, "▁ru": 310, "nego": 311, "ży": 312, "▁jeno": 313, "go": 314, "▁jeśli": 315, "r": 316, "l": 317, "▁ona": 318, "▁domu": 319, "▁coraz": 320, "▁Do": 321, "pie": 322, "lu": 323, "▁którym": 324, "▁Więc": 325, "▁sta": 326, "▁ra": 327, "▁głowę": 328, "ką": 329, "▁nimi": 330, "▁niech": 331, "wo": 332, "▁dalej": 333, "▁Tu": 334, "▁Ma": 335, "▁Ba": 336, "▁jeden": 337, "▁iż": 338, "▁odparł": 339, "▁wszystkich": 340, "▁ch": 341, "ała": 342, "▁gdyby": 343, "▁niż": 344, "bi": 345, "ować": 346, "▁coś": 347, "▁/": 348, "sze": 349, "▁znowu": 350, "▁Li": 351, "▁którego": 352, "▁s": 353, "dę": 354, "st": 355, "to": 356, "py": 357, "mo": 358, "bym": 359, "▁gdyż": 360, "▁sto": 361, "▁wszyscy": 362, "▁Niech": 363, "▁kiedy": 364, "▁wszystkie": 365, "sy": 366, "chy": 367, "▁Wy": 368, "▁kapła": 369, "gie": 370, "▁Sk": 371, "▁Jak": 372, "▁znów": 373, "zi": 374, "usz": 375, "▁pu": 376, "kami": 377, "▁no": 378, "▁Przy": 379, "wali": 380, "wały": 381, "▁człowiek": 382, "czył": 383, "▁dziś": 384, "▁odpowiedział": 385, "▁były": 386, "ność": 387, "skie": 388, "▁sobą": 389, "▁czas": 390, "nił": 391, "▁g": 392, "▁dzień": 393, "▁także": 394, "▁m": 395, "▁chciał": 396, "▁my": 397, "▁dobrze": 398, "▁zawołał": 399, "ź": 400, "▁można": 401, "cą": 402, "du": 403, "▁S": 404, "▁mie": 405, "▁twarz": 406, "re": 407, "sty": 408, "▁mój": 409, "▁ludzie": 410, "▁wreszcie": 411, "▁chorą": 412, "▁b": 413, "lę": 414, "skich": 415, "▁odrzekł": 416, "▁Ty": 417, "▁le": 418, "cho": 419, "▁bi": 420, "▁het": 421, "▁mam": 422, "▁p": 423, "▁którą": 424, "owa": 425, "nem": 426, "▁nagle": 427, "nąć": 428, "szko": 429, "wała": 430, "▁Od": 431, "▁li": 432, "niem": 433, "nicj": 434, "▁zawsze": 435, "tą": 436, "▁t": 437, "▁ów": 438, "bie": 439, "on": 440, "▁czasu": 441, "▁wiem": 442, "▁żeby": 443, "▁fa": 444, "sta": 445, "F": 446, "pi": 447, "▁oni": 448, "▁Gdy": 449, "▁dwa": 450, "nów": 451, "ową": 452, "▁głowy": 453, "pan": 454, "▁trzeba": 455, "dzić": 456, "zy": 457, "niu": 458, "▁ziemi": 459, "▁spytał": 460, "▁prawie": 461, "▁przeciw": 462, "▁pło": 463, "▁wz": 464, "▁was": 465, "f": 466, "▁kilka": 467, "▁ciebie": 468, "pa": 469, "▁P": 470, "wą": 471, "▁da": 472, "▁dzi": 473, "ej": 474, "▁przecie": 475, "▁chwilę": 476, "▁mę": 477, "ek": 478, "▁masz": 479, "▁-": 480, "szą": 481, "h": 482, "▁razem": 483, "dą": 484, "▁właśnie": 485, "▁nigdy": 486, "▁bowiem": 487, "▁ga": 488, "▁oto": 489, "▁księcia": 490, "▁bie": 491, "▁ży": 492, "tów": 493, "▁Szwe": 494, "▁rękę": 495, "▁Już": 496, "▁nieprzyja": 497, "łą": 498, "▁dopiero": 499, "▁stary": 500, "▁ro": 501, "▁bu": 502, "▁H": 503, "▁ryce": 504, "▁cz": 505, "▁ce": 506, "su": 507, "wił": 508, "▁cały": 509, "▁serce": 510, "▁T": 511, "stwo": 512, "owy": 513, "▁ażeby": 514, "lni": 515, "▁taki": 516, "nu": 517, "▁uczy": 518, "▁M": 519, "ha": 520, "▁Ju": 521, "▁wam": 522, "▁strony": 523, "cę": 524, "▁Prze": 525, "łu": 526, "▁Tymczasem": 527, "▁myśli": 528, "▁nikt": 529, "kach": 530, "▁wśród": 531, "ścią": 532, "▁jeżeli": 533, "we": 534, "do": 535, "A": 536, "dź": 537, "rę": 538, "skim": 539, "cił": 540, "▁Ka": 541, "▁ka": 542, "nek": 543, "▁On": 544, "ałem": 545, "▁rycerz": 546, "▁pro": 547, "▁król": 548, "▁drugi": 549, "nymi": 550, "▁tyle": 551, "ności": 552, "▁jakiś": 553, "bo": 554, "▁pie": 555, "▁głos": 556, "▁wasz": 557, "cza": 558, "ców": 559, "▁panna": 560, "▁wą": 561, "ar": 562, "▁panu": 563, "kie": 564, "▁byli": 565, "▁swego": 566, "▁myśl": 567, "▁Ram": 568, "▁Kto": 569, "▁noc": 570, "tę": 571, "O": 572, "fi": 573, "▁całą": 574, "▁księ": 575, "▁słu": 576, "▁E": 577, "▁słowa": 578, "lo": 579, "rem": 580, "▁widać": 581, "rzą": 582, "▁dlatego": 583, "▁rzekła": 584, "▁głosem": 585, "man": 586, "▁ło": 587, "▁dni": 588, "▁potę": 589, "▁twarzy": 590, "knął": 591, "▁jestem": 592, "▁koń": 593, "tnie": 594, "▁pół": 595, "▁No": 596, "▁naprzód": 597, "▁Mo": 598, "▁choćby": 599, "▁czego": 600, "▁Chmie": 601, "ża": 602, "▁lat": 603, "niej": 604, "▁tysięcy": 605, "▁trzy": 606, "chu": 607, "wia": 608, "▁zna": 609, "▁tru": 610, "▁(": 611, "czą": 612, "▁krzy": 613, "▁duszy": 614, "ow": 615, "sk": 616, "▁krew": 617, "po": 618, "▁tedy": 619, "▁Jako": 620, "jcie": 621, "▁pła": 622, "ską": 623, "czyć": 624, "dów": 625, "▁d": 626, "nicy": 627, "▁lepiej": 628, "▁gro": 629, "nęła": 630, "▁chce": 631, "ckiego": 632, "▁mówić": 633, "▁konie": 634, "▁serca": 635, "net": 636, "nęły": 637, "owej": 638, "ju": 639, "▁myślał": 640, "▁pierwszy": 641, "▁pi": 642, "▁wielki": 643, "owe": 644, "kul": 645, "▁musi": 646, "nię": 647, "▁świecie": 648, "▁życie": 649, "▁wówczas": 650, "▁głową": 651, "sem": 652, "▁zło": 653, "▁koniec": 654, "S": 655, "dł": 656, "▁moje": 657, "▁drogę": 658, "o": 659, "▁por": 660, "gu": 661, "żył": 662, "▁Może": 663, "▁spo": 664, "▁de": 665, "▁nocy": 666, "nami": 667, "szę": 668, "▁widział": 669, "▁nieco": 670, "gą": 671, "▁będę": 672, "▁dzieci": 673, "▁drzwi": 674, "▁trochę": 675, "at": 676, "mości": 677, "▁gości": 678, "▁powie": 679, "▁bym": 680, "▁or": 681, "▁śmierć": 682, "łeś": 683, "▁lu": 684, "om": 685, "▁wasza": 686, "▁stało": 687, "▁jakie": 688, "▁kazał": 689, "kła": 690, "▁mówi": 691, "dem": 692, "▁F": 693, "ru": 694, "cja": 695, "▁innych": 696, "▁Że": 697, "sto": 698, "▁dnia": 699, "▁drogi": 700, "▁mną": 701, "▁dy": 702, "▁usta": 703, "bę": 704, "ary": 705, "▁Pod": 706, "▁ziemię": 707, "łe": 708, "▁strasz": 709, "▁niez": 710, "za": 711, "▁samo": 712, "sko": 713, "▁cóż": 714, "▁zupełnie": 715, "▁piersi": 716, "▁bardziej": 717, "rzył": 718, "▁każdy": 719, "dz": 720, "czę": 721, "▁ile": 722, "▁sposób": 723, "▁rzecz": 724, "▁śmierci": 725, "▁ry": 726, "▁dość": 727, "▁la": 728, "stwa": 729, "▁rzeczy": 730, "▁wraz": 731, "▁Ni": 732, "lą": 733, "cznie": 734, "jących": 735, "mość": 736, "▁całe": 737, "▁Petro": 738, "▁woła": 739, "▁drodze": 740, "▁chyba": 741, "śmy": 742, "cić": 743, "▁swoje": 744, "rzę": 745, "▁świe": 746, "nią": 747, "▁sp": 748, "▁mogę": 749, "cia": 750, "ona": 751, "▁jedno": 752, "jący": 753, "▁tobie": 754, "▁Oto": 755, "▁wszystkim": 756, "owała": 757, "▁tymczasem": 758, "▁Sam": 759, "▁gę": 760, "ste": 761, "▁bla": 762, "▁rze": 763, "▁albowiem": 764, "▁śpie": 765, "bu": 766, "▁Boże": 767, "szka": 768, "▁Boga": 769, "▁łu": 770, "▁podniósł": 771, "▁Wa": 772, "▁swoją": 773, "en": 774, "dzą": 775, "ół": 776, "▁sie": 777, "cał": 778, "▁ust": 779, "nka": 780, "▁dał": 781, "▁Ody": 782, "▁takim": 783, "▁miała": 784, "▁wojska": 785, "▁star": 786, "tał": 787, "▁Ch": 788, "▁kilku": 789, "▁widok": 790, "ciu": 791, "et": 792, "ńca": 793, "rach": 794, "lał": 795, "▁konia": 796, "▁razie": 797, "kł": 798, "▁ręką": 799, "▁później": 800, "▁będą": 801, "▁głowie": 802, "▁całej": 803, "▁dom": 804, "un": 805, "▁zapytał": 806, "▁oczyma": 807, "▁kom": 808, "▁takie": 809, "▁nogi": 810, "ut": 811, "▁kocha": 812, "▁Gdzie": 813, "▁cza": 814, "▁pę": 815, "▁Sa": 816, "▁Nel": 817, "jące": 818, "zie": 819, "nach": 820, "▁Bogu": 821, "▁Krzy": 822, "▁wiedział": 823, "▁swej": 824, "▁długo": 825, "nić": 826, "▁dwie": 827, "łam": 828, "▁szlach": 829, "▁ł": 830, "zes": 831, "de": 832, "wę": 833, "gę": 834, "▁niebo": 835, "▁jednej": 836, "▁woj": 837, "um": 838, "▁zd": 839, "E": 840, "▁góry": 841, "▁ję": 842, "T": 843, "▁dwóch": 844, "▁inni": 845, "▁Je": 846, "kli": 847, "e": 848, "▁inaczej": 849, "skiej": 850, "▁okru": 851, "▁miłości": 852, "▁ucie": 853, "▁dr": 854, "aty": 855, "▁stał": 856, "▁Rzeczy": 857, "▁zwrócił": 858, "▁króla": 859, "▁ści": 860, "pospolitej": 861, "▁Ra": 862, "chali": 863, "kał": 864, "▁dostoj": 865, "niusz": 866, "dza": 867, "▁mają": 868, "▁mieli": 869, "▁stra": 870, "ński": 871, "pła": 872, "▁ż": 873, "▁Jeśli": 874, "▁czasie": 875, "▁życia": 876, "▁D": 877, "sku": 878, "▁temu": 879, "▁obu": 880, "▁uj": 881, "▁Me": 882, "wym": 883, "▁mieć": 884, "nęli": 885, "nki": 886, "▁nami": 887, "▁odda": 888, "▁iść": 889, "▁krwi": 890, "dnie": 891, "rami": 892, "▁Danu": 893, "▁\"": 894, "nik": 895, "▁moja": 896, "▁B": 897, "▁Jan": 898, "▁mogła": 899, "▁sy": 900, "▁su": 901, "▁chło": 902, "er": 903, "▁ręku": 904, "kowi": 905, "▁hu": 906, "sły": 907, "gnie": 908, "▁cze": 909, "▁zwie": 910, "▁Był": 911, "▁jaki": 912, "chów": 913, "byś": 914, "śnie": 915, "gł": 916, "czki": 917, "▁Gdyby": 918, "rzu": 919, "▁st": 920, "▁królew": 921, "cami": 922, "▁bra": 923, "▁R": 924, "rów": 925, "ia": 926, "▁Roz": 927, "▁zaczął": 928, "▁kra": 929, "▁wielkie": 930, "ciel": 931, "rą": 932, "▁czu": 933, "▁stronę": 934, "ata": 935, "▁chwila": 936, "▁sła": 937, "▁zmie": 938, "cząc": 939, "▁Panie": 940, "▁wojny": 941, "▁Cóż": 942, "▁Teraz": 943, "lił": 944, "▁Książę": 945, "▁szwe": 946, "kom": 947, "▁cu": 948, "owali": 949, "▁wiesz": 950, "▁świat": 951, "us": 952, "▁czasem": 953, "▁swoich": 954, "▁pom": 955, "▁sama": 956, "niach": 957, "ników": 958, "ron": 959, "ór": 960, "▁młody": 961, "chem": 962, "▁parę": 963, "▁dodał": 964, "▁pytał": 965, "zu": 966, "▁Michał": 967, "nęło": 968, "▁Fe": 969, "▁nasz": 970, "owym": 971, "▁zaw": 972, "▁jednym": 973, "LE": 974, "▁c": 975, "cych": 976, "dny": 977, "dzę": 978, "wało": 979, "szał": 980, "▁obie": 981, "żyć": 982, "▁Koza": 983, "▁świ": 984, "▁pole": 985, "owicz": 986, "▁ogar": 987, "▁miasta": 988, "▁koni": 989, "śli": 990, "▁również": 991, "arów": 992, "▁zbyt": 993, "▁chodzi": 994, "rzał": 995, "▁taką": 996, "▁razy": 997, "▁pow": 998, "łek": 999, "▁zarazem": 1000, "▁Tam": 1001, "ciwszy": 1002, "▁zdu": 1003, "▁woli": 1004, "▁miłość": 1005, "▁człowieka": 1006, "▁si": 1007, "owskiego": 1008, "cu": 1009, "▁wziął": 1010, "▁By": 1011, "liśmy": 1012, "▁Czar": 1013, "▁kar": 1014, "▁Przez": 1015, "▁wcale": 1016, "niał": 1017, "▁takich": 1018, "▁jedna": 1019, "▁sło": 1020, "śni": 1021, "▁h": 1022, "ciem": 1023, "lami": 1024, "▁Te": 1025, "szcze": 1026, "owych": 1027, "▁Izabela": 1028, "szcz": 1029, "▁widocznie": 1030, "niec": 1031, "▁szlachci": 1032, "▁chłop": 1033, "chać": 1034, "stu": 1035, "▁oba": 1036, "▁końcu": 1037, "▁górę": 1038, "tych": 1039, "cach": 1040, "cem": 1041, "pu": 1042, "IST": 1043, "▁sk": 1044, "me": 1045, "▁wody": 1046, "tać": 1047, "dna": 1048, "▁pomyślał": 1049, "▁natychmiast": 1050, "▁mały": 1051, "▁chociaż": 1052, "tobli": 1053, "▁towarzy": 1054, "▁G": 1055, "▁ciągle": 1056, "▁oczach": 1057, "czny": 1058, "pił": 1059, "▁poko": 1060, "▁waszej": 1061, "▁Her": 1062, "▁ME": 1063, "▁swoim": 1064, "▁samego": 1065, "▁żołnierz": 1066, "▁oczu": 1067, "▁jakoby": 1068, "▁py": 1069, "▁Kor": 1070, "▁śmie": 1071, "usza": 1072, "▁przera": 1073, "▁Rozdział": 1074, "▁Ży": 1075, "▁strze": 1076, "▁rzu": 1077, "▁Kiedy": 1078, "▁rycer": 1079, "▁sa": 1080, "kło": 1081, "▁ojciec": 1082, "▁przerwał": 1083, "▁zb": 1084, "US": 1085, "dła": 1086, "chał": 1087, "▁wprawdzie": 1088, "▁miejscu": 1089, "▁idzie": 1090, "▁chcesz": 1091, "▁jedną": 1092, "pli": 1093, "czał": 1094, "▁jesteś": 1095, "▁wyszedł": 1096, "żą": 1097, "▁Rze": 1098, "▁następnie": 1099, "▁siły": 1100, "▁widzi": 1101, "▁obok": 1102, "dzili": 1103, "▁gra": 1104, "szczy": 1105, "▁rąk": 1106, "▁koło": 1107, "▁jednego": 1108, "▁sercu": 1109, "▁Da": 1110, "żu": 1111, "▁Go": 1112, "ię": 1113, "▁Mi": 1114, "▁Ku": 1115, "dze": 1116, "▁jutro": 1117, "sów": 1118, "▁Radziwił": 1119, "dzia": 1120, "▁mówię": 1121, "▁ucz": 1122, "▁żołnierzy": 1123, "▁Pa": 1124, "▁dać": 1125, "▁ciąg": 1126, "▁mniej": 1127, "ó": 1128, "▁świą": 1129, "▁trwo": 1130, "▁chcę": 1131, "▁Potem": 1132, "▁Tat": 1133, "▁spojrzał": 1134, "mar": 1135, "▁dotąd": 1136, "▁du": 1137, "▁La": 1138, "▁wil": 1139, "▁jechać": 1140, "▁Sz": 1141, "or": 1142, "▁ki": 1143, "sła": 1144, "▁dobro": 1145, "dać": 1146, "jem": 1147, "▁każdym": 1148, "▁list": 1149, "▁takiego": 1150, "▁dra": 1151, "▁zdra": 1152, "▁niebie": 1153, "leń": 1154, "▁kro": 1155, "nom": 1156, "▁całym": 1157, "▁spod": 1158, "▁rozkaz": 1159, "▁sko": 1160, "Z": 1161, "▁jakieś": 1162, "▁Ne": 1163, "wicz": 1164, "▁zap": 1165, "czu": 1166, "ego": 1167, "▁mogli": 1168, "▁ojca": 1169, "▁mimo": 1170, "▁mil": 1171, "waj": 1172, "▁tra": 1173, "wając": 1174, "▁Ro": 1175, "os": 1176, "▁sia": 1177, "kim": 1178, "▁daleko": 1179, "wem": 1180, "▁mojej": 1181, "▁nowe": 1182, "skiemu": 1183, "się": 1184, "▁pil": 1185, "▁inne": 1186, "▁panowie": 1187, "▁swą": 1188, "▁ksiądz": 1189, "▁nasze": 1190, "▁musiał": 1191, "szył": 1192, "▁gnie": 1193, "▁samym": 1194, "▁kon": 1195, "▁panem": 1196, "▁widzę": 1197, "▁często": 1198, "▁drugiej": 1199, "▁prawda": 1200, "rzem": 1201, "▁szczęście": 1202, "▁oka": 1203, "▁znalazł": 1204, "dach": 1205, "niła": 1206, "▁wiel": 1207, "łów": 1208, "▁nieszczę": 1209, "▁skrzy": 1210, "▁Wie": 1211, "▁krzyknął": 1212, "▁wier": 1213, "▁zabi": 1214, "czne": 1215, "mier": 1216, "▁gar": 1217, "▁prędko": 1218, "▁taka": 1219, "zę": 1220, "▁sami": 1221, "tach": 1222, "▁swych": 1223, "mil": 1224, "▁wielką": 1225, "▁zwłaszcza": 1226, "raz": 1227, "▁chwy": 1228, "▁dwo": 1229, "▁Ten": 1230, "▁istotnie": 1231, "▁Boh": 1232, "▁wdzię": 1233, "▁Dla": 1234, "▁póki": 1235, "lnie": 1236, "▁słucha": 1237, "▁powiem": 1238, "▁zamku": 1239, "▁zdzi": 1240, "rzyć": 1241, "an": 1242, "▁So": 1243, "▁dia": 1244, "▁powiedzieć": 1245, "▁zbro": 1246, "▁prawo": 1247, "snął": 1248, "▁pozna": 1249, "▁par": 1250, "nąwszy": 1251, "▁szcze": 1252, "▁Jest": 1253, "cej": 1254, "▁przyjdzie": 1255, "▁zdraj": 1256, "▁chcąc": 1257, "mów": 1258, "dni": 1259, "▁imię": 1260, "▁stanie": 1261, "żę": 1262, "źnie": 1263, "▁chrześcija": 1264, "▁powiada": 1265, "▁ratu": 1266, "▁szedł": 1267, "lej": 1268, "▁klę": 1269, "▁Mu": 1270, "▁Ach": 1271, "▁rubli": 1272, "▁wzru": 1273, "▁ś": 1274, "▁Ko": 1275, "▁razu": 1276, "gów": 1277, "▁tłu": 1278, "jącym": 1279, "▁panny": 1280, "▁Ze": 1281, "ńskiego": 1282, "▁ode": 1283, "▁Ta": 1284, "▁Nic": 1285, "▁pra": 1286, "tami": 1287, "▁świąty": 1288, "szedł": 1289, "żem": 1290, "▁Fa": 1291, "▁pat": 1292, "▁kraju": 1293, "▁twój": 1294, "mach": 1295, "▁uczynił": 1296, "▁war": 1297, "▁pomoc": 1298, "▁byle": 1299, "che": 1300, "wej": 1301, "▁widząc": 1302, "cego": 1303, "▁wobec": 1304, "▁powiedział": 1305, "▁grze": 1306, "▁świata": 1307, "tym": 1308, "ze": 1309, "▁zamiast": 1310, "▁powtórzył": 1311, "nika": 1312, "▁ha": 1313, "wano": 1314, "▁wrócił": 1315, "▁poszedł": 1316, "mę": 1317, "▁cicho": 1318, "stą": 1319, "▁wtedy": 1320, "▁Andrzej": 1321, "bra": 1322, "se": 1323, "ryj": 1324, "ńskich": 1325, "▁bła": 1326, "ił": 1327, "wią": 1328, "▁r": 1329, "▁wiele": 1330, "▁Ha": 1331, "▁moim": 1332, "▁cała": 1333, "ałeś": 1334, "pat": 1335, "▁rzucił": 1336, "▁kraj": 1337, "▁Su": 1338, "▁innego": 1339, "▁sro": 1340, "▁nóg": 1341, "wiał": 1342, "▁Ż": 1343, "ho": 1344, "zna": 1345, "ckich": 1346, "▁patrzył": 1347, "▁koza": 1348, "rek": 1349, "▁żywo": 1350, "żny": 1351, "cznym": 1352, "▁straszli": 1353, "▁kup": 1354, "▁zgu": 1355, "▁żołnierze": 1356, "▁jaką": 1357, "▁swój": 1358, "▁Nagle": 1359, "sią": 1360, "▁głu": 1361, "▁dlaczego": 1362, "▁szy": 1363, "ran": 1364, "▁mało": 1365, "▁całkiem": 1366, "▁nu": 1367, "▁gniew": 1368, "pię": 1369, "szego": 1370, "ńskie": 1371, "lony": 1372, "▁modli": 1373, "res": 1374, "▁swe": 1375, "▁moją": 1376, "▁trą": 1377, "▁kła": 1378, "gła": 1379, "▁szep": 1380, "▁Dobrze": 1381, "▁oko": 1382, "▁dziedzi": 1383, "▁lud": 1384, "kroć": 1385, "▁wolna": 1386, "dzy": 1387, "aru": 1388, "niejszy": 1389, "▁zakrzy": 1390, "▁dziew": 1391, "▁zresztą": 1392, "zd": 1393, "▁szepnął": 1394, "▁słowo": 1395, "trze": 1396, "rand": 1397, "▁wciąż": 1398, "owego": 1399, "▁wszedł": 1400, "▁bogów": 1401, "▁kroków": 1402, "▁należy": 1403, "skiem": 1404, "▁smu": 1405, "wu": 1406, "▁dzie": 1407, "▁l": 1408, "nowi": 1409, "▁zapa": 1410, "▁wielkim": 1411, "ścić": 1412, "▁ojczy": 1413, "▁tro": 1414, "dami": 1415, "▁Bogusław": 1416, "cznik": 1417, "bel": 1418, "▁prędzej": 1419, "czem": 1420, "▁ar": 1421, "wić": 1422, "lić": 1423, "▁pocie": 1424, "▁mogą": 1425, "▁tobą": 1426, "▁przyby": 1427, "lem": 1428, "nku": 1429, "szcza": 1430, "▁będziesz": 1431, "oru": 1432, "gar": 1433, "▁pokoju": 1434, "łał": 1435, "▁zam": 1436, "mienie": 1437, "czek": 1438, "▁tą": 1439, "czyła": 1440, "szu": 1441, "▁mówiła": 1442, "▁przyszedł": 1443, "mię": 1444, "▁został": 1445, "kać": 1446, "dał": 1447, "▁skąd": 1448, "▁blisko": 1449, "▁mego": 1450, "pić": 1451, "óg": 1452, "biegł": 1453, "pę": 1454, "▁mogło": 1455, "▁mówiąc": 1456, "▁swojej": 1457, "▁znak": 1458, "czka": 1459, "▁poz": 1460, "▁swym": 1461, "▁ude": 1462, "▁Chi": 1463, "▁mar": 1464, "▁rękoma": 1465, "cję": 1466, "czyli": 1467, "bą": 1468, "▁słońce": 1469, "lach": 1470, "▁miejsca": 1471, "▁Iza": 1472, "▁staro": 1473, "stał": 1474, "▁rozum": 1475, "▁słów": 1476, "a": 1477, "▁zda": 1478, "▁brak": 1479, "▁oj": 1480, "▁lata": 1481, "bił": 1482, "óż": 1483, "▁żal": 1484, "wili": 1485, "▁syn": 1486, "▁rad": 1487, "▁stanął": 1488, "▁myślę": 1489, "▁czeka": 1490, "cią": 1491, "ciła": 1492, "▁niby": 1493, "▁zwykle": 1494, "giem": 1495, "kich": 1496, "▁namie": 1497, "rom": 1498, "▁moich": 1499, "ling": 1500, "stwem": 1501, "▁Wszystko": 1502, "▁zosta": 1503, "▁dzieje": 1504, "▁wojsko": 1505, "▁przyszło": 1506, "▁obaj": 1507, "▁Babi": 1508, "▁rady": 1509, "daj": 1510, "▁szczę": 1511, "▁spokojnie": 1512, "▁Wówczas": 1513, "wości": 1514, "▁poch": 1515, "mia": 1516, "tny": 1517, "▁ledwie": 1518, "▁idą": 1519, "▁Krzyża": 1520, "▁życiu": 1521, "▁ogień": 1522, "▁cie": 1523, "▁Krze": 1524, "▁takiej": 1525, "▁one": 1526, "cym": 1527, "▁dziecko": 1528, "gach": 1529, "▁Le": 1530, "▁miłosier": 1531, "taj": 1532, "▁Pat": 1533, "▁znać": 1534, "▁Kali": 1535, "▁wojna": 1536, "▁Kie": 1537, "▁twoje": 1538, "▁ręki": 1539, "▁wolno": 1540, "łym": 1541, "▁Tata": 1542, "▁izby": 1543, "dziła": 1544, "▁wę": 1545, "den": 1546, "▁łatwo": 1547, "fa": 1548, "▁głowa": 1549, "▁słyszał": 1550, "ńcu": 1551, "▁niepo": 1552, "▁mając": 1553, "dzian": 1554, "dzał": 1555, "▁ska": 1556, "▁miasto": 1557, "▁Ge": 1558, "▁żołnie": 1559, "▁byłby": 1560, "am": 1561, "jącą": 1562, "▁miejsce": 1563, "mieni": 1564, "▁op": 1565, "▁mru": 1566, "▁Tylko": 1567, "jechał": 1568, "gać": 1569, "▁tuż": 1570, "zar": 1571, "▁wielu": 1572, "myś": 1573, "▁siedział": 1574, "gli": 1575, "▁patrząc": 1576, "▁którymi": 1577, "gami": 1578, "emu": 1579, "▁roku": 1580, "▁broni": 1581, "miał": 1582, "▁gru": 1583, "▁tęsk": 1584, "cili": 1585, "szej": 1586, "▁żaden": 1587, "▁inny": 1588, "▁stoi": 1589, "▁krę": 1590, "szyć": 1591, "zja": 1592, "▁głosy": 1593, "▁Jeżeli": 1594, "▁początku": 1595, "▁My": 1596, "łki": 1597, "▁włosy": 1598, "▁wedle": 1599, "▁pły": 1600, "bić": 1601, "▁dziesięć": 1602, "chała": 1603, "ścił": 1604, "hor": 1605, "▁posą": 1606, ")": 1607, "▁Cze": 1608, "▁ramiona": 1609, "▁wróci": 1610, "dło": 1611, "▁pogo": 1612, "▁stron": 1613, "ić": 1614, "▁drzewa": 1615, "▁przecież": 1616, "dne": 1617, "y": 1618, "▁stronie": 1619, "nus": 1620, "dząc": 1621, "▁Ot": 1622, "▁wraca": 1623, "▁czuł": 1624, "jny": 1625, "niejsze": 1626, "kowie": 1627, "szli": 1628, "▁świątyni": 1629, "▁He": 1630, "▁zdawało": 1631, "nt": 1632, "▁pad": 1633, "hu": 1634, "mień": 1635, "▁powodu": 1636, "ckie": 1637, "▁wez": 1638, "szym": 1639, "▁Spy": 1640, "▁odbi": 1641, "▁cha": 1642, "▁przynajmniej": 1643, "▁Zresztą": 1644, "▁cho": 1645, "bli": 1646, "▁naprawdę": 1647, "▁wodę": 1648, "▁We": 1649, "▁spostrzegł": 1650, "dziesz": 1651, "nij": 1652, "▁sił": 1653, "▁czyli": 1654, "▁kogo": 1655, "▁łzy": 1656, "▁samej": 1657, "jącego": 1658, "▁pewnie": 1659, "▁panią": 1660, "▁powi": 1661, "▁stro": 1662, "▁wielkiego": 1663, "▁dru": 1664, "▁słychać": 1665, "▁pokry": 1666, "ng": 1667, "▁prócz": 1668, "▁Przed": 1669, "▁ste": 1670, "ścia": 1671, "ie": 1672, "tki": 1673, "ckim": 1674, "▁podróż": 1675, "bia": 1676, "nością": 1677, "▁widzieć": 1678, "▁Ci": 1679, "▁ruszył": 1680, "▁An": 1681, "rzec": 1682, "eś": 1683, "▁Pen": 1684, "▁Jakże": 1685, "bla": 1686, "▁przychodzi": 1687, "▁nieraz": 1688, "▁kobiety": 1689, "▁wiedzieć": 1690, "▁cztery": 1691, "▁wkrótce": 1692, "▁cał": 1693, "al": 1694, "wość": 1695, "▁Si": 1696, "wych": 1697, "▁długi": 1698, "▁czar": 1699, "cji": 1700, "▁świę": 1701, "▁sali": 1702, "▁dale": 1703, "▁pobo": 1704, "rzeć": 1705, "▁robić": 1706, "▁przybra": 1707, "czone": 1708, "ciela": 1709, "bor": 1710, "▁mło": 1711, "▁bog": 1712, "▁Dzi": 1713, "▁któremu": 1714, "▁wojsk": 1715, "▁uda": 1716, "gał": 1717, "▁bądź": 1718, "dziej": 1719, "▁drugą": 1720, "▁siła": 1721, "pać": 1722, "▁napeł": 1723, "▁powa": 1724, "▁uczynić": 1725, "▁twarzą": 1726, "▁nara": 1727, "pał": 1728, "ńskim": 1729, "cznych": 1730, "▁dobry": 1731, "▁Aż": 1732, "men": 1733, "▁szlachty": 1734, "▁ok": 1735, "▁weso": 1736, "▁słońca": 1737, "▁wojnę": 1738, "▁uro": 1739, "czną": 1740, "▁pierwszej": 1741, "tna": 1742, "▁pochy": 1743, "owany": 1744, "▁rzeki": 1745, "▁polu": 1746, "▁dzwo": 1747, "▁trzyma": 1748, "▁nikogo": 1749, "▁żyje": 1750, "▁bły": 1751, "▁leżą": 1752, "▁szybko": 1753, "▁kara": 1754, "▁Star": 1755, "▁Hi": 1756, "▁trzech": 1757, "▁namio": 1758, "▁bom": 1759, "▁wieści": 1760, "kiej": 1761, "▁nade": 1762, "▁duszę": 1763, "▁og": 1764, "▁ow": 1765, "▁Jeszcze": 1766, "▁źle": 1767, "▁pia": 1768, "rzeli": 1769, "▁sen": 1770, "▁jakim": 1771, "▁wtrącił": 1772, "▁śmiał": 1773, "▁wprost": 1774, "gro": 1775, "tar": 1776, "lan": 1777, "▁ręka": 1778, "▁wiadomo": 1779, "▁wyro": 1780, "▁zbliżył": 1781, "▁podzi": 1782, "tej": 1783, "▁lo": 1784, "owały": 1785, "▁Trzeba": 1786, "▁Łę": 1787, "▁naszych": 1788, "gię": 1789, "chnął": 1790, "▁Wreszcie": 1791, "▁raczej": 1792, "zara": 1793, "gii": 1794, "▁syna": 1795, "▁ho": 1796, "▁chy": 1797, "▁posła": 1798, "ństwo": 1799, "▁godziny": 1800, "▁niebezpie": 1801, "▁stu": 1802, "▁czer": 1803, "▁ot": 1804, "▁wiatr": 1805, "▁okrzy": 1806, "▁możesz": 1807, "niony": 1808, "▁ju": 1809, "kiego": 1810, "▁aniżeli": 1811, "▁zawołała": 1812, "ram": 1813, "▁Pi": 1814, "▁pyta": 1815, "Nie": 1816, "lny": 1817, "▁Wą": 1818, "▁Prawda": 1819, "▁niemu": 1820, "▁jednakże": 1821, "▁wsze": 1822, "▁bło": 1823, "▁mamy": 1824, "pią": 1825, "▁wpadł": 1826, "▁zgi": 1827, "sł": 1828, "dną": 1829, "▁pię": 1830, "stała": 1831, "▁spokój": 1832, "▁gorą": 1833, "mana": 1834, "▁czele": 1835, "▁be": 1836, "▁moc": 1837, "ój": 1838, "rzała": 1839, "▁czoło": 1840, "co": 1841, "▁Była": 1842, "▁mieście": 1843, "▁odpowiedziała": 1844, "▁cześć": 1845, "▁arcy": 1846, "jeżdża": 1847, "▁głośno": 1848, "mią": 1849, "sznie": 1850, "▁bieg": 1851, "▁niedo": 1852, "▁Jego": 1853, "▁pułkow": 1854, "▁Sły": 1855, "sami": 1856, "▁gło": 1857, "szła": 1858, "tni": 1859, "so": 1860, "▁gotów": 1861, "▁muszę": 1862, "▁dwu": 1863, "▁nieba": 1864, "▁dobre": 1865, "▁ktoś": 1866, "▁sły": 1867, "wego": 1868, "gia": 1869, "▁Daj": 1870, "▁wielka": 1871, "owska": 1872, "ten": 1873, "jąca": 1874, "▁róż": 1875, "▁Było": 1876, "▁pięć": 1877, "▁starego": 1878, "▁śnie": 1879, "▁grz": 1880, "ak": 1881, "▁zdrowie": 1882, "▁pięk": 1883, "▁wielkiej": 1884, "▁mocno": 1885, "▁wybuch": 1886, "tek": 1887, "ró": 1888, "▁Char": 1889, "in": 1890, "nili": 1891, "▁tar": 1892, "▁przywi": 1893, "▁pusty": 1894, "▁chcą": 1895, "liwie": 1896, "▁męża": 1897, "▁odezwał": 1898, "▁spokoj": 1899, "niała": 1900, "dli": 1901, "▁ludźmi": 1902, "▁tat": 1903, "▁nowi": 1904, "▁Pro": 1905, "▁część": 1906, "▁innym": 1907, "▁pocho": 1908, "▁pot": 1909, "▁mąż": 1910, "▁wysu": 1911, "▁mogły": 1912, "),": 1913, "▁Wiem": 1914, "nera": 1915, "dar": 1916, "▁brzegu": 1917, "▁dziw": 1918, "▁radości": 1919, "▁stąd": 1920, "▁Pani": 1921, "▁re": 1922, "▁jakaś": 1923, "wają": 1924, "stę": 1925, "wię": 1926, "▁cy": 1927, "▁łą": 1928, "lone": 1929, "▁chcieli": 1930, "▁Nad": 1931, "▁Mówi": 1932, "▁owe": 1933, "▁in": 1934, "▁zbli": 1935, "▁ciężko": 1936, "▁ognia": 1937, "mem": 1938, "▁skoro": 1939, "▁proszę": 1940, "▁Sie": 1941, "▁ukry": 1942, "▁dużo": 1943, "▁Now": 1944, "▁Panna": 1945, "mieniem": 1946, "▁szukać": 1947, "sił": 1948, "czkę": 1949, "▁piecho": 1950, "▁Albo": 1951, "▁Ona": 1952, "▁kości": 1953, "▁znaczy": 1954, "leg": 1955, "▁wojewoda": 1956, "▁umiał": 1957, "▁Choć": 1958, "czony": 1959, "cka": 1960, "▁droga": 1961, "lne": 1962, "▁zbliża": 1963, "▁czemu": 1964, "▁poznał": 1965, "▁*": 1966, "▁lada": 1967, "sło": 1968, "▁milczeniu": 1969, "▁Lu": 1970, "scy": 1971, "▁fe": 1972, "▁N": 1973, "▁skar": 1974, "ńskiej": 1975, "▁groź": 1976, "▁stru": 1977, "▁natomiast": 1978, "▁siedzi": 1979, "tne": 1980, "▁dobra": 1981, "pów": 1982, "▁egip": 1983, "▁ponieważ": 1984, "owo": 1985, "ntów": 1986, "▁Mar": 1987, "▁dwor": 1988, "szczę": 1989, "▁zba": 1990, "pia": 1991, "▁krzyk": 1992, "gna": 1993, "żał": 1994, "ob": 1995, "▁drugim": 1996, "▁wczoraj": 1997, "▁Ocho": 1998, "▁wydoby": 1999, "▁opat": 2000, "▁spu": 2001, "▁zab": 2002, "▁Słu": 2003, "▁łaska": 2004, "OR": 2005, "▁umie": 2006, "▁stała": 2007, "źli": 2008, "żyli": 2009, "▁Be": 2010, "▁czynić": 2011, "mienia": 2012, "pe": 2013, "szać": 2014, "żony": 2015, "▁Micha": 2016, "▁Ignacy": 2017, "▁Ru": 2018, "▁mieszka": 2019, "▁dawna": 2020, "ille": 2021, "▁pomyś": 2022, "▁posu": 2023, "K": 2024, "ód": 2025, "nice": 2026, "▁mówią": 2027, "▁zrobił": 2028, "▁dam": 2029, "niło": 2030, "▁krzyża": 2031, "ąd": 2032, "▁okry": 2033, "▁piersiach": 2034, "▁ciała": 2035, "▁Eu": 2036, "▁mruknął": 2037, "bij": 2038, "▁wasze": 2039, "▁mówili": 2040, "▁ludu": 2041, "▁zostanie": 2042, "skę": 2043, "stym": 2044, "▁pieniądze": 2045, "gry": 2046, "rzawszy": 2047, "▁mógłby": 2048, "▁siłą": 2049, "▁trudno": 2050, "▁Wszyscy": 2051, "łę": 2052, "▁żadnej": 2053, "▁zaledwie": 2054, "▁nadzwyczaj": 2055, "▁skarb": 2056, "▁poprzednio": 2057, "dzać": 2058, "nikiem": 2059, "▁oddał": 2060, "▁daj": 2061, "szych": 2062, "▁ludzkie": 2063, "▁pora": 2064, "▁drugiego": 2065, "▁daleka": 2066, "▁C": 2067, "▁Zaraz": 2068, "▁robi": 2069, "łych": 2070, "▁Rz": 2071, "▁wina": 2072, "chaj": 2073, "▁per": 2074, "▁żelaz": 2075, "▁krwa": 2076, "▁izbie": 2077, "▁naszego": 2078, "▁gór": 2079, "▁krze": 2080, "▁Dziś": 2081, "żenie": 2082, "szczał": 2083, "▁Bra": 2084, "▁prawdę": 2085, "▁mówisz": 2086, "▁włó": 2087, "▁dusza": 2088, "▁kształt": 2089, "▁przyjechał": 2090, "▁błęki": 2091, "ństwa": 2092, "tka": 2093, "stra": 2094, "pem": 2095, "▁patrzeć": 2096, "sach": 2097, "▁bić": 2098, "▁dzia": 2099, "▁Oj": 2100, "▁Jam": 2101, "▁pola": 2102, "▁jemu": 2103, "▁byś": 2104, "▁dar": 2105, "▁Oni": 2106, "atu": 2107, "▁rana": 2108, "▁wpad": 2109, "dniej": 2110, "▁kę": 2111, "▁głębi": 2112, "▁zamy": 2113, "tom": 2114, "ału": 2115, "▁Lon": 2116, "▁uderzył": 2117, "▁odrze": 2118, "▁brze": 2119, "nny": 2120, "▁przeto": 2121, "gni": 2122, "cię": 2123, "▁poru": 2124, "▁tysiące": 2125, "▁dworze": 2126, "▁dłużej": 2127, "▁kasz": 2128, "▁pocz": 2129, "wski": 2130, "▁wzrok": 2131, "▁zapom": 2132, "dom": 2133, "▁ofiar": 2134, "mił": 2135, "▁okiem": 2136, "▁Mam": 2137, "lała": 2138, "dzieli": 2139, "▁szu": 2140, "tur": 2141, "▁chwycił": 2142, "lin": 2143, "▁własną": 2144, "wałem": 2145, "▁zje": 2146, "W": 2147, "dzony": 2148, "dziano": 2149, "▁podobny": 2150, "kle": 2151, "▁mąd": 2152, "▁naszej": 2153, "▁pta": 2154, "▁wielkich": 2155, "war": 2156, "▁ogni": 2157, "pio": 2158, "▁zbu": 2159, "▁myśleć": 2160, "▁Żeby": 2161, "▁poje": 2162, "▁byłem": 2163, "▁Dopiero": 2164, "łach": 2165, "▁pre": 2166, "nowa": 2167, "ńce": 2168, "▁przede": 2169, "G": 2170, "dziemy": 2171, "▁chciała": 2172, "podob": 2173, "łka": 2174, "di": 2175, "▁znaleźć": 2176, "hy": 2177, "▁miły": 2178, "▁spoj": 2179, "jącej": 2180, "▁f": 2181, "▁kobieta": 2182, "▁broń": 2183, "żywszy": 2184, "▁rzę": 2185, "stnik": 2186, "▁skoczył": 2187, "▁niemal": 2188, "▁Ho": 2189, "▁ką": 2190, "el": 2191, "owania": 2192, "kolwiek": 2193, "▁zaczęła": 2194, "żyła": 2195, "▁szli": 2196, "▁bitwy": 2197, "▁Hej": 2198, "▁dziewczyna": 2199, "▁przysię": 2200, "ul": 2201, "▁światło": 2202, "▁sztur": 2203, "▁zła": 2204, "▁grozi": 2205, "▁pol": 2206, "zię": 2207, "zo": 2208, "▁Wszak": 2209, "▁jakże": 2210, "▁radość": 2211, "▁mor": 2212, "Ł": 2213, "ałe": 2214, "▁części": 2215, "▁Egipt": 2216, "▁wieść": 2217, "tała": 2218, "▁pewien": 2219, "▁niewi": 2220, "▁uczu": 2221, "▁ciało": 2222, "lona": 2223, "▁stały": 2224, "▁Bogda": 2225, "ok": 2226, "ene": 2227, "▁próżno": 2228, "▁zni": 2229, "▁samą": 2230, "tego": 2231, "▁środku": 2232, "▁szuka": 2233, "czna": 2234, "ter": 2235, "▁me": 2236, "jda": 2237, "▁kilkanaście": 2238, "beli": 2239, "▁strach": 2240, "▁poczyna": 2241, "zów": 2242, "▁około": 2243, "▁ost": 2244, "▁wło": 2245, "▁pewno": 2246, "dawało": 2247, "▁panów": 2248, "▁komen": 2249, "▁koniu": 2250, "miała": 2251, "▁słuchał": 2252, "▁postać": 2253, "▁spi": 2254, "▁zawo": 2255, "▁spa": 2256, "▁Au": 2257, "▁oboje": 2258, "▁miecz": 2259, "▁rok": 2260, "▁napad": 2261, "bio": 2262, "▁ziem": 2263, "▁poga": 2264, "▁szczęśli": 2265, "▁prostu": 2266, "▁szyję": 2267, "lina": 2268, "mał": 2269, "▁widziałem": 2270, "▁powo": 2271, "▁jaka": 2272, "▁ciągnął": 2273, "▁kul": 2274, "▁jechał": 2275, "▁raj": 2276, "lać": 2277, "▁Pu": 2278, "▁Pom": 2279, "róż": 2280, "▁tymi": 2281, "▁dwadzieścia": 2282, "zajutrz": 2283, "▁kru": 2284, "▁drzew": 2285, "▁dawno": 2286, "▁osob": 2287, "▁długie": 2288, "▁przeba": 2289, "▁słusz": 2290, "▁krwią": 2291, "▁ziemia": 2292, "▁zostać": 2293, "▁spie": 2294, "▁szlachet": 2295, "▁ujrzał": 2296, "▁Egiptu": 2297, "słał": 2298, "be": 2299, "▁baro": 2300, "▁wstrzy": 2301, "wany": 2302, "▁patrzy": 2303, "▁ludziom": 2304, "▁wyzna": 2305, "▁mro": 2306, "▁zasło": 2307, "cowi": 2308, "▁Ur": 2309, "▁żyć": 2310, "▁podobne": 2311, "▁pory": 2312, "▁własne": 2313, "▁wami": 2314, "▁znam": 2315, "com": 2316, "▁ściany": 2317, "▁Wasza": 2318, "▁niewol": 2319, "▁uśmiechem": 2320, "wach": 2321, "▁drogą": 2322, "▁ruch": 2323, "gra": 2324, "▁jakiej": 2325, "▁Czech": 2326, "▁ojczyzny": 2327, "hi": 2328, "▁Szu": 2329, "▁zatrzymał": 2330, "liwy": 2331, "jo": 2332, "ur": 2333, "▁rozpa": 2334, "▁siedzą": 2335, "▁rzuca": 2336, "dły": 2337, "gan": 2338, "▁zerwał": 2339, "▁rozkazu": 2340, "▁uszy": 2341, "▁twoja": 2342, "▁wino": 2343, "▁gdzieś": 2344, "rzyli": 2345, "nne": 2346, "czo": 2347, "▁nę": 2348, "▁St": 2349, "cznej": 2350, "▁drugie": 2351, "ród": 2352, "▁wieczór": 2353, "przód": 2354, "▁rozmowę": 2355, "cje": 2356, "▁białe": 2357, "roż": 2358, "▁czci": 2359, "▁zuch": 2360, "lnym": 2361, "sną": 2362, "▁dowie": 2363, "żenia": 2364, "▁nowo": 2365, "gon": 2366, "owane": 2367, "▁jeźdź": 2368, "▁wtó": 2369, "nemu": 2370, "niły": 2371, "ślił": 2372, "▁lite": 2373, "\".": 2374, "▁okrop": 2375, "▁ślub": 2376, "▁kiedyś": 2377, "▁jakich": 2378, "▁sur": 2379, "▁sprawy": 2380, "▁podnosi": 2381, "nienie": 2382, "▁każ": 2383, "tość": 2384, "▁zdoby": 2385, "▁dz": 2386, "pom": 2387, "chowie": 2388, "▁obozu": 2389, "▁Tego": 2390, "▁Szla": 2391, "▁wypad": 2392, "▁Powiedz": 2393, "▁wese": 2394, "leci": 2395, "dnym": 2396, "kły": 2397, "kała": 2398, "▁młodego": 2399, "tor": 2400, "▁ocho": 2401, "▁Tele": 2402, "ria": 2403, "▁księżna": 2404, "▁umyś": 2405, "▁rozkazy": 2406, "▁złe": 2407, "kwi": 2408, "▁święty": 2409, "▁pałacu": 2410, "tk": 2411, "▁niespokoj": 2412, "▁schwy": 2413, "stej": 2414, "szony": 2415, "gel": 2416, "▁wyciąg": 2417, "▁powinien": 2418, "▁Cz": 2419, "▁ducha": 2420, "▁zwycię": 2421, "▁każe": 2422, "▁dwaj": 2423, "ble": 2424, "gnął": 2425, "▁mury": 2426, "▁opo": 2427, "▁gdybym": 2428, "randa": 2429, "skał": 2430, "▁jednocześnie": 2431, "▁żyw": 2432, "rak": 2433, "!\"": 2434, "▁zechce": 2435, "rzami": 2436, "▁wielce": 2437, "▁pieniędzy": 2438, "▁przyszła": 2439, "▁męż": 2440, "▁e": 2441, "▁Mnie": 2442, "▁twarze": 2443, "▁Piotr": 2444, "▁Ry": 2445, "ńską": 2446, "ciły": 2447, "niejsza": 2448, "▁Masz": 2449, "▁złego": 2450, "niejszych": 2451, "▁pomocą": 2452, "czni": 2453, "▁zdaje": 2454, "▁trzeci": 2455, "▁nowy": 2456, "▁państwa": 2457, "▁całego": 2458, "▁odpowiedzi": 2459, "▁kawaler": 2460, "rys": 2461, "▁radzi": 2462, "▁Zy": 2463, "wny": 2464, "wam": 2465, "▁Czemu": 2466, "▁widzisz": 2467, "der": 2468, "▁odwie": 2469, "▁wszystkiego": 2470, "bieg": 2471, "czyły": 2472, "▁każdej": 2473, "▁zie": 2474, "▁wygląda": 2475, "▁Nawet": 2476, "▁sześć": 2477, "▁rozumie": 2478, "▁pełne": 2479, "▁regi": 2480, "▁Łu": 2481, "▁uspoko": 2482, "▁Mów": 2483, "▁żar": 2484, "▁padł": 2485, "▁pogrą": 2486, "▁chwi": 2487, "tuje": 2488, "fry": 2489, "▁mów": 2490, "czym": 2491, "▁zebra": 2492, "▁zawi": 2493, "czenie": 2494, "żone": 2495, "▁postanowił": 2496, "ckiej": 2497, "ad": 2498, "?!": 2499, "▁końca": 2500, "▁tłum": 2501, "Y": 2502, "▁skrę": 2503, "glądał": 2504, "▁dali": 2505, "ony": 2506, "▁następca": 2507, "nin": 2508, "▁komu": 2509, "▁panien": 2510, "▁mio": 2511, "▁jakąś": 2512, "▁obozie": 2513, "▁przykład": 2514, "▁czekać": 2515, "▁chu": 2516, "▁Jeden": 2517, "▁przestra": 2518, "▁gniewu": 2519, "rzyły": 2520, "nione": 2521, "nios": 2522, "jał": 2523, "▁łzami": 2524, "▁roboty": 2525, "▁przyje": 2526, "▁same": 2527, "▁leżał": 2528, "▁olbrzymi": 2529, "wanie": 2530, "▁rodzi": 2531, "dowi": 2532, "sić": 2533, "▁Gre": 2534, "▁rękach": 2535, "źni": 2536, "▁powtarza": 2537, "czyło": 2538, "ciół": 2539, "▁Wil": 2540, "▁Stary": 2541, "anna": 2542, "▁przyj": 2543, "▁bar": 2544, "▁wła": 2545, "cony": 2546, "▁powietrze": 2547, "▁kla": 2548, "▁przedtem": 2549, "ńców": 2550, "▁dawniej": 2551, "▁wpół": 2552, "▁tale": 2553, "▁tronu": 2554, "ódł": 2555, "▁nieu": 2556, "szów": 2557, "przy": 2558, "▁Zo": 2559, "▁ruszy": 2560, "▁os": 2561, "▁Sak": 2562, "szły": 2563, "▁Du": 2564, "▁Ar": 2565, "▁poży": 2566, "▁pierwsze": 2567, "▁śle": 2568, "▁zęby": 2569, "▁pierwszym": 2570, "stro": 2571, "▁sposobem": 2572, "▁zawie": 2573, "wiła": 2574, "▁zrobić": 2575, "▁wypra": 2576, "▁har": 2577, "chodził": 2578, "śka": 2579, "siu": 2580, "▁króle": 2581, "▁Chrystus": 2582, "▁ucieka": 2583, "czność": 2584, "▁wziąć": 2585, "▁wysła": 2586, "tali": 2587, "▁niegdyś": 2588, "▁zamek": 2589, "▁Pój": 2590, "▁dotychczas": 2591, "▁obraz": 2592, "▁kry": 2593, "bów": 2594, "▁Bi": 2595, "▁Men": 2596, "▁jas": 2597, "▁boku": 2598, "▁zwró": 2599, "▁podob": 2600, "▁wzbu": 2601, "▁ciągu": 2602, "liła": 2603, "▁własnej": 2604, "▁poza": 2605, "▁szar": 2606, "▁równie": 2607, "▁okolicy": 2608, "▁pożegna": 2609, "▁pas": 2610, "ąc": 2611, "▁naszym": 2612, "wieniem": 2613, "ńska": 2614, "▁duch": 2615, "▁opa": 2616, "▁otworzył": 2617, "▁dosyć": 2618, "▁miały": 2619, "stych": 2620, "▁czekał": 2621, "▁Otóż": 2622, "▁obfi": 2623, "▁obra": 2624, "▁tłumy": 2625, "▁dwór": 2626, "▁wieczorem": 2627, "▁bole": 2628, "chę": 2629, "▁drze": 2630, "▁matka": 2631, "owanie": 2632, "▁zaczyna": 2633, "ali": 2634, "▁bliżej": 2635, "▁Ś": 2636, "dle": 2637, "▁Mem": 2638, "▁sklepu": 2639, "▁miarę": 2640, "▁ramię": 2641, "▁Tur": 2642, "▁zanim": 2643, "▁brwi": 2644, "knie": 2645, "▁nasza": 2646, "▁uci": 2647, "▁okna": 2648, "▁kolana": 2649, "▁niczym": 2650, "▁obo": 2651, "▁otwiera": 2652, "▁zbiera": 2653, "szenia": 2654, "cone": 2655, "dzej": 2656, "▁rozmyś": 2657, "▁pierw": 2658, "▁zapewne": 2659, "wal": 2660, "▁groma": 2661, "wienie": 2662, "U": 2663, "kali": 2664, "▁miałem": 2665, "▁kamie": 2666, "▁głów": 2667, "▁brać": 2668, "▁uroczy": 2669, "▁opu": 2670, "▁listy": 2671, "siadł": 2672, "▁ły": 2673, "▁zatem": 2674, "▁posę": 2675, "czoną": 2676, "▁świet": 2677, "▁Bie": 2678, "▁podróży": 2679, "▁niem": 2680, "▁wieku": 2681, "▁znajdzie": 2682, "▁pomocy": 2683, "▁skło": 2684, "▁Asy": 2685, "▁wojnie": 2686, "▁cier": 2687, "bara": 2688, "▁oblę": 2689, "▁Król": 2690, "▁tacy": 2691, "*": 2692, "nał": 2693, "łowi": 2694, "▁zwi": 2695, "▁zja": 2696, "bach": 2697, "M": 2698, "pana": 2699, "▁zako": 2700, "▁pójdę": 2701, "fu": 2702, "▁żył": 2703, "▁czasy": 2704, "szo": 2705, "liście": 2706, "▁snu": 2707, "▁potrzeba": 2708, "lenie": 2709, "▁żony": 2710, "▁głęboko": 2711, "▁odzy": 2712, "▁posta": 2713, "tan": 2714, "▁pochwy": 2715, "▁łeb": 2716, "▁mistrz": 2717, "jesz": 2718, "▁kim": 2719, "chą": 2720, "▁Ludzie": 2721, "dzone": 2722, "▁wzdłuż": 2723, "sław": 2724, "▁stada": 2725, "▁brata": 2726, "▁byłoby": 2727, "▁Często": 2728, "dno": 2729, "▁spać": 2730, "stem": 2731, "czer": 2732, "▁znik": 2733, "chowa": 2734, "▁bro": 2735, "▁wesoło": 2736, "▁szczęścia": 2737, "rzcie": 2738, "▁gła": 2739, "▁pójdzie": 2740, "wania": 2741, "▁zamie": 2742, "szt": 2743, "▁Owszem": 2744, "owskim": 2745, "▁hra": 2746, "▁trzymał": 2747, "▁rozległ": 2748, "▁niedźwie": 2749, "ctwo": 2750, "▁prawa": 2751, "▁leci": 2752, "tną": 2753, "▁wolę": 2754, "▁wznosi": 2755, "łości": 2756, "▁ukazał": 2757, "dziesiąt": 2758, "▁fi": 2759, "pły": 2760, "▁leży": 2761, "▁wściekło": 2762, "▁powtarzał": 2763, "▁kilkunastu": 2764, "▁pustyni": 2765, "▁obro": 2766, "rzony": 2767, "▁własnym": 2768, "▁majątek": 2769, "▁smo": 2770, "▁powiedz": 2771, "▁dnie": 2772, "▁muszą": 2773, "▁spraw": 2774, "▁stołu": 2775, "▁poznać": 2776, "▁słuchać": 2777, "ktor": 2778, "▁so": 2779, "▁kobiet": 2780, "▁zakon": 2781, "▁rząd": 2782, "▁zach": 2783, "▁ostatni": 2784, "▁morze": 2785, "▁wieczora": 2786, "▁przyjść": 2787, "▁zamyś": 2788, "jmy": 2789, "▁nadziei": 2790, "ez": 2791, "▁Nikt": 2792, "▁spokoju": 2793, "P": 2794, "▁życz": 2795, "▁pracy": 2796, "▁pal": 2797, "pyty": 2798, "▁ele": 2799, "▁pomie": 2800, "▁pewny": 2801, "kon": 2802, "▁opuścił": 2803, "wienia": 2804, "▁cisza": 2805, "▁doj": 2806, "iada": 2807, "▁Jestem": 2808, "uje": 2809, "▁gry": 2810, "▁niczego": 2811, "▁piechoty": 2812, "▁jedzie": 2813, "dzkie": 2814, "▁Jana": 2815, "▁hań": 2816, "▁krzyw": 2817, "▁daw": 2818, "▁zł": 2819, "▁łaski": 2820, "nio": 2821, "▁wró": 2822, "owano": 2823, "▁osła": 2824, "▁lę": 2825, "▁oficer": 2826, "▁bitwie": 2827, "▁milczenie": 2828, "▁strzel": 2829, "▁spy": 2830, "niku": 2831, "niami": 2832, "▁ża": 2833, "óz": 2834, "▁rozumiem": 2835, "▁praw": 2836, "▁znie": 2837, "▁pieśni": 2838, "▁ból": 2839, "▁godzinę": 2840, "▁wro": 2841, "▁żół": 2842, "wiać": 2843, "one": 2844, "▁obej": 2845, "tymi": 2846, "jski": 2847, "niósł": 2848, "▁wios": 2849, "▁pośpie": 2850, "fek": 2851, "▁zas": 2852, "▁pop": 2853, "▁myślisz": 2854, "▁mocy": 2855, "▁wiedząc": 2856, "▁przemówi": 2857, "▁chwilą": 2858, "tnym": 2859, "▁wzgó": 2860, "▁jakiego": 2861, "▁innymi": 2862, "▁czasach": 2863, "▁brat": 2864, "▁jakoś": 2865, "▁dala": 2866, "lon": 2867, "▁Jere": 2868, "▁wolał": 2869, "▁potrafi": 2870, "▁dworu": 2871, "▁gwar": 2872, "▁wstał": 2873, "ściem": 2874, "rona": 2875, "nienia": 2876, "▁strzał": 2877, "▁myślą": 2878, "niom": 2879, "▁Tomasz": 2880, "▁naprzeciw": 2881, "▁Cha": 2882, "now": 2883, "▁Mie": 2884, "▁kor": 2885, "▁stóp": 2886, "▁odpowie": 2887, "▁któ": 2888, "▁zaję": 2889, "aną": 2890, "skach": 2891, "pada": 2892, "▁wojewo": 2893, "'": 2894, "ono": 2895, "▁uśmiechnął": 2896, "▁Woj": 2897, "pry": 2898, "▁wzrokiem": 2899, "▁Czego": 2900, "▁wiecznie": 2901, "▁dopóki": 2902, "▁mogąc": 2903, "▁obja": 2904, "▁młodzi": 2905, "▁Chyba": 2906, "▁dniach": 2907, "▁odpowiada": 2908, "kra": 2909, "▁maj": 2910, "▁Egip": 2911, "bej": 2912, "▁bronić": 2913, "▁małego": 2914, "▁poszli": 2915, "lik": 2916, "▁zm": 2917, "▁L": 2918, "dnej": 2919, "żej": 2920, "nięte": 2921, "nii": 2922, "czar": 2923, "niały": 2924, "set": 2925, "▁Proszę": 2926, "dzenie": 2927, "▁Pal": 2928, "par": 2929, "cznego": 2930, "▁ubo": 2931, "kowa": 2932, "szło": 2933, "▁fortu": 2934, "▁ramionami": 2935, "▁domy": 2936, "▁Pewnie": 2937, "▁będąc": 2938, "▁odgad": 2939, "▁szczerze": 2940, "cher": 2941, "▁tył": 2942, "▁powrót": 2943, "▁nieprze": 2944, "od": 2945, "▁powoli": 2946, "▁Raz": 2947, "▁godzin": 2948, "▁Mój": 2949, "▁wszędzie": 2950, "czały": 2951, "▁następcy": 2952, "▁Justyna": 2953, "▁chłopów": 2954, "▁otu": 2955, "▁fur": 2956, "▁podda": 2957, "▁sercem": 2958, "▁działa": 2959, "▁śli": 2960, "zach": 2961, "▁pojechał": 2962, "ii": 2963, "▁oddać": 2964, "żo": 2965, "▁Skąd": 2966, "▁łatwiej": 2967, "▁pomiędzy": 2968, "▁górze": 2969, "▁znu": 2970, "▁oficerów": 2971, "▁kwi": 2972, "▁miało": 2973, "▁brał": 2974, "sny": 2975, "▁starosta": 2976, "▁bó": 2977, "▁spodzie": 2978, "nąc": 2979, "▁Kir": 2980, "▁znacznie": 2981, "jów": 2982, "rabia": 2983, "nnych": 2984, "▁wydał": 2985, "▁zem": 2986, "▁J": 2987, "▁szlachec": 2988, "▁uf": 2989, "ściu": 2990, "dział": 2991, "im": 2992, "▁sil": 2993, "▁Dnie": 2994, "▁chodzić": 2995, "▁bram": 2996, "stąpi": 2997, "tra": 2998, "▁podniosła": 2999, "▁poli": 3000, "▁Dlaczego": 3001, "ent": 3002, "▁przesta": 3003, "▁Mah": 3004, "▁niepokój": 3005, "il": 3006, "łow": 3007, "gom": 3008, "▁pój": 3009, "▁para": 3010, "▁oś": 3011, "mać": 3012, "▁um": 3013, "▁sprawę": 3014, "owało": 3015, "▁cia": 3016, "▁stać": 3017, "▁Bardzo": 3018, "▁ciem": 3019, "▁naraz": 3020, "▁wsi": 3021, "▁znał": 3022, "dwie": 3023, "▁czo": 3024, "▁wal": 3025, "▁speł": 3026, "▁dostać": 3027, "▁wrza": 3028, "gad": 3029, "▁naszą": 3030, "chi": 3031, "▁służby": 3032, "▁okoli": 3033, "▁brzeg": 3034, "▁nogami": 3035, "pali": 3036, "▁ciszy": 3037, "▁pozwoli": 3038, "▁Każdy": 3039, "▁pokój": 3040, "▁gor": 3041, "▁pali": 3042, "▁jedni": 3043, "▁wysoko": 3044, "ódz": 3045, "ńcy": 3046, "▁upły": 3047, "▁źre": 3048, "▁nieszczęśli": 3049, "▁kieli": 3050, "▁rozpu": 3051, "▁rą": 3052, "bro": 3053, "▁małe": 3054, "▁Sto": 3055, "▁otacza": 3056, "▁trza": 3057, "▁jazdy": 3058, "rzo": 3059, "szki": 3060, "wiej": 3061, "▁została": 3062, "▁wym": 3063, "▁tutaj": 3064, "▁jadą": 3065, "rzyła": 3066, "▁Tym": 3067, "▁nieszczęście": 3068, "▁błogosła": 3069, "żnych": 3070, "▁Będzie": 3071, "▁interes": 3072, "▁Mal": 3073, "tyka": 3074, "skoczył": 3075, "dan": 3076, "▁swymi": 3077, "▁nieje": 3078, "wana": 3079, "żne": 3080, "▁zale": 3081, "▁zw": 3082, "▁godzi": 3083, "▁radością": 3084, "▁oca": 3085, "▁każdego": 3086, "▁wypu": 3087, "▁śmi": 3088, "trzy": 3089, "▁matki": 3090, "▁Lor": 3091, "▁Ak": 3092, "▁Warszawy": 3093, "▁niewy": 3094, "▁pospoli": 3095, "▁rozmowy": 3096, "▁koron": 3097, "chami": 3098, "▁posa": 3099, "▁srebr": 3100, "czeć": 3101, "▁nań": 3102, "▁Któ": 3103, "tóż": 3104, "rad": 3105, "▁poło": 3106, "▁poprze": 3107, "▁Są": 3108, "ałów": 3109, "▁Jezus": 3110, "zel": 3111, "▁czasów": 3112, "▁wola": 3113, "laty": 3114, "▁wodą": 3115, "▁straszne": 3116, "dziło": 3117, "▁słod": 3118, "▁żało": 3119, "▁różnych": 3120, "▁boga": 3121, "▁pała": 3122, "czności": 3123, "▁doświad": 3124, "▁daje": 3125, "got": 3126, "dzenia": 3127, "▁Miller": 3128, "▁Jednakże": 3129, "▁ture": 3130, "▁przyczyny": 3131, "v": 3132, "▁rada": 3133, "▁nadzieję": 3134, "▁skry": 3135, "▁człowiekiem": 3136, "▁spostrze": 3137, "▁wzię": 3138, "▁odpowiedź": 3139, "chodzi": 3140, "bem": 3141, "▁powietrzu": 3142, "▁umy": 3143, "▁Ob": 3144, "liwości": 3145, "lnej": 3146, "▁mię": 3147, "▁wyciągnął": 3148, "▁oddział": 3149, "▁położył": 3150, "▁Niem": 3151, "▁com": 3152, "dziem": 3153, "▁złota": 3154, "stwie": 3155, "dzisz": 3156, "▁Chwi": 3157, "▁Ła": 3158, "▁Ależ": 3159, "skać": 3160, "▁Zgo": 3161, "szem": 3162, "▁owa": 3163, "▁nikomu": 3164, "▁los": 3165, "▁bój": 3166, "▁podał": 3167, "▁wierzy": 3168, "▁żadnego": 3169, "▁Bu": 3170, "▁mnóstwo": 3171, "▁mogłem": 3172, "▁widzieli": 3173, "▁milczenia": 3174, "glądać": 3175, "▁większe": 3176, "pami": 3177, "dali": 3178, "rócił": 3179, "lną": 3180, "lia": 3181, "▁dokoła": 3182, "▁cień": 3183, "sus": 3184, "▁bli": 3185, "szcie": 3186, "▁twoją": 3187, "▁zaba": 3188, "▁sch": 3189, "R": 3190, "ałą": 3191, "▁strachu": 3192, "▁niekiedy": 3193, "▁sklep": 3194, "▁każdą": 3195, "nkę": 3196, "▁owo": 3197, "▁forte": 3198, "▁Tar": 3199, "▁śmiechem": 3200, "rowa": 3201, "▁chętnie": 3202, "ściach": 3203, "żnie": 3204, "▁win": 3205, "▁Myś": 3206, "▁zbo": 3207, "▁żał": 3208, "▁bru": 3209, "mując": 3210, "strze": 3211, "szek": 3212, "▁niewolników": 3213, "pti": 3214, "▁Aposto": 3215, "▁spytała": 3216, "żka": 3217, "▁Al": 3218, "▁nareszcie": 3219, "▁Witold": 3220, "▁owych": 3221, "▁udał": 3222, "▁lubi": 3223, "naty": 3224, "▁ple": 3225, "▁zdoła": 3226, "▁upad": 3227, "ban": 3228, "tr": 3229, "▁uśmie": 3230, "▁utra": 3231, "▁stali": 3232, "uda": 3233, "owałem": 3234, "▁staje": 3235, "▁zza": 3236, "▁pierwszego": 3237, "<0xC3>": 3238, "▁sprawa": 3239, "pad": 3240, "▁chodziło": 3241, "stia": 3242, "▁Chrystusa": 3243, "▁siłę": 3244, "▁ustach": 3245, "▁Zako": 3246, "▁chra": 3247, "▁Py": 3248, "czała": 3249, "kimi": 3250, "▁komi": 3251, "usze": 3252, "▁sprowa": 3253, "▁tylu": 3254, "▁Bądź": 3255, "szenie": 3256, "▁celu": 3257, "▁słowem": 3258, "owiec": 3259, "▁Zna": 3260, "▁olbrzy": 3261, "▁poda": 3262, "prze": 3263, "▁ura": 3264, "dziły": 3265, "▁up": 3266, "noty": 3267, "▁światła": 3268, "▁spły": 3269, "▁zrobi": 3270, "▁podczas": 3271, "▁Wtedy": 3272, "▁nieja": 3273, "ment": 3274, "kały": 3275, "▁straż": 3276, "dzono": 3277, "piec": 3278, "▁szan": 3279, "szak": 3280, "liwe": 3281, "▁głupi": 3282, "▁czyni": 3283, "▁dokąd": 3284, "▁rozbi": 3285, "▁wspar": 3286, "dr": 3287, "▁znaleźli": 3288, "▁stół": 3289, "▁nocą": 3290, "▁wyda": 3291, "B": 3292, "▁wiary": 3293, "▁Kry": 3294, "▁niewolni": 3295, "ton": 3296, "▁pomimo": 3297, "jach": 3298, "owskiej": 3299, "▁twojej": 3300, "▁wach": 3301, "▁woda": 3302, "▁bramy": 3303, "▁duchu": 3304, "▁fanta": 3305, "▁ws": 3306, "▁kaza": 3307, "▁wiadomość": 3308, "▁Naj": 3309, "▁ciemności": 3310, "▁zgo": 3311, "▁kre": 3312, "▁Ani": 3313, "▁dostał": 3314, "ury": 3315, "▁Lip": 3316, "▁prezes": 3317, "▁stracił": 3318, "rod": 3319, "▁obszer": 3320, "czas": 3321, "▁Sy": 3322, "▁piękny": 3323, "▁Sze": 3324, "▁koniecznie": 3325, "▁większą": 3326, "▁dum": 3327, "gle": 3328, "▁olbrzymie": 3329, "bami": 3330, "żna": 3331, "pki": 3332, "▁zbi": 3333, "▁wrócić": 3334, "▁szukał": 3335, "nad": 3336, "ózł": 3337, "▁prosić": 3338, "nnym": 3339, "mis": 3340, "▁Zyg": 3341, "ri": 3342, "▁królowi": 3343, "▁przyjął": 3344, "▁osa": 3345, "▁mal": 3346, "▁Kro": 3347, "▁proro": 3348, "▁przeszedł": 3349, "▁pocał": 3350, "▁bierze": 3351, "▁prosto": 3352, "fe": 3353, "czący": 3354, "są": 3355, "▁nogach": 3356, "niejszym": 3357, "▁dział": 3358, "▁wrażenie": 3359, "▁gi": 3360, "łami": 3361, "▁Miał": 3362, "▁puszcza": 3363, "▁odet": 3364, "▁wyszła": 3365, "lii": 3366, "▁gwał": 3367, "dal": 3368, "▁dą": 3369, "▁mą": 3370, "▁twoim": 3371, "krzy": 3372, "biera": 3373, "▁pogar": 3374, "▁zrozumiał": 3375, "ciąg": 3376, "▁rano": 3377, "▁kobie": 3378, "▁rzeź": 3379, "jazd": 3380, "▁powtó": 3381, "▁niespodzia": 3382, "cina": 3383, "▁pilnie": 3384, "▁przyjaciel": 3385, "▁wzią": 3386, "▁bitwa": 3387, "koło": 3388, "lus": 3389, "▁skrzydła": 3390, "dźcie": 3391, "▁Pana": 3392, "▁skończy": 3393, "▁kole": 3394, "mówi": 3395, "▁druga": 3396, "łuje": 3397, "▁wszelkie": 3398, "mą": 3399, "rym": 3400, "lnych": 3401, "▁czterech": 3402, "▁zupeł": 3403, "▁bywa": 3404, "▁niewoli": 3405, "▁pobliżu": 3406, "▁Dan": 3407, "twę": 3408, "try": 3409, "▁jakkolwiek": 3410, "▁wybor": 3411, "komo": 3412, "▁Dob": 3413, "miesz": 3414, "▁szła": 3415, "▁wyprowa": 3416, "bar": 3417, "▁utk": 3418, "▁żegna": 3419, "dźmy": 3420, "▁oświe": 3421, "▁try": 3422, "jże": 3423, "▁mg": 3424, "▁wyrzu": 3425, "▁usły": 3426, "▁Inni": 3427, "lenia": 3428, "▁ośmie": 3429, "▁wiadomości": 3430, "czce": 3431, "▁zobaczyć": 3432, "tó": 3433, "cką": 3434, "▁Or": 3435, "▁wąt": 3436, "▁najwięcej": 3437, "▁kopy": 3438, "▁zapad": 3439, "nisz": 3440, "▁Szczę": 3441, "▁głup": 3442, "waż": 3443, "▁żadnych": 3444, "▁Żydów": 3445, "ust": 3446, "▁spali": 3447, "▁składa": 3448, "▁przypu": 3449, "tanie": 3450, "▁uśmiech": 3451, "▁czarne": 3452, "▁Kazimierz": 3453, "▁dłonie": 3454, "▁obło": 3455, "▁jasno": 3456, "▁ogniem": 3457, "nosić": 3458, "chylił": 3459, "▁stara": 3460, "śnia": 3461, "▁zapła": 3462, "I": 3463, "▁żona": 3464, "ciera": 3465, "▁deszcz": 3466, "▁Stra": 3467, "zem": 3468, "▁chodził": 3469, "nną": 3470, "▁pochylił": 3471, "sząc": 3472, "▁milczał": 3473, "▁trz": 3474, "▁Przecież": 3475, "czyna": 3476, "lnik": 3477, "beł": 3478, "czysz": 3479, "▁dzisiaj": 3480, "▁zaro": 3481, "nta": 3482, "▁bracia": 3483, "▁Ki": 3484, "▁próż": 3485, "▁Wido": 3486, "▁szeroko": 3487, "▁zwyczaj": 3488, "▁musiała": 3489, "pach": 3490, "▁stamtąd": 3491, "▁Re": 3492, "▁robo": 3493, "cio": 3494, "▁skóry": 3495, "▁Sara": 3496, "▁Tauro": 3497, "▁ruszyli": 3498, "▁żalu": 3499, "▁pozwolił": 3500, "▁Sędzia": 3501, "niusza": 3502, "▁kochał": 3503, "żeniem": 3504, "▁domów": 3505, "▁tamtej": 3506, "▁postęp": 3507, "▁żą": 3508, "kował": 3509, "▁burza": 3510, "łowie": 3511, "dki": 3512, "▁ogóle": 3513, "▁krzyż": 3514, "▁wychy": 3515, "▁rany": 3516, "liwość": 3517, "▁opowiadał": 3518, "▁ostatnie": 3519, "▁dół": 3520, "▁biało": 3521, "żeli": 3522, "jest": 3523, "▁Zaś": 3524, "▁chci": 3525, "▁podnie": 3526, "▁ser": 3527, "art": 3528, "▁cichy": 3529, "▁wyp": 3530, "▁dawnych": 3531, "rzej": 3532, "ina": 3533, "▁dost": 3534, "▁pla": 3535, "▁strzela": 3536, "▁chmu": 3537, "▁przeszło": 3538, "rzyło": 3539, "▁stole": 3540, "▁ogro": 3541, "sp": 3542, "ham": 3543, "znę": 3544, "maty": 3545, "▁najp": 3546, "▁De": 3547, "▁gość": 3548, "▁nadzieja": 3549, "żd": 3550, "niesie": 3551, "▁wsta": 3552, "▁ol": 3553, "▁zachwy": 3554, "lając": 3555, "▁pragnie": 3556, "▁zmar": 3557, "wskiej": 3558, "▁spodziewał": 3559, "owymi": 3560, "▁głosów": 3561, "▁abym": 3562, "▁grzbie": 3563, "cier": 3564, "▁dłoń": 3565, "▁spotka": 3566, "▁innej": 3567, "ER": 3568, "uka": 3569, "▁doskonale": 3570, "▁służy": 3571, "niejszą": 3572, "byśmy": 3573, "czką": 3574, "▁zakry": 3575, "▁oficerowie": 3576, "▁wzajem": 3577, "▁wróż": 3578, "▁służ": 3579, "▁pozwo": 3580, "▁chory": 3581, "nięty": 3582, "▁pierś": 3583, "▁wyrze": 3584, "▁robił": 3585, "cymi": 3586, "szczą": 3587, "▁pewnością": 3588, "▁uko": 3589, "▁Właśnie": 3590, "ster": 3591, "▁got": 3592, "▁tyłu": 3593, "syła": 3594, "▁pożar": 3595, "dłem": 3596, "sława": 3597, "ciło": 3598, "▁Sar": 3599, "▁miesiąc": 3600, "▁Gu": 3601, "ciągnął": 3602, "▁ucha": 3603, "▁jed": 3604, "noś": 3605, "piera": 3606, "▁rozpacz": 3607, "▁dziewczyny": 3608, "▁klęski": 3609, "is": 3610, "▁blasku": 3611, "czonym": 3612, "szedłem": 3613, "gla": 3614, "▁Warszawie": 3615, "▁wyżej": 3616, "▁przyci": 3617, "▁zastęp": 3618, "▁wyraz": 3619, "roka": 3620, "▁wojewody": 3621, "▁gotowi": 3622, "▁waszych": 3623, "żyły": 3624, "▁usłyszał": 3625, "▁wodza": 3626, "▁bogi": 3627, "szku": 3628, "▁tło": 3629, "▁wiedzą": 3630, "rzały": 3631, "▁Widzę": 3632, "▁Pie": 3633, "▁drzwiach": 3634, "bija": 3635, "▁pewna": 3636, "▁Dlatego": 3637, "▁pamięci": 3638, "▁czegoś": 3639, "▁pamięta": 3640, "▁uwagę": 3641, "▁Niemców": 3642, "praw": 3643, "wska": 3644, "wiony": 3645, "▁pewnego": 3646, "wane": 3647, "▁kawale": 3648, "gdzie": 3649, "▁królewskiej": 3650, "▁wieki": 3651, "tel": 3652, "▁ponie": 3653, "▁czynią": 3654, "lep": 3655, "▁pies": 3656, "▁Noc": 3657, "▁rzek": 3658, "▁moi": 3659, "▁południe": 3660, "▁śmiercią": 3661, "▁Wszystkie": 3662, "▁zobaczył": 3663, "▁samych": 3664, "▁opowiada": 3665, "▁uwie": 3666, "jeżdżał": 3667, "▁uło": 3668, "▁krzywdy": 3669, "▁przery": 3670, "▁pamięć": 3671, "knąć": 3672, "▁ustą": 3673, "▁uści": 3674, "tnych": 3675, "▁zmart": 3676, "▁krą": 3677, "▁twego": 3678, "▁posłu": 3679, "▁znaj": 3680, "skimi": 3681, "▁sze": 3682, "stawi": 3683, "▁las": 3684, "chach": 3685, "▁oży": 3686, "wione": 3687, "nica": 3688, "bili": 3689, "▁jeńców": 3690, "▁Niektórzy": 3691, "▁cofa": 3692, "▁au": 3693, "▁wyje": 3694, "▁ulicy": 3695, "▁młodzie": 3696, "cznika": 3697, "▁wyku": 3698, "▁zdawał": 3699, "▁leś": 3700, "rowie": 3701, "▁bok": 3702, "▁blu": 3703, "▁rozpro": 3704, "▁wierz": 3705, "▁CH": 3706, "▁zo": 3707, "▁błyska": 3708, "▁rozko": 3709, "kar": 3710, "kazało": 3711, "▁biały": 3712, "▁kola": 3713, "▁różne": 3714, "manie": 3715, "stego": 3716, "▁gorzej": 3717, "▁ogo": 3718, "nikami": 3719, "▁musieli": 3720, "▁ata": 3721, "▁królem": 3722, "▁upadł": 3723, "sunął": 3724, "▁dzikich": 3725, "biegła": 3726, "czące": 3727, "▁ostrze": 3728, "▁posiada": 3729, "▁cio": 3730, "▁inną": 3731, "nic": 3732, "▁damy": 3733, "▁służba": 3734, "▁owej": 3735, "▁progu": 3736, "▁winy": 3737, "▁owi": 3738, "▁zby": 3739, "gam": 3740, "▁dobrego": 3741, "▁postaci": 3742, "▁Bez": 3743, "▁oku": 3744, "▁kamień": 3745, "▁służyć": 3746, "▁drob": 3747, "▁przeje": 3748, "▁jeść": 3749, "▁wyjechał": 3750, "owników": 3751, "owicza": 3752, "czono": 3753, "▁Zamo": 3754, "▁armat": 3755, "▁szeregi": 3756, "leciał": 3757, "▁powtarz": 3758, "▁prag": 3759, "▁j": 3760, "▁zapytała": 3761, "▁prowadził": 3762, "▁braci": 3763, "piał": 3764, "▁uszu": 3765, "▁zabrał": 3766, "wier": 3767, "mio": 3768, "▁zga": 3769, "▁niewo": 3770, "▁trafi": 3771, "▁Czasem": 3772, "▁liście": 3773, "▁dwoma": 3774, "źć": 3775, "szyła": 3776, "▁schro": 3777, "▁wia": 3778, "▁łez": 3779, "▁nienawi": 3780, "▁Nigdy": 3781, "mieniu": 3782, "▁zaczęli": 3783, "▁podobno": 3784, "▁kot": 3785, "▁umar": 3786, "czonych": 3787, "▁chciałem": 3788, "▁przygo": 3789, "cąc": 3790, "▁rozumiał": 3791, "▁bry": 3792, "▁wypadek": 3793, "nina": 3794, "▁będziemy": 3795, "▁weszli": 3796, "▁wyru": 3797, "stw": 3798, "leb": 3799, "▁zgoła": 3800, "▁najlepiej": 3801, "▁Jutro": 3802, "▁większy": 3803, "▁boju": 3804, "▁skały": 3805, "▁dłoni": 3806, "▁własnych": 3807, "cją": 3808, "tam": 3809, "▁idąc": 3810, "▁zdołał": 3811, "▁wyj": 3812, "▁najmniej": 3813, "▁większa": 3814, "▁naród": 3815, "▁chłopak": 3816, "▁szepnęła": 3817, "▁przebra": 3818, "▁narze": 3819, "ńscy": 3820, "▁wio": 3821, "▁blask": 3822, "▁wierzyć": 3823, "▁zły": 3824, "▁opad": 3825, "▁pociąg": 3826, "▁kur": 3827, "▁nosi": 3828, "▁roze": 3829, "wó": 3830, "▁sposob": 3831, "świe": 3832, "▁szum": 3833, "czona": 3834, "▁rów": 3835, "▁wyra": 3836, "▁puł": 3837, "▁Egipcie": 3838, "▁for": 3839, "▁wysłał": 3840, "▁plu": 3841, "żeni": 3842, "▁gwiazdy": 3843, "wka": 3844, "▁podobnych": 3845, "▁klej": 3846, "sce": 3847, "▁wychodzi": 3848, "▁porzu": 3849, "▁dobrą": 3850, "▁lewo": 3851, "▁zi": 3852, "▁Tro": 3853, "▁spę": 3854, "rej": 3855, "▁uderza": 3856, "zą": 3857, "▁pewnym": 3858, "▁uciekać": 3859, "▁zgrzy": 3860, "dnych": 3861, "dzeniu": 3862, "orów": 3863, "▁niezna": 3864, "vel": 3865, "▁Rzeczpospolita": 3866, "blą": 3867, "▁Lit": 3868, "▁bogini": 3869, "▁poja": 3870, "▁kont": 3871, "lega": 3872, "▁nowego": 3873, "▁oznaj": 3874, "▁kamieni": 3875, "▁poły": 3876, "▁pójść": 3877, "▁oblicze": 3878, "▁chaty": 3879, "▁wiecie": 3880, "▁ucho": 3881, "▁wybi": 3882, "ństwem": 3883, "▁twoich": 3884, "▁ruszyć": 3885, "szała": 3886, "wki": 3887, "leli": 3888, "zia": 3889, "▁pija": 3890, "▁białą": 3891, "▁zwo": 3892, "C": 3893, "▁zak": 3894, "▁posł": 3895, "▁późno": 3896, "▁żadna": 3897, "▁Gro": 3898, "▁pięćdziesiąt": 3899, "▁boki": 3900, "zdy": 3901, "▁znajduje": 3902, "pliwie": 3903, "ren": 3904, "czyk": 3905, "▁Wiesz": 3906, "▁poszła": 3907, "mer": 3908, "▁ustawi": 3909, "▁każda": 3910, "▁państwo": 3911, "rzask": 3912, "▁pytanie": 3913, "▁przypomniał": 3914, "dra": 3915, "▁żąda": 3916, "▁napa": 3917, "tował": 3918, "▁niektórzy": 3919, "gier": 3920, "▁przywie": 3921, "▁mat": 3922, "▁patrzyli": 3923, "mbu": 3924, "mistrz": 3925, "liby": 3926, "▁nasi": 3927, "▁Sza": 3928, "▁wydało": 3929, "niejszego": 3930, "▁ostatnich": 3931, "▁schy": 3932, "▁mocniej": 3933, "▁stronach": 3934, "▁Szlach": 3935, "▁có": 3936, "gina": 3937, "▁uczci": 3938, "▁Głu": 3939, "czeństwo": 3940, "▁dozna": 3941, "▁zauważył": 3942, "▁słusznie": 3943, "kanie": 3944, "▁północy": 3945, "ura": 3946, "▁spokojny": 3947, "sne": 3948, "▁ziar": 3949, "▁owym": 3950, "▁upo": 3951, "▁pieśń": 3952, "▁wyglądał": 3953, "▁ubra": 3954, "▁Między": 3955, "▁widziała": 3956, "▁zabija": 3957, "▁rozmawia": 3958, "cała": 3959, "▁zasłu": 3960, "tro": 3961, "▁rozbu": 3962, "▁Toteż": 3963, "▁szczegól": 3964, "▁odparła": 3965, "▁puścił": 3966, "▁błysz": 3967, "▁ne": 3968, "▁Tadeusz": 3969, "▁zbieg": 3970, "▁dę": 3971, "▁odprowa": 3972, "▁radę": 3973, "▁dowód": 3974, "▁rzeczywiście": 3975, "▁godzina": 3976, "▁służą": 3977, "▁lasy": 3978, "dzię": 3979, "róci": 3980, "▁prę": 3981, "▁at": 3982, "▁tydzień": 3983, "▁chmur": 3984, "▁zago": 3985, "▁otwarte": 3986, "▁zaczęły": 3987, "▁gu": 3988, "▁starszy": 3989, "▁zwycięstwo": 3990, "ckiemu": 3991, "▁zgroma": 3992, "▁sio": 3993, "towi": 3994, "▁przer": 3995, "▁walki": 3996, "▁despe": 3997, "▁kilkadziesiąt": 3998, "stąpił": 3999, "▁Ó": 4000, "▁ojcu": 4001, "▁dostanie": 4002, "▁suł": 4003, "▁spotkać": 4004, "▁sznu": 4005, "▁chwyta": 4006, "kt": 4007, "dko": 4008, "stać": 4009, "D": 4010, "▁tur": 4011, "▁pur": 4012, "▁przechodzi": 4013, "▁szyi": 4014, "▁he": 4015, "▁prosi": 4016, "▁Taki": 4017, "▁am": 4018, "▁lasu": 4019, "jącymi": 4020, "wiała": 4021, "spo": 4022, "ałam": 4023, "▁pięciu": 4024, "▁wiedzieli": 4025, "▁zapomniał": 4026, "żni": 4027, "▁zaci": 4028, "▁czerwone": 4029, "▁Księ": 4030, "▁zabił": 4031, "danie": 4032, "▁ostro": 4033, "ryw": 4034, "▁ciężkie": 4035, "▁piękne": 4036, "▁przybył": 4037, "orun": 4038, "▁lekko": 4039, "les": 4040, "ctwa": 4041, "▁poto": 4042, "▁krokiem": 4043, "▁złu": 4044, "▁murów": 4045, "▁białych": 4046, "▁złote": 4047, "▁stry": 4048, "▁Usły": 4049, "▁przew": 4050, "szone": 4051, "▁bał": 4052, "dziłem": 4053, "wio": 4054, "▁zabiera": 4055, "▁skoń": 4056, "▁skończył": 4057, "▁Rzymie": 4058, "▁zasy": 4059, "▁Justy": 4060, "▁przym": 4061, "▁żonę": 4062, "▁Wę": 4063, "▁zaj": 4064, "▁Hele": 4065, "▁nabra": 4066, "▁piękna": 4067, "rać": 4068, "nota": 4069, "▁wstyd": 4070, "tność": 4071, "▁Se": 4072, "▁włosów": 4073, "▁dym": 4074, "▁ster": 4075, "▁wyw": 4076, "▁Czeka": 4077, "▁nasy": 4078, "▁myślałem": 4079, "loną": 4080, "▁Rzecz": 4081, "▁chcecie": 4082, "▁doszedł": 4083, "▁ogromne": 4084, "owę": 4085, "▁usiadł": 4086, "kow": 4087, "▁bę": 4088, "owiada": 4089, "▁suk": 4090, "▁wargi": 4091, "▁gada": 4092, "nieniem": 4093, "▁pytać": 4094, "▁gromady": 4095, "▁płaszcz": 4096, "▁dniu": 4097, "▁Pozna": 4098, "▁szczy": 4099, "▁naw": 4100, "▁dniem": 4101, "▁chęć": 4102, "wne": 4103, "▁chłopa": 4104, "dka": 4105, "snęła": 4106, "▁przycho": 4107, "zor": 4108, "▁osób": 4109, "▁umiera": 4110, "▁kamienia": 4111, "▁heł": 4112, "▁Następnie": 4113, "szały": 4114, "▁wóz": 4115, "▁Długo": 4116, "▁księdza": 4117, "rok": 4118, "▁Pło": 4119, "▁wszystkimi": 4120, "▁Wol": 4121, "▁psu": 4122, "▁podoba": 4123, "ate": 4124, "▁szczęśliwy": 4125, "▁rado": 4126, "▁wyraźnie": 4127, "ałość": 4128, "▁wrze": 4129, "▁przyja": 4130, "żnym": 4131, "łom": 4132, "rzeń": 4133, "tany": 4134, "▁kolei": 4135, "▁cią": 4136, "▁nowych": 4137, "▁dawał": 4138, "▁cof": 4139, "▁dymu": 4140, "▁moż": 4141, "▁poku": 4142, "▁opowie": 4143, "▁łago": 4144, "▁dowiedział": 4145, "śle": 4146, "miar": 4147, "▁pełen": 4148, "żały": 4149, "kro": 4150, "cjusz": 4151, "usa": 4152, "dzkich": 4153, "▁Nu": 4154, "▁jakiegoś": 4155, "▁sklepie": 4156, "wymi": 4157, "trop": 4158, "owia": 4159, "▁duszą": 4160, "staw": 4161, "dnego": 4162, "▁dźwi": 4163, "▁tysią": 4164, "zer": 4165, "śniej": 4166, "▁sąd": 4167, "▁względem": 4168, "▁gęsto": 4169, "▁krzesła": 4170, "czenia": 4171, "cać": 4172, "▁zwierzę": 4173, "ałych": 4174, "▁słyszeć": 4175, "▁jakimś": 4176, "strz": 4177, "wskiego": 4178, "dzem": 4179, "knęła": 4180, "▁Dzie": 4181, "▁kró": 4182, "▁oł": 4183, "miony": 4184, "kować": 4185, "▁uważa": 4186, "roni": 4187, "▁słowach": 4188, "▁obrony": 4189, "żek": 4190, "kuje": 4191, "▁obchodzi": 4192, "żono": 4193, "▁działo": 4194, "lały": 4195, "▁trzydzieści": 4196, "▁trze": 4197, "▁długim": 4198, "▁ściąg": 4199, "▁Znowu": 4200, "▁powrotem": 4201, "▁Cho": 4202, "grze": 4203, "legły": 4204, "▁chan": 4205, "ryn": 4206, "▁mieczem": 4207, "skając": 4208, "▁samemu": 4209, "▁zag": 4210, "menta": 4211, "▁dosta": 4212, "▁Cie": 4213, "▁nierucho": 4214, "▁boi": 4215, "▁inna": 4216, "▁podar": 4217, "▁gad": 4218, "rzach": 4219, "lim": 4220, "nować": 4221, "łego": 4222, "▁opan": 4223, "▁przekona": 4224, "▁wzy": 4225, "chodzić": 4226, "▁kochan": 4227, "▁mówiono": 4228, "▁Ksiądz": 4229, "▁won": 4230, "kty": 4231, "▁zdr": 4232, "krę": 4233, "▁spło": 4234, "▁kamienie": 4235, "▁oczami": 4236, "▁niewiele": 4237, "lili": 4238, "▁polskie": 4239, "cjan": 4240, "▁prosił": 4241, "▁powtarzać": 4242, "▁niedaleko": 4243, "▁zbliż": 4244, "niny": 4245, "brze": 4246, "▁rodu": 4247, "padł": 4248, "▁niedawno": 4249, "lek": 4250, "▁wojsku": 4251, "▁słyszałem": 4252, "▁kosz": 4253, "▁Ł": 4254, "▁se": 4255, "ręt": 4256, "▁pić": 4257, "mami": 4258, "▁chwil": 4259, "▁nóż": 4260, "▁ofiary": 4261, "rzenia": 4262, "szono": 4263, "▁umrzeć": 4264, "▁resztę": 4265, "▁dziesią": 4266, "▁wracać": 4267, "▁pierście": 4268, "▁koły": 4269, "▁większej": 4270, "▁wsty": 4271, "▁Pru": 4272, "▁głowami": 4273, "1": 4274, "▁klasztor": 4275, "któ": 4276, "▁poczy": 4277, "▁kolum": 4278, "▁podobnego": 4279, "▁zapo": 4280, "▁Wielki": 4281, "▁urzą": 4282, "▁podobna": 4283, "▁poż": 4284, "▁nową": 4285, "nosząc": 4286, "▁podnosząc": 4287, "ięk": 4288, "▁złożył": 4289, "▁nag": 4290, "▁przypad": 4291, "▁konfe": 4292, "▁zmarsz": 4293, "wną": 4294, "▁chmury": 4295, "▁kochać": 4296, "czyński": 4297, "▁równi": 4298, "ich": 4299, "▁wych": 4300, "▁stanęła": 4301, "▁przepa": 4302, "▁zasła": 4303, "▁bronią": 4304, "▁płacz": 4305, "▁uwagi": 4306, "▁prowadzi": 4307, "iła": 4308, "▁tysiąc": 4309, "kru": 4310, "▁okno": 4311, "▁pułkownik": 4312, "twie": 4313, "▁weźmie": 4314, "żąc": 4315, "▁owego": 4316, "▁Bur": 4317, "▁odpowiadał": 4318, "rzym": 4319, "▁okrzyk": 4320, "▁ruchem": 4321, "▁Wier": 4322, "pkę": 4323, "▁reszty": 4324, "▁zabić": 4325, "▁wyciąga": 4326, "chło": 4327, "pij": 4328, "▁spotkał": 4329, "not": 4330, "▁macie": 4331, "▁żołnierza": 4332, "▁obawy": 4333, "AR": 4334, "raj": 4335, "▁ostatniej": 4336, "▁prosta": 4337, "▁rozdzie": 4338, "▁szereg": 4339, "▁przezna": 4340, "▁nogą": 4341, "żona": 4342, "▁dziecka": 4343, "nna": 4344, "żonym": 4345, "▁każde": 4346, "nieśli": 4347, "▁przywo": 4348, "▁jeź": 4349, "▁Michała": 4350, "▁Szczy": 4351, "▁Natomiast": 4352, "▁gą": 4353, "kiewicz": 4354, "dnia": 4355, "▁stanęli": 4356, "▁długą": 4357, "żną": 4358, "▁bólu": 4359, "▁wido": 4360, "▁spogląda": 4361, "▁fra": 4362, "▁przyrze": 4363, "jne": 4364, "▁nędz": 4365, "lnego": 4366, "▁zasta": 4367, "▁szele": 4368, "fy": 4369, "▁ludzkich": 4370, "▁otwo": 4371, "▁ogniu": 4372, "▁wyjść": 4373, "sę": 4374, "▁owszem": 4375, "▁nazwisko": 4376, "▁wisi": 4377, "żała": 4378, "▁kwate": 4379, "▁Kur": 4380, "▁wydawał": 4381, "▁wstrzą": 4382, "▁zanie": 4383, "piąc": 4384, "kaza": 4385, "▁Ró": 4386, "▁dziwne": 4387, "▁iz": 4388, "▁przysto": 4389, "ato": 4390, "▁koro": 4391, "niki": 4392, "▁zginął": 4393, "▁lasach": 4394, "nące": 4395, "▁słone": 4396, "▁mistrza": 4397, "▁szaty": 4398, "▁złoty": 4399, "▁widowi": 4400, "▁słyszy": 4401, "▁Gla": 4402, "▁wyszli": 4403, "▁Zapo": 4404, "▁Młody": 4405, "szany": 4406, "▁zamk": 4407, "▁kwiaty": 4408, "▁siedem": 4409, "▁ruchu": 4410, "▁Mówił": 4411, "▁morza": 4412, "obo": 4413, "es": 4414, "▁Helena": 4415, "nd": 4416, "▁widy": 4417, "▁gardło": 4418, "▁Stanisław": 4419, "▁opowiadać": 4420, "zen": 4421, "▁Który": 4422, "▁służbę": 4423, "▁zmienił": 4424, "▁Aby": 4425, "▁niecier": 4426, "▁wieczor": 4427, "▁śpiewa": 4428, "▁przypomina": 4429, "▁miast": 4430, "dzki": 4431, "▁Gdybym": 4432, "▁dwudziestu": 4433, "▁przestał": 4434, "daw": 4435, "bła": 4436, "rzone": 4437, "▁dob": 4438, "▁rozmawiać": 4439, "gły": 4440, "▁ojcem": 4441, "tana": 4442, "▁ścią": 4443, "▁zwa": 4444, "▁Byli": 4445, "▁Rzym": 4446, "▁Prus": 4447, "dzkiego": 4448, "▁Ga": 4449, "▁psy": 4450, "▁myśląc": 4451, "▁zali": 4452, "▁Oczy": 4453, "▁dobrym": 4454, "▁niezmiernie": 4455, "▁oprócz": 4456, "▁zdjął": 4457, "▁czoła": 4458, "▁zwróci": 4459, "▁obecnych": 4460, "kowski": 4461, "▁spojrzenia": 4462, "byw": 4463, "▁ufa": 4464, "▁Kamie": 4465, "▁oraz": 4466, "▁sławy": 4467, "owem": 4468, "▁umarł": 4469, "▁całych": 4470, "rob": 4471, "▁oszu": 4472, "czami": 4473, "▁Chodź": 4474, "▁przyszły": 4475, "nisty": 4476, "▁gdybyś": 4477, "▁Dość": 4478, "▁oboję": 4479, "byt": 4480, "liz": 4481, "▁ukazy": 4482, "▁Widać": 4483, "▁Podla": 4484, "▁Jakie": 4485, "▁niepew": 4486, "▁chleba": 4487, "tno": 4488, "▁córka": 4489, "ber": 4490, "▁skórę": 4491, "▁ogromny": 4492, "▁podzie": 4493, "▁bunt": 4494, "skó": 4495, "▁Słuchaj": 4496, "niać": 4497, "▁Flo": 4498, "▁Ponieważ": 4499, "▁hrabia": 4500, "▁pojedyn": 4501, "▁gościa": 4502, "▁sej": 4503, "gór": 4504, "▁pierwsza": 4505, "▁fotelu": 4506, "▁wład": 4507, "waża": 4508, "nist": 4509, "niało": 4510, "▁brzę": 4511, "dry": 4512, "pienie": 4513, "nnej": 4514, "▁pozostał": 4515, "pra": 4516, "▁kłę": 4517, "ździe": 4518, "cały": 4519, "▁płó": 4520, "▁pytania": 4521, "łej": 4522, "nat": 4523, "manów": 4524, "▁rodzaju": 4525, "▁Zd": 4526, "▁Twarz": 4527, "▁pru": 4528, "▁ramieniu": 4529, "▁natury": 4530, "chając": 4531, "▁rusza": 4532, "▁przywy": 4533, "▁Mil": 4534, "dzież": 4535, "▁Dziękuję": 4536, "nuje": 4537, "▁wiarę": 4538, "▁zaprze": 4539, "▁Andrzeja": 4540, "▁pok": 4541, "▁wszech": 4542, "cenia": 4543, "▁szło": 4544, "ałym": 4545, "ściami": 4546, "▁począ": 4547, "▁małą": 4548, "niając": 4549, "▁usu": 4550, "▁jesteśmy": 4551, "waniu": 4552, "owana": 4553, "▁zapamię": 4554, "▁czarny": 4555, "▁miejsc": 4556, "rych": 4557, "nk": 4558, "▁krzyczeć": 4559, "▁chrześcijan": 4560, "Co": 4561, "▁księżyca": 4562, "▁boj": 4563, "lda": 4564, "▁opuszcza": 4565, "▁siedzieć": 4566, "▁córki": 4567, "▁marszałek": 4568, "▁boję": 4569, "▁Dy": 4570, "rzenie": 4571, "brzy": 4572, "jemy": 4573, "▁Ost": 4574, "▁czytać": 4575, "▁zmo": 4576, "▁zwycięstwa": 4577, "▁drzewo": 4578, "▁naz": 4579, "dzona": 4580, "▁zarówno": 4581, "▁szer": 4582, "▁środek": 4583, "▁mieszkania": 4584, "stki": 4585, "paść": 4586, "▁Sma": 4587, "▁Lin": 4588, "czyków": 4589, "▁wypę": 4590, "Ch": 4591, "▁staną": 4592, "▁wszyst": 4593, "▁częściej": 4594, "io": 4595, "▁wiedziała": 4596, "▁zwracając": 4597, "cisnął": 4598, "▁przyło": 4599, "bój": 4600, "▁wycie": 4601, "▁zada": 4602, "▁pada": 4603, "▁przemo": 4604, "▁znasz": 4605, "dera": 4606, "▁folwar": 4607, "ÓR": 4608, "▁własnego": 4609, "słu": 4610, "▁Bogiem": 4611, "▁mądro": 4612, "▁śmiać": 4613, "czeństwa": 4614, "▁duchy": 4615, "▁piasku": 4616, "gania": 4617, "szyli": 4618, "chodzą": 4619, "chodząc": 4620, "▁miejscach": 4621, "▁stoją": 4622, "▁rękami": 4623, "lna": 4624, "▁dwoje": 4625, "atami": 4626, "▁zostało": 4627, "▁przyjm": 4628, "▁uciekł": 4629, "berg": 4630, "▁gier": 4631, "gieł": 4632, "▁Uj": 4633, "▁domyś": 4634, "▁Krzyż": 4635, "▁wspom": 4636, "ńcem": 4637, "rzmi": 4638, "▁pragnął": 4639, "▁Litwie": 4640, "▁osoby": 4641, "tości": 4642, "▁zostawił": 4643, "▁bieda": 4644, "▁wygo": 4645, "zny": 4646, "▁wysy": 4647, "▁sma": 4648, "▁dro": 4649, "▁wyba": 4650, "▁złoto": 4651, "wat": 4652, "▁wspomina": 4653, "niono": 4654, "dować": 4655, "ks": 4656, "▁słońcu": 4657, "czeli": 4658, "jami": 4659, "▁opiekę": 4660, "mić": 4661, "▁dodała": 4662, "pały": 4663, "▁przyszli": 4664, "▁królowa": 4665, "▁XX": 4666, "▁wyprawy": 4667, "▁topo": 4668, "▁cofnął": 4669, "▁wzniesi": 4670, "▁tonem": 4671, "▁modlitwy": 4672, "chodni": 4673, "▁powstał": 4674, "lana": 4675, "▁jazda": 4676, "▁abyś": 4677, "▁przyzna": 4678, "▁żadne": 4679, "▁MA": 4680, "▁sprawie": 4681, "▁pary": 4682, "▁zwierząt": 4683, "▁napo": 4684, "win": 4685, "▁wtrą": 4686, "ąt": 4687, "▁Czyli": 4688, "▁pomy": 4689, "▁ur": 4690, "▁nowa": 4691, "▁cierpi": 4692, "siedli": 4693, "leniu": 4694, "ciąga": 4695, "prawia": 4696, "▁śniegu": 4697, "▁świetle": 4698, "▁Nare": 4699, "▁minut": 4700, "▁palą": 4701, "kując": 4702, "cj": 4703, "▁świad": 4704, "owiem": 4705, "▁dziesięciu": 4706, "▁dzikie": 4707, "▁wyd": 4708, "▁zrę": 4709, "▁Lud": 4710, "▁szla": 4711, "▁al": 4712, "▁rozm": 4713, "▁bur": 4714, "▁dziwnie": 4715, "▁kocham": 4716, "▁rzym": 4717, "▁mia": 4718, "▁pry": 4719, "▁trzę": 4720, "▁ule": 4721, "▁dusze": 4722, "▁podniesi": 4723, "▁Żołnierze": 4724, "ol": 4725, "▁om": 4726, "leż": 4727, "▁bronił": 4728, "▁odje": 4729, "▁rozło": 4730, "▁bramę": 4731, "dała": 4732, "▁myślała": 4733, "muje": 4734, "▁drzwiami": 4735, "▁pewną": 4736, "▁zmieni": 4737, "▁zato": 4738, "▁wydaje": 4739, "▁palce": 4740, "czkach": 4741, "▁zapy": 4742, "▁osiem": 4743, "▁Wito": 4744, "▁przepra": 4745, "▁Vi": 4746, "▁żebra": 4747, "▁westchnął": 4748, "▁Min": 4749, "▁imieniu": 4750, "▁śpią": 4751, "▁klasztoru": 4752, "▁doby": 4753, "kot": 4754, "▁kościoła": 4755, "▁dziewczynę": 4756, "ATA": 4757, "▁władzę": 4758, "▁niesły": 4759, "▁Coś": 4760, "nnie": 4761, "▁gó": 4762, "▁uto": 4763, "▁Spo": 4764, "tku": 4765, "▁zwycza": 4766, "▁pog": 4767, "▁rozpaczy": 4768, "▁krok": 4769, "▁wód": 4770, "▁miło": 4771, "nką": 4772, "▁krótko": 4773, "rzch": 4774, "▁jasne": 4775, "▁pe": 4776, "▁bal": 4777, "▁ustami": 4778, "▁Moja": 4779, "▁spoczy": 4780, "ppe": 4781, "▁królowej": 4782, "pospolitą": 4783, "▁Dal": 4784, "bina": 4785, "▁drapie": 4786, "nków": 4787, "▁dłonią": 4788, "▁połą": 4789, "mował": 4790, "▁zadr": 4791, "lów": 4792, "▁nakry": 4793, "▁błyskawi": 4794, "▁Idź": 4795, "ec": 4796, "▁stanąć": 4797, "▁nosił": 4798, "▁kościele": 4799, "szymi": 4800, "▁dziecię": 4801, "klę": 4802, "▁okrę": 4803, "▁n": 4804, "▁wierzył": 4805, "twa": 4806, "▁stare": 4807, "▁musisz": 4808, "▁słyszę": 4809, "▁niepoko": 4810, "▁służył": 4811, "▁odkry": 4812, "▁połowy": 4813, "▁polskich": 4814, "▁kap": 4815, "▁przyjaciół": 4816, "▁rozwi": 4817, "stąpić": 4818, "▁uspo": 4819, "▁ogród": 4820, "▁wywie": 4821, "sno": 4822, "▁zdrowia": 4823, "▁rozmawiał": 4824, "▁wchodzi": 4825, "▁podwó": 4826, "szyły": 4827, "▁Ita": 4828, "czycy": 4829, "ownik": 4830, "żnego": 4831, "▁złość": 4832, "▁dawne": 4833, "▁największą": 4834, "▁ró": 4835, "czać": 4836, "▁lepszego": 4837, "▁byłaby": 4838, "▁dzięki": 4839, "▁zg": 4840, "▁przytom": 4841, "dej": 4842, "stanie": 4843, "szne": 4844, "▁potęgi": 4845, "▁zgra": 4846, "żać": 4847, "▁księżyc": 4848, "tować": 4849, "tnik": 4850, "▁możemy": 4851, "▁nigdzie": 4852, "▁ludzka": 4853, "owanych": 4854, "rwa": 4855, "▁wracał": 4856, "szonym": 4857, "▁policzki": 4858, "▁Ile": 4859, "▁Tłu": 4860, "lono": 4861, "▁ludzkiej": 4862, "▁unosi": 4863, "▁karku": 4864, "▁Ligi": 4865, "▁pance": 4866, "▁granicy": 4867, "▁straży": 4868, "▁oddziały": 4869, "Ba": 4870, "żegna": 4871, "dował": 4872, "▁Konie": 4873, "▁wypada": 4874, "nioną": 4875, "▁Lepiej": 4876, "▁rozmowa": 4877, "▁czekając": 4878, "▁Chry": 4879, "czego": 4880, "▁rozma": 4881, "▁wys": 4882, "▁popę": 4883, "▁świętego": 4884, "▁żart": 4885, "duje": 4886, "niesz": 4887, "▁Zawsze": 4888, "▁zagro": 4889, "▁winien": 4890, "▁synem": 4891, "▁wyle": 4892, "leniem": 4893, "▁zacie": 4894, "▁Chciał": 4895, "nosi": 4896, "▁mej": 4897, "słucha": 4898, "stka": 4899, "▁wart": 4900, "▁potom": 4901, "▁następ": 4902, "▁układa": 4903, "roz": 4904, "▁Czas": 4905, "J": 4906, "▁rzeczą": 4907, "kry": 4908, "▁czole": 4909, "ck": 4910, "▁porze": 4911, "▁kogoś": 4912, "wami": 4913, "▁Ly": 4914, "▁Azji": 4915, "elle": 4916, "▁okręt": 4917, "▁rzucić": 4918, "▁siedzieli": 4919, "▁objął": 4920, "▁świeżo": 4921, "lego": 4922, "▁pisarz": 4923, "EN": 4924, "▁przynosi": 4925, "▁kłó": 4926, "▁weź": 4927, "▁sławę": 4928, "▁południa": 4929, "▁światłem": 4930, "▁ochotę": 4931, "noszą": 4932, "▁burzy": 4933, "▁sprzę": 4934, "▁koszt": 4935, "gich": 4936, "rzuca": 4937, "niona": 4938, "▁obóz": 4939, "▁dziewięć": 4940, "many": 4941, "▁Byłem": 4942, "żym": 4943, "▁potrzebuje": 4944, "▁porę": 4945, "tnej": 4946, "▁lesie": 4947, "▁chleb": 4948, "▁przesu": 4949, "▁żebym": 4950, "▁stan": 4951, "▁odpowiedzieć": 4952, "szeli": 4953, "▁Widziałem": 4954, "niesi": 4955, "▁Ate": 4956, "▁Jezu": 4957, "▁Janusz": 4958, "hr": 4959, "▁obiecał": 4960, "▁pokazał": 4961, "dziana": 4962, "▁Mikołaj": 4963, "▁Karol": 4964, "▁obecnie": 4965, "gowie": 4966, "▁dotk": 4967, "prawdę": 4968, "▁koł": 4969, "▁rzekę": 4970, "sać": 4971, "sał": 4972, "▁córkę": 4973, "▁ochło": 4974, "jął": 4975, "▁szwa": 4976, "▁szwedzki": 4977, "▁największym": 4978, "szkiem": 4979, "czonej": 4980, "kój": 4981, "▁orze": 4982, "▁śmiechu": 4983, "dzieć": 4984, "czej": 4985, "▁napi": 4986, "▁trzymając": 4987, "▁potrzeb": 4988, "▁Wrze": 4989, "▁rę": 4990, "▁wzgórza": 4991, "▁młodych": 4992, "▁nazywa": 4993, "ściła": 4994, "▁trzymać": 4995, "▁lek": 4996, "▁mięk": 4997, "▁powięk": 4998, "▁ciemne": 4999, "▁Były": 5000, "▁wysoki": 5001, "▁rozumiesz": 5002, "▁cyr": 5003, "▁przeby": 5004, "▁sre": 5005, "nce": 5006, "▁Powie": 5007, "▁Widział": 5008, "▁okazy": 5009, "▁loka": 5010, "▁dobrych": 5011, "▁wid": 5012, "łon": 5013, "▁obyczaj": 5014, "▁Przyj": 5015, "działem": 5016, "▁śmiało": 5017, "▁twier": 5018, "ałości": 5019, "czął": 5020, "▁piekie": 5021, "▁uczucia": 5022, "▁Wz": 5023, "▁skle": 5024, "▁anio": 5025, "▁zamę": 5026, "▁Mało": 5027, "▁Tę": 5028, "bią": 5029, "▁dole": 5030, "▁zębami": 5031, "▁psa": 5032, "▁strzały": 5033, "▁Żydzi": 5034, "▁ziemią": 5035, "▁kwad": 5036, "▁duże": 5037, "szny": 5038, "pnie": 5039, "▁oświad": 5040, "▁najbardziej": 5041, "chałem": 5042, "żało": 5043, "▁skro": 5044, "rzysta": 5045, "wicza": 5046, "▁Pola": 5047, "▁pismo": 5048, "▁przebieg": 5049, "▁język": 5050, "walił": 5051, "chód": 5052, "▁nisko": 5053, "dycha": 5054, "rzało": 5055, "gając": 5056, "▁lubił": 5057, "▁zer": 5058, "▁grzy": 5059, "▁kle": 5060, "▁zawa": 5061, "▁pił": 5062, "▁śpiewać": 5063, "▁synów": 5064, "leje": 5065, "cham": 5066, "nięta": 5067, "▁bogaty": 5068, "N": 5069, "▁wykrzy": 5070, "lność": 5071, "zał": 5072, "▁kawał": 5073, "▁silnie": 5074, "▁mojego": 5075, "▁Niemcy": 5076, "▁oświadczył": 5077, "lot": 5078, "▁jakiejś": 5079, "▁wierzch": 5080, "▁zwłoki": 5081, "▁Poto": 5082, "▁pobi": 5083, "nos": 5084, "▁oporu": 5085, "▁latar": 5086, "▁Aha": 5087, "▁garść": 5088, "▁Rzymu": 5089, "▁proces": 5090, "▁ban": 5091, "patry": 5092, "▁chi": 5093, "▁gruby": 5094, "▁Słyszałem": 5095, "▁Pierwszy": 5096, "szkę": 5097, "▁wierzę": 5098, "▁potężny": 5099, "nacie": 5100, "▁szkoda": 5101, "▁mili": 5102, "▁głębo": 5103, "▁patrzą": 5104, "▁snem": 5105, "▁synu": 5106, "EL": 5107, "▁laty": 5108, "▁pieczę": 5109, "bły": 5110, "▁Hu": 5111, "▁fal": 5112, "▁niezbyt": 5113, "łó": 5114, "▁dawać": 5115, "lera": 5116, "prowa": 5117, "kan": 5118, "biega": 5119, "▁straci": 5120, "▁odszedł": 5121, "▁zostali": 5122, "▁pó": 5123, "▁małej": 5124, "siła": 5125, "▁ciemno": 5126, "▁południu": 5127, "▁pisał": 5128, "▁przyprowa": 5129, "▁ślady": 5130, "▁Dzień": 5131, "▁Musz": 5132, "▁Jar": 5133, "tten": 5134, "▁poseł": 5135, "▁XIII": 5136, "manem": 5137, "onów": 5138, "▁dochodzi": 5139, "▁zostały": 5140, "▁małym": 5141, "szemu": 5142, "▁Widzisz": 5143, "lika": 5144, "▁wysokie": 5145, "mat": 5146, "▁kij": 5147, "▁Ce": 5148, "▁objęcia": 5149, "▁kło": 5150, "th": 5151, "▁przypom": 5152, "czniej": 5153, "ist": 5154, "▁układ": 5155, "▁pokazać": 5156, "▁niewie": 5157, "▁dokoń": 5158, "▁znaki": 5159, "▁Jaki": 5160, "▁tem": 5161, "▁wieków": 5162, "▁przyszłość": 5163, "▁sztuki": 5164, "▁głąb": 5165, "gani": 5166, "▁bliska": 5167, "▁zostawić": 5168, "▁rację": 5169, "▁sos": 5170, "pro": 5171, "▁Cały": 5172, "▁palcami": 5173, "▁Rę": 5174, "dro": 5175, "▁drżą": 5176, "tent": 5177, "▁wodzie": 5178, "▁stojąc": 5179, "ss": 5180, "▁In": 5181, "rał": 5182, "▁uchy": 5183, "▁zamiar": 5184, "▁okien": 5185, "chowski": 5186, "▁orę": 5187, "▁rozumu": 5188, "powiada": 5189, "▁che": 5190, "▁Nim": 5191, "▁zasa": 5192, "▁przem": 5193, "▁gory": 5194, "▁cien": 5195, "▁podnieść": 5196, "▁Znam": 5197, "rzyna": 5198, "▁Ger": 5199, "▁kie": 5200, "▁Patrz": 5201, "▁Oba": 5202, "pt": 5203, "▁słowy": 5204, "▁wolność": 5205, "łość": 5206, "▁rozja": 5207, "▁przeczy": 5208, "bnie": 5209, "▁pierwszych": 5210, "▁prawdy": 5211, "▁bara": 5212, "▁głodu": 5213, "rywa": 5214, "▁głosu": 5215, "▁zro": 5216, "▁opuści": 5217, "sili": 5218, "▁należało": 5219, "▁żywy": 5220, "▁Jed": 5221, "tkę": 5222, "▁dziećmi": 5223, "rowi": 5224, "▁stojący": 5225, "pieniu": 5226, "▁gotowe": 5227, "▁poświę": 5228, "ścili": 5229, "▁ono": 5230, "▁ludzką": 5231, "▁więzienia": 5232, "▁leżały": 5233, "▁barwy": 5234, "▁cudzoziem": 5235, "▁młode": 5236, "▁nieo": 5237, "▁ciemność": 5238, "▁odpu": 5239, "▁odtąd": 5240, "▁magna": 5241, "▁karcz": 5242, "patrywał": 5243, "▁arystokra": 5244, "▁odez": 5245, "▁kierunku": 5246, "▁zatrzy": 5247, "▁wyprost": 5248, "▁stawał": 5249, "▁Sko": 5250, "▁figu": 5251, "▁ratować": 5252, "▁władzy": 5253, "tania": 5254, "wica": 5255, "gosła": 5256, "▁współ": 5257, "▁przyjaciela": 5258, "cow": 5259, "▁myś": 5260, "zł": 5261, "▁niezwy": 5262, "▁najpięk": 5263, "jni": 5264, "wale": 5265, "▁północ": 5266, "mawiać": 5267, "latu": 5268, "▁bodaj": 5269, "▁jesteście": 5270, "▁wbrew": 5271, "lazł": 5272, "▁oszczę": 5273, "nąłem": 5274, "▁ogrod": 5275, "▁pięknie": 5276, "niętą": 5277, "▁powieki": 5278, "niejsi": 5279, "▁przysta": 5280, "▁spad": 5281, "▁kule": 5282, "▁mówiłem": 5283, "▁sku": 5284, "▁ciał": 5285, "▁potrzeby": 5286, "▁ciemnej": 5287, "▁duży": 5288, "▁Sp": 5289, "▁opór": 5290, "▁dziad": 5291, "▁Rozu": 5292, "▁robią": 5293, "czewski": 5294, "▁spadnie": 5295, "▁przywiąza": 5296, "stoj": 5297, "▁przykry": 5298, "▁elegan": 5299, "▁zależy": 5300, "▁dodatku": 5301, "▁indziej": 5302, "▁każdemu": 5303, "▁potężne": 5304, "▁top": 5305, "▁ozdob": 5306, "ństwie": 5307, "▁rozdra": 5308, "snym": 5309, "lonym": 5310, "▁liczne": 5311, "▁wypo": 5312, "▁dała": 5313, "tło": 5314, "pienia": 5315, "▁Zosta": 5316, "▁diabła": 5317, "▁cieka": 5318, "▁ostat": 5319, "▁święta": 5320, "▁naro": 5321, "▁poj": 5322, "▁smutku": 5323, "tności": 5324, "▁fala": 5325, "▁pą": 5326, "▁nap": 5327, "▁ota": 5328, "▁złożyć": 5329, "▁obiecy": 5330, "▁Bar": 5331, "▁zmę": 5332, "▁czuła": 5333, "▁ponu": 5334, "▁zatrzymy": 5335, "▁młoda": 5336, "▁lepsze": 5337, "śla": 5338, "▁Jedna": 5339, "ią": 5340, "▁czymś": 5341, "▁wzięli": 5342, "myka": 5343, "▁Obaj": 5344, "▁dokładnie": 5345, "▁But": 5346, "for": 5347, "▁rozmaitych": 5348, "▁Czuł": 5349, "▁zobaczy": 5350, "▁Maria": 5351, "▁idź": 5352, "▁Zło": 5353, "▁obycza": 5354, "sławie": 5355, "▁wej": 5356, "▁żo": 5357, "rego": 5358, "wiło": 5359, "▁cudow": 5360, "▁kroku": 5361, "wiast": 5362, "▁zde": 5363, "▁idę": 5364, "▁twe": 5365, "żonych": 5366, "▁cich": 5367, "▁majątku": 5368, "▁kol": 5369, "▁przyniósł": 5370, "▁wyr": 5371, "▁kwiatów": 5372, "ot": 5373, "▁nazwiska": 5374, "▁strasznie": 5375, "▁Takie": 5376, "▁mni": 5377, "nieść": 5378, "▁pirami": 5379, "diego": 5380, "▁poroz": 5381, "▁sprawiedliwości": 5382, "▁pełno": 5383, "▁adwokat": 5384, "▁wysłu": 5385, "▁będziecie": 5386, "▁honor": 5387, "czku": 5388, "▁mart": 5389, "▁Wkrótce": 5390, "moc": 5391, "▁ogrodu": 5392, "▁Naturalnie": 5393, "▁rzuciła": 5394, "▁ręko": 5395, "▁oparł": 5396, "stwu": 5397, "▁odwrócił": 5398, "▁prawej": 5399, "▁och": 5400, "▁Prę": 5401, "▁uś": 5402, "▁ć": 5403, "cznością": 5404, "▁sprzeda": 5405, "obie": 5406, "Na": 5407, "▁fale": 5408, "sków": 5409, "▁nadszedł": 5410, "▁Cza": 5411, "▁mała": 5412, "▁mowy": 5413, "▁nos": 5414, "bacz": 5415, "▁bezpie": 5416, "chow": 5417, "▁pomo": 5418, "rób": 5419, "▁zim": 5420, "zami": 5421, "▁powiedziała": 5422, "▁rzadko": 5423, "tują": 5424, "▁wię": 5425, "▁zapro": 5426, "▁wybiera": 5427, "naście": 5428, "cjum": 5429, "dzkiej": 5430, "▁łuk": 5431, "nowski": 5432, "▁komenda": 5433, "▁otoczony": 5434, "▁póź": 5435, "▁księży": 5436, "▁towarzystwie": 5437, "▁udział": 5438, "gwia": 5439, "▁znajdował": 5440, "▁pozwala": 5441, "▁intere": 5442, "szami": 5443, "▁powy": 5444, "▁naboże": 5445, "▁brzegiem": 5446, "rzucił": 5447, "ałach": 5448, "▁litości": 5449, "▁dziewczę": 5450, "▁Jedni": 5451, "rząc": 5452, "▁Chcę": 5453, "stawia": 5454, "▁białym": 5455, "owaniem": 5456, "▁pamiętam": 5457, "owny": 5458, "▁tań": 5459, "bny": 5460, "bierze": 5461, "▁Rad": 5462, "▁wiemy": 5463, "▁głoś": 5464, "▁przej": 5465, "▁Dwa": 5466, "▁ge": 5467, "▁wrócili": 5468, "▁rozpę": 5469, "▁odwagi": 5470, "▁potrzebował": 5471, "▁Jej": 5472, "▁wypły": 5473, "raca": 5474, "▁siost": 5475, "▁kolanach": 5476, "biony": 5477, "lonych": 5478, "▁dobrej": 5479, "wów": 5480, "▁walka": 5481, "▁asy": 5482, "▁spoglądając": 5483, "▁Czer": 5484, "▁przyjąć": 5485, "▁oddech": 5486, "▁dowiedzieć": 5487, "▁trosk": 5488, "▁kobietę": 5489, "▁niezawo": 5490, "sio": 5491, "▁zapan": 5492, "▁wile": 5493, "szczęśli": 5494, "▁ludność": 5495, "▁paru": 5496, "robi": 5497, "▁wra": 5498, "▁Słońce": 5499, "▁zarę": 5500, "▁siero": 5501, "pier": 5502, "▁ryby": 5503, "▁potra": 5504, "czących": 5505, "▁domem": 5506, "▁wzięła": 5507, "▁ozna": 5508, "▁pier": 5509, "ństw": 5510, "▁oli": 5511, "▁pozwól": 5512, "▁dba": 5513, "▁biorąc": 5514, "trą": 5515, "▁szat": 5516, "mowi": 5517, "▁mał": 5518, "równa": 5519, "▁tka": 5520, "▁przyro": 5521, "▁waszym": 5522, "TA": 5523, "lety": 5524, "▁mieszkańców": 5525, "▁Im": 5526, "▁oboz": 5527, "▁uprze": 5528, "▁wszelkich": 5529, "▁śnieg": 5530, "▁nik": 5531, "▁kapelu": 5532, "rium": 5533, "▁przykładem": 5534, "▁woje": 5535, "▁Sobie": 5536, "▁zdarzyło": 5537, "rzyn": 5538, "chan": 5539, "▁Każ": 5540, "▁kolan": 5541, "szyło": 5542, "▁okazać": 5543, "▁walkę": 5544, "▁sądu": 5545, "▁zaczer": 5546, "czyn": 5547, "cer": 5548, "szczały": 5549, "biny": 5550, "▁obiad": 5551, "▁czarnych": 5552, "pur": 5553, "▁zdziwiony": 5554, "▁kary": 5555, "▁skał": 5556, "▁potrzą": 5557, "▁ptak": 5558, "▁Musi": 5559, "żach": 5560, "szczyk": 5561, "▁ramionach": 5562, "▁uk": 5563, "▁kuzy": 5564, "▁szara": 5565, "▁lepszy": 5566, "▁Muszę": 5567, "czaj": 5568, "▁zazna": 5569, "▁Pięk": 5570, "dzka": 5571, "pełnia": 5572, "▁gwiazd": 5573, "owską": 5574, "▁rozmawiali": 5575, "cku": 5576, "▁Dro": 5577, "około": 5578, "inę": 5579, "▁zadu": 5580, "piony": 5581, "▁żyją": 5582, "▁kwiat": 5583, "▁uwię": 5584, "róz": 5585, "atem": 5586, "▁chłopca": 5587, "▁Kazimierza": 5588, "dzką": 5589, "▁Pe": 5590, "▁wydała": 5591, "▁armii": 5592, "▁miar": 5593, "cielem": 5594, "▁wydawało": 5595, "▁spadł": 5596, "▁popatrzył": 5597, "▁dwieście": 5598, "▁głosie": 5599, "dowa": 5600, "żby": 5601, "▁zwróciła": 5602, "dały": 5603, "liły": 5604, "ląc": 5605, "cowie": 5606, "▁starym": 5607, "▁ryba": 5608, "▁Cicho": 5609, "▁miesza": 5610, "rzeniem": 5611, "▁nieśmier": 5612, "▁Mat": 5613, "▁gospodarz": 5614, "▁mniejsza": 5615, "▁proce": 5616, "▁Zdaje": 5617, "▁płyną": 5618, "▁sprawiedli": 5619, "▁ataku": 5620, "▁smutek": 5621, "▁święto": 5622, "owaną": 5623, "▁kana": 5624, "listy": 5625, "▁przeszko": 5626, "▁Serce": 5627, "▁Mak": 5628, "▁służbie": 5629, "▁miłością": 5630, "▁Cy": 5631, "rócić": 5632, "▁ostrożnie": 5633, "▁zaprowa": 5634, "▁łańcu": 5635, "pce": 5636, "▁ciekawość": 5637, "dzeniem": 5638, "▁złotych": 5639, "▁śpi": 5640, "szeniem": 5641, "piła": 5642, "▁leżała": 5643, "owu": 5644, "nących": 5645, "sek": 5646, "▁grana": 5647, "▁ścianę": 5648, "pla": 5649, "▁wytrzymać": 5650, "▁zdo": 5651, "nionym": 5652, "atów": 5653, "▁ofi": 5654, "▁Dalej": 5655, "▁Mazow": 5656, "▁barbarzy": 5657, "▁dwudzie": 5658, "▁przysła": 5659, "▁miastem": 5660, "▁spał": 5661, "▁Cała": 5662, "▁żu": 5663, "▁ukazu": 5664, "oba": 5665, "▁hała": 5666, "len": 5667, "ciach": 5668, "▁zry": 5669, "▁wybu": 5670, "żoną": 5671, "ownicy": 5672, "▁chciało": 5673, "▁piękną": 5674, "▁władca": 5675, "▁rozle": 5676, "▁czuję": 5677, "mniej": 5678, "▁uderzyć": 5679, "▁cienie": 5680, "▁oczom": 5681, "▁Krakowa": 5682, "▁trafił": 5683, "▁odsu": 5684, "▁widokiem": 5685, "▁kupić": 5686, "▁zra": 5687, "▁siedziała": 5688, "▁zniknął": 5689, "▁wpada": 5690, "▁wymie": 5691, "bek": 5692, "▁wejść": 5693, "▁goście": 5694, "tru": 5695, "lonej": 5696, "▁biskup": 5697, "▁niebezpiecze": 5698, "▁błogosławie": 5699, "dzkim": 5700, "▁cesar": 5701, "▁stal": 5702, "cyj": 5703, "stry": 5704, "ńczy": 5705, "▁nastąpi": 5706, "▁krzyczał": 5707, "▁wzruszył": 5708, "▁posiadał": 5709, "▁łodzi": 5710, "▁siedząc": 5711, "szeni": 5712, "▁szero": 5713, "▁pierwszą": 5714, "▁wskazał": 5715, "▁wpadła": 5716, "nnego": 5717, "atach": 5718, "ują": 5719, "▁zle": 5720, "ałoby": 5721, "wor": 5722, "▁życiem": 5723, "▁wielko": 5724, "▁zapu": 5725, "▁wyrwał": 5726, "▁wyjdzie": 5727, "▁gorąco": 5728, "▁kroki": 5729, "pania": 5730, "▁ogrodzie": 5731, "▁ptaki": 5732, "▁zarzu": 5733, "▁ciągnie": 5734, "mani": 5735, "▁zacze": 5736, "▁zanu": 5737, "▁sześciu": 5738, "▁zbrodni": 5739, "▁wysa": 5740, "▁Trzy": 5741, "▁Można": 5742, "rab": 5743, "▁puste": 5744, "▁dziwny": 5745, "▁godzinie": 5746, "▁otrzymał": 5747, "▁uży": 5748, "▁dołu": 5749, "ander": 5750, "son": 5751, "ccy": 5752, "▁sprawiedliwość": 5753, "▁oczeki": 5754, "▁gorz": 5755, "▁mógłbym": 5756, "sięg": 5757, "▁zało": 5758, "róg": 5759, "To": 5760, "▁promienie": 5761, "▁Pamię": 5762, "▁nied": 5763, "jały": 5764, "prz": 5765, "szków": 5766, "dia": 5767, "▁skru": 5768, "▁przeszka": 5769, "▁ludzki": 5770, "▁wytr": 5771, "▁poś": 5772, "▁ogniska": 5773, "▁własny": 5774, "▁nowym": 5775, "▁niebawem": 5776, "▁Chociaż": 5777, "▁naje": 5778, "czeń": 5779, "▁byśmy": 5780, "▁przeczu": 5781, "▁łódź": 5782, "▁połowie": 5783, "kam": 5784, "lec": 5785, "▁granic": 5786, "▁pewne": 5787, "▁wszel": 5788, "▁Naz": 5789, "▁ofice": 5790, "jeżd": 5791, "▁świecą": 5792, "nkiem": 5793, "▁ulicę": 5794, "▁światem": 5795, "żyło": 5796, "dowali": 5797, "▁słab": 5798, "▁głód": 5799, "▁starych": 5800, "▁wari": 5801, "niejszej": 5802, "▁gład": 5803, "▁jedne": 5804, "▁szeregu": 5805, "▁Kowalski": 5806, "▁Bir": 5807, "▁Ros": 5808, "sim": 5809, "owiadał": 5810, "czach": 5811, "▁rozkazał": 5812, "▁pł": 5813, "▁ukazała": 5814, "mot": 5815, "ówić": 5816, "▁Lubi": 5817, "▁podobną": 5818, "▁utwo": 5819, "▁spotkanie": 5820, "▁grunt": 5821, "dąc": 5822, "▁gotowa": 5823, "▁poro": 5824, "ntem": 5825, "Po": 5826, "lka": 5827, "▁uczucie": 5828, "▁spojrzenie": 5829, "▁brzegi": 5830, "▁humor": 5831, "▁poł": 5832, "▁spada": 5833, "▁wrócę": 5834, "▁przestrzeni": 5835, "▁chciałbym": 5836, "▁dźwię": 5837, "▁szczęśliwie": 5838, "▁siada": 5839, "czonego": 5840, "▁darmo": 5841, "tały": 5842, "▁szo": 5843, "iło": 5844, "▁śmierte": 5845, "głę": 5846, "▁westch": 5847, "▁Tyle": 5848, "▁przewi": 5849, "kazy": 5850, "▁cięż": 5851, "▁powsta": 5852, "leni": 5853, "▁tamtych": 5854, "ator": 5855, "▁tatu": 5856, "▁Paryża": 5857, "▁jacy": 5858, "▁odgłos": 5859, "▁usługi": 5860, "▁ryb": 5861, "stało": 5862, "▁pokaże": 5863, "atki": 5864, "▁wydać": 5865, "kta": 5866, "▁ramion": 5867, "▁odpra": 5868, "ówi": 5869, "per": 5870, "▁ćwi": 5871, "▁Panu": 5872, "▁Isto": 5873, "▁rozmaite": 5874, "▁ca": 5875, "giego": 5876, "▁gorącz": 5877, "▁świeże": 5878, "▁ber": 5879, "▁sad": 5880, "▁natch": 5881, "▁twa": 5882, "sna": 5883, "▁Cu": 5884, "▁nienawiść": 5885, "▁zaklę": 5886, "▁potrzebie": 5887, "▁szko": 5888, "▁poran": 5889, "▁własnymi": 5890, "zin": 5891, "▁nożem": 5892, "▁oddali": 5893, "▁środka": 5894, "dow": 5895, "▁gan": 5896, "czeni": 5897, "▁Gra": 5898, "sma": 5899, "▁plecy": 5900, "pod": 5901, "kowy": 5902, "dzoną": 5903, "▁chłopiec": 5904, "▁zapach": 5905, "▁zamknął": 5906, "▁żela": 5907, "▁pogrze": 5908, "▁posel": 5909, "ńczyk": 5910, "▁dzierża": 5911, "▁narodu": 5912, "szach": 5913, "cono": 5914, "▁wycię": 5915, "▁pułkownika": 5916, "som": 5917, "iły": 5918, "▁wskazując": 5919, "cel": 5920, "laj": 5921, "▁Benedykt": 5922, "▁otworzyły": 5923, "▁niew": 5924, "▁Mimo": 5925, "▁rosły": 5926, "▁kilkudziesięciu": 5927, "kając": 5928, "▁ściga": 5929, "Ja": 5930, "▁porząd": 5931, "wiona": 5932, "▁zemsty": 5933, "▁ukryć": 5934, "num": 5935, "lum": 5936, "▁kościół": 5937, "▁gardła": 5938, "▁losy": 5939, "▁Jesteś": 5940, "▁noce": 5941, "wiec": 5942, "▁szere": 5943, "▁pełną": 5944, "▁znajdziesz": 5945, "▁wiatru": 5946, "▁święte": 5947, "wala": 5948, "▁tajem": 5949, "▁zamknię": 5950, "skami": 5951, "▁gre": 5952, "▁krótki": 5953, "▁bel": 5954, "działa": 5955, "▁kop": 5956, "▁nogę": 5957, "▁zamiesz": 5958, "ując": 5959, "▁miesięcy": 5960, "▁zbrojnych": 5961, "lub": 5962, "▁krak": 5963, "▁przeci": 5964, "rócz": 5965, "ari": 5966, "▁ran": 5967, "▁wszelką": 5968, "▁małżon": 5969, "▁czuje": 5970, "▁Pamiętaj": 5971, "▁sprzeci": 5972, "▁ustęp": 5973, "▁spojrzała": 5974, "licy": 5975, "żki": 5976, "wiły": 5977, "▁żebyś": 5978, "ade": 5979, "Za": 5980, "▁jar": 5981, "▁wstrę": 5982, "▁Syna": 5983, "spa": 5984, "▁grzechy": 5985, "▁ską": 5986, "▁wiek": 5987, "▁przyznać": 5988, "▁musimy": 5989, "▁aksami": 5990, "▁pch": 5991, "▁kształ": 5992, "▁jedwa": 5993, "▁set": 5994, "▁chó": 5995, "▁błą": 5996, "▁umysł": 5997, "▁Wyso": 5998, "rol": 5999, "jnie": 6000, "▁natura": 6001, "▁uczuć": 6002, "▁głę": 6003, "▁słody": 6004, "żeniu": 6005, "▁patrzyła": 6006, "▁wolności": 6007, "słuchi": 6008, "▁Pla": 6009, "▁Jaka": 6010, "▁wytrzyma": 6011, "owaniu": 6012, "▁zamil": 6013, "kier": 6014, "niemy": 6015, "▁mianowicie": 6016, "dzali": 6017, "szona": 6018, "▁Pra": 6019, "panie": 6020, "▁mowę": 6021, "▁der": 6022, "▁von": 6023, "▁drugich": 6024, "licz": 6025, "dzu": 6026, "▁wezwał": 6027, "uz": 6028, "mir": 6029, "▁Krakowie": 6030, "▁wieży": 6031, "zję": 6032, "▁wschód": 6033, "▁pisto": 6034, "nięto": 6035, "▁pozba": 6036, "▁wyści": 6037, "▁psów": 6038, "▁natar": 6039, "▁zmniej": 6040, "▁względu": 6041, "dzają": 6042, "▁nadto": 6043, "owni": 6044, "wen": 6045, "▁zakłopo": 6046, "stąpiła": 6047, "▁uważał": 6048, "▁obejrzał": 6049, "▁krzyknęła": 6050, "▁wydawała": 6051, "▁silne": 6052, "por": 6053, "niosły": 6054, "▁włos": 6055, "▁wcześnie": 6056, "▁machi": 6057, "▁młod": 6058, "▁zajął": 6059, "▁siedli": 6060, "nieli": 6061, "▁obronie": 6062, "▁Ź": 6063, "▁potrafił": 6064, "▁powinna": 6065, "▁stopniowo": 6066, "▁nawy": 6067, "▁znaczne": 6068, "trzą": 6069, "▁wście": 6070, "▁zrozumie": 6071, "▁pou": 6072, "▁Pomyś": 6073, "▁Klu": 6074, "▁porządku": 6075, "▁skrzydeł": 6076, "▁rozciąg": 6077, "▁dziewczy": 6078, "KA": 6079, "▁zdej": 6080, "▁fał": 6081, "▁spojrzeć": 6082, "wnych": 6083, "▁oddy": 6084, "▁odnaj": 6085, "▁rozkoszy": 6086, "▁czytał": 6087, "▁ładu": 6088, "▁dogo": 6089, "▁płynie": 6090, "siada": 6091, "szczu": 6092, "czyłem": 6093, "▁Myślałem": 6094, "chowy": 6095, "▁Czym": 6096, "łód": 6097, "▁znalazła": 6098, "▁zabrać": 6099, "▁popat": 6100, "▁trwało": 6101, "▁kwit": 6102, "▁ponad": 6103, "▁Widzi": 6104, "▁przynieść": 6105, "▁zwierzęta": 6106, "owanym": 6107, "biła": 6108, "▁posy": 6109, "▁rodziny": 6110, "▁niedługo": 6111, "▁weszła": 6112, "▁szczu": 6113, "▁bała": 6114, "▁trum": 6115, "▁Kat": 6116, "▁poważnie": 6117, "▁weł": 6118, "niesieniu": 6119, "rzono": 6120, "▁największy": 6121, "ssa": 6122, "▁rocznie": 6123, "▁prześla": 6124, "▁zatrzyma": 6125, "▁twarzach": 6126, "▁pójdą": 6127, "▁przedstawi": 6128, "rując": 6129, "▁jada": 6130, "▁wielkimi": 6131, "▁mężem": 6132, "nionych": 6133, "▁trawy": 6134, "▁lekka": 6135, ").": 6136, "▁palcem": 6137, "▁lewej": 6138, "żar": 6139, "▁Taka": 6140, "▁mowa": 6141, "▁mieszcza": 6142, "▁stę": 6143, "▁młodo": 6144, "▁odpo": 6145, "▁róża": 6146, "kara": 6147, "▁postacie": 6148, "▁przekonać": 6149, "▁wyczer": 6150, "▁walce": 6151, "▁zacznie": 6152, "▁chwali": 6153, "▁Będę": 6154, "▁ź": 6155, "▁mno": 6156, "wna": 6157, "▁siód": 6158, "▁cieniu": 6159, "kazać": 6160, "▁cel": 6161, "ili": 6162, "▁wykrę": 6163, "cona": 6164, "▁wah": 6165, "▁pode": 6166, "▁towarzystwa": 6167, "świad": 6168, "czonymi": 6169, "lali": 6170, "lom": 6171, "▁far": 6172, "▁zdą": 6173, "▁miesiące": 6174, "▁krześle": 6175, "ge": 6176, "▁wyjeżdża": 6177, "▁kościo": 6178, "mont": 6179, "▁ciężki": 6180, "▁Sem": 6181, "wską": 6182, "▁Najświętszej": 6183, "▁Zawi": 6184, "▁pięści": 6185, "▁zdania": 6186, "▁czując": 6187, "gim": 6188, "▁Zad": 6189, "▁powrócił": 6190, "▁wspomniał": 6191, "▁przewodni": 6192, "▁Pow": 6193, "dnością": 6194, "wiąza": 6195, "▁zajęty": 6196, "▁przyjacielem": 6197, "▁Ojciec": 6198, "▁brodę": 6199, "mena": 6200, "niąc": 6201, "▁odej": 6202, "deł": 6203, "pili": 6204, "czeniem": 6205, "▁żółte": 6206, "tarz": 6207, "tarza": 6208, "▁cichu": 6209, "▁Tobie": 6210, "▁palec": 6211, "dek": 6212, "▁brzuch": 6213, "tnika": 6214, "▁wyzy": 6215, "▁two": 6216, "zić": 6217, "cko": 6218, "▁biegu": 6219, "▁zara": 6220, "▁szkla": 6221, "rodą": 6222, "IA": 6223, "▁obli": 6224, "▁odwa": 6225, "▁długiej": 6226, "▁wysokości": 6227, "▁niektóre": 6228, "mawiał": 6229, "ON": 6230, "chały": 6231, "▁Rzu": 6232, "br": 6233, "▁silny": 6234, "▁oglądać": 6235, "▁biała": 6236, "▁wyz": 6237, "▁Wir": 6238, "▁przewyż": 6239, "▁groźne": 6240, "▁opowiedział": 6241, "▁inten": 6242, "▁napły": 6243, "▁wpływem": 6244, "▁przytomność": 6245, "któw": 6246, "▁triumf": 6247, "tyna": 6248, "▁Znaj": 6249, "▁czwarty": 6250, "▁piasek": 6251, "dzonych": 6252, "bry": 6253, "▁stosunki": 6254, "▁dadzą": 6255, "▁honoru": 6256, "▁zdaw": 6257, "▁wnu": 6258, "▁gospodar": 6259, "▁przyjaciele": 6260, "▁kompa": 6261, "▁zapasy": 6262, "▁tom": 6263, "▁zboża": 6264, "ct": 6265, "▁oknem": 6266, "▁układy": 6267, "▁lecą": 6268, "giej": 6269, "▁proś": 6270, "mina": 6271, "ros": 6272, "▁sędzia": 6273, "▁przybyli": 6274, "▁tle": 6275, "▁naukę": 6276, "▁spra": 6277, "pierw": 6278, "▁przestrzeń": 6279, "rzeniu": 6280, "▁wiat": 6281, "▁rzeka": 6282, "▁przepy": 6283, "▁Lo": 6284, "stów": 6285, "▁szale": 6286, "▁przejść": 6287, "▁zdobyć": 6288, "▁codziennie": 6289, "▁nauki": 6290, "czych": 6291, "▁Rob": 6292, "▁matkę": 6293, "▁odmie": 6294, "powie": 6295, "bki": 6296, "trz": 6297, "cieli": 6298, "▁wypadku": 6299, "▁wysko": 6300, "<0x93>": 6301, "▁przeszła": 6302, "▁sekre": 6303, "▁ud": 6304, "▁wyrzuca": 6305, "▁wyraź": 6306, "▁ścianie": 6307, "pane": 6308, "▁pełna": 6309, "▁nasta": 6310, "▁Lubo": 6311, "▁występ": 6312, "▁listu": 6313, "▁piwa": 6314, "▁pokryte": 6315, "szty": 6316, "▁tajemni": 6317, "▁wyto": 6318, "▁stojących": 6319, "▁Kilka": 6320, "▁omi": 6321, "▁wypła": 6322, "▁prosty": 6323, "▁głównie": 6324, "▁Emi": 6325, "▁salonu": 6326, "wanym": 6327, "▁dzię": 6328, "nicza": 6329, "▁ostatniego": 6330, "obi": 6331, "▁młodym": 6332, "prawdy": 6333, "▁wieś": 6334, "wca": 6335, "wkę": 6336, "▁poka": 6337, "▁wyzwo": 6338, "▁br": 6339, "▁kwie": 6340, "odła": 6341, "muję": 6342, "wiam": 6343, "głem": 6344, "▁peł": 6345, "bione": 6346, "▁wolny": 6347, "▁otchła": 6348, "▁białego": 6349, "▁wpat": 6350, "pisz": 6351, "zją": 6352, "▁znają": 6353, "▁bawi": 6354, "▁mniejsze": 6355, "▁lekar": 6356, "▁delika": 6357, "▁kupi": 6358, "tera": 6359, "▁niewidzi": 6360, "▁wolą": 6361, "zji": 6362, "mur": 6363, "▁zimno": 6364, "chnęła": 6365, "▁starał": 6366, "bienie": 6367, "▁ostatnim": 6368, "cenie": 6369, "▁Ber": 6370, "▁tutej": 6371, "▁drzewami": 6372, "don": 6373, "▁Hor": 6374, "▁Stan": 6375, "▁Koniec": 6376, "▁słysząc": 6377, "stępu": 6378, "▁wypadł": 6379, "▁zakończył": 6380, "wieniu": 6381, "▁handlu": 6382, "ścig": 6383, "▁tamten": 6384, "▁spotyka": 6385, "▁postawił": 6386, "▁kolumny": 6387, "▁Zda": 6388, "▁przod": 6389, "▁Jednocześnie": 6390, "▁rozpoczął": 6391, "▁doku": 6392, "▁pomyśleć": 6393, "▁ożenił": 6394, "▁spoza": 6395, "▁Szkoda": 6396, "▁Marta": 6397, "kowe": 6398, "stępuje": 6399, "▁Pozwól": 6400, "▁kompanii": 6401, "▁odw": 6402, "ciele": 6403, "▁ciekawo": 6404, "▁nowej": 6405, "▁skład": 6406, "▁dojrzał": 6407, "▁niebieskie": 6408, "ES": 6409, "▁wydobyć": 6410, "▁Zbro": 6411, "kor": 6412, "▁opar": 6413, "▁drą": 6414, "▁obcych": 6415, "pani": 6416, "▁zech": 6417, "▁czarno": 6418, "▁dachu": 6419, "▁rzeczach": 6420, "pisa": 6421, "▁godności": 6422, "▁suchy": 6423, "▁Jednak": 6424, "▁kapelusz": 6425, "dzała": 6426, "nar": 6427, "▁wyrok": 6428, "nicę": 6429, "ził": 6430, "▁chęci": 6431, "tnego": 6432, "▁dżun": 6433, "▁Mir": 6434, "kazał": 6435, "▁układów": 6436, "puszcza": 6437, "▁pytam": 6438, "▁Aleksandra": 6439, "▁utrzymać": 6440, "▁Stani": 6441, "▁przekonał": 6442, "▁bije": 6443, "▁węgier": 6444, "spól": 6445, "▁El": 6446, "▁Ojca": 6447, "▁pociągnął": 6448, "▁pochodzi": 6449, "▁przyjaźń": 6450, "▁sier": 6451, "▁ulu": 6452, "liwością": 6453, "zyn": 6454, "▁pozosta": 6455, "▁wyglądała": 6456, "bne": 6457, "▁towarzystwo": 6458, "▁wyrazem": 6459, "fał": 6460, "▁odebrał": 6461, "▁połowę": 6462, "iono": 6463, "▁Lub": 6464, "▁Skoro": 6465, "▁konfi": 6466, "▁rozpra": 6467, "▁zakrę": 6468, "▁porządek": 6469, "peł": 6470, "▁zabra": 6471, "▁pomi": 6472, "▁przytu": 6473, "▁poczu": 6474, "▁kula": 6475, "tasz": 6476, "▁sile": 6477, "▁wle": 6478, "▁nauka": 6479, "rząd": 6480, "▁Weź": 6481, "▁znosi": 6482, "szna": 6483, "▁potwor": 6484, "▁tworzy": 6485, "▁zdję": 6486, "▁rzą": 6487, "liwa": 6488, "▁zapło": 6489, "▁wszelki": 6490, "▁przyszłości": 6491, "▁nagro": 6492, "▁zatrzymać": 6493, "rii": 6494, "▁prawdziwy": 6495, "pany": 6496, "▁starej": 6497, "▁Chciałem": 6498, "▁łup": 6499, "▁robota": 6500, "▁reszta": 6501, "mali": 6502, "▁wyła": 6503, "▁kawa": 6504, "▁drobne": 6505, "▁powinni": 6506, "▁ogląda": 6507, "▁Niemiec": 6508, "tko": 6509, "▁według": 6510, "▁żywności": 6511, "▁wyprawę": 6512, "▁gł": 6513, "▁dawny": 6514, "<0xB6>": 6515, "▁oficera": 6516, "owskich": 6517, "chodem": 6518, "▁zapłaci": 6519, "▁stanowczo": 6520, "▁licz": 6521, "▁Sła": 6522, "▁awan": 6523, "▁tajemnicy": 6524, "▁wystąpił": 6525, "▁wysyła": 6526, "sowi": 6527, "tując": 6528, "▁zmieniła": 6529, "▁procent": 6530, "▁jutra": 6531, "▁uważ": 6532, "bienia": 6533, "▁granicę": 6534, "▁wszelkiego": 6535, "▁bydła": 6536, "▁uwagą": 6537, "wicę": 6538, "▁głośniej": 6539, "▁wynalaz": 6540, "▁znakomi": 6541, "▁zmu": 6542, "▁polskiego": 6543, "row": 6544, "szeniu": 6545, "▁płakać": 6546, "atę": 6547, "▁osobą": 6548, "▁ruchy": 6549, "▁muzyka": 6550, "▁obi": 6551, "▁Tej": 6552, "▁skrom": 6553, "▁jasny": 6554, "nikom": 6555, "atą": 6556, "▁zaja": 6557, "▁przepad": 6558, "lar": 6559, "▁mod": 6560, "▁niosą": 6561, "▁sąsie": 6562, "▁jał": 6563, "nność": 6564, "arą": 6565, "▁dal": 6566, "▁Oby": 6567, "▁śmiech": 6568, "▁odu": 6569, "czało": 6570, "▁Pew": 6571, "min": 6572, "▁gałą": 6573, "▁her": 6574, "▁ciężar": 6575, "śnięte": 6576, "wskim": 6577, "▁mogłaby": 6578, "▁powietrza": 6579, "▁piętnaście": 6580, "▁bili": 6581, "▁równe": 6582, "▁mazowie": 6583, "nikowi": 6584, "siewicz": 6585, "▁popa": 6586, "▁doje": 6587, "▁lżej": 6588, "jak": 6589, "▁Zba": 6590, "▁wysłać": 6591, "dziel": 6592, "prawie": 6593, "▁napast": 6594, "kłe": 6595, "▁brz": 6596, "▁płu": 6597, "▁nagrody": 6598, "▁oświet": 6599, "▁szerokie": 6600, "cając": 6601, "rzan": 6602, "żeby": 6603, "▁śród": 6604, "▁Mógł": 6605, "▁San": 6606, "<0xA9>": 6607, "▁doda": 6608, "▁brzmi": 6609, "▁niep": 6610, "▁czerni": 6611, "▁zrobiła": 6612, "fra": 6613, "▁dowcip": 6614, "▁dusz": 6615, "trzyma": 6616, "▁zmienić": 6617, "▁pijany": 6618, "mian": 6619, "▁szyder": 6620, "▁zaszczy": 6621, "▁pomoże": 6622, "▁mły": 6623, "▁morzu": 6624, "mym": 6625, "▁widzą": 6626, "▁dziwa": 6627, "▁przeklę": 6628, "▁swobo": 6629, "owią": 6630, "L": 6631, "▁nies": 6632, "▁rośnie": 6633, "▁prawdziwie": 6634, "▁jedynie": 6635, "▁zapał": 6636, "▁wiodą": 6637, "▁złam": 6638, "ti": 6639, "▁pracować": 6640, "▁Dzieci": 6641, "▁mieszkanie": 6642, "▁wróciła": 6643, "▁ucieczki": 6644, "▁zrozumieć": 6645, "▁zmienia": 6646, "mały": 6647, "▁praca": 6648, "▁widzenia": 6649, "jać": 6650, "▁bos": 6651, "▁ścianą": 6652, "żeć": 6653, "▁Bara": 6654, "▁szkody": 6655, "▁dopu": 6656, "▁komor": 6657, "▁zapadła": 6658, "▁dostrzegł": 6659, "▁Paweł": 6660, "he": 6661, "▁dobrowolnie": 6662, "▁prowadzić": 6663, "▁rynku": 6664, "▁gołę": 6665, "wiały": 6666, "▁zar": 6667, "▁wygna": 6668, "▁niepokojem": 6669, "▁zdziwił": 6670, "cjach": 6671, "tłu": 6672, "▁przejdzie": 6673, "▁sypia": 6674, "oną": 6675, "▁uderzyła": 6676, "▁drga": 6677, "eri": 6678, "▁niektórych": 6679, "▁krza": 6680, "▁przechy": 6681, "▁Wśród": 6682, "▁rzad": 6683, "▁spotkała": 6684, "▁zjawił": 6685, "wek": 6686, "▁zgodził": 6687, "▁przerwała": 6688, "Czy": 6689, "▁Wprawdzie": 6690, "chom": 6691, "▁skończyć": 6692, "tum": 6693, "▁złą": 6694, "▁chowa": 6695, "▁opę": 6696, "ema": 6697, "▁drę": 6698, "▁osło": 6699, "▁Chcesz": 6700, "▁zazdro": 6701, "▁polach": 6702, "▁ciężkiej": 6703, "▁grzech": 6704, "▁osobie": 6705, "mawia": 6706, "▁patrz": 6707, "▁waha": 6708, "ien": 6709, "wicy": 6710, "▁przyw": 6711, "▁minie": 6712, "dzając": 6713, "▁Wielu": 6714, "▁żoną": 6715, "kałem": 6716, "▁nieśmi": 6717, "lew": 6718, "▁ostatnią": 6719, "▁ścianach": 6720, "▁pośród": 6721, "▁okrucie": 6722, "▁zewnątrz": 6723, "▁dzieckiem": 6724, "▁wiara": 6725, "▁białej": 6726, "AN": 6727, "▁pew": 6728, "▁matce": 6729, "▁pisać": 6730, "nował": 6731, "▁pracę": 6732, "▁fo": 6733, "▁zamknięte": 6734, "▁Sad": 6735, "▁Krymu": 6736, "miot": 6737, "▁jeździe": 6738, "▁podobnym": 6739, "▁kazała": 6740, "▁Inaczej": 6741, "▁Pewnego": 6742, "marz": 6743, "▁uli": 6744, "▁obdar": 6745, "▁mieszkał": 6746, "conych": 6747, "▁powrocie": 6748, "▁osia": 6749, "dziany": 6750, "bał": 6751, "jając": 6752, "▁rozsy": 6753, "▁opiera": 6754, "rywała": 6755, "▁blaskiem": 6756, "▁spadła": 6757, "▁trakt": 6758, "▁nios": 6759, "▁Mę": 6760, "DA": 6761, "▁maja": 6762, "▁miesiąca": 6763, "▁ranny": 6764, "larz": 6765, "▁zmy": 6766, "char": 6767, "▁słońcem": 6768, "▁dźwięk": 6769, "▁wygra": 6770, "▁Chło": 6771, "ple": 6772, "▁obda": 6773, "▁długa": 6774, "!!": 6775, "▁oże": 6776, "▁warto": 6777, "cież": 6778, "▁cuda": 6779, "▁śpiew": 6780, "▁opieką": 6781, "▁setki": 6782, "▁pokazy": 6783, "▁spełnić": 6784, "▁powtórzyła": 6785, "▁sukni": 6786, "▁mężczyzn": 6787, "▁łok": 6788, "▁piw": 6789, "▁czarną": 6790, "▁dwanaście": 6791, "▁pouf": 6792, "strzy": 6793, "▁zatrzymali": 6794, "▁wiszą": 6795, "▁miesz": 6796, "jąć": 6797, "tnicy": 6798, "▁długich": 6799, "▁Sene": 6800, "▁zasię": 6801, "▁rezolu": 6802, "tano": 6803, "▁Bro": 6804, "▁Następ": 6805, "▁wyszły": 6806, "▁odezwała": 6807, "▁powro": 6808, "▁upoko": 6809, "▁Pol": 6810, "▁okazał": 6811, "▁Dłu": 6812, "zda": 6813, "▁człowiekowi": 6814, "▁gospody": 6815, "stru": 6816, "▁rozgło": 6817, "▁spła": 6818, "onu": 6819, "▁Wiel": 6820, "▁Wal": 6821, "▁robotę": 6822, "mon": 6823, "▁Spoj": 6824, "▁rozsze": 6825, "▁zoba": 6826, "szeń": 6827, "rzona": 6828, "▁zagad": 6829, "▁sprawi": 6830, "siąść": 6831, "▁byłeś": 6832, "wiąz": 6833, "▁zrobię": 6834, "▁żadnym": 6835, "ji": 6836, "szom": 6837, "▁swemu": 6838, "tery": 6839, "wasz": 6840, "▁wyobra": 6841, "▁skarbów": 6842, "▁nadzieją": 6843, "▁budzi": 6844, "▁lubię": 6845, "▁rozkosz": 6846, "wców": 6847, "nięcie": 6848, "towa": 6849, "▁zrobiło": 6850, "▁zdy": 6851, "▁wilgot": 6852, "▁obcy": 6853, "▁wypeł": 6854, "kują": 6855, "▁powiedzia": 6856, "▁Drugi": 6857, "▁czuć": 6858, "▁pewność": 6859, "▁czyta": 6860, "gląda": 6861, "▁policji": 6862, "▁mięsa": 6863, "erw": 6864, "▁naszemu": 6865, "▁posłów": 6866, "▁poleg": 6867, "▁opieku": 6868, "▁dalszą": 6869, "siński": 6870, "▁strzelać": 6871, "▁Rozumiem": 6872, "▁poczuł": 6873, "▁Wiedział": 6874, "gała": 6875, "▁pisa": 6876, "▁tygodni": 6877, "▁nieza": 6878, "zią": 6879, "zną": 6880, "tow": 6881, "jga": 6882, "każe": 6883, "▁odrzu": 6884, "▁Wielko": 6885, "▁przykro": 6886, "▁przenik": 6887, "▁ogromną": 6888, "▁Pamiętam": 6889, "▁imienia": 6890, "nicki": 6891, "żnej": 6892, "▁jaw": 6893, "▁płaci": 6894, "▁brzu": 6895, "▁cios": 6896, "▁Czu": 6897, "▁Żołnie": 6898, "▁fizjo": 6899, "▁zapomina": 6900, "▁Możesz": 6901, "fie": 6902, "▁mig": 6903, "▁usłu": 6904, "▁zająć": 6905, "▁nau": 6906, "▁kiedykolwiek": 6907, "kany": 6908, "▁rzece": 6909, "▁ostatnia": 6910, "▁najlepsze": 6911, "▁radośnie": 6912, "H": 6913, "cin": 6914, "▁młodości": 6915, "bur": 6916, "▁ginie": 6917, "▁fali": 6918, "▁jaskra": 6919, "▁dalszych": 6920, "▁odejść": 6921, "ógł": 6922, "▁zdobył": 6923, "▁plan": 6924, "waniem": 6925, "▁starannie": 6926, "▁wojennych": 6927, "▁trwała": 6928, "▁poła": 6929, "▁pałac": 6930, "kowej": 6931, "▁kan": 6932, "lane": 6933, "▁zdawała": 6934, "▁wozu": 6935, "▁wywo": 6936, "▁ulicach": 6937, "▁okrą": 6938, "łku": 6939, "▁pach": 6940, "lonymi": 6941, "▁dziwnego": 6942, "▁kuchni": 6943, "▁Sama": 6944, "▁niedob": 6945, "▁minister": 6946, "▁kłopo": 6947, "ninem": 6948, "▁Póki": 6949, "▁wojną": 6950, "tus": 6951, "▁senator": 6952, "▁zamieszanie": 6953, "▁wyrzą": 6954, "▁języka": 6955, "<0xC2>": 6956, "▁licy": 6957, "▁wypoczy": 6958, "▁Mówię": 6959, "▁wcześniej": 6960, "noc": 6961, "▁kraje": 6962, "▁Poje": 6963, "▁Ol": 6964, "łowa": 6965, "racji": 6966, "▁zachodzi": 6967, "▁podwój": 6968, "▁takimi": 6969, "▁Słowa": 6970, "snąć": 6971, "ciągnąć": 6972, "▁najstar": 6973, "▁uzbro": 6974, "niętymi": 6975, "▁Sę": 6976, "▁większym": 6977, "ort": 6978, "▁Pre": 6979, "gowa": 6980, "łat": 6981, "▁spodziewać": 6982, "▁znad": 6983, "kus": 6984, "▁Zapewne": 6985, "OS": 6986, "▁zdanie": 6987, "▁klęskę": 6988, "▁nawie": 6989, "▁częścią": 6990, "▁odbiera": 6991, "▁wyło": 6992, "▁cienia": 6993, "▁przedstawia": 6994, "▁lip": 6995, "▁robisz": 6996, "▁jedyna": 6997, "▁Świat": 6998, "▁czerwonych": 6999, "▁złodzie": 7000, "▁licząc": 7001, "▁odzie": 7002, "▁Zoba": 7003, "ziem": 7004, "tkach": 7005, "▁Obie": 7006, "▁doktora": 7007, "▁słowami": 7008, "niętych": 7009, "ąż": 7010, "▁pamią": 7011, "▁Zaledwie": 7012, "▁Gło": 7013, "szonych": 7014, "▁sal": 7015, "let": 7016, "▁Człowiek": 7017, "stość": 7018, "▁sar": 7019, "▁stopnia": 7020, "▁Bog": 7021, "▁zapowie": 7022, "▁pułk": 7023, "▁kaplicy": 7024, "▁prośbę": 7025, "▁wspomnienie": 7026, "▁ojców": 7027, "dzonym": 7028, "▁skinął": 7029, "ńskiemu": 7030, "lię": 7031, "▁bran": 7032, "▁moty": 7033, "▁upływie": 7034, "liwym": 7035, "▁przybiera": 7036, "▁usił": 7037, "▁jednemu": 7038, "▁plecami": 7039, "▁złości": 7040, "▁ogromnym": 7041, "kiet": 7042, "ciami": 7043, "▁Litwy": 7044, "wskie": 7045, "▁ponuro": 7046, "wic": 7047, "▁Par": 7048, "wieni": 7049, "x": 7050, "▁stanu": 7051, "▁miną": 7052, "▁umrze": 7053, "▁kału": 7054, "▁Mały": 7055, "▁medy": 7056, "ownie": 7057, "▁wszak": 7058, "koj": 7059, "▁zacię": 7060, "▁Przede": 7061, "anki": 7062, "ździ": 7063, "▁najpo": 7064, "ost": 7065, "ruje": 7066, "▁stos": 7067, "pień": 7068, "▁zaży": 7069, "cisz": 7070, "▁pożąda": 7071, "▁łańcuch": 7072, "niosła": 7073, "▁pusto": 7074, "▁tłumu": 7075, "▁zaufa": 7076, "▁przecha": 7077, "niętym": 7078, "żyłem": 7079, "▁podłogę": 7080, "rzać": 7081, "dzam": 7082, "▁wysta": 7083, "▁nawo": 7084, "kiwał": 7085, "dują": 7086, "▁trwa": 7087, "▁zamyka": 7088, "▁kat": 7089, "▁przeciąg": 7090, "gnąć": 7091, "▁Myśli": 7092, "ard": 7093, "▁Ktoś": 7094, "hra": 7095, "▁Ski": 7096, "jskiego": 7097, "▁księżnej": 7098, "▁gospo": 7099, "▁Janusza": 7100, "▁świętej": 7101, "dl": 7102, "▁Cezar": 7103, "▁obyd": 7104, "▁wykrzyknął": 7105, "▁kata": 7106, "▁Ukrainie": 7107, "▁Wczoraj": 7108, "▁wypa": 7109, "▁wor": 7110, "ższe": 7111, "▁sędzi": 7112, "▁Port": 7113, "▁szybkością": 7114, "▁ilu": 7115, "mentu": 7116, "ałę": 7117, "atek": 7118, "▁kilkaset": 7119, "▁ciele": 7120, "liło": 7121, "miej": 7122, "▁Spodzie": 7123, "▁mnó": 7124, "lności": 7125, "▁ramienia": 7126, "tarł": 7127, "▁zamo": 7128, "▁ścia": 7129, "▁cudzy": 7130, "czyńskiego": 7131, "legło": 7132, "▁naczy": 7133, "Do": 7134, "▁bohater": 7135, "▁smutkiem": 7136, "gować": 7137, "▁biorą": 7138, "chaną": 7139, "▁stanow": 7140, "▁mądrości": 7141, "▁wstydu": 7142, "szan": 7143, "▁ubó": 7144, "▁dop": 7145, "▁powróci": 7146, "▁fami": 7147, "▁siostry": 7148, "▁dziękuję": 7149, "orą": 7150, "wemu": 7151, "szar": 7152, "leć": 7153, "▁wielkości": 7154, "▁scho": 7155, "rój": 7156, "▁zamach": 7157, "▁wierze": 7158, "▁nur": 7159, "▁Woł": 7160, "uszka": 7161, "▁władza": 7162, "rią": 7163, "▁trudności": 7164, "▁błę": 7165, "biec": 7166, "▁śnia": 7167, "tes": 7168, "▁narodów": 7169, "▁dochody": 7170, "▁trzeciego": 7171, "▁pobli": 7172, "▁sprze": 7173, "▁czynienia": 7174, "▁wątpliwości": 7175, "▁uciec": 7176, "▁koła": 7177, "▁Ucie": 7178, "gnęła": 7179, "▁śla": 7180, "IE": 7181, "▁podziemia": 7182, "▁papier": 7183, "▁córką": 7184, "▁niemiec": 7185, "zła": 7186, "▁mięso": 7187, "dzeni": 7188, "▁towarzyszy": 7189, "▁mur": 7190, "dur": 7191, "▁Bom": 7192, "▁Caro": 7193, "bło": 7194, "▁przedo": 7195, "▁władcy": 7196, "mek": 7197, "jazdu": 7198, "▁krzywdę": 7199, "▁zachować": 7200, "▁nagrodę": 7201, "▁odzyskał": 7202, "ler": 7203, "nastu": 7204, "▁obliczu": 7205, "▁odzyska": 7206, "gno": 7207, "▁oskar": 7208, "ciłem": 7209, "▁Ab": 7210, "▁jakichś": 7211, "▁schodzi": 7212, "▁pamiętaj": 7213, "▁Dobra": 7214, "▁ul": 7215, "▁rozmowie": 7216, "▁Gnie": 7217, "▁zajęcia": 7218, "▁potrzebuję": 7219, "wan": 7220, "8": 7221, "▁Igna": 7222, "▁opuściła": 7223, "miona": 7224, "▁kali": 7225, "▁trzydzie": 7226, "▁Bene": 7227, "▁kos": 7228, "▁stolicy": 7229, "▁pióra": 7230, "▁podsta": 7231, "▁traf": 7232, "▁srebra": 7233, "▁różno": 7234, "grzy": 7235, "▁tchó": 7236, "uj": 7237, "demu": 7238, "▁Pier": 7239, "▁ochoty": 7240, "ryt": 7241, "▁wynagro": 7242, "▁tch": 7243, "patrz": 7244, "▁Ano": 7245, "▁niemi": 7246, "▁pieszczo": 7247, "mona": 7248, "▁hałas": 7249, "owiska": 7250, "▁zbierać": 7251, "dnicy": 7252, "▁państwie": 7253, "jenia": 7254, "▁przedpo": 7255, "▁kłam": 7256, "dałem": 7257, "▁ostatecznie": 7258, "▁niespo": 7259, "▁gwałtow": 7260, "mom": 7261, "śpie": 7262, "▁czyn": 7263, "▁dojść": 7264, "▁porusza": 7265, "kład": 7266, "kowych": 7267, "▁ciemnych": 7268, "▁wst": 7269, "▁roślin": 7270, "lki": 7271, "ległe": 7272, "▁Daw": 7273, "▁przyłą": 7274, "▁uję": 7275, "▁ukazały": 7276, "rans": 7277, "łała": 7278, "bierać": 7279, "wsze": 7280, "▁palcach": 7281, "▁tygodnie": 7282, "▁ostroż": 7283, "▁przyjeżdża": 7284, "▁przestrze": 7285, "▁Tru": 7286, "ner": 7287, "▁komendant": 7288, "▁polski": 7289, "▁Kul": 7290, "▁oprzeć": 7291, "▁Konstanty": 7292, "taniu": 7293, "▁pomiar": 7294, "twier": 7295, "piął": 7296, "▁Zatem": 7297, "▁Czo": 7298, "▁pomieścić": 7299, "▁noga": 7300, "wcy": 7301, "▁marszał": 7302, "▁wodo": 7303, "▁pewnej": 7304, "▁żadną": 7305, "sor": 7306, "▁Cię": 7307, "▁najczęściej": 7308, "▁paste": 7309, "▁szeroki": 7310, "▁głębokie": 7311, "▁trzej": 7312, "▁Myślę": 7313, "▁pobra": 7314, "▁ski": 7315, "▁przo": 7316, "wiono": 7317, "▁mężczyzna": 7318, "▁przyczyną": 7319, "coną": 7320, "▁kobietą": 7321, "▁okropnie": 7322, "▁najdro": 7323, "▁gałęzi": 7324, "▁zy": 7325, "▁zagra": 7326, "▁śmiertel": 7327, "▁Więcej": 7328, "▁świętych": 7329, "księ": 7330, "▁ciałem": 7331, "cznymi": 7332, "▁skra": 7333, "▁najpierw": 7334, "cieć": 7335, "czko": 7336, "▁sąsia": 7337, "▁dna": 7338, "orę": 7339, "▁mroku": 7340, "▁niepokoju": 7341, "▁obrazy": 7342, "osła": 7343, "stein": 7344, "▁człowieku": 7345, "0": 7346, "▁uciekła": 7347, "▁stłu": 7348, "▁Dowie": 7349, "▁grobu": 7350, "rzeni": 7351, "▁skończyła": 7352, "▁plecach": 7353, "▁umiem": 7354, "▁sł": 7355, "▁cokolwiek": 7356, "▁wspaniały": 7357, "ris": 7358, "▁Panny": 7359, "▁piór": 7360, "pieć": 7361, "▁szeregach": 7362, "▁udać": 7363, "▁et": 7364, "▁marszałka": 7365, "Prze": 7366, "▁Chce": 7367, "▁uważać": 7368, "mal": 7369, "▁cesarz": 7370, "▁fon": 7371, "▁okazji": 7372, "▁wstąpił": 7373, "▁tron": 7374, "pomina": 7375, "▁niżej": 7376, "▁powrotu": 7377, "▁Anto": 7378, "szczo": 7379, "▁War": 7380, "▁Zie": 7381, "▁wysłucha": 7382, "tyk": 7383, "▁rzucając": 7384, "▁bezbro": 7385, "▁chodzą": 7386, "▁bynajmniej": 7387, "▁piersią": 7388, "▁bogactwa": 7389, "tli": 7390, "▁poszło": 7391, "cało": 7392, "▁żelaza": 7393, "▁wyrazy": 7394, "osia": 7395, "▁docho": 7396, "▁Wło": 7397, "Pa": 7398, "▁Tadeusza": 7399, "kania": 7400, "▁lekki": 7401, "▁bezpiecznie": 7402, "▁bywają": 7403, "syć": 7404, "▁ist": 7405, "liny": 7406, "▁Tra": 7407, "▁pamię": 7408, "▁latach": 7409, "rósł": 7410, "▁rzeką": 7411, "▁liczył": 7412, "▁serde": 7413, "kiety": 7414, "szczony": 7415, "▁pełnym": 7416, "▁swojego": 7417, "skry": 7418, "▁roba": 7419, "▁szczycie": 7420, "▁uwi": 7421, "▁kr": 7422, "▁zajm": 7423, "▁zamor": 7424, "▁ugo": 7425, "▁nienawiści": 7426, "▁gromada": 7427, "▁włosami": 7428, "▁pomaga": 7429, "▁uważnie": 7430, "▁zapra": 7431, "▁otwór": 7432, "kłada": 7433, "▁oknie": 7434, "tków": 7435, "▁kawałek": 7436, "letni": 7437, "▁musiało": 7438, "▁prowa": 7439, "▁potrzebne": 7440, "▁Medi": 7441, "ksa": 7442, "ery": 7443, "▁Ant": 7444, "ktyki": 7445, "gona": 7446, "▁boją": 7447, "▁gotowości": 7448, "▁Lau": 7449, "fin": 7450, "stawił": 7451, "▁Augu": 7452, "unku": 7453, "pol": 7454, "Mo": 7455, "▁doznał": 7456, "▁Komu": 7457, "▁oglądał": 7458, "▁grob": 7459, "▁Jedno": 7460, "▁szczególnie": 7461, "▁dłońmi": 7462, "▁ciotka": 7463, "▁znajomych": 7464, "▁Mary": 7465, "ciw": 7466, "▁bezsen": 7467, "▁sąsiadów": 7468, "▁kącie": 7469, "▁zawsty": 7470, "jała": 7471, "▁ciekawie": 7472, "▁zdrowiu": 7473, "▁znajdują": 7474, "▁Pil": 7475, "▁krótkim": 7476, "▁Które": 7477, "▁skutkiem": 7478, "▁zadzi": 7479, "▁odmówi": 7480, "▁kochanie": 7481, "▁grube": 7482, "▁vi": 7483, "gany": 7484, "▁gałęzie": 7485, "▁zaczęło": 7486, "▁zapłacić": 7487, "▁pró": 7488, "▁pięknej": 7489, "▁trój": 7490, "▁służący": 7491, "rzysz": 7492, "▁walczyć": 7493, "▁powin": 7494, "▁rozu": 7495, "▁dzier": 7496, "▁dźwięki": 7497, "NI": 7498, "▁opła": 7499, "▁obce": 7500, "▁wypowie": 7501, "▁otworzy": 7502, "czkami": 7503, "▁sztu": 7504, "▁Rzeczywiście": 7505, "▁miej": 7506, "▁uła": 7507, "▁linii": 7508, "▁Chłop": 7509, "▁pełni": 7510, "▁czekają": 7511, "▁zmarłych": 7512, "▁zamian": 7513, "zdem": 7514, "▁pasy": 7515, "laz": 7516, "wer": 7517, "▁wypi": 7518, "▁tkwi": 7519, "▁stopy": 7520, "▁zata": 7521, "▁buntu": 7522, "▁ptaków": 7523, "▁otwartymi": 7524, "▁wyjścia": 7525, "▁podać": 7526, "▁czarna": 7527, "▁udało": 7528, "▁opuścić": 7529, "dziane": 7530, "▁pracował": 7531, "▁książki": 7532, "tora": 7533, "▁czerwony": 7534, "▁chro": 7535, "ns": 7536, "szczone": 7537, "kre": 7538, "Sa": 7539, "skar": 7540, "▁zwierzch": 7541, "▁pożaru": 7542, "▁najwyższej": 7543, "▁uwiel": 7544, "▁kilkakrotnie": 7545, "kona": 7546, "owisko": 7547, "▁wielbi": 7548, "▁rodzaj": 7549, "▁cenę": 7550, "▁Rozumie": 7551, "▁ocze": 7552, "▁stojące": 7553, "rki": 7554, "▁Być": 7555, "▁zepsu": 7556, "▁możecie": 7557, "▁przychodzą": 7558, "dam": 7559, "▁zmęczony": 7560, "▁obowiązek": 7561, "las": 7562, "wiając": 7563, "raź": 7564, "▁powstrzymać": 7565, "▁rzemieś": 7566, "▁choroby": 7567, "▁czterdzieści": 7568, "pała": 7569, "dzały": 7570, "▁dumą": 7571, "biego": 7572, "▁pasa": 7573, "▁Reje": 7574, "▁wybrał": 7575, "▁monar": 7576, "▁przyjmie": 7577, "▁wyry": 7578, "czkiem": 7579, "▁odczu": 7580, "▁jeziora": 7581, "arki": 7582, "▁wróg": 7583, "▁upadku": 7584, "▁Fi": 7585, "▁MAR": 7586, "▁spowie": 7587, "▁dziewią": 7588, "▁żyli": 7589, "▁wyją": 7590, "strzega": 7591, "▁cierp": 7592, "▁wodzą": 7593, "▁Macie": 7594, "anu": 7595, "▁zatru": 7596, "▁sumienia": 7597, "▁wspól": 7598, "▁nadchodzi": 7599, "▁cud": 7600, "rzałem": 7601, "▁przygód": 7602, "▁gwałtownie": 7603, "atru": 7604, "ctwem": 7605, "wóz": 7606, "cen": 7607, "▁dowo": 7608, "▁powiedziałem": 7609, "▁nama": 7610, "▁lasów": 7611, "▁mocny": 7612, "stawić": 7613, "▁znieść": 7614, "▁wewnątrz": 7615, "ciec": 7616, "▁trzecim": 7617, "▁przysłu": 7618, "▁kupił": 7619, "▁zapomnieć": 7620, "▁kolej": 7621, "▁słyszała": 7622, "sji": 7623, "▁najlepszy": 7624, "▁prawdziwe": 7625, "▁Droga": 7626, "▁ciężka": 7627, "▁łóżka": 7628, "▁postanowi": 7629, "▁dalsze": 7630, "▁wysokim": 7631, "cieka": 7632, "▁oby": 7633, "▁równo": 7634, "▁pogrzeb": 7635, "▁piwnicy": 7636, "ległej": 7637, "niek": 7638, "▁Hali": 7639, "▁ksią": 7640, "▁here": 7641, "cła": 7642, "▁ziemie": 7643, "▁doszła": 7644, "▁doszli": 7645, "ino": 7646, "fre": 7647, "▁nocleg": 7648, "▁panował": 7649, "▁XII": 7650, "▁Musiał": 7651, "▁Słucha": 7652, "▁bać": 7653, "▁plac": 7654, "dak": 7655, "szając": 7656, "▁posłusze": 7657, "pnął": 7658, "▁wymyś": 7659, "▁Por": 7660, "▁wydo": 7661, "▁Kon": 7662, "▁czekali": 7663, "kąd": 7664, "▁zdumie": 7665, "▁dając": 7666, "▁odzież": 7667, "▁rozpoczyna": 7668, "pek": 7669, "▁popra": 7670, "▁wrogów": 7671, "▁racji": 7672, "▁Jad": 7673, "wol": 7674, "▁próbował": 7675, "▁musiały": 7676, "kało": 7677, "seł": 7678, "▁dotknął": 7679, "lant": 7680, "sch": 7681, "racając": 7682, "▁Gry": 7683, "▁zaopat": 7684, "▁łopat": 7685, "▁przepły": 7686, "▁przeszli": 7687, "dzonego": 7688, "ściej": 7689, "uszu": 7690, "glądając": 7691, "ryk": 7692, "▁Obok": 7693, "▁znane": 7694, "lonego": 7695, "dzonej": 7696, "▁Sło": 7697, "▁taj": 7698, "▁Zbli": 7699, "▁ramieniem": 7700, "▁siostra": 7701, "bna": 7702, "▁mgła": 7703, "kur": 7704, "żeń": 7705, "▁Prawie": 7706, "tację": 7707, "▁Krew": 7708, "▁panowanie": 7709, "▁opie": 7710, "▁ubi": 7711, "szeć": 7712, "▁otwarcie": 7713, "▁ścian": 7714, "▁fla": 7715, "▁pono": 7716, "▁lam": 7717, "pło": 7718, "▁udzie": 7719, "▁próg": 7720, "▁serc": 7721, "▁zgody": 7722, "▁spój": 7723, "▁pisze": 7724, "▁spro": 7725, "▁Około": 7726, "▁morder": 7727, "▁miałbym": 7728, "żami": 7729, "chało": 7730, "▁żywi": 7731, "▁Śpie": 7732, "▁szczo": 7733, "ręcz": 7734, "▁cieszy": 7735, "▁wzajemnie": 7736, "nują": 7737, "▁krzesło": 7738, "gowi": 7739, "▁ciemną": 7740, "▁trudem": 7741, "▁zachodzie": 7742, "nionej": 7743, "lają": 7744, "▁Tych": 7745, "▁wezmą": 7746, "dawała": 7747, "▁krótkie": 7748, "▁sposoby": 7749, "▁otworzyć": 7750, "czeniu": 7751, "słem": 7752, "▁dostrze": 7753, "▁wiosen": 7754, "▁Ewe": 7755, "▁Wojska": 7756, "▁Wojna": 7757, "▁grani": 7758, "▁wiernych": 7759, "▁przygody": 7760, "los": 7761, "▁zebrał": 7762, "sion": 7763, "▁Zer": 7764, "▁płacić": 7765, "łoby": 7766, "▁v": 7767, "▁Apol": 7768, "Bo": 7769, "▁Nasz": 7770, "▁rab": 7771, "kaz": 7772, "▁granicą": 7773, "▁protek": 7774, "▁powiesz": 7775, "▁zwy": 7776, "▁wyci": 7777, "▁czerwoną": 7778, "▁ogromna": 7779, "tura": 7780, "▁głęboki": 7781, "dyn": 7782, "▁doro": 7783, "▁rysy": 7784, "▁listów": 7785, "▁złych": 7786, "▁przecią": 7787, "▁śladu": 7788, "▁obia": 7789, "▁obywatel": 7790, "▁grub": 7791, "▁zapeł": 7792, "▁rozpad": 7793, "biegło": 7794, "▁nosa": 7795, "▁zmiany": 7796, "▁Dam": 7797, "▁Polaków": 7798, "▁kontu": 7799, ">>": 7800, "onych": 7801, "ństwu": 7802, "zio": 7803, "tałem": 7804, "twy": 7805, "▁gli": 7806, "▁prawem": 7807, "▁Dar": 7808, "▁most": 7809, "▁wesel": 7810, "wskich": 7811, "▁Ude": 7812, "▁skargi": 7813, "ciał": 7814, "▁fran": 7815, "▁reli": 7816, "▁początek": 7817, "▁oszal": 7818, "▁umi": 7819, "czam": 7820, "▁mszy": 7821, "▁osobę": 7822, "wioną": 7823, "chodzę": 7824, "▁wystrze": 7825, "▁kłu": 7826, "▁pasie": 7827, "▁pięknych": 7828, "dzący": 7829, "▁bezsi": 7830, "naj": 7831, "▁zasługi": 7832, "czników": 7833, "▁krąg": 7834, "▁kół": 7835, "▁czyny": 7836, "▁chora": 7837, "▁synowie": 7838, "▁młodą": 7839, "▁przyda": 7840, "▁bawić": 7841, "▁pragnę": 7842, "▁przyjaźni": 7843, "▁ciężarem": 7844, "▁kopa": 7845, "pch": 7846, "▁mija": 7847, "kcji": 7848, "▁placu": 7849, "onym": 7850, "▁wstęp": 7851, "▁gałę": 7852, "▁ciemnościach": 7853, "▁tamtym": 7854, "▁trzydziestu": 7855, "▁potu": 7856, "▁deszczu": 7857, "▁zu": 7858, "▁sznur": 7859, "▁brali": 7860, "źnia": 7861, "▁napisał": 7862, "▁Później": 7863, "▁złożone": 7864, "▁twardy": 7865, "skanie": 7866, "boru": 7867, "ini": 7868, "▁Kam": 7869, "▁Ky": 7870, "▁zmarłego": 7871, "▁Gan": 7872, "sier": 7873, "▁Najświęt": 7874, "niosło": 7875, "▁tegoż": 7876, "onem": 7877, "▁brała": 7878, "pr": 7879, "▁gotowy": 7880, "▁cen": 7881, "▁armia": 7882, "lop": 7883, "▁resztki": 7884, "▁ukra": 7885, "▁nadej": 7886, "▁nieprawda": 7887, "▁żywność": 7888, "dziera": 7889, "▁miałby": 7890, "▁Zrobi": 7891, "▁przepro": 7892, "▁kapitan": 7893, "▁hoł": 7894, "▁Powiem": 7895, "uję": 7896, "▁dobi": 7897, "żonej": 7898, "stawa": 7899, "▁obietni": 7900, "▁wypadki": 7901, "▁zaniepoko": 7902, "łata": 7903, "▁morzem": 7904, "gały": 7905, "erwała": 7906, "▁miastach": 7907, "cle": 7908, "Jak": 7909, "ót": 7910, "▁tłuma": 7911, "łko": 7912, "▁czarnej": 7913, "▁stoli": 7914, "▁Cieka": 7915, "▁znali": 7916, "▁Coraz": 7917, "▁lekkie": 7918, "arę": 7919, "conym": 7920, "Je": 7921, "sarz": 7922, "▁zastanowi": 7923, "▁<<": 7924, "tory": 7925, "artą": 7926, "dzią": 7927, "rzyj": 7928, "▁przezroczy": 7929, "pione": 7930, "bit": 7931, "tuj": 7932, "▁upa": 7933, "▁echo": 7934, "▁ogromnie": 7935, "▁sę": 7936, "▁poczucie": 7937, "▁ląd": 7938, "miary": 7939, "▁przeszkody": 7940, "▁prośbą": 7941, "▁tajemnicę": 7942, "śmie": 7943, "▁Wró": 7944, "▁namię": 7945, "▁opuścili": 7946, "▁małych": 7947, "▁powraca": 7948, "▁objąć": 7949, "lany": 7950, "▁wiedziałem": 7951, "łm": 7952, "mują": 7953, "star": 7954, "▁wschodu": 7955, "żych": 7956, "osen": 7957, "szana": 7958, "▁przele": 7959, "▁trzeciej": 7960, "▁boli": 7961, "▁skaza": 7962, "▁usi": 7963, "▁chcemy": 7964, "miu": 7965, "▁człowie": 7966, "▁starszych": 7967, "▁Feli": 7968, "ósł": 7969, "▁Got": 7970, "▁Rusi": 7971, "▁uderzenia": 7972, "▁Wraz": 7973, "▁naczelnik": 7974, "▁wyjazdu": 7975, "steina": 7976, "▁odgło": 7977, "▁nało": 7978, "▁ham": 7979, "▁uwol": 7980, "▁X": 7981, "▁padła": 7982, "▁szukając": 7983, "▁urodzi": 7984, "kowo": 7985, "sja": 7986, "it": 7987, "▁prawą": 7988, "ater": 7989, "▁testa": 7990, "▁posi": 7991, "▁wschodzie": 7992, "▁miejscami": 7993, "rali": 7994, "▁wspominał": 7995, "nicą": 7996, "koju": 7997, "▁nastąpić": 7998, "▁ciężką": 7999, "▁sprawach": 8000, "chnąć": 8001, "żność": 8002, "▁przewidy": 8003, "▁szczytu": 8004, "▁ubrany": 8005, "skała": 8006, "szane": 8007, "▁zachę": 8008, "▁lekcewa": 8009, "▁sąsiada": 8010, "▁klaszto": 8011, "stek": 8012, "stały": 8013, "▁grać": 8014, "tąd": 8015, "▁należą": 8016, "ier": 8017, "▁wchodzić": 8018, "▁przeciwnika": 8019, "▁ulice": 8020, "▁klu": 8021, "▁patrzę": 8022, "tkiem": 8023, "ras": 8024, "▁szary": 8025, "two": 8026, "▁tracić": 8027, "▁Zapom": 8028, "▁wspomnienia": 8029, "▁Am": 8030, "tacza": 8031, "wła": 8032, "▁przesa": 8033, "▁dno": 8034, "▁odziedzi": 8035, "▁zno": 8036, "bierz": 8037, "▁chwa": 8038, "▁doli": 8039, "bin": 8040, "▁stawić": 8041, "▁równa": 8042, "kla": 8043, "▁ogło": 8044, "▁użyć": 8045, "▁wspani": 8046, "▁dzieło": 8047, "▁jaśniej": 8048, "▁kolejno": 8049, "skały": 8050, "▁zebrać": 8051, "▁przepaść": 8052, "▁usłyszy": 8053, "▁obwi": 8054, "▁karę": 8055, "▁ludziach": 8056, "▁ludzkiego": 8057, "▁doktor": 8058, "▁podpa": 8059, "▁Dwie": 8060, "▁znany": 8061, "▁twierdzy": 8062, "▁skó": 8063, "▁przygotowania": 8064, "ownika": 8065, "▁Karola": 8066, "▁wojen": 8067, "▁ali": 8068, "▁char": 8069, "tona": 8070, "▁dostali": 8071, "wiązał": 8072, "▁pierwsi": 8073, "▁mogliby": 8074, "ciny": 8075, "▁dama": 8076, "▁depu": 8077, "gali": 8078, "▁sprawił": 8079, "▁wrzasnął": 8080, "▁Także": 8081, "▁stanowisko": 8082, "▁schodach": 8083, "▁złotym": 8084, "▁sena": 8085, "▁strą": 8086, "liwą": 8087, "▁At": 8088, "▁wilgo": 8089, "▁wstą": 8090, "gady": 8091, "jną": 8092, "dziny": 8093, "▁jedyny": 8094, "▁odwró": 8095, "▁dziwnym": 8096, "tacji": 8097, "▁mający": 8098, "▁gruntu": 8099, "wające": 8100, "▁otrzyma": 8101, "▁poszły": 8102, "▁doty": 8103, "rować": 8104, "▁mieszkają": 8105, "▁kolor": 8106, "▁Op": 8107, "▁przyjmować": 8108, "▁uwierzy": 8109, "szel": 8110, "▁złośli": 8111, "▁wysoka": 8112, "▁leśnych": 8113, "▁wysokich": 8114, "▁traw": 8115, "Wi": 8116, "...": 8117, "▁kończy": 8118, "▁porucznik": 8119, "▁ciep": 8120, "nący": 8121, "▁abyśmy": 8122, "▁ledwo": 8123, "▁choroba": 8124, "▁wychodzą": 8125, "▁płat": 8126, "▁czyste": 8127, "szczer": 8128, "nikach": 8129, "▁łóżku": 8130, "nim": 8131, "▁troski": 8132, "▁starą": 8133, "tuję": 8134, "▁szczęśliwa": 8135, "▁chłopcy": 8136, "ach": 8137, "▁wska": 8138, "▁skórze": 8139, "▁zaśpie": 8140, "tch": 8141, "▁wojskowych": 8142, "▁str": 8143, "▁cierpienia": 8144, "dnik": 8145, "fer": 8146, "▁podej": 8147, "▁dzieła": 8148, "snej": 8149, "żając": 8150, "▁niesie": 8151, "▁miliony": 8152, "▁masy": 8153, "▁ogrom": 8154, "ciej": 8155, "kłem": 8156, "▁palców": 8157, "zm": 8158, "ium": 8159, "▁fu": 8160, "▁Poch": 8161, "▁francu": 8162, "▁gorsze": 8163, "▁liści": 8164, "▁chciały": 8165, "▁więzieniu": 8166, "▁zary": 8167, "▁ROZDZIAŁ": 8168, "▁kanclerz": 8169, "▁traktat": 8170, "siach": 8171, "▁Aleksand": 8172, "▁obronę": 8173, "▁przewa": 8174, "▁skończyło": 8175, "▁oczywiście": 8176, "▁odpowiadać": 8177, "▁odgłosy": 8178, "▁chciałby": 8179, "▁osoba": 8180, "▁Mamy": 8181, "▁zli": 8182, "▁zapis": 8183, "nium": 8184, "▁wierzcho": 8185, "▁doświadczenia": 8186, "▁plany": 8187, "▁Paryżu": 8188, "▁trudniej": 8189, "stęp": 8190, "▁szor": 8191, "▁łagodnie": 8192, "dzieja": 8193, "▁ciężkich": 8194, "▁II": 8195, "▁Dobry": 8196, "▁ubiera": 8197, "▁zachód": 8198, "▁atak": 8199, "?\"": 8200, "▁liczyć": 8201, "▁kape": 8202, "▁jab": 8203, "▁gwiazda": 8204, "▁Brzo": 8205, "lla": 8206, "stań": 8207, "▁popi": 8208, "chanie": 8209, "mych": 8210, "▁pań": 8211, "fę": 8212, "▁Wraca": 8213, "▁sądzi": 8214, "▁nieprzy": 8215, "▁Kara": 8216, "rząt": 8217, "▁Ostro": 8218, "▁dniami": 8219, "▁ludzkim": 8220, "▁obraca": 8221, "▁serdecznie": 8222, "nó": 8223, "▁tysiąca": 8224, "▁Żad": 8225, "▁Gru": 8226, "urów": 8227, "▁dziewczyną": 8228, "▁skutek": 8229, "bus": 8230, "▁największe": 8231, "▁wiatrem": 8232, "▁Panowie": 8233, "▁czarnym": 8234, "▁bratem": 8235, "▁statek": 8236, "maga": 8237, "ryka": 8238, "▁Chciałbym": 8239, "▁Bli": 8240, "▁dotyka": 8241, "▁state": 8242, "lat": 8243, "▁sztuka": 8244, "▁malu": 8245, "▁mieści": 8246, "▁Che": 8247, "▁buty": 8248, "▁przemian": 8249, "▁przegra": 8250, "▁opieki": 8251, "pil": 8252, "▁dawnego": 8253, "▁okrąg": 8254, "▁mężczyźni": 8255, "▁wiedzy": 8256, "loty": 8257, "bać": 8258, "▁gmachu": 8259, "▁przypominał": 8260, "▁Ara": 8261, "▁As": 8262, "▁Anna": 8263, "▁zakładni": 8264, "▁are": 8265, "pola": 8266, "▁wojenne": 8267, "żon": 8268, "maj": 8269, "▁obecni": 8270, "ól": 8271, "eli": 8272, "▁zwrócić": 8273, "niosą": 8274, "▁prośby": 8275, "▁zbunt": 8276, "▁przypuszcza": 8277, "▁kamienicy": 8278, "▁poruszył": 8279, "pą": 8280, "▁czasami": 8281, "▁śniadanie": 8282, "▁marsz": 8283, "▁stanowi": 8284, "▁historię": 8285, "▁podwór": 8286, "▁Żaden": 8287, "waną": 8288, "rzonych": 8289, "▁Całe": 8290, "▁wieczo": 8291, "▁salonie": 8292, "▁nieznacznie": 8293, "▁sztuk": 8294, "▁bogat": 8295, "▁Jakiś": 8296, "▁powtór": 8297, "czom": 8298, "▁poczeka": 8299, "▁arab": 8300, "▁uszach": 8301, "▁Powoli": 8302, "▁Dwóch": 8303, "magał": 8304, "▁odzieży": 8305, "▁zwracał": 8306, "będzie": 8307, "ryte": 8308, "dało": 8309, "▁Ję": 8310, "▁Przeciw": 8311, "▁radzie": 8312, "biał": 8313, "▁rządy": 8314, "wiłem": 8315, "▁kieszeni": 8316, "arski": 8317, "▁szczyt": 8318, "▁anty": 8319, "dob": 8320, "szal": 8321, "▁najem": 8322, "wór": 8323, "▁pió": 8324, "▁najgor": 8325, "▁urody": 8326, "▁kres": 8327, "▁past": 8328, "▁naśla": 8329, "▁zachodu": 8330, "▁lekkim": 8331, "temu": 8332, "mierz": 8333, "dat": 8334, "dzeń": 8335, "▁ście": 8336, "▁granice": 8337, "▁znika": 8338, "▁nadzieje": 8339, "▁nosem": 8340, "▁piekła": 8341, "▁niezgo": 8342, "▁obojętnie": 8343, "▁zjawi": 8344, "▁więzie": 8345, "era": 8346, "▁wymy": 8347, "szało": 8348, "▁Wielka": 8349, "▁bab": 8350, "▁szpi": 8351, "▁żydow": 8352, "▁wejścia": 8353, "tyw": 8354, "▁oder": 8355, "iado": 8356, "▁studni": 8357, "gląd": 8358, "▁należał": 8359, "▁dreszcz": 8360, "▁For": 8361, "▁klucz": 8362, "3": 8363, "▁zabrali": 8364, "szliśmy": 8365, "łymi": 8366, "▁King": 8367, "▁Chal": 8368, "▁przesła": 8369, "▁znajdą": 8370, "▁pis": 8371, "wardii": 8372, "▁spoczynku": 8373, "▁leżące": 8374, "▁Rzy": 8375, "rzanie": 8376, "▁Kan": 8377, "▁pokład": 8378, "▁Millera": 8379, "!)": 8380, "lano": 8381, "▁spółki": 8382, "ądź": 8383, "▁wyjątkiem": 8384, "▁ofiarę": 8385, "▁stracić": 8386, "▁znajomości": 8387, "▁wybra": 8388, "▁lewą": 8389, "▁wsa": 8390, "▁wojennej": 8391, "tacja": 8392, "▁Zam": 8393, "▁wynu": 8394, "▁nierów": 8395, "▁pos": 8396, "▁gniazdo": 8397, "▁Dom": 8398, "▁rozłą": 8399, "▁Jakim": 8400, "jnych": 8401, "▁przyniesie": 8402, "▁pamiętał": 8403, "▁Fabia": 8404, "▁najmniejszej": 8405, "▁jakimi": 8406, "▁interesów": 8407, "▁powszechnie": 8408, "▁Wcale": 8409, "▁humo": 8410, "▁starusz": 8411, "▁zajmował": 8412, "ległych": 8413, "▁gabinetu": 8414, "koła": 8415, "▁wydawały": 8416, "kręcił": 8417, "▁oblicza": 8418, "▁nacze": 8419, "śnił": 8420, "▁wał": 8421, "▁bite": 8422, "▁Mają": 8423, "▁przeszły": 8424, "conej": 8425, "▁mó": 8426, "▁przystoj": 8427, "▁poprowa": 8428, "▁Stąd": 8429, "▁bawią": 8430, "stami": 8431, "gl": 8432, "lesa": 8433, "▁kołnie": 8434, "▁lot": 8435, "▁minę": 8436, "▁dalszym": 8437, "▁trzecie": 8438, "▁jedyną": 8439, "▁wszakże": 8440, "▁tr": 8441, "▁Dia": 8442, "▁zostaje": 8443, "▁tan": 8444, "mała": 8445, "ściły": 8446, "jna": 8447, "luje": 8448, "nicze": 8449, "▁Ducha": 8450, "▁Moje": 8451, "lata": 8452, "▁żywio": 8453, "▁przyjacielu": 8454, "▁odpowiedzial": 8455, "▁skórza": 8456, "▁sięga": 8457, "czów": 8458, "▁fol": 8459, "▁puła": 8460, "szczenie": 8461, "▁wyrwać": 8462, "▁Ode": 8463, "▁Zrozu": 8464, "▁zasu": 8465, "nieć": 8466, "▁odwagę": 8467, "▁wiosny": 8468, "▁wago": 8469, "▁żyły": 8470, "▁uczył": 8471, "▁Łatwo": 8472, "▁Syn": 8473, "▁obrzy": 8474, "▁Wiatr": 8475, "▁Mazu": 8476, "▁rebe": 8477, "wóch": 8478, "berga": 8479, "szewski": 8480, "▁zdarzyć": 8481, "▁dochodzą": 8482, "▁wyspy": 8483, "▁Głowa": 8484, "▁człon": 8485, "niłem": 8486, "▁ministra": 8487, "▁spos": 8488, "▁such": 8489, "▁sprzymie": 8490, "▁Wieczorem": 8491, "dziesią": 8492, "▁Postanowi": 8493, "▁Uważ": 8494, "▁zapadł": 8495, "▁biskupa": 8496, "▁urzędników": 8497, "mione": 8498, "▁cierpliwie": 8499, "▁wrę": 8500, "▁odkrył": 8501, "▁niepewności": 8502, "▁ocalić": 8503, "▁zgła": 8504, "▁rachunki": 8505, "▁hand": 8506, "▁chwilach": 8507, "mysłu": 8508, "linie": 8509, "owanego": 8510, "sse": 8511, "czes": 8512, "▁wyż": 8513, "▁następuje": 8514, "czając": 8515, "▁wyli": 8516, "▁zajmuje": 8517, "▁ide": 8518, "▁Wielkie": 8519, "szają": 8520, "wiązy": 8521, "▁przeważnie": 8522, "▁podjął": 8523, "▁zawah": 8524, "▁upom": 8525, "▁zastąpi": 8526, "▁większych": 8527, "▁odległości": 8528, "▁Litwa": 8529, "▁Niby": 8530, "Ju": 8531, "▁db": 8532, "▁ukara": 8533, "▁naby": 8534, "▁rosną": 8535, "fir": 8536, "▁zej": 8537, "owca": 8538, "▁Świe": 8539, "rus": 8540, "▁krople": 8541, "daje": 8542, "▁zapytać": 8543, "▁rozpo": 8544, "polu": 8545, "▁Pad": 8546, "▁chwile": 8547, "▁Przepraszam": 8548, "▁Matka": 8549, "▁wsz": 8550, "pamię": 8551, "▁wybrać": 8552, "▁pokolenia": 8553, "duję": 8554, "▁obawa": 8555, "▁kąt": 8556, "tury": 8557, "▁dzieciom": 8558, "▁zaku": 8559, "▁noszą": 8560, "snych": 8561, "waga": 8562, "skrzy": 8563, "wnie": 8564, "▁Two": 8565, "cielu": 8566, "▁wieczy": 8567, "▁szcz": 8568, "▁pewnych": 8569, "▁własność": 8570, "▁przyśpie": 8571, "▁Doro": 8572, "▁dziewczynka": 8573, "▁rozpozna": 8574, "▁ściąga": 8575, "▁odwiedzić": 8576, "▁najgo": 8577, "▁naszymi": 8578, "▁pospie": 8579, "żonego": 8580, "▁słup": 8581, "bliż": 8582, "▁Trudno": 8583, "▁odeszła": 8584, "▁nadą": 8585, "▁zadowo": 8586, "▁dodać": 8587, "wanych": 8588, "▁przyzwycza": 8589, "▁sposobu": 8590, "pis": 8591, "5": 8592, "▁Wiadomo": 8593, "▁rogu": 8594, "----------------": 8595, "▁Mea": 8596, "ger": 8597, "▁załogi": 8598, "▁zapowiedział": 8599, "▁zdradził": 8600, "▁Wojewo": 8601, "trzymać": 8602, "▁uchwy": 8603, "▁zajęli": 8604, "▁draż": 8605, "▁odwo": 8606, "dzina": 8607, "▁Litwi": 8608, "▁językiem": 8609, "▁zapowiada": 8610, "snego": 8611, "▁trafić": 8612, "kiewicza": 8613, "▁polskim": 8614, "▁roześmiał": 8615, "Tak": 8616, "▁wejście": 8617, "▁przedni": 8618, "▁tajemnic": 8619, "▁krajów": 8620, "▁budow": 8621, "sad": 8622, "▁postrze": 8623, "▁największej": 8624, "▁Żół": 8625, "▁promie": 8626, "pta": 8627, "▁znisz": 8628, "▁pomyślałem": 8629, "▁angiel": 8630, "wionych": 8631, "▁Odpowie": 8632, "▁Cio": 8633, "▁jednych": 8634, "▁Prawdę": 8635, "▁przychy": 8636, "▁uspokoić": 8637, "▁nikim": 8638, "▁mieszkańcy": 8639, "▁zmieniło": 8640, "▁Szczegól": 8641, "▁otwartym": 8642, "▁spojrzeniem": 8643, "czącym": 8644, "szczała": 8645, "▁niskie": 8646, "nięcia": 8647, "▁domo": 8648, "▁zabrakło": 8649, "▁zwykłą": 8650, "▁szerokim": 8651, "▁pozostała": 8652, "▁pozostać": 8653, "▁wzroku": 8654, "pka": 8655, "▁Pół": 8656, "prawy": 8657, "▁Obej": 8658, "▁odło": 8659, "▁groźby": 8660, "▁zimna": 8661, "rót": 8662, "▁stawia": 8663, "śń": 8664, "▁dach": 8665, "▁ukocha": 8666, "▁zatrzymała": 8667, "▁spełnia": 8668, "▁przeze": 8669, "▁znajomość": 8670, "▁pią": 8671, "▁gospodarza": 8672, "▁rozmai": 8673, "mować": 8674, "ałami": 8675, "nnik": 8676, "kuj": 8677, "▁tk": 8678, "▁odmawia": 8679, "lam": 8680, "▁korzyść": 8681, "▁widoku": 8682, "żące": 8683, "stkę": 8684, "każ": 8685, "▁Czyż": 8686, "▁karty": 8687, "ład": 8688, "▁okolic": 8689, "▁położyć": 8690, "▁podłodze": 8691, "między": 8692, "▁Bel": 8693, "▁niechę": 8694, "żonymi": 8695, "▁Strze": 8696, "▁kondy": 8697, "▁miasteczka": 8698, "▁wroga": 8699, "▁przepeł": 8700, "▁wnętrza": 8701, "▁wyko": 8702, "sobie": 8703, "suje": 8704, "▁Śmierć": 8705, "▁ruszyła": 8706, "▁bun": 8707, "▁szare": 8708, "dując": 8709, "▁wyb": 8710, "▁polsku": 8711, "▁przewo": 8712, "▁tor": 8713, "▁Kal": 8714, "żąt": 8715, "▁Piotra": 8716, "▁oddziału": 8717, "X": 8718, "▁znaczną": 8719, "▁zadał": 8720, "▁sied": 8721, "▁pewni": 8722, "psu": 8723, "▁widzów": 8724, "▁pancer": 8725, "▁przenieść": 8726, "▁królów": 8727, "▁Nasi": 8728, "▁musicie": 8729, "dzimy": 8730, "▁dziwić": 8731, "▁wschodniej": 8732, "niak": 8733, "▁Twój": 8734, "▁radzić": 8735, "siąc": 8736, "▁Napoleon": 8737, "▁znamy": 8738, "▁repu": 8739, "▁Krak": 8740, "▁koryta": 8741, "szoną": 8742, "▁pośrodku": 8743, "▁zapyta": 8744, "▁Pomimo": 8745, "▁Wobec": 8746, "▁żałob": 8747, "▁regular": 8748, "ądał": 8749, "▁braku": 8750, "▁odpoczynku": 8751, "jnym": 8752, "▁Wzię": 8753, "śliz": 8754, "▁słabość": 8755, "czków": 8756, "▁wuj": 8757, "chni": 8758, "▁boles": 8759, "▁uzna": 8760, "▁przeszkadza": 8761, "▁odpoczynek": 8762, "▁zwycięstwie": 8763, "▁armię": 8764, "▁suche": 8765, "▁uwolnić": 8766, "▁zjeść": 8767, "cik": 8768, "▁nosić": 8769, "▁chę": 8770, "▁wbi": 8771, "dyna": 8772, "cząć": 8773, "▁poznała": 8774, "▁kobiecie": 8775, "▁potrafię": 8776, "▁gospoda": 8777, "▁pobu": 8778, "▁minął": 8779, "▁łatwością": 8780, "▁nauczy": 8781, "śnią": 8782, "▁zabaw": 8783, "óc": 8784, "▁drobiaz": 8785, "▁nieznane": 8786, "▁post": 8787, "▁bio": 8788, "▁muzyki": 8789, "▁godność": 8790, "▁należ": 8791, "▁nocnej": 8792, "ższy": 8793, "▁Duch": 8794, "▁duchem": 8795, "▁Dzięki": 8796, "▁zejść": 8797, "mentów": 8798, "▁nagroda": 8799, "▁ciężkim": 8800, "6": 8801, "działy": 8802, "owin": 8803, "▁dostar": 8804, "▁podstęp": 8805, "▁uwo": 8806, "▁świadków": 8807, "owanej": 8808, "▁wje": 8809, "szuki": 8810, "bka": 8811, "▁równym": 8812, "▁szeroką": 8813, "glądała": 8814, "▁odważ": 8815, "mag": 8816, "▁podnoszą": 8817, "SZ": 8818, "▁zawód": 8819, "▁piętrze": 8820, "▁murem": 8821, "▁czterdziestu": 8822, "▁zała": 8823, "ganie": 8824, "▁byłam": 8825, "▁czterdzie": 8826, "▁szczero": 8827, "lania": 8828, "▁usy": 8829, "▁Kinga": 8830, "▁Arab": 8831, "stal": 8832, "▁willi": 8833, "▁zwycięz": 8834, "mieć": 8835, "▁walczących": 8836, "up": 8837, "▁Chy": 8838, "hen": 8839, "▁rządzi": 8840, "▁Ło": 8841, "▁panowania": 8842, "▁Bernar": 8843, "▁ślu": 8844, "▁Dra": 8845, "▁Uważa": 8846, "▁zostawi": 8847, "rzyłem": 8848, "▁przodu": 8849, "▁adi": 8850, "▁spytałem": 8851, "▁połączyć": 8852, "▁prowadzą": 8853, "nności": 8854, "▁Podobno": 8855, "▁koście": 8856, "▁ułat": 8857, "▁wyjściu": 8858, "▁sądzisz": 8859, "lij": 8860, "▁interesu": 8861, "▁san": 8862, "▁jazdę": 8863, "▁wiosnę": 8864, "▁sprawić": 8865, "▁fut": 8866, "▁opowiadania": 8867, "kol": 8868, "▁osad": 8869, "▁poście": 8870, "▁nast": 8871, "▁chroni": 8872, "▁Jakub": 8873, "▁zamar": 8874, "▁krewnych": 8875, "dziu": 8876, "▁przedsię": 8877, "wający": 8878, "kowym": 8879, "▁prowincji": 8880, "kową": 8881, "▁istoty": 8882, "wionym": 8883, "▁dały": 8884, "▁dopuszcza": 8885, "▁przebiega": 8886, "▁podając": 8887, "dru": 8888, "▁słabym": 8889, "▁energi": 8890, "mowo": 8891, "▁napra": 8892, "▁ciepły": 8893, "▁warta": 8894, "alny": 8895, "▁skrzydło": 8896, "▁Kar": 8897, "▁Sami": 8898, "jsko": 8899, "bud": 8900, "▁składał": 8901, "▁znajomy": 8902, "▁wita": 8903, "dowy": 8904, "▁któryś": 8905, "▁sporo": 8906, "▁najwyższy": 8907, "▁dachem": 8908, "▁mle": 8909, "▁nauczył": 8910, "▁mierzyć": 8911, "OM": 8912, "▁pogoda": 8913, "▁gładko": 8914, "▁pomagać": 8915, "ral": 8916, "▁gorszy": 8917, "▁sądzić": 8918, "▁myślami": 8919, "▁krainy": 8920, "▁kun": 8921, "▁przeciwnie": 8922, "▁rozkwi": 8923, "unki": 8924, "▁zgar": 8925, "▁traci": 8926, "▁kopie": 8927, "▁współczu": 8928, "▁rozg": 8929, "▁ślad": 8930, "▁znę": 8931, "▁mocą": 8932, "▁nieskoń": 8933, "▁dowci": 8934, "▁potrą": 8935, "pru": 8936, "nien": 8937, "▁zaczynał": 8938, "▁wokół": 8939, "▁skok": 8940, "pieniem": 8941, "▁preten": 8942, "▁ślubu": 8943, "▁stojącego": 8944, "▁ciepła": 8945, "▁wnętrz": 8946, "▁opowiedzieć": 8947, "czącego": 8948, "tane": 8949, "▁pojęcia": 8950, "▁statku": 8951, "▁umiesz": 8952, "▁Baran": 8953, "▁Fo": 8954, "▁Lan": 8955, "▁zostaną": 8956, "▁Wez": 8957, "▁spotkaniu": 8958, "▁nakazuje": 8959, "cis": 8960, "▁wynieść": 8961, "▁innemu": 8962, "dników": 8963, "▁południ": 8964, "▁pane": 8965, "▁bokach": 8966, "mul": 8967, "▁największego": 8968, "▁odesła": 8969, "▁przodków": 8970, "▁swoimi": 8971, "▁Będą": 8972, "▁urzędnicy": 8973, "▁rozej": 8974, "▁powodów": 8975, "arem": 8976, "▁kw": 8977, "▁nazywają": 8978, "▁wyjechać": 8979, "▁ós": 8980, "▁zabój": 8981, "▁parku": 8982, "▁Miałem": 8983, "▁okolicach": 8984, "▁przekonania": 8985, "sztu": 8986, "▁walczył": 8987, "▁rozbija": 8988, "▁przyjęła": 8989, "▁Pła": 8990, "▁podobnej": 8991, "siadła": 8992, "▁włosach": 8993, "sunęła": 8994, "pospoli": 8995, "▁trzema": 8996, "▁wynik": 8997, "▁III": 8998, "▁wzrostu": 8999, "▁znacznej": 9000, "liwych": 9001, "▁zaprosił": 9002, "▁skórą": 9003, "▁rzut": 9004, "zło": 9005, "▁włożył": 9006, "▁podo": 9007, "▁znaczenie": 9008, "▁pozdr": 9009, "tant": 9010, "▁istocie": 9011, "▁ozd": 9012, "▁wahania": 9013, "czyka": 9014, "▁szkodzi": 9015, "▁usług": 9016, "▁ucią": 9017, "▁tabli": 9018, "wisko": 9019, "▁Mło": 9020, "▁zwraca": 9021, "wnym": 9022, "▁obłę": 9023, "▁Twoje": 9024, "tęż": 9025, "▁wędrow": 9026, "▁nada": 9027, "▁dzieli": 9028, "▁połowa": 9029, "▁kryształ": 9030, "▁jasna": 9031, "sąd": 9032, "▁toczy": 9033, "▁żywe": 9034, "OW": 9035, "▁owoce": 9036, "▁koli": 9037, "▁roli": 9038, "▁poe": 9039, "▁młodzież": 9040, "cale": 9041, "dziesięciu": 9042, "▁pieniędzmi": 9043, "▁obję": 9044, "▁ciemny": 9045, "▁wychodzić": 9046, "niesienia": 9047, "▁rolę": 9048, "▁hym": 9049, "▁mieszkaniu": 9050, "wiera": 9051, "▁usłyszeć": 9052, "▁towar": 9053, "▁domach": 9054, "ers": 9055, "▁małżonka": 9056, "▁suknię": 9057, "▁Miała": 9058, "rąg": 9059, "Ę": 9060, "Ż": 9061, "▁grób": 9062, "▁powścią": 9063, "wających": 9064, "▁nazy": 9065, "▁odebra": 9066, "▁nazywał": 9067, "▁matką": 9068, "2": 9069, "▁przechodzą": 9070, "▁ucze": 9071, "▁dynastii": 9072, "▁wytłuma": 9073, "▁Kowal": 9074, "▁rozstrzyg": 9075, "▁wypoczynku": 9076, "▁Polacy": 9077, "dzcy": 9078, "▁upew": 9079, "▁prawdopodobnie": 9080, "▁lepsza": 9081, "▁pozwolenie": 9082, "zw": 9083, "▁rozpocznie": 9084, "▁ukryte": 9085, "▁Wielkiego": 9086, "▁Jowi": 9087, "tela": 9088, "▁opiece": 9089, "zj": 9090, "▁podejrzenie": 9091, "ślić": 9092, "▁znakiem": 9093, "▁podbi": 9094, "nowskiego": 9095, "▁prefek": 9096, "▁nadejdzie": 9097, "▁Kogo": 9098, "▁ambi": 9099, "▁Mogę": 9100, "▁eks": 9101, "jaz": 9102, "▁odzna": 9103, "▁wytrzy": 9104, "▁rachunek": 9105, "▁skóra": 9106, "▁pozostali": 9107, "▁spacer": 9108, "▁rozmów": 9109, "▁Kilku": 9110, "wien": 9111, "▁ostrożności": 9112, "rował": 9113, "▁bólem": 9114, "▁doz": 9115, "▁popły": 9116, "kcie": 9117, "▁zrobiłem": 9118, "▁posie": 9119, "▁trwał": 9120, "▁pozy": 9121, "ób": 9122, "▁salo": 9123, "▁zacieka": 9124, "▁Tere": 9125, "nkach": 9126, "sowe": 9127, "miła": 9128, "▁narod": 9129, "▁Mistrz": 9130, "▁kiw": 9131, "▁Cią": 9132, "cząca": 9133, "▁Poli": 9134, "▁krajach": 9135, "▁losu": 9136, "jej": 9137, "▁fos": 9138, "▁Bło": 9139, "mane": 9140, "▁er": 9141, "▁zbie": 9142, "▁wyśmie": 9143, "gią": 9144, "▁stworzył": 9145, "▁morskie": 9146, "tuł": 9147, "▁siedmiu": 9148, "▁wyga": 9149, "▁naczynia": 9150, "▁kwa": 9151, "chani": 9152, "▁Kocha": 9153, "▁leni": 9154, "▁stwo": 9155, "▁zabawy": 9156, "▁puch": 9157, "▁Słowo": 9158, "▁zau": 9159, "▁góra": 9160, "▁piwo": 9161, "ami": 9162, "wychw": 9163, "▁upi": 9164, "▁wyboru": 9165, "▁zwiast": 9166, "▁zamknięty": 9167, "▁Ciebie": 9168, "▁działać": 9169, "▁wali": 9170, "▁młodzień": 9171, "▁czynów": 9172, "▁zbrodnia": 9173, "▁wykra": 9174, "▁odmówił": 9175, "▁trzeź": 9176, "lizny": 9177, "▁ciepło": 9178, "▁zielone": 9179, "▁One": 9180, "▁kość": 9181, "▁ząb": 9182, "▁przysz": 9183, "▁uwolni": 9184, "▁rękawi": 9185, "niane": 9186, "iera": 9187, "▁zapomnia": 9188, "▁łat": 9189, "▁dają": 9190, "OL": 9191, "AT": 9192, "▁nieży": 9193, "▁historia": 9194, "▁rannych": 9195, "▁nielu": 9196, "▁robię": 9197, "▁pomyślała": 9198, "▁wchodził": 9199, "▁młodszy": 9200, "mii": 9201, "▁licznych": 9202, "▁darem": 9203, "ńczycy": 9204, "▁arenie": 9205, "▁Ul": 9206, "▁sand": 9207, "▁wskutek": 9208, "▁dotarł": 9209, "cisnąć": 9210, "▁zdoł": 9211, "▁zrzu": 9212, "▁związa": 9213, "czniku": 9214, "▁Jez": 9215, "▁pojawił": 9216, "nowie": 9217, "▁rozgrze": 9218, "pej": 9219, "▁wyprawa": 9220, "▁uni": 9221, "str": 9222, "▁okaże": 9223, "▁Gór": 9224, "rzci": 9225, "tary": 9226, "bezpie": 9227, "▁piętro": 9228, "wom": 9229, "▁polskiej": 9230, "szczono": 9231, "▁Bitwa": 9232, "▁niełat": 9233, "▁oceanu": 9234, "tat": 9235, "▁wybór": 9236, "wiają": 9237, "▁potrząsnął": 9238, "▁Kra": 9239, "ższych": 9240, "▁Szko": 9241, "▁przykłada": 9242, "trudno": 9243, "Przy": 9244, "▁wspo": 9245, "▁spotkało": 9246, "▁musiałem": 9247, "▁pomóc": 9248, "▁niecierp": 9249, "dzkę": 9250, "▁dol": 9251, "▁udziału": 9252, "▁przenosi": 9253, "▁ilość": 9254, "▁tygodnia": 9255, "▁obudził": 9256, "kają": 9257, "owań": 9258, "▁aka": 9259, "▁miano": 9260, "▁nieznajo": 9261, "mit": 9262, "▁robót": 9263, "▁rzędu": 9264, "wiało": 9265, "piały": 9266, "▁krótkiej": 9267, "▁Więk": 9268, "▁ostre": 9269, "▁spóź": 9270, "▁mniejszych": 9271, "▁skupi": 9272, "▁potwier": 9273, "▁zgoda": 9274, "▁żonie": 9275, "▁Dawniej": 9276, "▁ostry": 9277, "▁pułku": 9278, "▁barwę": 9279, "▁salę": 9280, "mysł": 9281, "▁brzy": 9282, "▁zad": 9283, "▁rynek": 9284, "żności": 9285, "AL": 9286, "czucie": 9287, "▁imieniem": 9288, "▁Życie": 9289, "▁mile": 9290, "czno": 9291, "▁zmarł": 9292, "▁Mał": 9293, "▁podzię": 9294, "ódź": 9295, "▁oddaje": 9296, "▁podwo": 9297, "▁istotę": 9298, "owałeś": 9299, "▁pomagał": 9300, "lanie": 9301, "▁dalszej": 9302, "rodę": 9303, "▁zdolności": 9304, "tale": 9305, "▁Rado": 9306, "wierciad": 9307, "ćmi": 9308, "▁obecność": 9309, "▁świateł": 9310, "▁szata": 9311, "▁dziewczynki": 9312, "▁sprzy": 9313, "targ": 9314, "▁najdalej": 9315, "skrze": 9316, "▁gardle": 9317, "▁piętna": 9318, "cznikiem": 9319, "niałem": 9320, "racja": 9321, "▁Powiedział": 9322, "Ni": 9323, "▁Śmie": 9324, "▁ważne": 9325, "▁odra": 9326, "▁okazało": 9327, "▁zażądał": 9328, "▁rucho": 9329, "rant": 9330, "▁nieprzytom": 9331, "ceni": 9332, "▁nai": 9333, "▁właściwie": 9334, "▁dróg": 9335, "▁Wiele": 9336, "śliła": 9337, "▁pracą": 9338, "▁fortepia": 9339, "▁rozstrze": 9340, "▁wystawi": 9341, "▁metal": 9342, "nko": 9343, "▁wystar": 9344, "▁zniesi": 9345, "kiwać": 9346, "▁sierp": 9347, "▁eskor": 9348, "▁rozpoczęła": 9349, "ńczyków": 9350, "▁ekspedy": 9351, "▁posiłki": 9352, "▁wypraw": 9353, "▁pozwalał": 9354, "▁kanał": 9355, "▁wyroki": 9356, "▁hur": 9357, "ly": 9358, "▁oznajmił": 9359, "▁termin": 9360, "▁począwszy": 9361, "▁podko": 9362, "▁podejrze": 9363, "▁poszu": 9364, "▁Kos": 9365, "▁Nam": 9366, "▁niedaw": 9367, "▁surowo": 9368, "▁senatorów": 9369, "tele": 9370, "jony": 9371, "niają": 9372, "▁pracu": 9373, "▁nakazał": 9374, "▁Nowy": 9375, "▁Bla": 9376, "▁pokar": 9377, "tniej": 9378, "▁Towarzy": 9379, "▁zamierza": 9380, "▁skur": 9381, "▁pozostało": 9382, "▁ruchów": 9383, "pni": 9384, "▁wydawać": 9385, "▁wp": 9386, "▁zniechę": 9387, "▁głębokim": 9388, "▁obiecu": 9389, "kuję": 9390, "owanymi": 9391, "▁świadectwo": 9392, "▁senty": 9393, "▁pokoje": 9394, "▁dawnej": 9395, "nionego": 9396, "ownych": 9397, "▁wysokiej": 9398, "gorz": 9399, "▁siedzenia": 9400, "dania": 9401, "▁oddechu": 9402, "▁odde": 9403, "▁młodej": 9404, "▁jedynym": 9405, "▁zama": 9406, "▁ciemnym": 9407, "atych": 9408, "▁zaka": 9409, "nci": 9410, "▁spory": 9411, "▁urodził": 9412, "▁zgodzić": 9413, "▁krajem": 9414, "▁otwar": 9415, "liwej": 9416, "▁stają": 9417, "▁zobaczymy": 9418, "▁Bła": 9419, "dowe": 9420, "▁lepszej": 9421, "▁zawar": 9422, "mij": 9423, "▁mniejszy": 9424, "▁rozważ": 9425, "owne": 9426, "▁czystą": 9427, "▁żarty": 9428, "▁gościem": 9429, "▁wydzie": 9430, "kana": 9431, "▁nabiera": 9432, "▁Góry": 9433, "▁filozof": 9434, "▁proste": 9435, "▁zmysł": 9436, "▁wystarczy": 9437, "▁zdarza": 9438, "▁doliny": 9439, "▁promieni": 9440, "▁Szcze": 9441, "▁podatki": 9442, "▁zwykły": 9443, "▁Ser": 9444, "js": 9445, "gają": 9446, "▁głupo": 9447, "▁drogach": 9448, "▁nazwał": 9449, "▁grają": 9450, "▁dojdzie": 9451, "▁rozsta": 9452, "owskie": 9453, "▁naturze": 9454, "▁powody": 9455, "▁nieod": 9456, "▁pragnienia": 9457, "▁naturalnie": 9458, "▁trójką": 9459, "szałam": 9460, "▁Zat": 9461, "▁piętra": 9462, "▁otworzyła": 9463, "▁czekała": 9464, "▁Stał": 9465, "▁Niektóre": 9466, "▁Jakby": 9467, "wit": 9468, "owani": 9469, "▁drobnych": 9470, "▁zmęczenia": 9471, "szczenia": 9472, "▁robotników": 9473, "4": 9474, "▁książkę": 9475, "urę": 9476, "▁przecię": 9477, "onymi": 9478, "aria": 9479, "letu": 9480, "Jeśli": 9481, "▁zamieszka": 9482, "▁pokazuje": 9483, "▁Radzi": 9484, "bski": 9485, "▁siłami": 9486, "▁pozwolić": 9487, "▁ex": 9488, "▁Ter": 9489, "▁przewie": 9490, "ruch": 9491, "ksy": 9492, "▁kwadra": 9493, "▁popu": 9494, "▁nieczy": 9495, "▁dóbr": 9496, "▁Har": 9497, "▁najmniejszego": 9498, "▁szaleństwo": 9499, "czeka": 9500, "gos": 9501, "▁pojedyncze": 9502, "▁zachodniej": 9503, "▁korpu": 9504, "▁Miło": 9505, "▁załat": 9506, "▁sprzedał": 9507, "▁gma": 9508, "siego": 9509, "▁języku": 9510, "▁wyży": 9511, "▁ptaka": 9512, "gó": 9513, "▁mogłoby": 9514, "No": 9515, "▁astro": 9516, "▁okolice": 9517, "▁powrócić": 9518, "▁czuj": 9519, "gody": 9520, "strzę": 9521, "sam": 9522, "▁ogromnej": 9523, "▁but": 9524, "▁wysch": 9525, "niesienie": 9526, "▁takiemu": 9527, "lałem": 9528, "▁mono": 9529, "był": 9530, "▁uczyć": 9531, "Gdy": 9532, "▁wzmoc": 9533, "nięciu": 9534, "▁wyjazd": 9535, "▁pięknym": 9536, "▁warunkach": 9537, "▁liczba": 9538, "gow": 9539, "wój": 9540, "▁powstrzy": 9541, "▁odpoczy": 9542, "szką": 9543, "▁oce": 9544, "stymi": 9545, "▁budzić": 9546, "łk": 9547, "dowie": 9548, "▁świadkiem": 9549, "mistrza": 9550, "▁tytuł": 9551, "▁pokoj": 9552, "▁gał": 9553, "▁Głos": 9554, "▁przeraża": 9555, "▁przygot": 9556, "▁małże": 9557, "▁cudem": 9558, "▁panuje": 9559, "lad": 9560, "łują": 9561, "biona": 9562, "▁popeł": 9563, "▁Przyby": 9564, "▁pere": 9565, "▁spis": 9566, "▁tajemnice": 9567, "▁głębiej": 9568, "▁waż": 9569, "▁kryje": 9570, "▁kolo": 9571, "wce": 9572, "▁figury": 9573, "▁Sł": 9574, "▁zasia": 9575, "▁pomniej": 9576, "sik": 9577, "▁pewności": 9578, "▁złym": 9579, "▁pragnienie": 9580, "▁wprowa": 9581, "▁zima": 9582, "bię": 9583, "lepia": 9584, "▁spotkali": 9585, "▁zao": 9586, "▁smy": 9587, "▁okręty": 9588, "▁Dokąd": 9589, "▁Per": 9590, "▁lśnią": 9591, "▁opada": 9592, "szanie": 9593, "▁usprawiedli": 9594, "cim": 9595, "lanej": 9596, "▁zachodzą": 9597, "▁ceremo": 9598, "▁powstała": 9599, "▁kuch": 9600, "▁mrów": 9601, "▁odsło": 9602, "▁wzmo": 9603, "▁wysokiego": 9604, "▁trzecia": 9605, "tła": 9606, "▁sucho": 9607, "▁Niekiedy": 9608, "▁kurzu": 9609, "▁rys": 9610, "▁zrobili": 9611, "świę": 9612, "nold": 9613, "ldem": 9614, "hat": 9615, "lis": 9616, "▁papi": 9617, "▁zapasów": 9618, "▁głównej": 9619, "▁poruszać": 9620, "▁Biało": 9621, "polsce": 9622, "▁ziemiach": 9623, "▁Świętego": 9624, "▁najwyższego": 9625, "▁wręcz": 9626, "▁zwar": 9627, "▁skale": 9628, "▁Zanim": 9629, "ujesz": 9630, "▁morskich": 9631, "owiu": 9632, "▁liczbie": 9633, "daniu": 9634, "▁wyjeździe": 9635, "ory": 9636, "▁zobaczysz": 9637, "▁Miasto": 9638, "▁sprowadzić": 9639, "▁rozsąd": 9640, "▁języki": 9641, "▁odejściu": 9642, "▁poradzi": 9643, "▁Wziął": 9644, "▁opowiadań": 9645, "▁wiersze": 9646, "▁Kre": 9647, "▁ośmiu": 9648, "▁lepszą": 9649, "▁spokojne": 9650, "▁tamtego": 9651, "żli": 9652, "▁Kory": 9653, "▁sądem": 9654, "▁pogło": 9655, "▁tara": 9656, "▁rosła": 9657, "jki": 9658, "▁przyjmuje": 9659, "▁właściciel": 9660, "▁przetar": 9661, "pas": 9662, "▁poprawił": 9663, "▁Dale": 9664, "▁postawy": 9665, "▁wstała": 9666, "▁sądy": 9667, "▁potwierdził": 9668, "▁dziewi": 9669, "▁Szy": 9670, "dym": 9671, "▁dotknęła": 9672, "słała": 9673, "▁najlepszym": 9674, "▁Teresa": 9675, "▁usiłował": 9676, "▁wyglądały": 9677, "▁grupy": 9678, "niętej": 9679, "dowała": 9680, "sper": 9681, "▁położenie": 9682, "słe": 9683, "▁uśmiechnęła": 9684, "▁ubrana": 9685, "▁nocnych": 9686, "nkami": 9687, "▁wiej": 9688, "▁kano": 9689, "siem": 9690, "▁Ojczy": 9691, "▁Ostatnie": 9692, "▁Niez": 9693, "▁Napoleona": 9694, "▁zwany": 9695, "▁miny": 9696, "▁ukoń": 9697, "▁kuli": 9698, "▁dzielni": 9699, "sin": 9700, "słuchaj": 9701, "▁wiosną": 9702, "łąb": 9703, "IN": 9704, "▁znaczny": 9705, "skro": 9706, "▁śmiesz": 9707, "▁Zwie": 9708, "▁nale": 9709, "▁odróżnić": 9710, "▁biega": 9711, "źń": 9712, "▁słuch": 9713, "▁burz": 9714, "▁mog": 9715, "▁wyłu": 9716, "▁czarodziej": 9717, "▁wspiera": 9718, "ian": 9719, "▁utru": 9720, "CA": 9721, "gat": 9722, "mas": 9723, "▁miłe": 9724, "▁wysoką": 9725, "rzonej": 9726, "usta": 9727, "▁rezultacie": 9728, "▁upar": 9729, "Ś": 9730, "RA": 9731, "▁roman": 9732, "▁Zak": 9733, "wani": 9734, "▁arty": 9735, "▁popro": 9736, "cowych": 9737, "▁schodów": 9738, "▁zimny": 9739, "▁czysty": 9740, "▁krótką": 9741, "świet": 9742, "wart": 9743, "AM": 9744, "CH": 9745, "▁czerwona": 9746, "▁muru": 9747, "nień": 9748, "▁Ostatni": 9749, "▁rozwie": 9750, "▁dokład": 9751, "torem": 9752, "ladi": 9753, "▁zesz": 9754, "▁Króle": 9755, "▁zabierze": 9756, "▁polska": 9757, "czanie": 9758, "▁dochodziło": 9759, "▁Oficer": 9760, "▁lepszych": 9761, "▁skutku": 9762, "▁przyjęli": 9763, "▁luź": 9764, "▁Przyszło": 9765, "trafi": 9766, "▁toteż": 9767, "▁kompu": 9768, "▁Święty": 9769, "UL": 9770, "▁Wróci": 9771, "▁Kijowa": 9772, "▁czą": 9773, "Wie": 9774, "nak": 9775, "ed": 9776, "▁składać": 9777, "▁potrzebny": 9778, "▁gdybyśmy": 9779, "▁Mer": 9780, "▁prawy": 9781, "żen": 9782, "▁lubią": 9783, "▁formie": 9784, "▁Przypomniał": 9785, "▁własna": 9786, "▁kapita": 9787, "▁zysku": 9788, "▁pomógł": 9789, "▁popy": 9790, "▁złapać": 9791, "▁najwyższym": 9792, "▁zaciąg": 9793, "▁zdob": 9794, "▁plamy": 9795, "▁zasługa": 9796, "▁sprawą": 9797, "▁wizerun": 9798, "▁teat": 9799, "ziono": 9800, "▁złożony": 9801, "żam": 9802, "▁Spraw": 9803, "▁Ang": 9804, "▁lewym": 9805, "jscy": 9806, "▁handel": 9807, "fera": 9808, "▁radca": 9809, "▁Księżyc": 9810, "ps": 9811, "lian": 9812, "wką": 9813, "▁porozumie": 9814, "▁Chrystu": 9815, "kłego": 9816, "▁bud": 9817, "▁długości": 9818, "giel": 9819, "▁Wszyst": 9820, "▁nadzie": 9821, "▁przyczy": 9822, "nowe": 9823, "▁uprzejmie": 9824, "▁nieroz": 9825, "▁tryb": 9826, "kowała": 9827, "▁Fran": 9828, "▁wyja": 9829, "ckimi": 9830, "▁podtrzymy": 9831, "▁narzeka": 9832, "▁księżni": 9833, "▁dało": 9834, "▁pracowi": 9835, "▁zrówna": 9836, "rztu": 9837, "▁chrzą": 9838, "▁kąpie": 9839, "▁trzymała": 9840, "śnicy": 9841, "▁fałszy": 9842, "▁Zdu": 9843, "bow": 9844, "anów": 9845, "▁Com": 9846, "▁powszech": 9847, "cinie": 9848, "▁zrze": 9849, "▁echem": 9850, "▁Moc": 9851, "gował": 9852, "▁przebu": 9853, "▁zę": 9854, "▁myli": 9855, "▁wrócą": 9856, "▁prąd": 9857, "▁Chwy": 9858, "▁Skoń": 9859, "▁błąd": 9860, "▁pamiętać": 9861, "▁pojąć": 9862, "▁wyma": 9863, "tnością": 9864, "▁przek": 9865, "▁pióro": 9866, "▁strój": 9867, "▁pól": 9868, "onie": 9869, "▁trudna": 9870, "▁sprowadza": 9871, "▁zapew": 9872, "▁sieci": 9873, "roczy": 9874, "▁okaza": 9875, "▁bre": 9876, "mentem": 9877, "sel": 9878, "▁nabo": 9879, "▁lamp": 9880, "▁sob": 9881, "mierza": 9882, "▁przyjęcie": 9883, "▁sztukę": 9884, "▁sztuce": 9885, "wamy": 9886, "▁krawędzi": 9887, "▁miałam": 9888, "działam": 9889, "▁niskim": 9890, "▁podło": 9891, "rzymy": 9892, "▁podróżnych": 9893, "▁oderwać": 9894, "żący": 9895, "▁chor": 9896, "▁dzieciństwa": 9897, "▁powiedzieli": 9898, "działo": 9899, "▁szybkie": 9900, "are": 9901, "cali": 9902, "▁najwyżej": 9903, "szania": 9904, "▁lekarz": 9905, "▁przeło": 9906, "9": 9907, "▁Mieli": 9908, "▁prowin": 9909, "▁duchow": 9910, "▁wymiar": 9911, "groma": 9912, "▁niemieckie": 9913, "▁Set": 9914, "czuk": 9915, "▁Zgi": 9916, "▁Kazi": 9917, "▁wściekły": 9918, "▁większego": 9919, "pet": 9920, "▁niepewność": 9921, "▁ober": 9922, "▁Oczywiście": 9923, "▁Ciężko": 9924, "▁upu": 9925, "▁mieszkać": 9926, "▁zadowoleniem": 9927, "▁zyska": 9928, "godzi": 9929, "▁donosi": 9930, "pon": 9931, "▁nieuf": 9932, "▁zetk": 9933, "▁zadać": 9934, "mus": 9935, "▁nadzwyczajnego": 9936, "▁założył": 9937, "▁odpar": 9938, "▁Wzią": 9939, "▁następnego": 9940, "łd": 9941, "▁polską": 9942, "▁trybu": 9943, "▁szaleństwa": 9944, "▁tygry": 9945, "▁dowody": 9946, "▁uznał": 9947, "▁spokojem": 9948, "▁inżynie": 9949, "▁Mikołaja": 9950, "▁niezwykły": 9951, "▁biegiem": 9952, "▁odebrać": 9953, "▁towary": 9954, "▁Dobro": 9955, "▁brzuchu": 9956, "wałe": 9957, "▁fio": 9958, "▁rzeczywistości": 9959, "spi": 9960, "▁szpie": 9961, "▁rodziciel": 9962, "▁końcem": 9963, "▁Dziewczyna": 9964, "▁wyjazdem": 9965, "▁korzystając": 9966, "▁dziewiętna": 9967, "led": 9968, "▁Sen": 9969, "kowskiego": 9970, "▁kanapie": 9971, "▁przeszkód": 9972, "▁celi": 9973, "▁następnych": 9974, "tre": 9975, "▁Wiedziałem": 9976, "▁spoty": 9977, "▁znajdowała": 9978, "wiu": 9979, "rzonym": 9980, "▁uchro": 9981, "▁wyższych": 9982, "▁Nieba": 9983, "▁dziesię": 9984, "cus": 9985, "▁przyjemność": 9986, "▁Orze": 9987, "▁przyjem": 9988, "bru": 9989, "▁kapi": 9990, "▁stopami": 9991, "▁kibi": 9992, "▁rozpoznać": 9993, "▁bor": 9994, "ownym": 9995, "cowa": 9996, "bior": 9997, "▁kościoły": 9998, "▁wioski": 9999, "▁Oficerowie": 10000, "▁sztyw": 10001, "▁grał": 10002, "▁skrzyw": 10003, "mak": 10004, "▁skie": 10005, "▁sty": 10006, "▁di": 10007, "▁rozbił": 10008, "▁hura": 10009, "▁swobodnie": 10010, "jnej": 10011, "▁wolne": 10012, "▁Zwy": 10013, "▁puchar": 10014, "▁sądzę": 10015, "▁Małgorzata": 10016, "▁przedmioty": 10017, "▁Stało": 10018, "▁odm": 10019, "Ko": 10020, "▁poważ": 10021, "tką": 10022, "▁kancle": 10023, "obra": 10024, "▁powodzi": 10025, "▁kieł": 10026, "▁Och": 10027, "▁smak": 10028, "▁zabezpie": 10029, "drze": 10030, "▁dług": 10031, "▁prostym": 10032, "▁dumny": 10033, "▁jezioro": 10034, "▁Dzia": 10035, "jąco": 10036, "▁posiadać": 10037, "▁chór": 10038, "▁księgi": 10039, "głęb": 10040, "▁wypro": 10041, "▁CZ": 10042, "▁małymi": 10043, "▁zacz": 10044, "▁imiona": 10045, "▁wyczy": 10046, "▁Niemcom": 10047, "▁wartość": 10048, "▁zapewnia": 10049, "▁uczuciem": 10050, "wiska": 10051, "Cz": 10052, "▁koszu": 10053, "▁czwo": 10054, "▁zatrza": 10055, "▁stop": 10056, "▁mieliśmy": 10057, "▁koszuli": 10058, "▁wpra": 10059, "▁trawie": 10060, "▁trzecią": 10061, "▁minęło": 10062, "▁przypomnieć": 10063, "▁włożyć": 10064, "▁łóżko": 10065, "▁Dr": 10066, "▁córce": 10067, "▁robili": 10068, "▁niemieckich": 10069, "▁partii": 10070, "▁bada": 10071, "▁zdawać": 10072, "▁uroczystości": 10073, "▁ścię": 10074, "atego": 10075, "pow": 10076, "▁przesz": 10077, "▁osobno": 10078, "▁uśmiechu": 10079, "▁lekarza": 10080, "mentarze": 10081, "lery": 10082, "arium": 10083, "▁osady": 10084, "▁skór": 10085, "▁car": 10086, "▁dwunastu": 10087, "▁pozostanie": 10088, "▁poczet": 10089, "▁tri": 10090, "▁przesy": 10091, "▁lista": 10092, "tników": 10093, "▁kwar": 10094, "▁niesłu": 10095, "▁prakty": 10096, "▁mistrzem": 10097, "stor": 10098, "▁rozpocząć": 10099, "▁Ziemia": 10100, "▁Opowie": 10101, "▁prawdziwą": 10102, "gdyś": 10103, "▁miesiącu": 10104, "▁zdarzało": 10105, "▁wpatrywał": 10106, "▁Trzyma": 10107, "▁wystąpiły": 10108, "▁uchronić": 10109, "▁Niemcami": 10110, "▁najlepszego": 10111, "▁prawym": 10112, "▁wolnym": 10113, "▁dłuższy": 10114, "▁wprowadził": 10115, "walić": 10116, "▁bat": 10117, "▁Będziesz": 10118, "▁niespodzie": 10119, "log": 10120, "▁bezpieczeństwo": 10121, "▁odczy": 10122, "▁przeciwko": 10123, "▁Kraj": 10124, "żają": 10125, "▁pojedynku": 10126, "▁gotowych": 10127, "▁winni": 10128, "▁zawiadomi": 10129, "▁jaz": 10130, "▁ważną": 10131, "fun": 10132, "▁jezior": 10133, "bom": 10134, "▁panowała": 10135, "▁światu": 10136, "głej": 10137, "▁kal": 10138, "lało": 10139, "rzyk": 10140, "▁zwykłym": 10141, "▁wyłącznie": 10142, "▁niechęć": 10143, "▁sumę": 10144, "▁wyłą": 10145, "▁ironi": 10146, "▁położeniu": 10147, "▁uniósł": 10148, "▁Zmie": 10149, "padła": 10150, "▁punkt": 10151, "▁wybuchem": 10152, "▁kilkuset": 10153, "▁zwię": 10154, "▁wrażenia": 10155, "▁kosztowne": 10156, "▁niski": 10157, "szta": 10158, "▁zajmować": 10159, "▁ławce": 10160, "▁zwra": 10161, "▁przyjechać": 10162, "▁Zaczę": 10163, "▁głupie": 10164, "▁zacząć": 10165, "kowali": 10166, "▁przybywa": 10167, "ben": 10168, "łkę": 10169, "▁Dem": 10170, "głów": 10171, "▁ak": 10172, "▁Świę": 10173, "▁słysz": 10174, "stii": 10175, "▁odmówić": 10176, "▁smutne": 10177, "twor": 10178, "▁dzien": 10179, "▁pożegnanie": 10180, "▁skarbu": 10181, "▁bezwła": 10182, "ałuję": 10183, "▁przedmiot": 10184, "▁wczes": 10185, "▁godzinach": 10186, "tani": 10187, "▁zdobę": 10188, "▁wiekiem": 10189, "▁losem": 10190, "czekaj": 10191, "zuje": 10192, "▁znaku": 10193, "▁Musisz": 10194, "▁Nau": 10195, "▁stroju": 10196, "▁sufi": 10197, "▁piekło": 10198, "▁ludności": 10199, "▁sala": 10200, "▁odpły": 10201, "▁pracuje": 10202, "▁iro": 10203, "▁hej": 10204, "pel": 10205, "▁kręci": 10206, "▁tance": 10207, "torze": 10208, "▁ulic": 10209, "oka": 10210, "lanki": 10211, "▁zbytnio": 10212, "▁Zbyt": 10213, "▁równy": 10214, "grani": 10215, "▁Staro": 10216, "▁Przyja": 10217, "▁najwyższe": 10218, "▁zadowolony": 10219, "szep": 10220, "▁przemy": 10221, "▁charakter": 10222, "▁zruj": 10223, "▁dziesiątki": 10224, "▁zielonych": 10225, "▁ogromnych": 10226, "szuka": 10227, "bl": 10228, "▁papiery": 10229, "▁kłopot": 10230, "▁Oboje": 10231, "▁drewnia": 10232, "dniem": 10233, "▁ukryty": 10234, "▁pociąga": 10235, "▁Mieszka": 10236, "▁kapli": 10237, "▁drewniane": 10238, "▁praktyki": 10239, "▁niemiecki": 10240, "▁szkole": 10241, "▁całkowicie": 10242, "▁Ich": 10243, "▁Lind": 10244, "syl": 10245, "▁odnaleźć": 10246, "▁polscy": 10247, "▁okup": 10248, "arek": 10249, "▁napotka": 10250, "▁ubezpie": 10251, "▁doniesie": 10252, "▁wypowiedzieć": 10253, "▁prywat": 10254, "lnicy": 10255, "▁Ukrainę": 10256, "▁Poja": 10257, "▁przednie": 10258, "dzin": 10259, "▁posłowie": 10260, "▁przestro": 10261, "▁wysłany": 10262, "▁wspaniałe": 10263, "uszem": 10264, "▁jaskini": 10265, "▁Psy": 10266, "sławem": 10267, "▁zależało": 10268, "▁polecił": 10269, "▁stracili": 10270, "▁najwyższych": 10271, "▁wspaniałą": 10272, "fia": 10273, "ke": 10274, "nictwo": 10275, "▁prezen": 10276, "▁lepszym": 10277, "▁Powiedziałem": 10278, "▁wrogiem": 10279, "wień": 10280, "▁Zw": 10281, "tak": 10282, "lt": 10283, "karz": 10284, "▁Musimy": 10285, "tw": 10286, "<0xBB>": 10287, "▁głęb": 10288, "▁wpływ": 10289, "▁ukaza": 10290, "▁rozporzą": 10291, "▁rodzinę": 10292, "▁podsu": 10293, "▁liczbę": 10294, "wnego": 10295, "▁dyscypli": 10296, "cla": 10297, "▁piąty": 10298, "▁środ": 10299, "▁sztab": 10300, "▁szyby": 10301, "pieni": 10302, "▁szkoły": 10303, "▁Pły": 10304, "▁przegląd": 10305, "▁podobało": 10306, "▁powierzchni": 10307, "uch": 10308, "▁Inne": 10309, "▁podejrz": 10310, "▁adwokata": 10311, "▁szczyty": 10312, "▁Każda": 10313, "rag": 10314, "▁spółkę": 10315, "czącej": 10316, "▁ujął": 10317, "liwego": 10318, "▁paro": 10319, "▁unika": 10320, "▁unik": 10321, "▁przyczyn": 10322, "▁sypialni": 10323, "▁Domi": 10324, "*,": 10325, "▁niemniej": 10326, "▁powietrzem": 10327, "▁fotel": 10328, "▁ulgi": 10329, "▁dokonać": 10330, "▁tłumaczył": 10331, "chody": 10332, "▁ruiny": 10333, "▁udawać": 10334, "▁przestała": 10335, "▁wciąg": 10336, "dość": 10337, "mion": 10338, "▁ściana": 10339, "▁szta": 10340, "pina": 10341, "jek": 10342, "▁Maciej": 10343, "cają": 10344, "▁Wasze": 10345, "▁zgodzi": 10346, "▁parze": 10347, "▁akt": 10348, "▁osą": 10349, "▁zwyczajnie": 10350, "▁zdradza": 10351, "▁przeko": 10352, "▁godne": 10353, "▁Grze": 10354, "dłu": 10355, "▁obecności": 10356, "▁doszło": 10357, "ślą": 10358, "▁płci": 10359, "▁marzy": 10360, "▁jaski": 10361, "dową": 10362, "▁Przyzna": 10363, "ora": 10364, "▁kiep": 10365, "▁Zamiast": 10366, "niam": 10367, "▁niechętnie": 10368, "▁uprzej": 10369, "▁zastąpić": 10370, "▁owoc": 10371, "▁cierpliwość": 10372, "▁zamknąć": 10373, "▁dziewczynie": 10374, "▁obawie": 10375, "nęliśmy": 10376, "▁pokona": 10377, "mencie": 10378, "▁wierzą": 10379, "gne": 10380, "chodnie": 10381, "▁tworzą": 10382, "święt": 10383, "▁Kę": 10384, "▁kształty": 10385, "▁świer": 10386, "ZE": 10387, "lancho": 10388, "▁trwały": 10389, "▁rzemi": 10390, "inie": 10391, "▁stopniu": 10392, "woje": 10393, "tkami": 10394, "▁pośpiechu": 10395, "▁pusta": 10396, "▁mieszkań": 10397, "▁rozumieć": 10398, "▁zębów": 10399, "▁Brze": 10400, "▁Wyj": 10401, "▁położyła": 10402, "legła": 10403, "▁prawdopodob": 10404, "▁ogłu": 10405, "▁zaspoko": 10406, "▁bezpieczeństwa": 10407, "▁żywych": 10408, "▁mokre": 10409, "▁udaje": 10410, "▁szó": 10411, "▁szóstej": 10412, "▁dziewcząt": 10413, "▁Nazy": 10414, "kłady": 10415, "▁byliśmy": 10416, "▁Ph": 10417, "▁pisarze": 10418, "mka": 10419, "▁Królestwa": 10420, "▁pisarza": 10421, "▁azjaty": 10422, "▁posiłku": 10423, "▁królestwa": 10424, "mentarz": 10425, "▁elektora": 10426, "ślij": 10427, "▁Obec": 10428, "żkę": 10429, "▁podejm": 10430, "▁walczyli": 10431, "▁najlepszą": 10432, "▁tarczy": 10433, "jeni": 10434, "▁wszczę": 10435, "▁największa": 10436, "▁winę": 10437, "godni": 10438, "UN": 10439, "▁zimy": 10440, "lonu": 10441, "czają": 10442, "▁obawia": 10443, "▁lep": 10444, "Wy": 10445, "▁odbył": 10446, "▁przyniosła": 10447, "▁wschodni": 10448, "▁publiczne": 10449, "▁tele": 10450, "▁przeprowa": 10451, "▁Ska": 10452, "całem": 10453, "czymy": 10454, "▁sądzie": 10455, "▁osobiście": 10456, "Wo": 10457, "▁moimi": 10458, "▁zysk": 10459, "brak": 10460, "▁spodziewa": 10461, "▁List": 10462, "▁pochło": 10463, "kłej": 10464, "kas": 10465, "czyni": 10466, "▁dokona": 10467, "▁znalazło": 10468, "lio": 10469, "▁pokrzyw": 10470, "ose": 10471, "▁Spojrzał": 10472, "rzoną": 10473, "wań": 10474, "winy": 10475, "▁czerwonym": 10476, "▁zdołała": 10477, "▁zasie": 10478, "▁Opu": 10479, "▁silnych": 10480, "▁młodszych": 10481, "▁zasięg": 10482, "ione": 10483, "dność": 10484, "▁poniósł": 10485, "▁gabinecie": 10486, "▁wartości": 10487, "▁podłu": 10488, "▁niezadowo": 10489, "piły": 10490, "kłych": 10491, "uszki": 10492, "▁nerw": 10493, "▁silnym": 10494, "▁poradzić": 10495, "▁surowe": 10496, "jenie": 10497, "▁Tom": 10498, "▁moskie": 10499, "▁urząd": 10500, "▁zemsta": 10501, "▁Skrzy": 10502, "▁dre": 10503, "oważ": 10504, "ser": 10505, "▁środkiem": 10506, "▁zazdrości": 10507, "▁złej": 10508, "▁Cał": 10509, "▁trybuna": 10510, "▁okra": 10511, "mało": 10512, "▁uchodzi": 10513, "▁Otwo": 10514, "▁Tr": 10515, "piała": 10516, "▁zio": 10517, "▁wyna": 10518, "▁smaku": 10519, "▁królową": 10520, "▁słabe": 10521, "▁Paryż": 10522, "▁gwi": 10523, "▁krótka": 10524, "▁Świ": 10525, "▁straty": 10526, "▁poję": 10527, "▁zieleni": 10528, "▁przepraszam": 10529, "żera": 10530, "▁śmieje": 10531, "▁sny": 10532, "▁omal": 10533, "▁Zdrowie": 10534, "▁Spójrz": 10535, "cjo": 10536, "sen": 10537, "▁jasność": 10538, "dale": 10539, "▁gronie": 10540, "II": 10541, "▁melo": 10542, "▁Mia": 10543, "▁wybierze": 10544, "▁pokre": 10545, "▁nauczyć": 10546, "▁uzyskać": 10547, "▁ociera": 10548, "Ty": 10549, "▁spośród": 10550, "towali": 10551, "▁komory": 10552, "▁odna": 10553, "▁upro": 10554, "▁siostrę": 10555, "robo": 10556, "▁wnętrze": 10557, "ległym": 10558, "▁Skar": 10559, "rka": 10560, "▁żyła": 10561, "czącą": 10562, "▁zgło": 10563, "▁przejm": 10564, "▁wąskie": 10565, "rucho": 10566, "▁zastrze": 10567, "▁ciekawe": 10568, "▁jedzenia": 10569, "▁straciła": 10570, "ale": 10571, "cyna": 10572, "▁Peł": 10573, "dusz": 10574, "bii": 10575, "san": 10576, "▁ranem": 10577, "▁Świętej": 10578, "▁komendanta": 10579, "▁cudzoziemców": 10580, "▁Lwowa": 10581, "▁przyspo": 10582, "▁Jacek": 10583, "▁odpowiedzią": 10584, "▁prywaty": 10585, "▁zrozu": 10586, "▁Woda": 10587, "▁zachęca": 10588, "end": 10589, "▁herbu": 10590, "▁Praw": 10591, "nni": 10592, "sti": 10593, "ati": 10594, "▁con": 10595, "▁zwiastu": 10596, "dwo": 10597, "tas": 10598, "▁państwem": 10599, "▁Zwycię": 10600, "nes": 10601, "▁przyszłe": 10602, "ższa": 10603, "▁karze": 10604, "▁wejdzie": 10605, "▁dur": 10606, "▁podawać": 10607, "▁komo": 10608, "lica": 10609, "▁Kom": 10610, "▁pojedynczych": 10611, "▁wezwanie": 10612, "▁grzechu": 10613, "▁słabo": 10614, "<0xAB>": 10615, "▁spotkania": 10616, "▁Gar": 10617, "▁odniósł": 10618, "▁sumy": 10619, "nier": 10620, "▁wyspie": 10621, "▁bezpieczny": 10622, "karze": 10623, "▁pobytu": 10624, "▁sprzedać": 10625, "▁prawdziwym": 10626, "▁Francji": 10627, "▁Hugo": 10628, "▁naciskiem": 10629, "▁Bis": 10630, "▁bankru": 10631, "liłem": 10632, "kowego": 10633, "ktu": 10634, "▁Niepo": 10635, "▁korytarza": 10636, "▁wyruszył": 10637, "▁wydobyw": 10638, "mija": 10639, "▁Koń": 10640, "▁budowa": 10641, "ńsku": 10642, "▁nieznanych": 10643, "myk": 10644, "▁Władysław": 10645, "▁niezli": 10646, "▁największych": 10647, "▁państwu": 10648, "▁chorobie": 10649, "▁piast": 10650, "▁Podczas": 10651, "▁sięgnąć": 10652, "▁Przypom": 10653, "▁drogo": 10654, "▁obecny": 10655, "porów": 10656, "▁Obu": 10657, "▁zarys": 10658, "▁wygła": 10659, "▁mające": 10660, "▁energię": 10661, "▁prawdą": 10662, "▁Kiedyś": 10663, "▁odpocząć": 10664, "▁czerwo": 10665, "mania": 10666, "▁środków": 10667, "▁Zygmunt": 10668, "▁najmłod": 10669, "▁rachu": 10670, "▁odby": 10671, "▁Dziewczy": 10672, "▁Zygmunta": 10673, "▁salon": 10674, "▁przewidzieć": 10675, "▁mówie": 10676, "▁ceny": 10677, "ceniem": 10678, "▁Przer": 10679, "▁gatunku": 10680, "chując": 10681, "▁postawę": 10682, "spad": 10683, "▁wu": 10684, "▁koszy": 10685, "alnym": 10686, "▁Podob": 10687, "▁hasło": 10688, "▁projekt": 10689, "anka": 10690, "▁Moskwy": 10691, "▁wzrostem": 10692, "▁strzelców": 10693, "▁apety": 10694, "▁główne": 10695, "polski": 10696, "V": 10697, "▁urzę": 10698, "▁Prowa": 10699, "▁przyku": 10700, "▁poni": 10701, "zur": 10702, "▁kochają": 10703, "▁wydostać": 10704, "▁pisk": 10705, "▁sum": 10706, "▁ad": 10707, "▁ostrzega": 10708, "▁drogie": 10709, "zdro": 10710, "▁space": 10711, "▁przeniósł": 10712, "▁pota": 10713, "▁Boskiej": 10714, "łaś": 10715, "pak": 10716, "▁Win": 10717, "▁kilkoma": 10718, "▁podobieństwo": 10719, "▁tonie": 10720, "▁Rada": 10721, "▁wyprze": 10722, "▁powiedzą": 10723, "▁doło": 10724, "▁zgodzie": 10725, "▁zapada": 10726, "▁taniec": 10727, "▁jesie": 10728, "▁Twoja": 10729, "▁źródła": 10730, "▁papieru": 10731, "gas": 10732, "▁byt": 10733, "▁przyg": 10734, "▁opor": 10735, "▁obowiązki": 10736, "▁warte": 10737, "▁zginęła": 10738, "NA": 10739, "▁przeszłość": 10740, "▁podejrzenia": 10741, "▁zakoń": 10742, "▁Inny": 10743, "▁wszelkiej": 10744, "▁zdrowe": 10745, "▁kale": 10746, "gij": 10747, "fle": 10748, "szce": 10749, "towe": 10750, "▁przybli": 10751, "▁wysp": 10752, "▁schody": 10753, "▁zajęcie": 10754, "▁strzelił": 10755, "▁mleka": 10756, "▁zobaczyła": 10757, "towych": 10758, "▁PO": 10759, "nans": 10760, "▁zbior": 10761, "▁Czasami": 10762, "jają": 10763, "▁opowiadanie": 10764, "▁twar": 10765, "▁Znów": 10766, "▁przeży": 10767, "▁przestęp": 10768, "ceniu": 10769, "ld": 10770, "▁dawnym": 10771, "▁cywi": 10772, "▁niedu": 10773, "ua": 10774, "▁Male": 10775, "▁Afryce": 10776, "▁Ata": 10777, "rody": 10778, "stora": 10779, "Go": 10780, "▁Bał": 10781, "▁Owo": 10782, "▁zgromadzenie": 10783, "▁piśmie": 10784, "sak": 10785, "▁Jęd": 10786, "▁stawiać": 10787, "fem": 10788, "sis": 10789, "▁Biał": 10790, "▁natk": 10791, "▁wypar": 10792, "▁postanowili": 10793, "ktach": 10794, "▁Wer": 10795, "▁Zamek": 10796, "▁walk": 10797, "▁zwia": 10798, "▁skłon": 10799, "▁ofiarą": 10800, "▁Królowa": 10801, "▁zwoła": 10802, "▁Hel": 10803, "menty": 10804, "nięciem": 10805, "▁wyse": 10806, "▁posłem": 10807, "▁dany": 10808, "pano": 10809, "▁zabieg": 10810, "fów": 10811, "▁zgodnie": 10812, "▁Wła": 10813, "▁kapu": 10814, "▁różnica": 10815, "Ra": 10816, "▁zwykłych": 10817, "▁odwiedził": 10818, "▁postanowiła": 10819, "szewicz": 10820, "Dob": 10821, "▁publicznych": 10822, "▁uniknąć": 10823, "▁klasy": 10824, "▁wypadkach": 10825, "▁uch": 10826, "▁główną": 10827, "komu": 10828, "▁zwrócili": 10829, "▁Podróż": 10830, "niowej": 10831, "▁Koło": 10832, "▁dzielić": 10833, "▁wagi": 10834, "▁łączy": 10835, "▁Warszawa": 10836, "▁chorobę": 10837, "rot": 10838, "▁zaprasza": 10839, "▁spróbu": 10840, "▁wizyty": 10841, "▁Europie": 10842, "▁wyniósł": 10843, "▁oparty": 10844, "lików": 10845, "▁wdra": 10846, "▁powinieneś": 10847, "7": 10848, "▁dzielą": 10849, "▁rap": 10850, "▁mocne": 10851, "▁jezio": 10852, "jka": 10853, "▁czerwonej": 10854, "▁przeję": 10855, "▁czterema": 10856, "dnymi": 10857, "szonego": 10858, "▁szerzej": 10859, "▁troje": 10860, "obami": 10861, "▁związ": 10862, "▁genia": 10863, "▁odstęp": 10864, "róciła": 10865, "kazu": 10866, "łowej": 10867, "owna": 10868, "▁wprowadzić": 10869, "▁wzrost": 10870, "▁czuli": 10871, "▁słabości": 10872, "▁zakocha": 10873, "mor": 10874, "▁zakochany": 10875, "cowe": 10876, "▁ktokolwiek": 10877, "atym": 10878, "▁Pięć": 10879, "▁złożyła": 10880, "fro": 10881, "sję": 10882, "▁kopii": 10883, "▁uz": 10884, "▁szyb": 10885, "▁usłyszeli": 10886, "▁y": 10887, "▁publi": 10888, "...\"": 10889, "dawały": 10890, "▁Pę": 10891, "▁Drze": 10892, "▁płyt": 10893, "▁qu": 10894, "▁ochro": 10895, "warze": 10896, "▁bezcze": 10897, "▁Nea": 10898, "▁manew": 10899, "▁odro": 10900, "▁zadość": 10901, "▁myślach": 10902, "▁Mówiąc": 10903, "▁Śle": 10904, "stre": 10905, "▁upra": 10906, "▁sięgnął": 10907, "▁korzyści": 10908, "▁samotności": 10909, "▁truci": 10910, "▁wyciągnąć": 10911, "darz": 10912, "▁tre": 10913, "del": 10914, "▁karta": 10915, "▁marzenia": 10916, "TY": 10917, "▁muzyką": 10918, "▁nieustan": 10919, "▁korzystać": 10920, "▁odwraca": 10921, "▁otwarty": 10922, "▁wzrasta": 10923, "ert": 10924, "piona": 10925, "▁wią": 10926, "▁podsy": 10927, "▁PR": 10928, "▁Wyobraź": 10929, "▁chłopców": 10930, "▁wielo": 10931, "tań": 10932, "▁spędził": 10933, "▁odwrót": 10934, "▁warunki": 10935, "▁areszt": 10936, "▁Dziesię": 10937, "▁weszło": 10938, "andar": 10939, "▁odbywał": 10940, "zki": 10941, "kazuje": 10942, "▁kupuje": 10943, "▁Zdzi": 10944, "▁mleko": 10945, "▁Stara": 10946, "▁odchodzi": 10947, "lie": 10948, "▁dana": 10949, "▁ciekawy": 10950, "woj": 10951, "▁pał": 10952, "▁Wspom": 10953, "▁wracają": 10954, "▁zabro": 10955, "▁złama": 10956, "▁wpu": 10957, "▁Królew": 10958, "▁oddzie": 10959, "▁czterna": 10960, "Ru": 10961, "▁Marian": 10962, "lonie": 10963, "ming": 10964, "▁Dio": 10965, "mówić": 10966, "▁przepi": 10967, "▁trak": 10968, "owal": 10969, "III": 10970, "▁oczekiwania": 10971, "▁pograni": 10972, "▁poddać": 10973, "▁funkcję": 10974, "▁spodziewali": 10975, "syj": 10976, "▁Ponie": 10977, "▁Sycy": 10978, "▁zbrojne": 10979, "▁kapitu": 10980, "▁zapar": 10981, "nawi": 10982, "▁Gal": 10983, "ciany": 10984, "glę": 10985, "▁Wierzę": 10986, "▁bezkar": 10987, "▁aposto": 10988, "▁Kaza": 10989, "mili": 10990, "tarzem": 10991, "błę": 10992, "▁przystęp": 10993, "▁Chłopiec": 10994, "leria": 10995, "szczona": 10996, "▁Dru": 10997, "▁utrzyma": 10998, "▁intry": 10999, "cyny": 11000, "▁moglibyśmy": 11001, "▁pięćdziesięciu": 11002, "▁dowodził": 11003, "▁lipca": 11004, "▁następne": 11005, "▁Podniósł": 11006, "zeł": 11007, "▁angielsku": 11008, "wice": 11009, "▁kory": 11010, "▁sięg": 11011, "▁odku": 11012, "▁niemieckiej": 11013, "▁znajdziemy": 11014, "▁Pozwo": 11015, "▁długów": 11016, "sur": 11017, "▁Augusta": 11018, "▁cesarza": 11019, "▁następny": 11020, "cyfi": 11021, "▁fawory": 11022, "▁przeciwnym": 11023, "con": 11024, "▁Bona": 11025, "▁postawić": 11026, "▁zmieniły": 11027, "▁Warszawę": 11028, "▁Anglii": 11029, "▁Olim": 11030, "▁odwro": 11031, "▁pozostaje": 11032, "▁budu": 11033, "▁ter": 11034, "▁bier": 11035, "▁statki": 11036, "▁przestanie": 11037, "lnością": 11038, "▁resztą": 11039, "żnymi": 11040, "▁wynaj": 11041, "▁bliski": 11042, "▁dłoniach": 11043, "▁zasiada": 11044, "▁uraz": 11045, "sują": 11046, "cjami": 11047, "lion": 11048, "szyłem": 11049, "▁Kobiety": 11050, "▁stosunków": 11051, "▁IV": 11052, "▁Chciała": 11053, "uro": 11054, "conego": 11055, "pionych": 11056, "▁równej": 11057, "niejszymi": 11058, "▁większość": 11059, "▁położenia": 11060, "▁gruncie": 11061, "▁korytarz": 11062, "▁of": 11063, "▁pracują": 11064, "▁chorym": 11065, "▁wstrząs": 11066, "kcję": 11067, "▁czynu": 11068, "▁Ca": 11069, "▁cierpią": 11070, "▁mających": 11071, "By": 11072, "▁gnia": 11073, "▁przestały": 11074, "▁zał": 11075, "▁zrobisz": 11076, "▁gromad": 11077, "▁zielonej": 11078, "órki": 11079, "▁czę": 11080, "wary": 11081, "▁pojedynek": 11082, "▁grona": 11083, "▁grono": 11084, "▁pogląda": 11085, "▁powstać": 11086, "▁bą": 11087, "▁cięcia": 11088, "▁padło": 11089, "głos": 11090, "id": 11091, "▁Zaba": 11092, "▁odkąd": 11093, "▁niec": 11094, "▁Skarb": 11095, "▁wymo": 11096, "▁korony": 11097, "▁podaje": 11098, "▁tajemnica": 11099, "▁winna": 11100, "▁skom": 11101, "▁zai": 11102, "niosłem": 11103, "▁sumie": 11104, "▁twojego": 11105, "▁przemawia": 11106, "▁Ład": 11107, "▁sieć": 11108, "▁gwia": 11109, "▁doskona": 11110, "▁rej": 11111, "▁TR": 11112, "▁DR": 11113, "▁porównać": 11114, "▁wielkość": 11115, "▁wyk": 11116, "tycz": 11117, "▁doga": 11118, "▁pełnej": 11119, "▁pokoi": 11120, "▁środki": 11121, "▁nieob": 11122, "▁zaleca": 11123, "▁wyższy": 11124, "▁złotego": 11125, "▁pięcio": 11126, "nięci": 11127, "▁wchodzą": 11128, "▁województwa": 11129, "▁widziałam": 11130, "nuję": 11131, "▁zaczynają": 11132, "▁zami": 11133, "▁osi": 11134, "▁udała": 11135, "▁pęk": 11136, "▁wspina": 11137, "ST": 11138, "Ą": 11139, "▁szeptem": 11140, "▁przejściu": 11141, "cześnie": 11142, "▁nadchodzą": 11143, "▁cmenta": 11144, "▁naszy": 11145, "▁bol": 11146, "▁Razem": 11147, "▁dok": 11148, "▁czarnego": 11149, "bieniem": 11150, "▁Uro": 11151, "▁odbyw": 11152, "▁ludz": 11153, "gen": 11154, "▁zapas": 11155, "▁afryka": 11156, "▁Czerwo": 11157, "▁czerwono": 11158, "▁ołta": 11159, "▁uwierzyć": 11160, "▁zamiaru": 11161, "▁pisma": 11162, "▁Krótko": 11163, "▁Pawła": 11164, "▁Karo": 11165, "▁Af": 11166, "▁ostrożność": 11167, "op": 11168, "wiński": 11169, "atorów": 11170, "▁pobyt": 11171, "łkow": 11172, "▁narzekać": 11173, "▁partie": 11174, "wers": 11175, "▁słynny": 11176, "▁przywykli": 11177, "▁odwrócić": 11178, "rzego": 11179, "▁kanału": 11180, "▁posiłek": 11181, "▁zwycięstw": 11182, "▁zwycięzca": 11183, "▁podziem": 11184, "rum": 11185, "prasza": 11186, "▁zbadać": 11187, "▁Wen": 11188, "▁zapi": 11189, "Pan": 11190, "▁dopuścić": 11191, "chodź": 11192, "▁Anglicy": 11193, "▁zwycięzcy": 11194, "▁niespodzian": 11195, "szam": 11196, "▁następujące": 11197, "▁Zobaczymy": 11198, "▁pyłu": 11199, "▁Pis": 11200, "▁zjawisko": 11201, "▁musiałby": 11202, "▁okazały": 11203, "▁herbatę": 11204, ".)": 11205, "bal": 11206, "▁staroży": 11207, "owców": 11208, "▁nastąpił": 11209, "▁podszedł": 11210, "stką": 11211, "▁dziesięcio": 11212, "dowano": 11213, "▁umoc": 11214, "nen": 11215, "▁Ści": 11216, "iego": 11217, "▁przemysł": 11218, "▁zapobiec": 11219, "miarów": 11220, "klo": 11221, "▁zawdzięcza": 11222, "▁kapitał": 11223, "▁obcego": 11224, "▁politykę": 11225, "▁ślubie": 11226, "▁doczeka": 11227, "ant": 11228, "jnego": 11229, "▁spię": 11230, "▁pełnych": 11231, "▁ryczał": 11232, "▁teatru": 11233, "▁zimną": 11234, "▁mem": 11235, "▁Takich": 11236, "▁wnętrzu": 11237, "▁przekle": 11238, "larze": 11239, "▁słaby": 11240, "▁nieustannie": 11241, "▁choro": 11242, "▁V": 11243, "▁ukazuje": 11244, "▁zwykła": 11245, "▁Prawdzi": 11246, "▁długość": 11247, "▁uprzy": 11248, "▁poprzednich": 11249, "łyby": 11250, "▁znajdowały": 11251, "▁odległych": 11252, "▁obna": 11253, "▁używał": 11254, "wanego": 11255, "▁wyciągnęła": 11256, "▁zadowolenia": 11257, "▁płacą": 11258, "pisał": 11259, "▁powstrzyma": 11260, "▁uczciw": 11261, "cisnęła": 11262, "▁rozporządzenia": 11263, "▁sympat": 11264, "▁ton": 11265, "▁pokrzy": 11266, "▁rokiem": 11267, "▁Dzię": 11268, "▁dostrzec": 11269, "▁eko": 11270, "▁półtora": 11271, "▁zwięk": 11272, "▁głosi": 11273, "▁skon": 11274, "czyny": 11275, "▁obrócił": 11276, "urą": 11277, "zury": 11278, "▁zieloną": 11279, "▁Szczu": 11280, "▁swo": 11281, "▁otwartych": 11282, "▁serwis": 11283, "fo": 11284, "▁staw": 11285, "ssi": 11286, "pisy": 11287, "AP": 11288, "▁waży": 11289, "dzących": 11290, "▁książek": 11291, "▁dotrzeć": 11292, "▁gniazda": 11293, "▁krót": 11294, "▁lęk": 11295, "▁kłamstwo": 11296, "▁nazwę": 11297, "▁nała": 11298, "▁zastaw": 11299, "▁persona": 11300, "▁uczą": 11301, "▁ó": 11302, "▁podtrzy": 11303, "kość": 11304, "▁Zu": 11305, "powi": 11306, "▁warzy": 11307, "▁kad": 11308, "słowie": 11309, "▁rozwa": 11310, "▁przerwy": 11311, "▁piszę": 11312, "krotnie": 11313, "▁Og": 11314, "odły": 11315, "stali": 11316, "mowa": 11317, "▁wspomnień": 11318, "▁nar": 11319, "▁posłuchać": 11320, "▁prawdziwego": 11321, "▁zarob": 11322, "▁wir": 11323, "▁znaków": 11324, "▁znajo": 11325, "ięki": 11326, "▁młodzieży": 11327, "wórz": 11328, "▁nadmiar": 11329, "▁as": 11330, "▁Bły": 11331, "▁zabawę": 11332, "▁opraw": 11333, "towania": 11334, "▁zachował": 11335, "▁więźniów": 11336, "▁stanowiska": 11337, "▁miliona": 11338, "▁znanych": 11339, "▁upodoba": 11340, "iach": 11341, "▁dziennie": 11342, "▁widzia": 11343, "ctwie": 11344, "▁westchnęła": 11345, "▁fabryka": 11346, "▁Trochę": 11347, "lałam": 11348, "▁man": 11349, "▁robiła": 11350, "▁kilometrów": 11351, "▁wiedzie": 11352, "▁Zauwa": 11353, "źdź": 11354, "▁Tutaj": 11355, "▁Natychmiast": 11356, "▁bandy": 11357, "▁zimne": 11358, "▁zdolny": 11359, "▁duża": 11360, "▁tłuszcz": 11361, "▁czaszki": 11362, "▁wyraźne": 11363, "▁żółta": 11364, "▁szerokiej": 11365, "▁sprzed": 11366, "▁urzędnik": 11367, "▁Swe": 11368, "▁miedzi": 11369, "bana": 11370, "dor": 11371, "▁Wad": 11372, "▁Wolf": 11373, "▁Jedy": 11374, "stoju": 11375, "▁mit": 11376, "▁niedziele": 11377, "▁Kot": 11378, "▁nastawi": 11379, "łowicz": 11380, "uk": 11381, "▁odległość": 11382, "▁Mich": 11383, "trzymał": 11384, "▁przebi": 11385, "▁Krzysztof": 11386, "▁staty": 11387, "▁latem": 11388, "▁najbliżej": 11389, "▁wspomaga": 11390, "ńskimi": 11391, "▁przekonaniu": 11392, "▁wojenny": 11393, "▁opi": 11394, "kół": 11395, "sar": 11396, "▁świate": 11397, "▁Grecji": 11398, "▁kąpieli": 11399, "lle": 11400, "mienne": 11401, "nop": 11402, "▁wspaniał": 11403, "gera": 11404, "▁złoży": 11405, "▁Kru": 11406, "▁dziwi": 11407, "▁prote": 11408, "atr": 11409, "▁zwykłe": 11410, "▁jeździć": 11411, "▁towarzyszył": 11412, "▁Ober": 11413, "▁porównaniu": 11414, "▁pojedy": 11415, "kończył": 11416, "▁mon": 11417, "▁umyśle": 11418, "▁miejscowych": 11419, "▁wymyślił": 11420, "owiadać": 11421, "▁best": 11422, "▁Major": 11423, "▁przygotowy": 11424, "▁prawdziwej": 11425, "▁znajomi": 11426, "misję": 11427, "▁rozwo": 11428, "▁ludzkości": 11429, "▁znaczą": 11430, "▁Wisły": 11431, "▁wyższą": 11432, "▁przyznał": 11433, "kazują": 11434, "▁asyst": 11435, "▁prezent": 11436, "manu": 11437, "▁obcią": 11438, "▁przypuszczać": 11439, "▁najgorsze": 11440, "▁wątp": 11441, "▁polega": 11442, "▁milionów": 11443, "▁prowadzili": 11444, "▁koper": 11445, "▁Napole": 11446, "▁wstać": 11447, "▁zdał": 11448, "Ma": 11449, "▁przedniej": 11450, "▁indy": 11451, "roku": 11452, "ptu": 11453, "▁domowe": 11454, "jone": 11455, "▁Tuż": 11456, "▁złożona": 11457, "wanej": 11458, "▁wyobrazić": 11459, "▁instynkt": 11460, "▁zażąda": 11461, "▁Pierwsze": 11462, "mej": 11463, "▁Wola": 11464, "▁bliskie": 11465, "▁gard": 11466, "▁barw": 11467, "▁Zaczyna": 11468, "▁zwanych": 11469, "▁śmiertelnie": 11470, "▁naturę": 11471, "▁oty": 11472, "▁piątej": 11473, "▁założyć": 11474, "▁spór": 11475, "▁brakuje": 11476, "▁zanied": 11477, "▁zawodu": 11478, "▁partię": 11479, "▁zeszło": 11480, "▁jesieni": 11481, "▁podatków": 11482, "stwach": 11483, "ówczas": 11484, "▁bliskiej": 11485, "▁powiecie": 11486, "▁rozkłada": 11487, "▁legi": 11488, "▁Zanie": 11489, "▁gospodarstwa": 11490, "▁fry": 11491, "▁obejrzeć": 11492, "▁podała": 11493, "▁uby": 11494, "▁skręca": 11495, "▁przyczynę": 11496, "owarzy": 11497, "▁romans": 11498, "alne": 11499, "▁głównym": 11500, "▁zaczną": 11501, "▁zwią": 11502, "▁bohatera": 11503, "▁znalazłem": 11504, "▁dowódca": 11505, "▁rodem": 11506, "▁szaf": 11507, "▁Państwo": 11508, "▁Usta": 11509, "▁Niewie": 11510, "▁Dąbr": 11511, "▁Zja": 11512, "▁potwo": 11513, "▁niezmie": 11514, "▁skierował": 11515, "▁wypuszcza": 11516, "▁zajęła": 11517, "▁wizy": 11518, "▁siar": 11519, "▁cało": 11520, "▁wynosi": 11521, "▁gorące": 11522, "▁przygotować": 11523, "▁rozryw": 11524, "▁nazwać": 11525, "▁podpisa": 11526, "▁trwać": 11527, "mocy": 11528, "▁źródło": 11529, "▁spry": 11530, "▁oznacza": 11531, "▁nieznany": 11532, "wiad": 11533, "niczych": 11534, "▁znana": 11535, "▁Dopóki": 11536, "▁wydłu": 11537, "▁przelo": 11538, "▁mody": 11539, "▁chociażby": 11540, "▁świetny": 11541, "▁przypadek": 11542, "▁Potę": 11543, "▁przyrody": 11544, "▁poezji": 11545, "▁niestety": 11546, "▁istnieje": 11547, "grom": 11548, "▁lato": 11549, "▁przeszłości": 11550, "▁śladów": 11551, "cal": 11552, "▁wykona": 11553, "▁pozwal": 11554, "▁Polski": 11555, "▁niskich": 11556, "chaliśmy": 11557, "▁pomogło": 11558, "▁chorych": 11559, "▁dostała": 11560, "▁następu": 11561, "szłam": 11562, "▁Oko": 11563, "Te": 11564, "▁wyjął": 11565, "▁okie": 11566, "▁łagodny": 11567, "Ń": 11568, "▁wyję": 11569, "mentar": 11570, "▁rodzina": 11571, "▁zachor": 11572, "▁ilości": 11573, "▁wynosić": 11574, "▁niejako": 11575, "leka": 11576, "▁Sch": 11577, "▁niechęci": 11578, "▁rozważa": 11579, "▁starszego": 11580, "▁podusz": 11581, "▁szczup": 11582, "▁Az": 11583, "▁śledztwo": 11584, "nikę": 11585, "▁Waty": 11586, "▁igrzysk": 11587, "▁Gor": 11588, "nona": 11589, "kowska": 11590, "▁wycieczkę": 11591, "▁eksper": 11592, "vi": 11593, "▁rządu": 11594, "▁dobrem": 11595, "▁propor": 11596, "▁Rozpoczę": 11597, "▁dzisiejszych": 11598, "▁mian": 11599, "▁połączeniu": 11600, "▁ab": 11601, "▁bit": 11602, "▁rzymskiego": 11603, "▁podla": 11604, "▁Szwecji": 11605, "▁usługę": 11606, "zdów": 11607, "▁przygoda": 11608, "▁Broni": 11609, "jskich": 11610, "▁greckich": 11611, "dona": 11612, "▁najwięk": 11613, "rodzi": 11614, "▁zabezpieczyć": 11615, "▁teor": 11616, "Ź": 11617, "▁pomysł": 11618, "▁instan": 11619, "▁tłumaczyć": 11620, "miec": 11621, "▁Rozmowa": 11622, "▁Kró": 11623, "▁zdążył": 11624, "▁zdobycia": 11625, "trów": 11626, "▁obroń": 11627, "▁sprawdzić": 11628, "tyz": 11629, "▁płaszczy": 11630, "▁szacunkiem": 11631, "▁nazwiskiem": 11632, "▁pistolet": 11633, "▁poci": 11634, "▁Polsce": 11635, "▁Y": 11636, "▁słuszne": 11637, "▁powinienem": 11638, "▁Zaczął": 11639, "▁pozbyć": 11640, "▁ważnych": 11641, "▁poprzedni": 11642, "▁twierdził": 11643, "orem": 11644, "▁wymyśli": 11645, "▁uderzenie": 11646, "óź": 11647, "▁południowej": 11648, "wodni": 11649, "▁chcia": 11650, "jącemu": 11651, "▁niepra": 11652, "▁kościołów": 11653, "▁lądu": 11654, "▁wyznał": 11655, "▁bilet": 11656, "▁Ad": 11657, "▁spadły": 11658, "▁ludzkość": 11659, "biorą": 11660, "Sz": 11661, "Dzi": 11662, "▁istnieć": 11663, "▁zapłacił": 11664, "▁wybierać": 11665, "▁trafia": 11666, "▁kapitana": 11667, "▁zesła": 11668, "▁Rok": 11669, "▁pokazywać": 11670, "▁polityki": 11671, "myślnie": 11672, "▁wyglądają": 11673, "▁zegarek": 11674, "▁stanowiły": 11675, "eks": 11676, "▁dzielnicy": 11677, "▁zagi": 11678, "▁Śnie": 11679, "tajem": 11680, "▁gwiazdami": 11681, "▁urzędni": 11682, "rozu": 11683, "▁Marii": 11684, "▁skali": 11685, "▁jamy": 11686, "ir": 11687, "▁pogody": 11688, "▁posługi": 11689, "owaliśmy": 11690, "tyny": 11691, "wina": 11692, "▁przywoła": 11693, "▁rozda": 11694, "▁amo": 11695, "▁dokonał": 11696, "▁zastąpił": 11697, "▁trium": 11698, "▁zostawiając": 11699, "▁podą": 11700, "▁hrabiego": 11701, "neta": 11702, "▁odwróciła": 11703, "▁gotowość": 11704, "sień": 11705, "▁skargę": 11706, "▁przejście": 11707, "▁różnymi": 11708, "tonem": 11709, "▁powstały": 11710, "▁Mor": 11711, "▁Chłopak": 11712, "▁budynki": 11713, "kacji": 11714, "▁patrio": 11715, "▁prostych": 11716, "▁kobietami": 11717, "▁historii": 11718, "▁opowiadała": 11719, "ższym": 11720, "niczy": 11721, "chodniego": 11722, "▁postępu": 11723, "▁natę": 11724, "▁Kła": 11725, "▁Tysią": 11726, "▁Hy": 11727, "lnika": 11728, "rucha": 11729, "▁Pia": 11730, "miernie": 11731, "▁Sędzi": 11732, "▁przedstawił": 11733, "nel": 11734, "▁Ogrom": 11735, "▁sprzęt": 11736, "▁częst": 11737, "zory": 11738, "▁szty": 11739, "▁odrzucił": 11740, "▁trudu": 11741, "▁rodzą": 11742, "▁igrzyska": 11743, "▁przewodnik": 11744, "▁Gi": 11745, "▁powinno": 11746, "▁twardo": 11747, "▁najwyższa": 11748, "▁myślałam": 11749, "▁zmiana": 11750, "Ó": 11751, "pełnie": 11752, "▁Marty": 11753, "▁domowych": 11754, "owość": 11755, "▁lice": 11756, "▁zaszko": 11757, "▁pełny": 11758, "▁Chę": 11759, "▁przyto": 11760, "▁przyciąg": 11761, "▁spe": 11762, "▁Krę": 11763, "MA": 11764, "▁AL": 11765, "▁Chci": 11766, "▁poświęcić": 11767, "▁Czuję": 11768, "▁zachowa": 11769, "▁srebro": 11770, "zwy": 11771, "▁napę": 11772, "▁złem": 11773, "lor": 11774, "▁Nowego": 11775, "▁tęskni": 11776, "▁okrętu": 11777, "GA": 11778, "▁mózg": 11779, "eru": 11780, "▁Niestety": 11781, "łóż": 11782, "fię": 11783, "▁Ża": 11784, "▁pochwali": 11785, "▁całość": 11786, "▁oczywi": 11787, "▁mogłyby": 11788, "lko": 11789, "▁rodziców": 11790, "▁zyski": 11791, "bku": 11792, "▁przynoszą": 11793, "szonej": 11794, "▁spotkałem": 11795, "▁wkłada": 11796, "pisu": 11797, "▁oglądając": 11798, "▁przech": 11799, "▁przypomniała": 11800, "▁prac": 11801, "ft": 11802, "▁wol": 11803, "Da": 11804, "▁ubrania": 11805, "▁obwie": 11806, "▁zrobią": 11807, "trzymy": 11808, "▁usiadła": 11809, "▁zabitych": 11810, "▁adres": 11811, "pew": 11812, "▁bliskim": 11813, "▁pielę": 11814, "▁mówiło": 11815, "▁ubranie": 11816, "▁gum": 11817, "waliśmy": 11818, "ff": 11819, "eme": 11820, "▁Starszy": 11821, "▁pojęcie": 11822, "polis": 11823, "jskim": 11824, "▁Fry": 11825, "▁Bos": 11826, "▁uporczy": 11827, "▁nisz": 11828, "▁krakowskiego": 11829, "▁dywi": 11830, "▁fli": 11831, "▁Spa": 11832, "▁Ole": 11833, "▁przekonanie": 11834, "▁pozwolenia": 11835, "prawę": 11836, "▁pieszych": 11837, "▁przyszłych": 11838, "▁Warszawą": 11839, "▁mieszkała": 11840, "▁odzyskać": 11841, "▁bata": 11842, "gin": 11843, "▁zamknęła": 11844, "▁okolicznych": 11845, "czan": 11846, "▁uwaga": 11847, "▁pielgrzy": 11848, "stom": 11849, "tacie": 11850, "leś": 11851, "▁Zachód": 11852, "▁dochodzić": 11853, "▁Leon": 11854, "▁obiecuje": 11855, "▁główna": 11856, "▁Kapi": 11857, "▁zabójstwo": 11858, "▁otrzymać": 11859, "▁zbudowany": 11860, "nieniu": 11861, "▁chorego": 11862, "nda": 11863, "My": 11864, "▁adwoka": 11865, "pera": 11866, "▁szacunku": 11867, "▁powstanie": 11868, "▁statków": 11869, "▁żad": 11870, "▁znała": 11871, "▁Kraków": 11872, "▁Mag": 11873, "▁Reszta": 11874, "▁brakowało": 11875, "nasto": 11876, "▁poprawić": 11877, "▁pozwolą": 11878, "▁obsa": 11879, "▁ochronę": 11880, "▁zaciąga": 11881, "▁dowodzi": 11882, "▁Miłość": 11883, "▁ciepłe": 11884, "▁komuś": 11885, "▁spoczywa": 11886, "▁Bożego": 11887, "▁niebieski": 11888, "▁dzisiej": 11889, "▁wykłada": 11890, "▁towarów": 11891, "▁przyła": 11892, "▁dostarcza": 11893, "lice": 11894, "▁zdrowy": 11895, "▁chęcią": 11896, "▁cofnąć": 11897, "bień": 11898, "prawa": 11899, "▁objęła": 11900, "▁Pora": 11901, "▁głęboką": 11902, "owce": 11903, "soli": 11904, "▁Smu": 11905, "▁sąsiedztwie": 11906, "▁Taką": 11907, "▁stopni": 11908, "▁Os": 11909, "▁spaść": 11910, "▁Gę": 11911, "▁chaos": 11912, "▁uleg": 11913, "▁żonaty": 11914, "letniej": 11915, "▁prowadząc": 11916, "szczeniu": 11917, "▁Andrze": 11918, "▁nowymi": 11919, "▁rośli": 11920, "▁wygodnie": 11921, "▁utrzymanie": 11922, "▁zabraknie": 11923, "▁niezdo": 11924, "▁nazywać": 11925, "zne": 11926, "wionej": 11927, "▁dostate": 11928, "▁skutki": 11929, "▁orygina": 11930, "▁szkła": 11931, "▁zajmowała": 11932, "▁drewnianych": 11933, "▁pracow": 11934, "▁Jerzy": 11935, "kujemy": 11936, "▁szacunek": 11937, "▁zaż": 11938, "▁swojemu": 11939, "dię": 11940, "▁kome": 11941, "▁ołów": 11942, "▁wyglądać": 11943, "▁dumy": 11944, "▁rzadkie": 11945, "szczek": 11946, "▁brzyd": 11947, "▁pleców": 11948, "▁czystym": 11949, "▁założy": 11950, "▁zaśmiał": 11951, "▁Polak": 11952, "ktem": 11953, "▁Zła": 11954, "▁przyszłej": 11955, "▁jeździ": 11956, "zon": 11957, "owcy": 11958, "zdo": 11959, "▁Wska": 11960, "ńka": 11961, "wierci": 11962, "▁stó": 11963, "▁patro": 11964, "qu": 11965, "▁przymu": 11966, "▁strumień": 11967, "▁tworząc": 11968, "▁obrzydli": 11969, "▁Obecnie": 11970, "▁gospodarstwo": 11971, "stos": 11972, "▁węz": 11973, "▁tańczy": 11974, "▁ogon": 11975, "▁respek": 11976, "▁takt": 11977, "UR": 11978, "rują": 11979, "chła": 11980, "▁mostu": 11981, "▁chłopaka": 11982, "ance": 11983, "masz": 11984, "▁kwaś": 11985, "▁hono": 11986, "▁zagła": 11987, "▁zamieszki": 11988, "klej": 11989, "wiane": 11990, "gram": 11991, "▁uspokaja": 11992, "▁napisać": 11993, "▁głębokiej": 11994, "dla": 11995, "▁potrafią": 11996, "cowej": 11997, "▁hołd": 11998, "▁niedzielę": 11999, "▁Miejsce": 12000, "▁zagłę": 12001, "zno": 12002, "▁przewro": 12003, "▁lą": 12004, "▁stworzenia": 12005, "▁ranka": 12006, "▁pył": 12007, "skra": 12008, "mai": 12009, "▁liczy": 12010, "▁sprawnie": 12011, "▁Moi": 12012, "▁niezwyk": 12013, "▁ek": 12014, "▁oddycha": 12015, "paty": 12016, "▁bieli": 12017, "▁przeciwnej": 12018, "▁nawzajem": 12019, "▁wspa": 12020, "▁skraju": 12021, "▁chore": 12022, "▁wymaga": 12023, "▁blo": 12024, "Ka": 12025, "▁chciałam": 12026, "szer": 12027, "▁Raj": 12028, "▁Drzwi": 12029, "▁niewielki": 12030, "linę": 12031, "▁deski": 12032, "▁potrzebna": 12033, "rowali": 12034, "▁zielonym": 12035, "▁rzeczywistość": 12036, "▁relacji": 12037, "▁cmentarz": 12038, "▁Kobieta": 12039, "▁skrzyż": 12040, "▁żebyśmy": 12041, "▁powiedzenia": 12042, "▁czwartej": 12043, "▁grała": 12044, "▁należała": 12045, "órka": 12046, "▁wywar": 12047, "▁polecenia": 12048, "▁spodnie": 12049, "▁różni": 12050, "▁Oprócz": 12051, "▁czysto": 12052, "▁Wyda": 12053, "omego": 12054, "▁szczątki": 12055, "▁budynków": 12056, "▁widzieliśmy": 12057, "▁napis": 12058, "▁odcię": 12059, "▁Ubra": 12060, "▁następcą": 12061, "--": 12062, "----": 12063, "--------": 12064, "▁hotelu": 12065, "▁Kai": 12066, "▁Aa": 12067, "tio": 12068, "▁postawi": 12069, "▁zawy": 12070, "▁zamord": 12071, "▁Niemniej": 12072, "▁poszukiwania": 12073, "▁Sku": 12074, "▁Mniej": 12075, "▁chciwość": 12076, "▁wschodnich": 12077, "▁powszechny": 12078, "▁budowli": 12079, "▁ukrywać": 12080, "▁uratować": 12081, "▁nastąpiła": 12082, "lta": 12083, "▁pogot": 12084, "▁schroni": 12085, "cznicy": 12086, "▁przepowie": 12087, "▁bezpieczna": 12088, "erson": 12089, "łkownik": 12090, "▁naczelnika": 12091, "▁Ukrainy": 12092, "▁wspomnia": 12093, "nion": 12094, "rski": 12095, "▁osią": 12096, "IR": 12097, "▁mniejszą": 12098, "▁prawicy": 12099, "▁kolory": 12100, "▁Jut": 12101, "▁otwartą": 12102, "aa": 12103, "fon": 12104, "▁ulgę": 12105, "zienia": 12106, "▁próbę": 12107, "towała": 12108, "ciński": 12109, "▁wybuchu": 12110, "▁Sześć": 12111, "rześcija": 12112, "▁mecena": 12113, "▁zachodni": 12114, "▁najlepszych": 12115, "rat": 12116, "▁dopeł": 12117, "▁pracowali": 12118, "śnięty": 12119, "▁pochodzenia": 12120, "▁rozebra": 12121, "▁front": 12122, "gada": 12123, "▁najlepsza": 12124, "▁rób": 12125, "▁obietnic": 12126, "▁znaczenia": 12127, "▁powód": 12128, "▁istotą": 12129, "kowany": 12130, "▁dowodem": 12131, "▁upadek": 12132, "▁teatrze": 12133, "▁koloru": 12134, "▁podzięk": 12135, "chania": 12136, "▁galerii": 12137, "▁epo": 12138, "▁energii": 12139, "▁Wybor": 12140, "▁podano": 12141, "▁Ham": 12142, "czymi": 12143, "▁Lep": 12144, "nich": 12145, "▁tward": 12146, "sje": 12147, "▁wpły": 12148, "Od": 12149, "▁ćwierć": 12150, "▁używa": 12151, "▁rysu": 12152, "▁odbywać": 12153, "▁przekra": 12154, "▁dzienne": 12155, "terem": 12156, "▁szósty": 12157, "▁dobę": 12158, "▁wstępu": 12159, "▁ogromnego": 12160, "▁Wszędzie": 12161, "▁pasku": 12162, "▁Stu": 12163, "▁Francuzów": 12164, "▁wzięły": 12165, "▁męcze": 12166, "wąt": 12167, "▁robiąc": 12168, "▁min": 12169, "▁ulega": 12170, "▁zamierzał": 12171, "▁smar": 12172, "▁spręży": 12173, "▁Jadwi": 12174, "lnymi": 12175, "▁utrzymywał": 12176, "▁książ": 12177, "▁szybciej": 12178, "▁lampy": 12179, "▁odczyty": 12180, "▁wypadków": 12181, "▁grę": 12182, "▁uważam": 12183, "▁wymag": 12184, "▁ciągłe": 12185, "▁nadal": 12186, "▁okoliczności": 12187, "▁Dominika": 12188, "▁spadło": 12189, "▁spełniać": 12190, "▁materii": 12191, "▁pen": 12192, "▁długiego": 12193, "▁czynności": 12194, "▁gospodarstwie": 12195, "lska": 12196, "▁ładne": 12197, "tnymi": 12198, "▁zachowanie": 12199, "przeciw": 12200, "▁Gorą": 12201, "skoczyła": 12202, "▁prostego": 12203, "▁zwolni": 12204, "▁dzisiejszego": 12205, "▁wysokość": 12206, "▁Druga": 12207, "▁mura": 12208, "▁senat": 12209, "▁zadzwo": 12210, "▁poważne": 12211, "owemu": 12212, "▁znaczna": 12213, "▁małżeństwa": 12214, "▁umo": 12215, "▁dziecku": 12216, "Ta": 12217, "wagi": 12218, "▁ulica": 12219, "▁dojrz": 12220, "siły": 12221, "▁Adam": 12222, "gaj": 12223, "▁nieto": 12224, "▁podejrza": 12225, "lich": 12226, "▁Bole": 12227, "▁zmierza": 12228, "cek": 12229, "▁siostrą": 12230, "towy": 12231, "▁Szuka": 12232, "▁przedłu": 12233, "sjona": 12234, "▁jakbym": 12235, "gre": 12236, "▁narzędzia": 12237, "biu": 12238, "▁materia": 12239, "▁Wierz": 12240, "▁budować": 12241, "ret": 12242, "▁zawrzeć": 12243, "▁zawody": 12244, "▁dłu": 12245, "Tu": 12246, "▁wzywa": 12247, "▁sens": 12248, "▁treści": 12249, "▁budzą": 12250, "▁siecią": 12251, "▁kładzie": 12252, "▁dostrzega": 12253, "▁szkodę": 12254, "godnie": 12255, "▁przyjemności": 12256, "▁toa": 12257, "▁czujesz": 12258, "kasz": 12259, "sob": 12260, "▁zmysły": 12261, "▁cieszyć": 12262, "▁przyrzą": 12263, "▁wiążą": 12264, "▁szczegół": 12265, "▁harmo": 12266, "▁humoru": 12267, "▁dojrze": 12268, "EK": 12269, "▁szczególną": 12270, "▁przemyś": 12271, "trza": 12272, "▁horyzon": 12273, "▁rodzice": 12274, "▁Zasta": 12275, "wałam": 12276, "▁Bry": 12277, "▁Uśmie": 12278, "owałam": 12279, "▁cukier": 12280, "▁wyszło": 12281, "IER": 12282, "▁brąz": 12283, "▁wystarcza": 12284, "▁prawdziwa": 12285, "▁obrę": 12286, "▁usiąść": 12287, "▁przezwycię": 12288, "▁Nasze": 12289, "▁pul": 12290, "mery": 12291, "▁wstrząsa": 12292, "▁fabry": 12293, "▁studen": 12294, "▁Siedzi": 12295, "▁więzień": 12296, "▁cegły": 12297, "▁podobnie": 12298, "▁Kijowie": 12299, "▁did": 12300, "▁Stambu": 12301, "▁bana": 12302, "▁wieczoru": 12303, "▁chrzest": 12304, "▁Via": 12305, "▁Chrześcija": 12306, "▁Afryki": 12307, "utor": 12308, "▁kryjów": 12309, "des": 12310, "roko": 12311, "nis": 12312, "▁podziękować": 12313, "▁powstrzymy": 12314, "▁podwła": 12315, "▁dotarli": 12316, "▁martwy": 12317, "▁przeciwników": 12318, "▁Okrę": 12319, "!!!": 12320, "▁doprowa": 12321, "▁cudzo": 12322, "▁podzielić": 12323, "▁Niedźwie": 12324, "wiar": 12325, "▁Łat": 12326, "łda": 12327, "wzię": 12328, "▁postanowienie": 12329, "▁wystąpić": 12330, "▁dozwo": 12331, "▁wybuchła": 12332, "▁rezyden": 12333, "▁zwanej": 12334, "jąłem": 12335, "śnik": 12336, "wz": 12337, "▁Powi": 12338, "▁Działa": 12339, "▁opieka": 12340, "lady": 12341, "mes": 12342, "▁Fortu": 12343, "▁nago": 12344, "cum": 12345, "▁pr": 12346, "▁poddanych": 12347, "▁Spar": 12348, "▁Sied": 12349, "▁przeznacza": 12350, "▁Czytaj": 12351, "▁odpowia": 12352, "▁przekonany": 12353, "▁przestrzega": 12354, "dano": 12355, "▁udziela": 12356, "żonek": 12357, "▁przyszłego": 12358, "▁reszt": 12359, "zdu": 12360, "▁przekony": 12361, "▁grożą": 12362, "▁pokazując": 12363, "▁brą": 12364, "dzało": 12365, "▁Węgier": 12366, "▁uważają": 12367, "▁niepow": 12368, "▁obecnym": 12369, "▁przedsta": 12370, "▁podział": 12371, "▁Fur": 12372, "▁samymi": 12373, "▁deleg": 12374, "▁porówny": 12375, "▁kształcie": 12376, "▁zniszczyć": 12377, "▁przyjęcia": 12378, "▁Służba": 12379, "nimy": 12380, "▁żądać": 12381, "▁Dzwo": 12382, "▁koszulę": 12383, "▁kopię": 12384, "▁małżeństwo": 12385, "rony": 12386, "▁Morza": 12387, "▁lokal": 12388, "nowych": 12389, "und": 12390, "mki": 12391, "▁Bułgarii": 12392, "▁Austria": 12393, "nictwa": 12394, "turze": 12395, "▁wątpli": 12396, "▁koncep": 12397, "▁Zało": 12398, "▁dzisiejszy": 12399, "dzące": 12400, "▁Are": 12401, "▁kanałów": 12402, "▁przeznaczone": 12403, "▁wycieczki": 12404, "▁żon": 12405, "dztwo": 12406, "cowy": 12407, "▁Środ": 12408, "▁rozumieją": 12409, "▁poniżej": 12410, "▁czytania": 12411, "▁cieles": 12412, "torów": 12413, "▁biegną": 12414, "▁wyszep": 12415, "▁odry": 12416, "▁dziecia": 12417, "▁propo": 12418, "▁rozstawi": 12419, "▁rozmowach": 12420, "▁uprowa": 12421, "▁talent": 12422, "▁terminy": 12423, "▁grzyby": 12424, "▁stworzenie": 12425, "▁handl": 12426, "▁wyobraża": 12427, "▁powietrz": 12428, "▁Czyżby": 12429, "▁energią": 12430, "▁zajęć": 12431, "▁form": 12432, "spu": 12433, "▁bary": 12434, "▁Dominik": 12435, "▁stale": 12436, "▁liczby": 12437, "guje": 12438, "▁wyobraźni": 12439, "▁nerwy": 12440, "▁niespełna": 12441, "łując": 12442, "▁przeła": 12443, "▁Leo": 12444, "▁nauczyciel": 12445, "▁papie": 12446, "▁przybyło": 12447, "iony": 12448, "▁nader": 12449, "rymi": 12450, "▁Dnia": 12451, "▁Przej": 12452, "\"": 12453, "▁wędrów": 12454, "▁powieści": 12455, "▁doskonały": 12456, "▁wyrówna": 12457, "▁Rej": 12458, "▁przegrał": 12459, "▁rodzinie": 12460, "może": 12461, "▁Wyobra": 12462, "▁poma": 12463, "wet": 12464, "▁idziemy": 12465, "▁Ciem": 12466, "▁przedw": 12467, "▁ryn": 12468, "nomi": 12469, "▁wypat": 12470, "▁Wej": 12471, "▁zauważyła": 12472, "mego": 12473, "OT": 12474, "▁próbować": 12475, "Ale": 12476, "▁dora": 12477, "▁jo": 12478, "tyczną": 12479, "▁prace": 12480, "▁dłuż": 12481, "▁dobie": 12482, "▁zdrowo": 12483, "▁naru": 12484, "▁niszczy": 12485, "encji": 12486, "▁hałasu": 12487, "▁korytarzu": 12488, "twór": 12489, "▁górach": 12490, "▁uwa": 12491, "▁wspaniale": 12492, "cowego": 12493, "▁hi": 12494, "▁więzi": 12495, "▁zyskać": 12496, "▁wyrasta": 12497, "dii": 12498, "▁obowiązkiem": 12499, "die": 12500, "▁stroje": 12501, "▁niezwykle": 12502, "▁Najpierw": 12503, "▁zarzuca": 12504, "żer": 12505, "▁wykony": 12506, "wiałem": 12507, "▁zobaczyłem": 12508, "piel": 12509, "▁Bru": 12510, "▁uśmiecha": 12511, "▁wrz": 12512, "Kto": 12513, "▁Dost": 12514, "▁zabawa": 12515, "▁niższych": 12516, "▁zmierz": 12517, "▁ułatwić": 12518, "▁mniejszym": 12519, "wnej": 12520, "▁przyjemnie": 12521, "puje": 12522, "▁stacji": 12523, "niego": 12524, "▁Zim": 12525, "▁Wię": 12526, "▁zbrodnie": 12527, "lei": 12528, "▁sprawia": 12529, "▁obcym": 12530, "▁zezna": 12531, "▁Zatrzyma": 12532, "▁Poza": 12533, "▁Bad": 12534, "▁Wit": 12535, "▁Die": 12536, "▁stat": 12537, "wich": 12538, "Pra": 12539, "▁domowej": 12540, "ńczyka": 12541, "bowiem": 12542, "▁rozpoczęły": 12543, "▁pozostały": 12544, "tycy": 12545, "▁generał": 12546, "▁generała": 12547, "▁inf": 12548, "zować": 12549, "▁wyka": 12550, "iu": 12551, "▁fel": 12552, "▁abo": 12553, "▁odsła": 12554, "▁rządzić": 12555,
[...]
