{",": 0, ".": 1, "<s>": 2, "<0xE2>": 3, "<0x80>": 4, "▁": 5, "▁i": 6, "▁w": 7, "<0x94>": 8, "▁się": 9, "▁na": 10, "▁nie": 11, "▁z": 12, "▁do": 13, "!": 14, "▁że": 15, "▁to": 16, "<0xA6>": 17, "?": 18, "▁a": 19, "▁o": 20, ":": 21, "▁po": 22, "▁za": 23, "▁-": 24, "▁jak": 25, "▁od": 26, "▁jest": 27, "▁ale": 28, "▁tak": 29, "▁co": 30, "▁A": 31, "li": 32, "▁go": 33, ";": 34, "▁W": 35, "▁już": 36, "<0x93>": 37, "▁bo": 38, "▁mu": 39, "ć": 40, "▁przy": 41, "nie": 42, "▁mi": 43, "▁Nie": 44, "▁pan": 45, "▁mnie": 46, "▁jego": 47, "1": 48, "▁I": 49, "▁tylko": 50, "ł": 51, "▁tym": 52, "m": 53, "sz": 54, "▁przez": 55, "▁ja": 56, "ny": 57, "▁pod": 58, "▁u": 59, "▁jej": 60, "▁ze": 61, "na": 62, "ka": 63, "▁ma": 64, "▁jeszcze": 65, "▁było": 66, "ni": 67, "mi": 68, "ki": 69, "▁rzekł": 70, "▁by": 71, "▁dla": 72, "ch": 73, "0": 74, "▁wy": 75, "▁ich": 76, "▁czy": 77, "cie": 78, "▁był": 79, "▁Na": 80, "▁Za": 81, "▁tego": 82, "▁\"": 83, "<0x9D>": 84, "ła": 85, "<0x9E>": 86, "▁który": 87, "ś": 88, "ły": 89, "▁Po": 90, "ku": 91, "ci": 92, "▁może": 93, "no": 94, "▁sobie": 95, "▁gdy": 96, "j": 97, "▁tu": 98, "▁Ale": 99, "▁tam": 100, "ne": 101, "ta": 102, "c": 103, "▁przed": 104, "2": 105, "▁(": 106, "-": 107, "▁ci": 108, "▁Z": 109, "▁roz": 110, "rze": 111, "ż": 112, "▁To": 113, "ną": 114, "▁nad": 115, "▁ją": 116, "▁też": 117, "▁będzie": 118, "▁on": 119, "▁tej": 120, "▁nim": 121, "ty": 122, "▁ten": 123, "dy": 124, "my": 125, "▁O": 126, "ra": 127, "▁więc": 128, "▁ku": 129, "k": 130, "by": 131, "ba": 132, "▁prze": 133, "▁zaś": 134, "ją": 135, "▁które": 136, "▁nawet": 137, "wał": 138, "ło": 139, "nia": 140, "że": 141, "jąc": 142, "▁K": 143, "ce": 144, "owi": 145, "▁są": 146, "▁bez": 147, "wa": 148, "t": 149, "ko": 150, "▁być": 151, "cy": 152, "le": 153, "9": 154, "ów": 155, "▁jako": 156, "szy": 157, "tu": 158, "▁no": 159, "dzie": 160, "▁jednak": 161, "ski": 162, "ca": 163, "▁teraz": 164, "s": 165, "b": 166, "w": 167, "la": 168, "p": 169, "rzy": 170, "wszy": 171, "▁sam": 172, "▁je": 173, "ał": 174, "3": 175, "▁Ja": 176, "5": 177, "▁pa": 178, "czy": 179, "▁była": 180, "▁bardzo": 181, "g": 182, "wi": 183, "je": 184, "d": 185, "▁Wo": 186, "ma": 187, "nych": 188, "nym": 189, "▁nas": 190, "ść": 191, "n": 192, "▁ty": 193, "▁lub": 194, "▁chwili": 195, "▁miał": 196, "ści": 197, "▁gdzie": 198, "ków": 199, "sa": 200, "▁im": 201, "▁nich": 202, "▁pana": 203, "ry": 204, "ały": 205, "si": 206, "▁tych": 207, "▁Co": 208, "ń": 209, "▁książę": 210, "cz": 211, "ą": 212, "łem": 213, "▁nic": 214, "▁oczy": 215, "dzi": 216, "▁wa": 217, "gło": 218, "▁niego": 219, "ował": 220, "▁aby": 221, "▁te": 222, "u": 223, "▁albo": 224, "\"": 225, "▁wszystko": 226, "te": 227, "▁ta": 228, "owie": 229, "gi": 230, "wie": 231, "da": 232, "▁jakby": 233, "▁wie": 234, "▁Bo": 235, "nę": 236, "kę": 237, "▁których": 238, "nej": 239, "kiem": 240, "▁cię": 241, "cze": 242, "▁ko": 243, "mu": 244, "z": 245, "<0xC2>": 246, "nego": 247, "sza": 248, "4": 249, "wy": 250, "ę": 251, "em": 252, "▁pani": 253, "▁którzy": 254, "▁U": 255, "▁Lecz": 256, "▁między": 257, "▁lecz": 258, "▁mówił": 259, "▁Tak": 260, "▁ludzi": 261, "▁niej": 262, "i": 263, "..": 264, "cki": 265, "▁aż": 266, "▁Czy": 267, "ska": 268, "▁Do": 269, "▁która": 270, "<0xA0>": 271, "ro": 272, "▁czym": 273, "▁Pan": 274, "...": 275, "▁Sta": 276, "▁ani": 277, "▁wo": 278, "▁wi": 279, "ga": 280, "▁Wi": 281, ")": 282, "▁siebie": 283, "8": 284, "▁panie": 285, "ja": 286, "▁we": 287, "▁ob": 288, "wać": 289, "▁także": 290, "skiego": 291, "cha": 292, "▁ba": 293, "▁można": 294, "▁coś": 295, "▁raz": 296, "tem": 297, "6": 298, "▁niż": 299, "mie": 300, "ować": 301, "l": 302, "sie": 303, "ką": 304, "▁nam": 305, "▁więcej": 306, "owski": 307, "ję": 308, "▁którym": 309, "▁potem": 310, "▁mo": 311, "▁kto": 312, "rza": 313, "lu": 314, "▁której": 315, "dził": 316, "▁lat": 317, "r": 318, "▁mógł": 319, "go": 320, "▁Jak": 321, "▁poczę": 322, "▁kiedy": 323, "ało": 324, "▁począł": 325, "lski": 326, "▁ona": 327, "7": 328, "ży": 329, "▁domu": 330, "▁były": 331, "▁Wy": 332, "▁m": 333, "▁k": 334, "owy": 335, "rz": 336, "sy": 337, "▁ra": 338, "to": 339, "▁ła": 340, "▁sz": 341, "▁jeśli": 342, "▁tę": 343, "sia": 344, "▁nią": 345, "▁żeby": 346, "▁Ma": 347, "▁naj": 348, "▁roku": 349, "▁Przy": 350, "▁choć": 351, "▁S": 352, "ała": 353, "▁jeden": 354, "▁Od": 355, "▁Bóg": 356, "▁wszystkich": 357, "sze": 358, "ście": 359, "bi": 360, "▁ni": 361, "st": 362, "nął": 363, "▁Woło": 364, "▁s": 365, "ową": 366, "mo": 367, "▁ręce": 368, "▁zaraz": 369, "wo": 370, "pie": 371, "kami": 372, "owe": 373, "dyj": 374, "owa": 375, "\".": 376, "▁mam": 377, "▁Zby": 378, "▁którego": 379, "▁coraz": 380, "▁oraz": 381, "▁właśnie": 382, "niu": 383, "▁dobrze": 384, "▁ru": 385, "▁czas": 386, "▁sza": 387, "▁iż": 388, "▁dalej": 389, "▁wszystkie": 390, "▁sta": 391, "▁wiem": 392, "skie": 393, "▁ch": 394, "▁dwa": 395, "owej": 396, "▁p": 397, "re": 398, "py": 399, "ek": 400, "▁trzeba": 401, "du": 402, "▁dziś": 403, "niem": 404, "▁sto": 405, "tów": 406, "sta": 407, "dę": 408, "ność": 409, "▁Ba": 410, "▁zawsze": 411, "skich": 412, "owych": 413, "▁nimi": 414, "▁my": 415, "▁gdyby": 416, "▁wszyscy": 417, "▁Li": 418, "wali": 419, "chy": 420, "pa": 421, "▁głowę": 422, "cą": 423, "sty": 424, "▁niech": 425, "▁Tu": 426, "bym": 427, "▁mówi": 428, "▁P": 429, "▁czasu": 430, "▁kilka": 431, "czył": 432, "▁Więc": 433, "▁ludzie": 434, "pi": 435, "nem": 436, "▁pu": 437, "▁znowu": 438, "▁dzień": 439, "▁człowiek": 440, "▁g": 441, "▁M": 442, "▁jeno": 443, "zi": 444, "▁li": 445, "▁le": 446, "▁gdyż": 447, "▁sobą": 448, "▁b": 449, "zy": 450, "gie": 451, "f": 452, "wały": 453, "▁taki": 454, "▁Niech": 455, "nił": 456, "cza": 457, "▁którą": 458, "▁znów": 459, "▁odparł": 460, "▁chciał": 461, "su": 462, "lę": 463, "ź": 464, "cja": 465, "bie": 466, "kach": 467, "▁oni": 468, "▁razem": 469, "usz": 470, "▁przeciw": 471, "▁/": 472, "cho": 473, "tą": 474, "wała": 475, "▁mój": 476, "▁Prze": 477, "▁takie": 478, "▁wreszcie": 479, "po": 480, "▁ka": 481, "do": 482, "S": 483, "owym": 484, "▁kapła": 485, "▁Ty": 486, "nąć": 487, "▁No": 488, "▁da": 489, "▁nigdy": 490, "▁fa": 491, "▁Gdy": 492, "ej": 493, "▁T": 494, "▁masz": 495, "o": 496, "▁t": 497, "▁odpowiedział": 498, "▁Sk": 499, "▁prawie": 500, "nów": 501, "▁bi": 502, "dzić": 503, "▁twarz": 504, "szą": 505, "h": 506, "▁Ka": 507, "▁dopiero": 508, "skim": 509, ").": 510, "▁mie": 511, "▁również": 512, "▁nagle": 513, "▁jestem": 514, "▁bowiem": 515, "ałem": 516, "▁będą": 517, "on": 518, "A": 519, "dą": 520, "nymi": 521, "bo": 522, "▁r": 523, "lo": 524, "liśmy": 525, "nu": 526, "▁trzy": 527, "▁ro": 528, "jący": 529, "ności": 530, "nek": 531, "we": 532, "▁bu": 533, "▁dzieci": 534, "▁strony": 535, "za": 536, "▁E": 537, "▁mają": 538, "ar": 539, "▁chyba": 540, "▁H": 541, "skiej": 542, "▁dni": 543, "jących": 544, "▁ży": 545, "wą": 546, "O": 547, "▁cały": 548, "F": 549, "▁chwilę": 550, "▁sposób": 551, "▁bardziej": 552, "▁jeżeli": 553, "▁ziemi": 554, "owego": 555, "▁tyle": 556, "▁Już": 557, "▁głowy": 558, "szko": 559, "▁zawołał": 560, "▁innych": 561, "▁jakiś": 562, "rem": 563, "ha": 564, "▁ciebie": 565, "▁nikt": 566, "▁Kto": 567, "łą": 568, "stwo": 569, "ców": 570, "kie": 571, "▁chorą": 572, "▁dzi": 573, "▁myśli": 574, "▁de": 575, "▁bie": 576, "▁życie": 577, "ża": 578, "▁dlatego": 579, "▁pło": 580, "▁pro": 581, "▁odrzekł": 582, "sk": 583, "▁ga": 584, "y": 585, "▁musi": 586, "▁ce": 587, "czą": 588, "▁wz": 589, "▁Mo": 590, "▁ów": 591, "▁wśród": 592, "▁mę": 593, "▁chce": 594, "łu": 595, "cę": 596, "▁was": 597, "▁pół": 598, "▁trochę": 599, "▁byli": 600, "lni": 601, "▁ust": 602, "jące": 603, "▁het": 604, "at": 605, "▁rękę": 606, "▁pie": 607, "▁wiesz": 608, "▁pierwszy": 609, "rę": 610, "łam": 611, "tę": 612, "▁życia": 613, "▁słowa": 614, "ską": 615, "nicj": 616, "▁swoje": 617, "ru": 618, "ow": 619, "▁głos": 620, "▁Może": 621, "ścią": 622, "ckiego": 623, "pan": 624, "cia": 625, "wia": 626, "sko": 627, "▁wszystkim": 628, "gu": 629, "▁dnia": 630, "▁oto": 631, "▁spytał": 632, "▁pi": 633, "▁samo": 634, "▁cz": 635, "▁temu": 636, "cił": 637, "wił": 638, "▁czego": 639, "▁drugi": 640, "▁tysięcy": 641, "nicy": 642, "dź": 643, "▁jakie": 644, "▁B": 645, "▁zna": 646, "▁Ju": 647, "▁dwóch": 648, "nik": 649, "de": 650, "▁pracy": 651, "▁panu": 652, "chu": 653, "▁stary": 654, "),": 655, "▁Tymczasem": 656, "czyć": 657, "▁przecie": 658, "▁Pod": 659, "▁d": 660, "sem": 661, "rzą": 662, "▁całą": 663, "▁uczy": 664, "▁swego": 665, "▁kilku": 666, "tnie": 667, "fi": 668, "▁miała": 669, "▁On": 670, "▁serce": 671, "cznie": 672, "▁Szwe": 673, "▁lepiej": 674, "▁wam": 675, "▁rzeczy": 676, "▁widać": 677, "e": 678, "owali": 679, "owała": 680, "▁księcia": 681, "▁czasie": 682, "▁nieprzyja": 683, "stwa": 684, "▁razie": 685, "▁G": 686, "▁koniec": 687, "▁noc": 688, "▁ile": 689, "dów": 690, "▁później": 691, "▁ryce": 692, "▁myśl": 693, "▁Jeśli": 694, "▁świecie": 695, "niej": 696, "ary": 697, "▁drzwi": 698, "nęła": 699, "▁każdy": 700, "sto": 701, "▁ażeby": 702, "ju": 703, "nię": 704, "bu": 705, "▁lu": 706, "▁powiedział": 707, "▁rzecz": 708, "▁wą": 709, "▁ło": 710, "▁pła": 711, "▁mieć": 712, "man": 713, "▁D": 714, "▁księ": 715, "▁?": 716, "▁chodzi": 717, "▁powie": 718, "a": 719, "▁jedno": 720, "▁tru": 721, "▁będę": 722, "▁gro": 723, "▁nocy": 724, "▁słu": 725, "om": 726, "▁twarzy": 727, "▁mówić": 728, "▁F": 729, "▁krzy": 730, "▁zło": 731, "knął": 732, "▁moje": 733, "▁śmierci": 734, "▁wówczas": 735, "rach": 736, "▁koń": 737, "▁wtedy": 738, "▁Ko": 739, "T": 740, "nami": 741, "▁zupełnie": 742, "nią": 743, "▁potę": 744, "▁la": 745, "szę": 746, "▁choćby": 747, "ński": 748, "▁mogę": 749, "▁dwie": 750, "▁król": 751, "dem": 752, "▁swoją": 753, "dz": 754, "ona": 755, "▁drodze": 756, "czki": 757, "jcie": 758, "▁dość": 759, "▁Jako": 760, "nęły": 761, "▁miasta": 762, "lą": 763, "▁bym": 764, "▁stało": 765, "▁usta": 766, "▁Wa": 767, "▁wraz": 768, "łeś": 769, "▁głosem": 770, "żył": 771, "ste": 772, "▁rycerz": 773, "▁takim": 774, "aty": 775, "▁sp": 776, "▁drogi": 777, "czny": 778, "czne": 779, "czę": 780, "▁wasz": 781, "▁panna": 782, "▁dy": 783, "\",": 784, "gą": 785, "▁spo": 786, "▁głową": 787, "▁jednym": 788, "▁nieco": 789, "net": 790, "nach": 791, "kom": 792, "kła": 793, "▁swoich": 794, "▁Ram": 795, "▁Jest": 796, "dza": 797, "cić": 798, "▁długo": 799, "▁takich": 800, "▁wielki": 801, "in": 802, "sku": 803, "▁sie": 804, "▁mogą": 805, "▁jednej": 806, "▁drogę": 807, "ciu": 808, "en": 809, "E": 810, "▁został": 811, "rzę": 812, "cję": 813, "▁serca": 814, "▁krew": 815, "łe": 816, "▁zł": 817, "▁gości": 818, "▁Ni": 819, "▁dom": 820, "K": 821, "▁wiele": 822, "zie": 823, "▁ry": 824, "▁por": 825, "rzył": 826, "▁rzekła": 827, "▁naprzód": 828, "▁Teraz": 829, "▁duszy": 830, "dł": 831, "dzą": 832, "ia": 833, "ników": 834, "nka": 835, "▁Chmie": 836, "▁konie": 837, "nić": 838, "▁śmierć": 839, "cu": 840, "▁niez": 841, "▁Ch": 842, "▁widział": 843, "▁mną": 844, "er": 845, "owania": 846, "kowi": 847, "▁mieli": 848, "▁całej": 849, "▁R": 850, "śmy": 851, "or": 852, "▁czyli": 853, "bę": 854, "cji": 855, "▁jaki": 856, "pu": 857, "▁Pa": 858, "▁całe": 859, "▁Je": 860, "▁Że": 861, "▁Panie": 862, "▁człowieka": 863, "▁myślał": 864, "▁obu": 865, "▁Jan": 866, "kul": 867, "▁y": 868, "rami": 869, "wę": 870, "▁inaczej": 871, "▁Ra": 872, "▁przecież": 873, "▁inne": 874, "szka": 875, "▁tedy": 876, "Z": 877, "ut": 878, "▁świe": 879, "▁Sa": 880, "nki": 881, "▁Boga": 882, "▁Roz": 883, "▁miejscu": 884, "rzu": 885, "▁Sam": 886, "▁jakieś": 887, "▁takiego": 888, "▁świat": 889, "▁Mi": 890, "rą": 891, "▁or": 892, "ńskiego": 893, "▁kraju": 894, "me": 895, "ata": 896, "▁Boże": 897, "▁star": 898, "rów": 899, "▁sy": 900, "▁Ku": 901, "▁Go": 902, "▁należy": 903, "et": 904, "▁zbyt": 905, "▁Kiedy": 906, "dni": 907, "▁swoim": 908, "gę": 909, "▁taka": 910, "▁rze": 911, "▁cóż": 912, "▁stanie": 913, "▁taką": 914, "▁pę": 915, "um": 916, "owanie": 917, "owskiego": 918, "▁piersi": 919, "▁powiedzieć": 920, "tał": 921, "dnie": 922, "▁ziemię": 923, "▁mniej": 924, "▁Był": 925, "▁dr": 926, "▁kazał": 927, "▁wiedział": 928, "▁często": 929, "mości": 930, "▁swej": 931, "▁razy": 932, "▁osób": 933, "▁góry": 934, "▁wielu": 935, "niach": 936, "▁końcu": 937, "▁gra": 938, "▁czasem": 939, "kli": 940, "kał": 941, "▁su": 942, "▁łu": 943, "▁kra": 944, "cznych": 945, "cami": 946, "▁zd": 947, "▁cza": 948, "cych": 949, "ół": 950, "▁inni": 951, "▁prawo": 952, "▁stał": 953, "un": 954, "cznym": 955, "cał": 956, "żyć": 957, "zu": 958, "▁śpie": 959, "▁gę": 960, "jącym": 961, "▁Bogu": 962, "▁Przez": 963, "▁bla": 964, "▁wasza": 965, "▁strasz": 966, "▁stronę": 967, "▁Gdyby": 968, "cach": 969, "▁dał": 970, "▁świata": 971, "▁nami": 972, "▁moja": 973, "nika": 974, "lnie": 975, "▁ż": 976, "▁kar": 977, "▁tobie": 978, "▁woła": 979, "▁sama": 980, "▁miejsce": 981, "▁Oto": 982, "▁mogła": 983, "▁zwie": 984, "stu": 985, "▁ucie": 986, "tach": 987, "▁wczoraj": 988, "▁st": 989, "▁głowie": 990, "ego": 991, "▁Sz": 992, "lał": 993, "owany": 994, "▁zaczął": 995, "▁wojny": 996, "owo": 997, "▁stra": 998, "▁kom": 999, "ór": 1000, "nęli": 1001, "▁odda": 1002, "▁jednego": 1003, "▁wojska": 1004, "śnie": 1005, "chali": 1006, "▁Gdzie": 1007, "▁miłości": 1008, "▁lata": 1009, "▁cze": 1010, "▁ktoś": 1011, "ię": 1012, "▁jedna": 1013, "▁nogi": 1014, "▁kocha": 1015, "▁ł": 1016, "▁widok": 1017, "dny": 1018, "▁Ro": 1019, "mość": 1020, "▁ręką": 1021, "▁Te": 1022, "▁tymczasem": 1023, "dna": 1024, "▁wody": 1025, "▁nasz": 1026, "ńca": 1027, "▁krwi": 1028, "an": 1029, "▁zapytał": 1030, "jącego": 1031, "▁bra": 1032, "▁nowe": 1033, "wym": 1034, "▁ści": 1035, "▁Le": 1036, "▁C": 1037, "▁Tam": 1038, "kł": 1039, "▁obok": 1040, "▁podniósł": 1041, "lne": 1042, "▁Me": 1043, "▁Krzy": 1044, "▁chło": 1045, "lił": 1046, "ciem": 1047, "tych": 1048, "▁chociaż": 1049, "owane": 1050, "▁woj": 1051, "▁wcale": 1052, "wało": 1053, "▁Petro": 1054, "▁Rzeczy": 1055, "▁prawda": 1056, "rek": 1057, "owicz": 1058, "pospolitej": 1059, "▁wobec": 1060, "▁niebo": 1061, "▁hu": 1062, "dzę": 1063, "▁wielkie": 1064, "▁c": 1065, "żą": 1066, "▁samym": 1067, "ron": 1068, "▁jesteś": 1069, "▁obie": 1070, "▁natychmiast": 1071, "▁mimo": 1072, "▁Wie": 1073, "nęło": 1074, "chem": 1075, "▁Ta": 1076, "pła": 1077, "▁konia": 1078, "▁dlaczego": 1079, "chów": 1080, "▁ję": 1081, "▁Michał": 1082, "▁jedną": 1083, "▁mówię": 1084, "▁Ży": 1085, "▁albowiem": 1086, "▁parę": 1087, "us": 1088, "M": 1089, "▁iść": 1090, "▁zmie": 1091, "śni": 1092, "▁mało": 1093, "▁znaczy": 1094, "▁naprawdę": 1095, "▁zwrócił": 1096, "sów": 1097, "▁sa": 1098, "▁drugiej": 1099, "▁czu": 1100, "sły": 1101, "szcze": 1102, "▁Dla": 1103, "▁samego": 1104, "▁pom": 1105, "▁By": 1106, "▁każdym": 1107, "▁ok": 1108, "▁spraw": 1109, "gnie": 1110, "▁Potem": 1111, "jącą": 1112, "śli": 1113, "▁prostu": 1114, "jąca": 1115, "▁Ody": 1116, "▁oczyma": 1117, "▁pole": 1118, "▁si": 1119, "tami": 1120, "P": 1121, "▁l": 1122, "ńskich": 1123, "▁one": 1124, "▁h": 1125, "▁swój": 1126, "szcz": 1127, "niał": 1128, "byś": 1129, "▁świ": 1130, "sła": 1131, "▁pomoc": 1132, "czu": 1133, "▁cu": 1134, "arów": 1135, "▁okru": 1136, "cem": 1137, "▁re": 1138, "▁uj": 1139, "lem": 1140, "▁Ten": 1141, "▁króla": 1142, "▁towarzy": 1143, "▁mogli": 1144, "dzili": 1145, "▁ręku": 1146, "ciel": 1147, "▁zaw": 1148, "cząc": 1149, "▁Nel": 1150, "▁sło": 1151, "▁sk": 1152, "▁nasze": 1153, "dze": 1154, "zes": 1155, "▁ojciec": 1156, "▁woli": 1157, "cznej": 1158, "▁Andrzej": 1159, "tym": 1160, "se": 1161, "niusz": 1162, "▁szlach": 1163, "▁pow": 1164, "gł": 1165, "lny": 1166, "żu": 1167, "jem": 1168, "▁młody": 1169, "lami": 1170, "▁ciągle": 1171, "chać": 1172, "▁Cóż": 1173, "▁ha": 1174, "▁chcę": 1175, "▁dostoj": 1176, "dzia": 1177, "▁Jeżeli": 1178, "cego": 1179, "W": 1180, "dach": 1181, "▁miłość": 1182, "▁słucha": 1183, "▁kon": 1184, "▁mamy": 1185, "łek": 1186, "▁koło": 1187, "▁tą": 1188, "▁ki": 1189, "niec": 1190, "▁du": 1191, "▁idzie": 1192, "rzał": 1193, "▁chwila": 1194, "▁szczęście": 1195, "▁strze": 1196, "▁sła": 1197, "▁Fe": 1198, "os": 1199, "pli": 1200, "szał": 1201, "tać": 1202, "▁Danu": 1203, "▁oba": 1204, "szczy": 1205, "▁zwłaszcza": 1206, "ó": 1207, "▁miejsca": 1208, "▁par": 1209, "czną": 1210, "ze": 1211, "▁swojej": 1212, "▁py": 1213, "pił": 1214, "▁państwa": 1215, "▁dużo": 1216, "▁Polsce": 1217, "▁siły": 1218, "▁dodał": 1219, "▁mojej": 1220, "▁chcesz": 1221, "▁razu": 1222, "▁wziął": 1223, "mów": 1224, "▁Ze": 1225, "▁proszę": 1226, "LE": 1227, "▁całym": 1228, "zna": 1229, "▁zarazem": 1230, "▁ojca": 1231, "▁innego": 1232, "▁ogar": 1233, "▁zdu": 1234, "▁górę": 1235, "▁królew": 1236, "▁sami": 1237, "▁musiał": 1238, "▁tra": 1239, "rzem": 1240, "czek": 1241, "dzy": 1242, "▁Da": 1243, "▁wiadomo": 1244, "czka": 1245, "▁pytał": 1246, "nom": 1247, "▁La": 1248, "mar": 1249, "▁żołnierzy": 1250, "▁szwe": 1251, "▁rzu": 1252, "▁oczach": 1253, "▁poko": 1254, "▁Czar": 1255, "ńskiej": 1256, "▁widzi": 1257, "▁chłop": 1258, "▁ś": 1259, "▁sko": 1260, "▁zap": 1261, "kim": 1262, "łów": 1263, "▁pozna": 1264, "ałeś": 1265, "usza": 1266, "▁śmie": 1267, "ckich": 1268, "▁jutro": 1269, "▁kro": 1270, "dać": 1271, "▁widzę": 1272, "czał": 1273, "▁Nic": 1274, "▁następnie": 1275, "cje": 1276, "▁części": 1277, "▁Książę": 1278, "▁tutaj": 1279, "▁około": 1280, "jącej": 1281, "▁pra": 1282, "wanie": 1283, "▁ciąg": 1284, "▁Kor": 1285, "▁dra": 1286, "▁początku": 1287, "▁trzech": 1288, "▁koni": 1289, "▁przera": 1290, "▁brak": 1291, "dła": 1292, "▁mały": 1293, "tki": 1294, "czna": 1295, "szu": 1296, "▁wyszedł": 1297, "wem": 1298, "▁sprawie": 1299, "▁oczu": 1300, "chał": 1301, "▁pomyślał": 1302, "▁dać": 1303, "ńskie": 1304, "czyła": 1305, "▁list": 1306, "wu": 1307, "▁dziecko": 1308, "▁część": 1309, "▁przykład": 1310, "▁moim": 1311, "kło": 1312, "zd": 1313, "▁So": 1314, "▁dotąd": 1315, "▁Jego": 1316, "▁Ha": 1317, "ran": 1318, "▁pokoju": 1319, "▁szcze": 1320, "cej": 1321, "gar": 1322, "niła": 1323, "stą": 1324, "▁życiu": 1325, "▁zresztą": 1326, "szył": 1327, "▁raczej": 1328, "▁zamiast": 1329, "▁Ż": 1330, "ciwszy": 1331, "▁znalazł": 1332, "nt": 1333, "▁Su": 1334, "rzyć": 1335, "che": 1336, "▁Pi": 1337, "▁swych": 1338, "▁widocznie": 1339, "▁rąk": 1340, "cznego": 1341, "▁mar": 1342, "G": 1343, "▁Koza": 1344, "▁mil": 1345, "▁takiej": 1346, "waj": 1347, "▁pewno": 1348, "▁szy": 1349, "szego": 1350, "▁szybko": 1351, "ie": 1352, "▁Rze": 1353, "▁tro": 1354, "▁Her": 1355, "▁skrzy": 1356, "so": 1357, "▁naszych": 1358, "▁spod": 1359, "▁We": 1360, "lony": 1361, "▁powodu": 1362, "▁cztery": 1363, "▁wprawdzie": 1364, "ńskim": 1365, "▁robi": 1366, "fa": 1367, "▁niebie": 1368, "▁dobro": 1369, "▁pil": 1370, "wania": 1371, "▁swą": 1372, "oru": 1373, "▁Tylko": 1374, "▁jaką": 1375, "▁Ci": 1376, "▁wciąż": 1377, "mach": 1378, "wając": 1379, "▁wier": 1380, "▁czeka": 1381, "▁grze": 1382, "▁natomiast": 1383, "US": 1384, "▁powiem": 1385, "wią": 1386, "▁zb": 1387, "▁ksiądz": 1388, "am": 1389, "▁chrześcija": 1390, "gów": 1391, "czyli": 1392, "▁Ne": 1393, "co": 1394, "źnie": 1395, "wano": 1396, "▁jakoby": 1397, "wicz": 1398, "▁zdra": 1399, "▁ponad": 1400, "raz": 1401, "▁Izabela": 1402, "tek": 1403, "▁zapa": 1404, "▁szlachci": 1405, "mia": 1406, "▁jechać": 1407, "▁dia": 1408, "▁żołnierz": 1409, "▁imię": 1410, "▁zwykle": 1411, "▁podczas": 1412, "▁Tat": 1413, "▁wielką": 1414, "szcza": 1415, "pe": 1416, "▁daleko": 1417, "tobli": 1418, "▁ucz": 1419, "skiemu": 1420, "▁rok": 1421, "▁przerwał": 1422, "▁waszej": 1423, "zę": 1424, "▁N": 1425, "giem": 1426, "IST": 1427, "▁przede": 1428, "▁e": 1429, "▁zostanie": 1430, "leń": 1431, "▁spojrzał": 1432, "się": 1433, "mę": 1434, "cka": 1435, "▁poza": 1436, "dziła": 1437, "▁rycer": 1438, "▁ME": 1439, "kich": 1440, "▁sia": 1441, "▁Fa": 1442, "▁Przed": 1443, "mier": 1444, "▁oka": 1445, "ckim": 1446, "lej": 1447, "▁będziesz": 1448, "▁zdzi": 1449, "▁zabi": 1450, "bra": 1451, "▁sercu": 1452, "▁gar": 1453, "▁kraj": 1454, "▁swe": 1455, "cym": 1456, "▁dzie": 1457, "żę": 1458, "owały": 1459, "▁Rozdział": 1460, "▁Mu": 1461, "ckie": 1462, "▁inny": 1463, "▁cała": 1464, "▁słowo": 1465, "mil": 1466, "▁wil": 1467, "▁pięć": 1468, "trze": 1469, "pę": 1470, "ckiej": 1471, "▁słów": 1472, "lić": 1473, "nku": 1474, "▁kobiety": 1475, "dami": 1476, "▁panowie": 1477, "▁całkiem": 1478, "pat": 1479, "bor": 1480, "▁poz": 1481, "gła": 1482, "czkę": 1483, "ho": 1484, "cją": 1485, "▁dobry": 1486, "▁Jeszcze": 1487, "lach": 1488, "▁pieniądze": 1489, "▁war": 1490, "▁Wszystko": 1491, "▁tłu": 1492, "▁pewnie": 1493, "▁pierwszej": 1494, "▁nieszczę": 1495, "▁skąd": 1496, "nowi": 1497, "▁rady": 1498, "pię": 1499, "sią": 1500, "▁ode": 1501, "czone": 1502, "żem": 1503, "▁została": 1504, "▁rozkaz": 1505, "▁gnie": 1506, "wej": 1507, "▁wdzię": 1508, "▁Radziwił": 1509, "▁myślę": 1510, "▁zda": 1511, "▁moją": 1512, "▁wolno": 1513, "skiem": 1514, "▁zamku": 1515, "rom": 1516, "▁blisko": 1517, "tny": 1518, "▁mówiąc": 1519, "▁cie": 1520, "▁dzieje": 1521, "▁twój": 1522, "▁zrobić": 1523, "▁lo": 1524, "▁kup": 1525, "▁dwo": 1526, "▁panem": 1527, "wiał": 1528, "lnej": 1529, "niony": 1530, "▁ska": 1531, "▁trwo": 1532, "Y": 1533, "▁smu": 1534, "▁nu": 1535, "▁Mam": 1536, "mienie": 1537, "▁stoi": 1538, "▁Polski": 1539, "▁przyjdzie": 1540, "▁kła": 1541, "▁świą": 1542, "▁Pro": 1543, "szym": 1544, "▁powiada": 1545, "▁Mar": 1546, "▁prawa": 1547, "▁naszej": 1548, "▁głu": 1549, "▁krzyknął": 1550, "bą": 1551, "owano": 1552, "niejszy": 1553, "▁mieszka": 1554, "▁przynajmniej": 1555, "szedł": 1556, "▁miasto": 1557, "▁byle": 1558, "▁cicho": 1559, "res": 1560, "szej": 1561, "▁posła": 1562, "▁pat": 1563, "▁pyta": 1564, "▁ratu": 1565, "▁ogóle": 1566, "bel": 1567, "▁cho": 1568, "▁chcąc": 1569, "▁wzru": 1570, "aru": 1571, "▁poszedł": 1572, "▁Ach": 1573, "▁chwy": 1574, "▁kiedyś": 1575, "▁Dobrze": 1576, "▁zbro": 1577, "kać": 1578, "▁chcą": 1579, "▁przyby": 1580, "▁dobre": 1581, "▁in": 1582, "snął": 1583, "cznik": 1584, "▁stronie": 1585, "war": 1586, "▁sprawy": 1587, "▁ponieważ": 1588, "ciła": 1589, "pić": 1590, "▁końca": 1591, "▁wiel": 1592, "▁ar": 1593, "▁gru": 1594, "tej": 1595, "den": 1596, "▁J": 1597, "▁wieku": 1598, "▁Pani": 1599, "▁pieniędzy": 1600, "▁wielkim": 1601, "▁póki": 1602, "ił": 1603, "pia": 1604, "▁uda": 1605, "▁pły": 1606, "kiej": 1607, "▁tys": 1608, "ryj": 1609, "czem": 1610, "B": 1611, "▁istotnie": 1612, "▁klę": 1613, "▁sali": 1614, "▁dziedzi": 1615, "▁moich": 1616, "▁My": 1617, "▁wrócił": 1618, "▁staro": 1619, "▁prędko": 1620, "mię": 1621, "wić": 1622, "▁mówiła": 1623, "▁robić": 1624, "▁syn": 1625, "ter": 1626, "nością": 1627, "atu": 1628, "▁szedł": 1629, "lan": 1630, "stwem": 1631, "D": 1632, "▁dwu": 1633, "▁zosta": 1634, "ić": 1635, "▁Cze": 1636, "▁przyszedł": 1637, "ścić": 1638, "tka": 1639, "▁L": 1640, "▁patrzył": 1641, "▁modli": 1642, "▁An": 1643, "▁zgu": 1644, "lnym": 1645, "▁innym": 1646, "▁broni": 1647, "▁zdraj": 1648, "dne": 1649, "▁Nagle": 1650, "▁oko": 1651, "▁spokojnie": 1652, "żenie": 1653, "U": 1654, "▁powinien": 1655, "▁którymi": 1656, "czony": 1657, "▁Trzeba": 1658, "▁op": 1659, "▁świę": 1660, "▁bła": 1661, "sami": 1662, "▁Bu": 1663, "▁dru": 1664, "▁niedo": 1665, "dał": 1666, "▁żywo": 1667, "tni": 1668, "▁He": 1669, "▁jakim": 1670, "niejsze": 1671, "ob": 1672, ".,": 1673, "▁ciągu": 1674, "▁Boh": 1675, "▁pocie": 1676, "▁stron": 1677, "▁mówią": 1678, "▁godziny": 1679, "▁rząd": 1680, "▁naszego": 1681, "cią": 1682, "łym": 1683, "▁źle": 1684, "▁Proszę": 1685, "▁Re": 1686, "▁świąty": 1687, "▁dzisiaj": 1688, "tna": 1689, "▁dziesięć": 1690, "▁niepo": 1691, "▁pytanie": 1692, "czenie": 1693, "▁widząc": 1694, "nąwszy": 1695, "▁rzucił": 1696, "▁Sie": 1697, "al": 1698, "tar": 1699, "▁kur": 1700, "▁ude": 1701, "▁swym": 1702, "▁dobra": 1703, "cili": 1704, "kowie": 1705, "ńska": 1706, "▁panny": 1707, "▁uczynił": 1708, "▁wszedł": 1709, "▁kogo": 1710, "▁dzwo": 1711, "▁muszę": 1712, "wają": 1713, "tne": 1714, "▁powtórzył": 1715, "kiego": 1716, "▁łatwo": 1717, "▁znak": 1718, "▁samej": 1719, "nij": 1720, "taj": 1721, "▁ustawy": 1722, "▁gdzieś": 1723, "▁niby": 1724, "żny": 1725, "▁straszli": 1726, "biegł": 1727, "bił": 1728, "myś": 1729, "▁mieście": 1730, "▁proc": 1731, "▁uro": 1732, "▁sił": 1733, "▁krę": 1734, "▁zam": 1735, "bia": 1736, "▁mogło": 1737, "▁Lu": 1738, "▁ręki": 1739, "Nie": 1740, "▁idą": 1741, "▁żołnierze": 1742, "stał": 1743, "▁Pat": 1744, "▁wróci": 1745, "R": 1746, "I": 1747, "▁poch": 1748, "▁Ru": 1749, "▁nóg": 1750, "łał": 1751, "ak": 1752, "▁tobą": 1753, "▁rubli": 1754, "▁rad": 1755, "▁ojczy": 1756, "gach": 1757, "emu": 1758, "dzenie": 1759, "wych": 1760, "stra": 1761, "▁pierwsze": 1762, "bli": 1763, "ur": 1764, "▁wraca": 1765, "▁trą": 1766, "wili": 1767, "zja": 1768, "lone": 1769, "▁praw": 1770, "wego": 1771, "▁oj": 1772, "▁wę": 1773, "▁tuż": 1774, "▁szep": 1775, "▁Si": 1776, "▁gór": 1777, "▁włosy": 1778, "▁bądź": 1779, "▁trudno": 1780, "▁Nawet": 1781, "szyć": 1782, "▁kroków": 1783, "▁stanął": 1784, "▁lud": 1785, "▁skoro": 1786, "dzał": 1787, "ścia": 1788, "▁osoby": 1789, "lnych": 1790, "▁koza": 1791, "▁wolna": 1792, "▁żaden": 1793, "kroć": 1794, "▁wiedzieć": 1795, "▁be": 1796, "▁pomocy": 1797, "▁sro": 1798, "▁cy": 1799, "▁Kali": 1800, "gli": 1801, "tego": 1802, "▁gniew": 1803, "▁rozum": 1804, "óg": 1805, "▁różnych": 1806, "▁podróż": 1807, "▁twoje": 1808, "▁prędzej": 1809, "▁pogo": 1810, "▁Dzi": 1811, "óż": 1812, "▁słońce": 1813, "owanych": 1814, "wości": 1815, "▁stu": 1816, "tom": 1817, "bić": 1818, "▁mowa": 1819, "▁mego": 1820, "▁Chi": 1821, "▁mając": 1822, "▁wojna": 1823, "owana": 1824, "▁najbardziej": 1825, "mieni": 1826, "▁byłby": 1827, "dną": 1828, "chała": 1829, "▁żyje": 1830, "▁wodę": 1831, "gami": 1832, "▁przyszło": 1833, "rand": 1834, "Ł": 1835, "żony": 1836, "be": 1837, "ńcu": 1838, "uje": 1839, "tor": 1840, "▁panią": 1841, "▁gło": 1842, "eś": 1843, "'": 1844, "ró": 1845, "▁Dziś": 1846, "▁wkrótce": 1847, "▁Bogusław": 1848, "▁ogień": 1849, "jechał": 1850, "▁szczę": 1851, "▁pierwszym": 1852, "▁ul": 1853, "▁bogów": 1854, "ony": 1855, "▁drugą": 1856, "▁wstrzy": 1857, "▁wielkiego": 1858, "▁zakrzy": 1859, "▁kara": 1860, "▁Wówczas": 1861, "dli": 1862, "ałam": 1863, "▁znaleźć": 1864, "▁Iza": 1865, "łki": 1866, "▁szepnął": 1867, "▁Była": 1868, "lenie": 1869, "ństwo": 1870, "▁dziew": 1871, "▁żal": 1872, "▁stro": 1873, "▁trzyma": 1874, "▁celu": 1875, "▁Warszawie": 1876, "sł": 1877, "pać": 1878, "▁Ge": 1879, "▁me": 1880, "jeżdża": 1881, "▁możesz": 1882, "▁nikogo": 1883, "▁powi": 1884, "▁St": 1885, "▁pokry": 1886, "miał": 1887, "pał": 1888, "▁przychodzi": 1889, "▁ju": 1890, "▁Dlaczego": 1891, "ścił": 1892, "▁Zresztą": 1893, "▁wez": 1894, "▁drzewa": 1895, "▁zrobił": 1896, "wię": 1897, "▁stała": 1898, "▁wyzna": 1899, "▁tar": 1900, "czni": 1901, "▁Kie": 1902, "▁obraz": 1903, "▁głosy": 1904, "▁wyro": 1905, "▁ciała": 1906, "▁spokój": 1907, "▁wprost": 1908, "▁Są": 1909, "sach": 1910, "▁Dziękuję": 1911, "sił": 1912, "▁Ry": 1913, "▁pory": 1914, "od": 1915, "dło": 1916, "▁obaj": 1917, "▁odbi": 1918, "tuje": 1919, "▁Piotr": 1920, "▁niemal": 1921, "scy": 1922, "▁wcześniej": 1923, "ng": 1924, "▁jakaś": 1925, "men": 1926, "▁długi": 1927, "▁syna": 1928, "owało": 1929, "dząc": 1930, "gro": 1931, "▁patrząc": 1932, "nienie": 1933, "wski": 1934, "owska": 1935, "▁siedział": 1936, "daj": 1937, "▁mocno": 1938, "gać": 1939, "▁byłem": 1940, "▁Nad": 1941, "▁sen": 1942, "mał": 1943, "di": 1944, "jny": 1945, "▁któremu": 1946, "▁kobieta": 1947, "▁słyszał": 1948, "▁rękoma": 1949, "▁znać": 1950, "▁Krzyża": 1951, "▁ho": 1952, "szych": 1953, "▁ledwie": 1954, "gra": 1955, "▁uwagę": 1956, "▁wojsko": 1957, "dzony": 1958, "rzec": 1959, "▁słychać": 1960, "▁mru": 1961, "▁działa": 1962, "ling": 1963, "▁nowy": 1964, "▁leżą": 1965, "▁głowa": 1966, "szli": 1967, "zar": 1968, "▁nowo": 1969, "▁Mówi": 1970, "▁pia": 1971, "▁skar": 1972, "▁nieraz": 1973, "mień": 1974, "▁izby": 1975, "czo": 1976, "▁łą": 1977, "▁Star": 1978, "nili": 1979, "▁zła": 1980, "hu": 1981, "mią": 1982, "▁pię": 1983, "lnego": 1984, "▁naszym": 1985, "C": 1986, "ciela": 1987, "pią": 1988, "▁nara": 1989, "▁sły": 1990, "żenia": 1991, "sło": 1992, "▁chcieli": 1993, "▁Krze": 1994, "▁ręka": 1995, "▁drugim": 1996, "▁drugiego": 1997, "ntów": 1998, "▁Było": 1999, "com": 2000, "▁mogły": 2001, "▁latach": 2002, "el": 2003, "OR": 2004, "sznie": 2005, "owymi": 2006, "rzeć": 2007, "ału": 2008, "dziesz": 2009, "▁pre": 2010, "wany": 2011, "▁ukry": 2012, "owaniu": 2013, "niała": 2014, "gan": 2015, "▁czemu": 2016, "▁temat": 2017, "▁moc": 2018, "▁udział": 2019, "▁dale": 2020, "▁fe": 2021, "▁art": 2022, "<0xC3>": 2023, "▁jednocześnie": 2024, "▁Babi": 2025, "▁namie": 2026, "▁miłosier": 2027, "▁pad": 2028, "▁sześć": 2029, "▁wojnę": 2030, "▁głośno": 2031, "nne": 2032, "▁gorą": 2033, "▁komu": 2034, "nus": 2035, "▁Bra": 2036, "▁niebezpie": 2037, "jemy": 2038, "nikiem": 2039, "▁czuł": 2040, "▁Be": 2041, "▁Ho": 2042, "▁pocz": 2043, "▁ramiona": 2044, "▁Dopiero": 2045, "▁żołnie": 2046, "dziej": 2047, "dar": 2048, "▁Choć": 2049, "ten": 2050, "▁łzy": 2051, "▁Wszyscy": 2052, "▁wygląda": 2053, "▁zostać": 2054, "▁stąd": 2055, "dzian": 2056, "▁drugie": 2057, "▁tęsk": 2058, "▁Hi": 2059, "▁sprawę": 2060, "nice": 2061, "cię": 2062, "▁Aż": 2063, "▁poli": 2064, "▁czar": 2065, "▁godzin": 2066, "▁Albo": 2067, "▁umie": 2068, "ąd": 2069, "nny": 2070, "▁zaczyna": 2071, "▁jakoś": 2072, "gii": 2073, "▁wojsk": 2074, "bla": 2075, "gię": 2076, "ód": 2077, "gał": 2078, "liwie": 2079, "▁weso": 2080, "▁wielkiej": 2081, "▁polu": 2082, "one": 2083, "nienia": 2084, "▁róż": 2085, "▁ludźmi": 2086, "▁wybuch": 2087, "▁świątyni": 2088, "▁powa": 2089, "stę": 2090, "czym": 2091, "▁czer": 2092, "▁pot": 2093, "wienie": 2094, "▁złotych": 2095, "▁szuka": 2096, "▁Du": 2097, "der": 2098, "▁żadnej": 2099, "mienia": 2100, "▁innymi": 2101, "▁Tata": 2102, "▁Ot": 2103, "▁wielka": 2104, "▁znacznie": 2105, "▁siedzi": 2106, "▁odpowiedzi": 2107, "żyła": 2108, "wałem": 2109, "▁wedle": 2110, "▁ot": 2111, "▁byłoby": 2112, "▁muszą": 2113, "ram": 2114, "▁siła": 2115, "▁pol": 2116, "▁Wreszcie": 2117, "▁og": 2118, "▁mło": 2119, "▁zdrowie": 2120, "▁uważa": 2121, "wość": 2122, "▁Warszawy": 2123, "▁Sto": 2124, "▁bło": 2125, "lną": 2126, "▁zaledwie": 2127, "nowa": 2128, "▁zba": 2129, "▁pora": 2130, "▁sprawa": 2131, "dzenia": 2132, "▁męża": 2133, "▁posą": 2134, "lina": 2135, "▁mógłby": 2136, "▁mąż": 2137, "jmy": 2138, "▁wsi": 2139, "▁zamie": 2140, "▁ofiar": 2141, "▁chciała": 2142, "żone": 2143, "▁śnie": 2144, "mem": 2145, "▁słońca": 2146, "łach": 2147, "▁wpadł": 2148, "stym": 2149, "rak": 2150, "▁droga": 2151, "▁gotów": 2152, "kle": 2153, "lenia": 2154, "nione": 2155, "żyli": 2156, "▁cha": 2157, "▁jaka": 2158, "dziemy": 2159, "▁oczywiście": 2160, "▁cał": 2161, "▁pomocą": 2162, "▁Wiem": 2163, "▁widzieć": 2164, "▁dwadzieścia": 2165, "▁Pen": 2166, "ój": 2167, "▁pobo": 2168, "▁Bardzo": 2169, "mana": 2170, "zo": 2171, "▁per": 2172, "łych": 2173, "▁nieba": 2174, "▁żadnych": 2175, "pów": 2176, "▁ruszył": 2177, "▁f": 2178, "▁zdawało": 2179, "▁rzeki": 2180, "▁pochy": 2181, "▁nieu": 2182, "▁grozi": 2183, "chnął": 2184, "dzać": 2185, "rzeli": 2186, "stej": 2187, "▁dawna": 2188, "nii": 2189, "▁miały": 2190, "▁twarzą": 2191, "bio": 2192, "▁gry": 2193, "▁ruch": 2194, "łka": 2195, "▁podzi": 2196, "▁bły": 2197, "źli": 2198, "▁ciężko": 2199, "▁własne": 2200, "▁Dlatego": 2201, "jo": 2202, "▁bog": 2203, "szła": 2204, "▁Jakże": 2205, "▁wiatr": 2206, "▁pla": 2207, "ad": 2208, "▁posta": 2209, "▁ste": 2210, "▁groź": 2211, "▁zach": 2212, "▁zbliża": 2213, "▁mor": 2214, "▁zatem": 2215, "▁wysu": 2216, "▁czele": 2217, "▁jedynie": 2218, "▁Wą": 2219, "▁nade": 2220, "rzała": 2221, "▁całego": 2222, "▁pewien": 2223, "N": 2224, "▁poje": 2225, "ul": 2226, "▁obra": 2227, "▁ulicy": 2228, "▁brzegu": 2229, "▁dłużej": 2230, "▁kry": 2231, "▁polskich": 2232, "▁Sły": 2233, "▁kości": 2234, "leg": 2235, "wach": 2236, "▁Bie": 2237, "kolwiek": 2238, "▁bieg": 2239, "▁zab": 2240, "łę": 2241, "hor": 2242, "▁przybra": 2243, "ałe": 2244, "gry": 2245, "ństwa": 2246, "▁dwor": 2247, "▁Ś": 2248, "▁Spy": 2249, "▁ow": 2250, "▁tysiące": 2251, "lin": 2252, "▁spostrzegł": 2253, "▁matka": 2254, "▁radości": 2255, "▁powo": 2256, "▁prócz": 2257, "▁Ona": 2258, "▁uczynić": 2259, "tur": 2260, "▁miało": 2261, "▁pomyś": 2262, "dzieli": 2263, "▁poży": 2264, "szać": 2265, "gna": 2266, "▁pięk": 2267, "▁starego": 2268, "▁tymi": 2269, "czyło": 2270, "▁Naj": 2271, "▁zaczęła": 2272, "▁kilkanaście": 2273, "▁bom": 2274, "wienia": 2275, "▁osob": 2276, "ńską": 2277, "kowa": 2278, "▁napeł": 2279, "stała": 2280, "gia": 2281, "▁poseł": 2282, "pio": 2283, "▁fi": 2284, "▁Żeby": 2285, "▁Prawda": 2286, "czenia": 2287, "▁Słu": 2288, "▁spokoj": 2289, "ok": 2290, "▁poru": 2291, "żał": 2292, "▁szukać": 2293, "▁własną": 2294, "gni": 2295, "przy": 2296, "▁dawno": 2297, "▁nadzieję": 2298, "▁duszę": 2299, "▁wielkich": 2300, "▁Mie": 2301, "▁poda": 2302, "▁będziemy": 2303, "▁ludziom": 2304, "▁każdej": 2305, "▁jakąś": 2306, "▁lubi": 2307, "▁śmiał": 2308, "?!": 2309, "▁pocho": 2310, "▁ciało": 2311, "tała": 2312, "▁so": 2313, "▁dzięki": 2314, "ii": 2315, "▁stru": 2316, "▁namio": 2317, "▁zawie": 2318, "▁środku": 2319, "▁czoło": 2320, "▁cześć": 2321, "lona": 2322, "nemu": 2323, "niło": 2324, "▁zapom": 2325, "▁spa": 2326, "▁dar": 2327, "▁niemu": 2328, "▁Jana": 2329, "▁chy": 2330, "▁dziw": 2331, "▁kształt": 2332, "▁posu": 2333, "pem": 2334, "▁ostatni": 2335, "▁kobiet": 2336, "tk": 2337, "dniej": 2338, "▁Zaraz": 2339, "▁zebra": 2340, "▁nowi": 2341, "ali": 2342, "mieniem": 2343, "▁pusty": 2344, "▁dziewczyna": 2345, "▁wło": 2346, "owałem": 2347, "praw": 2348, "lna": 2349, "▁nowych": 2350, "▁wtrącił": 2351, "▁zbli": 2352, "▁zje": 2353, "lać": 2354, "▁przywi": 2355, "▁zgi": 2356, "miała": 2357, "nin": 2358, "▁Tym": 2359, "ster": 2360, "▁niczym": 2361, "▁wsze": 2362, "▁jednakże": 2363, "nera": 2364, "▁odpowiada": 2365, "ono": 2366, "▁ost": 2367, "▁zdoby": 2368, "▁rodzi": 2369, "▁wina": 2370, "dom": 2371, "▁okrzy": 2372, "chi": 2373, "niejszych": 2374, "▁najmniej": 2375, "tra": 2376, "▁wieści": 2377, "hy": 2378, "▁znam": 2379, "▁kla": 2380, "mił": 2381, "▁siłą": 2382, "▁nowego": 2383, "wane": 2384, "now": 2385, "▁odwie": 2386, "▁stały": 2387, "▁Ar": 2388, "▁Jestem": 2389, "▁arcy": 2390, "▁pola": 2391, "▁wszystkiego": 2392, "▁światło": 2393, "▁mówili": 2394, "▁rozmowy": 2395, "▁mąd": 2396, "▁odezwał": 2397, "▁milczeniu": 2398, "▁ogni": 2399, "▁ściany": 2400, "▁zbliżył": 2401, "▁miałem": 2402, "nnych": 2403, "▁same": 2404, "▁Oni": 2405, "szczę": 2406, "▁grz": 2407, "lała": 2408, "▁widziałem": 2409, "skę": 2410, "▁żyć": 2411, "▁bar": 2412, "▁wojewoda": 2413, "▁Pu": 2414, "▁szlachty": 2415, "zara": 2416, "▁odpowiedziała": 2417, "▁dam": 2418, "▁prawdę": 2419, "▁zawi": 2420, "niki": 2421, "▁spu": 2422, "▁krze": 2423, "▁Łę": 2424, "▁Daj": 2425, "▁umiał": 2426, "prze": 2427, "▁para": 2428, "▁daj": 2429, "wiła": 2430, "▁broń": 2431, "▁samą": 2432, "▁pomiędzy": 2433, "▁zawołała": 2434, "▁panów": 2435, "▁wydoby": 2436, "▁własnej": 2437, "▁służby": 2438, "▁byś": 2439, "▁Tego": 2440, "▁aniżeli": 2441, "▁przyjechał": 2442, "▁nadzwyczaj": 2443, "▁mów": 2444, "▁kole": 2445, "▁skarb": 2446, "▁przyje": 2447, "▁tat": 2448, "▁patrzy": 2449, "▁podobne": 2450, "▁uderzył": 2451, "stych": 2452, "▁mówisz": 2453, "▁każdego": 2454, "▁potrafi": 2455, "▁ognia": 2456, "czyły": 2457, "▁drzew": 2458, "▁krwa": 2459, "▁Chyba": 2460, "▁se": 2461, "▁okiem": 2462, "▁łaska": 2463, "▁Char": 2464, "róż": 2465, "▁wieczór": 2466, "▁wieczorem": 2467, "▁minister": 2468, "▁ludzkie": 2469, "▁rano": 2470, "kała": 2471, "▁listy": 2472, "▁pułkow": 2473, "▁dotychczas": 2474, "▁myśleć": 2475, "▁rozumiem": 2476, "cony": 2477, "▁niczego": 2478, "▁szu": 2479, "▁De": 2480, "▁zostało": 2481, "siu": 2482, "▁Wtedy": 2483, "▁rzę": 2484, "▁długie": 2485, "wal": 2486, "▁Al": 2487, "▁Nikt": 2488, "niku": 2489, "▁spi": 2490, "szony": 2491, "▁zni": 2492, "szczał": 2493, "▁jakiej": 2494, "▁kru": 2495, "czność": 2496, "▁dzia": 2497, "▁Micha": 2498, "▁stać": 2499, "dnym": 2500, "dzone": 2501, "wam": 2502, "▁zapewne": 2503, "▁owe": 2504, "zów": 2505, "▁jakich": 2506, "cone": 2507, "▁rzuca": 2508, "kon": 2509, "▁wpad": 2510, "▁poznał": 2511, "▁wydaje": 2512, "▁drogą": 2513, "▁nasza": 2514, "▁poga": 2515, "▁uczu": 2516, "▁patrzeć": 2517, "▁Bi": 2518, "▁zbu": 2519, "▁duch": 2520, "szenia": 2521, "▁lada": 2522, "▁pta": 2523, "▁zwycię": 2524, "/": 2525, "ent": 2526, "▁daleka": 2527, "niami": 2528, "▁szczęśli": 2529, "▁wziąć": 2530, "tyka": 2531, "▁Ocho": 2532, "▁wzrok": 2533, "▁Ła": 2534, "▁Oj": 2535, "par": 2536, "szek": 2537, "▁rana": 2538, "▁krzyk": 2539, "▁zako": 2540, "▁otwiera": 2541, "rod": 2542, "kwi": 2543, "▁daje": 2544, "rzyli": 2545, "▁II": 2546, "▁zostały": 2547, "▁możemy": 2548, "▁spoj": 2549, "▁*": 2550, "▁uroczy": 2551, "J": 2552, "▁ostatnich": 2553, "▁opat": 2554, "sić": 2555, "▁sytuacji": 2556, "czej": 2557, "▁mro": 2558, "niom": 2559, "rowa": 2560, "dnych": 2561, "▁ką": 2562, "▁Jeden": 2563, "fe": 2564, "▁baro": 2565, "▁głębi": 2566, "ez": 2567, "▁siedzą": 2568, "▁brze": 2569, "nio": 2570, "▁przyj": 2571, "▁wrażenie": 2572, "▁Au": 2573, "▁niewi": 2574, "▁rozmowę": 2575, "▁raj": 2576, "▁krzyża": 2577, "▁obro": 2578, "▁mruknął": 2579, "▁sąd": 2580, "▁np": 2581, "▁ludu": 2582, "▁Now": 2583, "▁leży": 2584, "▁żelaz": 2585, "▁wino": 2586, "▁napad": 2587, "▁Tar": 2588, "hi": 2589, "szt": 2590, "▁widzisz": 2591, "▁podobny": 2592, "▁oddał": 2593, "▁dowie": 2594, "stro": 2595, "lik": 2596, "niły": 2597, "lek": 2598, "▁zarówno": 2599, "▁komen": 2600, "▁tale": 2601, "▁piecho": 2602, "liła": 2603, "▁czynić": 2604, "▁kę": 2605, "▁wojnie": 2606, "▁białe": 2607, "▁wypad": 2608, "▁wła": 2609, "▁Pie": 2610, "▁Panna": 2611, "bij": 2612, "▁Szu": 2613, "▁zbiera": 2614, "▁szar": 2615, "▁postać": 2616, "▁błęki": 2617, "▁słusz": 2618, "▁jakże": 2619, "ri": 2620, "▁żar": 2621, "▁wyda": 2622, "▁Przecież": 2623, "▁Masz": 2624, "▁zawo": 2625, "▁radość": 2626, "▁kim": 2627, "▁Eu": 2628, "czoną": 2629, "▁Wil": 2630, "dziano": 2631, "▁rozumie": 2632, "▁znajdzie": 2633, "▁kul": 2634, "▁przypadku": 2635, "▁Ob": 2636, "▁egip": 2637, "▁piersiach": 2638, "liwy": 2639, "bów": 2640, "im": 2641, "▁jemu": 2642, "▁szlachet": 2643, "▁zamy": 2644, "▁równie": 2645, "szki": 2646, "kar": 2647, "tną": 2648, "▁zja": 2649, "▁godzinę": 2650, "▁dusza": 2651, "▁sur": 2652, "▁twoja": 2653, "▁wasze": 2654, "▁strach": 2655, "!\"": 2656, "roż": 2657, "chaj": 2658, "▁okry": 2659, "stwie": 2660, "szenie": 2661, "▁dosyć": 2662, "▁wzbu": 2663, "▁Ludzie": 2664, ".)": 2665, "ctwo": 2666, "is": 2667, "▁okna": 2668, "▁kamie": 2669, "czego": 2670, "▁posiada": 2671, "▁Każdy": 2672, "wana": 2673, "leci": 2674, "▁zanim": 2675, "ród": 2676, "ene": 2677, "łowi": 2678, "▁zatrzymał": 2679, "▁ły": 2680, "niejsza": 2681, "▁żadnego": 2682, "▁prowadzi": 2683, "▁Ur": 2684, "▁Jam": 2685, "▁wyciąg": 2686, "▁zdaje": 2687, "zię": 2688, "śka": 2689, "▁mln": 2690, "stów": 2691, "lon": 2692, "▁Bez": 2693, "▁niewy": 2694, "kt": 2695, "L": 2696, "dziesiąt": 2697, "▁spie": 2698, "▁miarę": 2699, "▁roboty": 2700, "rzyła": 2701, "bieg": 2702, "set": 2703, "▁opowiada": 2704, "▁prezes": 2705, "▁stara": 2706, "rzenia": 2707, "ille": 2708, "▁ziem": 2709, "▁Ignacy": 2710, "▁bić": 2711, "▁włó": 2712, "▁opu": 2713, "▁dworze": 2714, "▁Pana": 2715, "▁różne": 2716, "▁udało": 2717, "jda": 2718, "▁bru": 2719, "▁opa": 2720, "kow": 2721, "▁rzeczywiście": 2722, "▁Rz": 2723, "▁poprzednio": 2724, "▁szli": 2725, "▁obej": 2726, "▁złe": 2727, "dowi": 2728, "tam": 2729, "▁zie": 2730, "▁jesteśmy": 2731, "ria": 2732, "▁rozpa": 2733, "▁zechce": 2734, "bach": 2735, "rzawszy": 2736, "▁kasz": 2737, "dnej": 2738, "▁nr": 2739, "owskiej": 2740, "owskim": 2741, "▁własnym": 2742, "▁poczyna": 2743, "▁powietrze": 2744, "ble": 2745, "▁Or": 2746, "▁odrze": 2747, "▁chu": 2748, "▁trzeci": 2749, "▁postanowił": 2750, "▁chwycił": 2751, "czar": 2752, "źni": 2753, "▁czasach": 2754, ".:": 2755, "wny": 2756, "podob": 2757, "▁Tomasz": 2758, "zach": 2759, "▁przeba": 2760, "▁powtarza": 2761, "▁ducha": 2762, "▁Cz": 2763, "owiec": 2764, "▁zdrowia": 2765, "v": 2766, "▁pierwszego": 2767, "▁pas": 2768, "ńce": 2769, "▁Mnie": 2770, "ściach": 2771, "▁uśmiechem": 2772, "▁pytania": 2773, "ńców": 2774, "▁mieszkańców": 2775, "▁dniach": 2776, "▁dwaj": 2777, "▁staje": 2778, "▁czasy": 2779, "▁pełne": 2780, "▁izbie": 2781, "▁rękach": 2782, "rys": 2783, "pom": 2784, "▁jechał": 2785, "▁Pom": 2786, "▁przysię": 2787, "tr": 2788, "ton": 2789, "▁Czech": 2790, "▁Często": 2791, "▁pe": 2792, "art": 2793, "stego": 2794, "▁rodzaju": 2795, "▁związku": 2796, "▁czasów": 2797, "▁państwo": 2798, "▁miły": 2799, "▁śle": 2800, "żywszy": 2801, "▁zrobi": 2802, "▁opo": 2803, "▁obja": 2804, "▁Zy": 2805, "dziło": 2806, "▁pracę": 2807, "▁przeto": 2808, "▁Hej": 2809, "▁wal": 2810, "gnął": 2811, "rzony": 2812, "▁wieść": 2813, "▁oboje": 2814, "▁przyszła": 2815, "▁interes": 2816, "nios": 2817, "▁dziecka": 2818, "skach": 2819, "▁Powiedz": 2820, "lii": 2821, "stem": 2822, "▁głęboko": 2823, "liz": 2824, "▁.": 2825, "▁mieszkania": 2826, "▁Stary": 2827, "ato": 2828, "kować": 2829, "▁Lon": 2830, "▁bitwy": 2831, "tość": 2832, "▁groma": 2833, "▁ślub": 2834, "▁próżno": 2835, "▁odpowiedź": 2836, "▁los": 2837, "▁szyję": 2838, "▁ziemia": 2839, "▁os": 2840, "chodzi": 2841, "▁miejsc": 2842, "ktor": 2843, "▁powiedziała": 2844, "cowi": 2845, "▁sztur": 2846, "słał": 2847, "▁podda": 2848, "rzami": 2849, "▁znajduje": 2850, "lia": 2851, "wiać": 2852, "chodził": 2853, "tnym": 2854, "▁kilkunastu": 2855, "aną": 2856, "▁szczęścia": 2857, "▁dniu": 2858, "▁świet": 2859, "▁wypadku": 2860, "▁składa": 2861, "czyk": 2862, "▁podnosi": 2863, "zajutrz": 2864, "▁okolicy": 2865, "▁matki": 2866, "▁według": 2867, "▁głosu": 2868, "▁minut": 2869, "▁żony": 2870, "sną": 2871, "▁policji": 2872, "▁skoczył": 2873, "dział": 2874, "▁ża": 2875, "fu": 2876, "▁wiedzą": 2877, "▁Zo": 2878, "▁koniu": 2879, "jesz": 2880, "kowe": 2881, "▁potrzeba": 2882, "▁Otóż": 2883, "▁czegoś": 2884, "▁ocho": 2885, "▁miesięcy": 2886, "▁czekać": 2887, "▁odzy": 2888, "▁mal": 2889, "nta": 2890, "▁wyraźnie": 2891, "dawało": 2892, "▁małe": 2893, "▁imieniu": 2894, "▁skrę": 2895, "▁brata": 2896, "▁osiem": 2897, "jał": 2898, "▁męż": 2899, "▁gdybym": 2900, "▁Gre": 2901, "▁ple": 2902, "▁bro": 2903, "są": 2904, "pad": 2905, "▁niespokoj": 2906, "▁tacy": 2907, "▁tłum": 2908, "▁Łu": 2909, "▁podob": 2910, "▁człowiekiem": 2911, "▁naszą": 2912, "▁bli": 2913, "▁musiała": 2914, "ment": 2915, "▁dokładnie": 2916, "▁czterech": 2917, "▁cia": 2918, "stnik": 2919, "▁Wszak": 2920, "▁powoli": 2921, "▁wysła": 2922, "nięte": 2923, "cenia": 2924, "▁łatwiej": 2925, "▁domy": 2926, "▁zobaczyć": 2927, "▁kre": 2928, "letni": 2929, "tali": 2930, "il": 2931, "▁Czemu": 2932, "▁znie": 2933, "chę": 2934, "gon": 2935, "got": 2936, "▁snu": 2937, "▁ujrzał": 2938, "▁Będzie": 2939, "▁dz": 2940, "siadł": 2941, "dły": 2942, "nał": 2943, "▁wysoko": 2944, "kra": 2945, "▁wro": 2946, "▁Se": 2947, "waniu": 2948, "▁ból": 2949, "▁czci": 2950, "▁młodego": 2951, "chowie": 2952, "▁wami": 2953, "▁złego": 2954, "▁otworzył": 2955, "▁bliżej": 2956, "▁mocy": 2957, "wieniem": 2958, "▁postaci": 2959, "▁poprze": 2960, "▁bierze": 2961, "▁ostatnie": 2962, "▁firmy": 2963, "▁obecnie": 2964, "▁mury": 2965, "▁wese": 2966, "rzyły": 2967, "▁obo": 2968, "▁Ki": 2969, "▁Sze": 2970, "▁kor": 2971, "▁Stra": 2972, "liście": 2973, "▁słuchał": 2974, "▁Jednak": 2975, "▁krwią": 2976, "ślił": 2977, "▁zasło": 2978, "▁ojczyzny": 2979, "▁poznać": 2980, "▁zale": 2981, "▁twarze": 2982, "▁miecz": 2983, "▁sklepu": 2984, "kuje": 2985, "pana": 2986, "czonych": 2987, "ciąg": 2988, "▁chętnie": 2989, "▁Bogda": 2990, "beli": 2991, "ąc": 2992, "▁maj": 2993, "▁pobliżu": 2994, "▁wszędzie": 2995, "▁ruchu": 2996, "▁przyjął": 2997, "▁zwró": 2998, "▁zas": 2999, "▁zwi": 3000, "▁zerwał": 3001, "kali": 3002, "▁głównie": 3003, "▁Ga": 3004, "▁ciągnął": 3005, "▁Egipt": 3006, "▁Egiptu": 3007, "▁obozu": 3008, "▁Tur": 3009, "▁Chrystus": 3010, "▁pożegna": 3011, "tan": 3012, "▁przedtem": 3013, "▁posłów": 3014, "▁boku": 3015, "tymi": 3016, "ks": 3017, "▁uszy": 3018, "▁zgo": 3019, "▁duże": 3020, "wskiego": 3021, "▁lite": 3022, "▁wiadomości": 3023, "▁nę": 3024, "▁pójdzie": 3025, "strze": 3026, "▁har": 3027, "ciły": 3028, "dziły": 3029, "▁leżał": 3030, "▁radzi": 3031, "kły": 3032, "▁zęby": 3033, "▁stołu": 3034, "▁mio": 3035, "pły": 3036, "pada": 3037, "dno": 3038, "▁znik": 3039, "▁każ": 3040, "▁umyś": 3041, "▁Wasza": 3042, "jów": 3043, "▁cier": 3044, "▁ruszy": 3045, "▁najlepiej": 3046, "▁wierzy": 3047, "▁daw": 3048, "▁tamtej": 3049, "▁dział": 3050, "skał": 3051, "gel": 3052, "▁odpowie": 3053, "▁Skąd": 3054, "▁żół": 3055, "▁osła": 3056, "▁śli": 3057, "▁szan": 3058, "nd": 3059, "knie": 3060, "bar": 3061, "▁myślą": 3062, "▁padł": 3063, "▁wodą": 3064, "▁podróży": 3065, "cką": 3066, "▁okrop": 3067, "▁niegdyś": 3068, "▁czekał": 3069, "▁ser": 3070, "▁Miał": 3071, "▁Woj": 3072, "▁niewol": 3073, "▁każe": 3074, "▁siedem": 3075, "▁Cha": 3076, "▁kolei": 3077, "▁pogrą": 3078, "szo": 3079, "dle": 3080, "nnym": 3081, "▁rodziny": 3082, "anna": 3083, "▁głosów": 3084, "▁Polska": 3085, "óz": 3086, "▁Rady": 3087, "▁Zna": 3088, "kowski": 3089, "▁sch": 3090, "▁obozie": 3091, "▁uci": 3092, "▁pałacu": 3093, "▁miesiąc": 3094, "▁schwy": 3095, "▁wyrzu": 3096, "▁mogłem": 3097, "▁panien": 3098, "▁umy": 3099, "▁pamięta": 3100, "▁win": 3101, "▁dali": 3102, "▁przypomina": 3103, "▁uspoko": 3104, "cina": 3105, "▁Mal": 3106, "▁doj": 3107, "▁spać": 3108, "▁porządku": 3109, "▁wszelkie": 3110, "AR": 3111, "▁jas": 3112, "▁um": 3113, "▁kieli": 3114, "szone": 3115, "▁jakiego": 3116, "ren": 3117, "▁wysokości": 3118, "bro": 3119, "kował": 3120, "▁stan": 3121, "przód": 3122, "▁kwi": 3123, "bami": 3124, "▁sposobem": 3125, "▁nadziei": 3126, "▁wzdłuż": 3127, "▁chwilą": 3128, "czona": 3129, "szły": 3130, "▁pięciu": 3131, "▁gła": 3132, "▁dawniej": 3133, "▁Tele": 3134, "▁rozkazu": 3135, "▁Mój": 3136, "▁przestra": 3137, "▁ramię": 3138, "▁zuch": 3139, "▁wios": 3140, "chami": 3141, "▁jeźdź": 3142, "▁polskiego": 3143, "▁innej": 3144, "śnia": 3145, "▁obfi": 3146, "▁Kry": 3147, "▁ucieka": 3148, "▁leci": 3149, "▁brać": 3150, "rzenie": 3151, "czności": 3152, "▁rozkazy": 3153, "trzy": 3154, "▁pewnością": 3155, "dow": 3156, "glądał": 3157, "sław": 3158, "▁powiedz": 3159, "▁Gro": 3160, "dzeniu": 3161, "▁dostać": 3162, "▁święty": 3163, "▁drze": 3164, "szów": 3165, "▁Py": 3166, "▁ubo": 3167, "pki": 3168, "▁spokoju": 3169, "jach": 3170, "▁pokój": 3171, "▁Właśnie": 3172, "dra": 3173, "▁powrót": 3174, "▁wiary": 3175, "▁Szla": 3176, "▁lę": 3177, "czer": 3178, "łami": 3179, "▁jedzie": 3180, "▁życz": 3181, "▁pop": 3182, "▁jazdy": 3183, "nięty": 3184, "▁cisza": 3185, "▁zaję": 3186, "jącymi": 3187, "▁wielce": 3188, "▁pamięci": 3189, "owaniem": 3190, "▁olbrzymi": 3191, "▁zakon": 3192, "▁powinna": 3193, "▁trzymał": 3194, "▁łeb": 3195, "▁Mów": 3196, "▁domów": 3197, "▁Sy": 3198, "▁sil": 3199, "▁brat": 3200, "▁mię": 3201, "▁Raz": 3202, "▁każdą": 3203, "▁żyw": 3204, "▁chodzić": 3205, "▁dostał": 3206, "sp": 3207, "łowie": 3208, "▁żona": 3209, "ściu": 3210, "▁mistrz": 3211, "▁przesta": 3212, "▁większe": 3213, "io": 3214, "▁wydał": 3215, "▁nadal": 3216, "▁gor": 3217, "▁rynku": 3218, "rona": 3219, "▁doświad": 3220, "▁wtó": 3221, "szło": 3222, "*": 3223, "▁stole": 3224, "▁Natomiast": 3225, "rzej": 3226, "czką": 3227, "szem": 3228, "▁względu": 3229, "▁Można": 3230, "▁au": 3231, "pali": 3232, "mując": 3233, "owanym": 3234, "gad": 3235, "▁Jezus": 3236, "cio": 3237, "▁druga": 3238, "ódł": 3239, "łości": 3240, "▁walki": 3241, "▁spy": 3242, "rabia": 3243, "▁Ani": 3244, "▁uśmiechnął": 3245, "ciera": 3246, "▁gniewu": 3247, "▁majątek": 3248, "▁kawaler": 3249, "ałą": 3250, "▁zamek": 3251, "fek": 3252, "czący": 3253, "▁przeciwko": 3254, "▁znaleźli": 3255, "nica": 3256, "▁Wszystkie": 3257, "▁polskie": 3258, "▁swojego": 3259, "▁regi": 3260, "▁księżna": 3261, "▁wpół": 3262, "▁chwi": 3263, "▁nikomu": 3264, "▁Nigdy": 3265, "fry": 3266, "▁wypra": 3267, "▁wychodzi": 3268, "▁głów": 3269, "chowa": 3270, "▁Cho": 3271, "▁ws": 3272, "▁słuchać": 3273, "▁Sza": 3274, "▁dwór": 3275, "▁Miller": 3276, "▁up": 3277, "▁pal": 3278, "▁jadą": 3279, "sława": 3280, "cenie": 3281, "żona": 3282, "▁młodzi": 3283, "▁pozwoli": 3284, "czce": 3285, "biera": 3286, "nnej": 3287, "▁Pewnie": 3288, "▁oddać": 3289, "▁spę": 3290, "jazd": 3291, "▁woda": 3292, "▁skło": 3293, "waż": 3294, "niały": 3295, "nic": 3296, "▁SLD": 3297, "▁wartości": 3298, "▁szkoły": 3299, "kiewicz": 3300, "owia": 3301, "▁oficer": 3302, "żeniem": 3303, "randa": 3304, "▁niem": 3305, "▁komi": 3306, "▁speł": 3307, "▁króle": 3308, "żej": 3309, "▁wstał": 3310, "stąpi": 3311, "▁Polaków": 3312, "▁ura": 3313, "▁wojewo": 3314, "▁trafi": 3315, "▁informacji": 3316, "▁Król": 3317, "▁pójdę": 3318, "▁Sak": 3319, "▁straż": 3320, "ciół": 3321, "leni": 3322, "▁ukazał": 3323, "▁smo": 3324, "dzono": 3325, "▁Chrystusa": 3326, "▁Tadeusz": 3327, "nkę": 3328, "czych": 3329, "▁następca": 3330, "▁dopóki": 3331, "dr": 3332, "▁Owszem": 3333, "▁żył": 3334, "▁wybi": 3335, "wiej": 3336, "▁zbo": 3337, "▁wym": 3338, "▁Pój": 3339, "pry": 3340, "▁własnych": 3341, "▁zmiany": 3342, "rad": 3343, "czono": 3344, "▁rada": 3345, "▁robo": 3346, "▁niewiele": 3347, "liwości": 3348, "chą": 3349, "żo": 3350, "ściem": 3351, "▁wzrokiem": 3352, "▁ciem": 3353, "ina": 3354, "▁wolę": 3355, "▁zm": 3356, "▁kierunku": 3357, "▁spotkanie": 3358, "▁nieprze": 3359, "▁uwagi": 3360, "ńscy": 3361, "rzcie": 3362, "▁łzami": 3363, "orów": 3364, "▁strzał": 3365, "żnych": 3366, "▁skończy": 3367, "nikami": 3368, "▁chodziło": 3369, "▁myślisz": 3370, "▁pewnym": 3371, "▁przyczyny": 3372, "▁małego": 3373, "▁poło": 3374, "▁samych": 3375, "dzej": 3376, "▁for": 3377, "▁poś": 3378, "▁tłumy": 3379, "▁brwi": 3380, "▁prosto": 3381, "▁niedźwie": 3382, "▁Gu": 3383, "▁Men": 3384, "▁przyjść": 3385, "▁liście": 3386, "▁przyzna": 3387, "▁wrócić": 3388, "niósł": 3389, "▁Niem": 3390, "▁Wczoraj": 3391, "▁stracił": 3392, "▁dnie": 3393, "zm": 3394, "▁zastęp": 3395, "▁zaba": 3396, "▁powietrzu": 3397, "▁gi": 3398, "stawi": 3399, "skoczył": 3400, "▁tronu": 3401, "▁kolana": 3402, "▁krzyw": 3403, "▁siłę": 3404, "▁Czego": 3405, "▁nasi": 3406, "muje": 3407, "▁morze": 3408, "ck": 3409, "▁upły": 3410, "▁będąc": 3411, "▁rozmyś": 3412, "▁brał": 3413, "▁ramionami": 3414, "kimi": 3415, "kały": 3416, "▁wzgó": 3417, "▁oblę": 3418, "▁spodzie": 3419, "▁zależy": 3420, "▁wypu": 3421, "▁tydzień": 3422, "▁ostatniej": 3423, "▁partii": 3424, "▁Kazimierz": 3425, "▁sądu": 3426, "▁uśmiech": 3427, "▁bram": 3428, "łow": 3429, "▁Mem": 3430, "dnego": 3431, "▁ele": 3432, "▁Żydów": 3433, "▁rzeź": 3434, "▁pewny": 3435, "▁bronić": 3436, "▁pieśni": 3437, "ban": 3438, "▁ministra": 3439, "▁am": 3440, "▁oddział": 3441, "pro": 3442, "▁Według": 3443, "ol": 3444, "czała": 3445, "▁poszli": 3446, "▁znał": 3447, "▁owa": 3448, "▁stóp": 3449, "▁nogami": 3450, "rzo": 3451, "▁fur": 3452, "ber": 3453, "▁he": 3454, "▁wró": 3455, "▁Jakie": 3456, "▁sprzeda": 3457, "mać": 3458, "lep": 3459, "▁szczerze": 3460, "▁naraz": 3461, "▁zamyś": 3462, "▁pośpie": 3463, "▁oficerów": 3464, "żnie": 3465, "▁powtarzał": 3466, "▁musieli": 3467, "▁wiadomość": 3468, "▁dą": 3469, "▁zachwy": 3470, "wione": 3471, "▁wyprowa": 3472, "▁Dzie": 3473, "▁km": 3474, "▁doskonale": 3475, "ner": 3476, "▁jakimś": 3477, "▁podoba": 3478, "▁zw": 3479, "▁młodych": 3480, "▁pierw": 3481, "▁rą": 3482, "▁uf": 3483, "czały": 3484, "▁podał": 3485, "▁wzię": 3486, "▁wyżej": 3487, "▁pożar": 3488, "▁dół": 3489, "▁większą": 3490, "▁wyp": 3491, "wskiej": 3492, "▁znu": 3493, "▁osa": 3494, "▁władzy": 3495, "▁dziewczyny": 3496, "▁niekiedy": 3497, "▁fanta": 3498, "sny": 3499, "nna": 3500, "▁wiecznie": 3501, "gom": 3502, "▁bole": 3503, "▁milczenie": 3504, "▁otacza": 3505, "▁Pal": 3506, "▁wesoło": 3507, "▁Stanisław": 3508, "spo": 3509, "▁robił": 3510, "bem": 3511, "▁pali": 3512, "piera": 3513, "▁górze": 3514, "ury": 3515, "liwe": 3516, "x": 3517, "ctwa": 3518, "▁stali": 3519, "▁Dy": 3520, "▁zwyczaj": 3521, "▁maja": 3522, "▁posę": 3523, "gle": 3524, "dzisz": 3525, "▁wolał": 3526, "▁najwięcej": 3527, "▁pamiętam": 3528, "tanie": 3529, "▁kobie": 3530, "cymi": 3531, "▁rozległ": 3532, "▁późno": 3533, "▁skóry": 3534, "dzkie": 3535, "▁prezydenta": 3536, "▁szczególnie": 3537, "▁owo": 3538, "▁proces": 3539, "▁Cie": 3540, "rócił": 3541, "▁zza": 3542, "▁każda": 3543, "tnych": 3544, "▁czarne": 3545, "pyty": 3546, "stki": 3547, "▁posa": 3548, "▁wieczora": 3549, "▁pój": 3550, "▁bywa": 3551, "wki": 3552, "ałów": 3553, "▁złota": 3554, "▁Gra": 3555, "▁grupy": 3556, "▁sklep": 3557, "▁okazji": 3558, "▁stada": 3559, "▁wściekło": 3560, "▁rozbi": 3561, "▁wznosi": 3562, "▁okoli": 3563, "▁spotka": 3564, "żne": 3565, "żd": 3566, "▁ciszy": 3567, "▁dowód": 3568, "pach": 3569, "brze": 3570, "▁bój": 3571, "▁krą": 3572, "▁Mimo": 3573, "▁godzi": 3574, "▁usu": 3575, "dal": 3576, "tora": 3577, "▁wiedząc": 3578, "▁gorzej": 3579, "▁jakiegoś": 3580, "▁chciałem": 3581, "▁boga": 3582, "▁trza": 3583, "liwość": 3584, "▁naprzeciw": 3585, "▁pragnie": 3586, "▁kot": 3587, "▁pewnego": 3588, "niejszym": 3589, "pami": 3590, "▁cień": 3591, "nną": 3592, "▁pała": 3593, "▁polskiej": 3594, "▁Andrzeja": 3595, "▁anty": 3596, "▁Kro": 3597, "czonym": 3598, "▁Asy": 3599, "bara": 3600, "▁pomie": 3601, "▁pochwy": 3602, "▁niepokój": 3603, "▁strachu": 3604, "▁inną": 3605, "mą": 3606, "▁dost": 3607, "tel": 3608, "▁mnóstwo": 3609, "szedłem": 3610, "▁gwar": 3611, "cjach": 3612, "▁pija": 3613, "dali": 3614, "pra": 3615, "▁Ł": 3616, "▁stanu": 3617, "szyła": 3618, "▁nosi": 3619, "▁mat": 3620, "▁pojechał": 3621, "iada": 3622, "▁Wyso": 3623, "▁trzydzieści": 3624, "▁srebr": 3625, "▁wypadek": 3626, "▁rozmawia": 3627, "▁rządu": 3628, "▁skry": 3629, "ich": 3630, "▁słowem": 3631, "▁światła": 3632, "ss": 3633, "▁wyszła": 3634, "▁słod": 3635, "▁upad": 3636, "▁częściej": 3637, "dka": 3638, "▁Dob": 3639, "▁szko": 3640, "kowych": 3641, "żna": 3642, "▁obszer": 3643, "▁proro": 3644, "▁wspomina": 3645, "▁Zako": 3646, "▁nieja": 3647, "▁widzieli": 3648, "▁Niemców": 3649, "▁dala": 3650, "ge": 3651, "rowie": 3652, "rzały": 3653, "▁tylu": 3654, "▁sma": 3655, "chach": 3656, "zą": 3657, "daw": 3658, "manie": 3659, "owanego": 3660, "▁deszcz": 3661, "▁program": 3662, "▁zwierząt": 3663, "▁hra": 3664, "▁któ": 3665, "▁Myś": 3666, "dnia": 3667, "krzy": 3668, "▁winy": 3669, "noty": 3670, "▁wyraz": 3671, "ER": 3672, "▁gwał": 3673, "▁wyciągnął": 3674, "▁procent": 3675, "tro": 3676, "gla": 3677, "roz": 3678, "▁przeszło": 3679, "▁utra": 3680, "jski": 3681, "kowy": 3682, "▁skład": 3683, "▁Ależ": 3684, "▁względem": 3685, "▁dum": 3686, "żyły": 3687, "▁przemówi": 3688, "▁strzel": 3689, "jne": 3690, "▁al": 3691, "▁spytała": 3692, "stw": 3693, "dro": 3694, "▁hań": 3695, "▁nową": 3696, "kro": 3697, "żka": 3698, "▁opuścił": 3699, "▁tzw": 3700, "nięcie": 3701, "▁wynika": 3702, "▁właściwie": 3703, "▁pustyni": 3704, "▁dworu": 3705, "▁łaski": 3706, "▁przeszedł": 3707, "nina": 3708, "▁dobrą": 3709, "try": 3710, "▁uło": 3711, "▁pewna": 3712, "▁stół": 3713, "▁Taki": 3714, "▁dobrego": 3715, "▁zdoła": 3716, "rym": 3717, "▁pierwszych": 3718, "▁kogoś": 3719, "▁pamięć": 3720, "szczą": 3721, "▁akcji": 3722, "▁rację": 3723, "▁sprowa": 3724, "▁zgodnie": 3725, "▁Niemcy": 3726, "nk": 3727, "▁piechoty": 3728, "▁starosta": 3729, "▁Justyna": 3730, "▁pies": 3731, "ńcy": 3732, "▁przyjaciół": 3733, "nąc": 3734, "▁otu": 3735, "nnie": 3736, "piec": 3737, "owicza": 3738, "▁szeroko": 3739, "▁księdza": 3740, "▁wyra": 3741, "dki": 3742, "▁bry": 3743, "sę": 3744, "byśmy": 3745, "wiam": 3746, "▁oś": 3747, "▁pozwala": 3748, "▁większość": 3749, "kowej": 3750, "▁przedstawi": 3751, "▁wolności": 3752, "▁warto": 3753, "▁Maria": 3754, "▁niedawno": 3755, "▁przyja": 3756, "▁tył": 3757, "▁Ak": 3758, "▁podnie": 3759, "cher": 3760, "ódz": 3761, "szcie": 3762, "▁drob": 3763, "▁wsta": 3764, "nuje": 3765, "żonych": 3766, "▁zada": 3767, "▁nazwisko": 3768, "▁przyjaciel": 3769, "▁sercem": 3770, "▁oku": 3771, "▁gu": 3772, "glądać": 3773, "▁wia": 3774, "▁chłopak": 3775, "▁więzienia": 3776, "stia": 3777, "▁koron": 3778, "▁zabiera": 3779, "▁got": 3780, "▁loka": 3781, "▁Między": 3782, "miesz": 3783, "▁Jednakże": 3784, "▁miast": 3785, "▁fortu": 3786, "zem": 3787, "czeć": 3788, "▁prosi": 3789, "dłem": 3790, "▁brzeg": 3791, "▁kaza": 3792, "▁głupi": 3793, "ham": 3794, "▁leś": 3795, "nosić": 3796, "ate": 3797, "▁plu": 3798, "tóż": 3799, "▁cio": 3800, "▁Witold": 3801, "▁mogąc": 3802, "▁mojego": 3803, "▁pociąg": 3804, "▁piękny": 3805, "ura": 3806, "▁bitwie": 3807, "▁swymi": 3808, "▁uśmie": 3809, "▁nieszczęśli": 3810, "▁nieszczęście": 3811, "▁żał": 3812, "▁pospoli": 3813, "laty": 3814, "▁pierwsza": 3815, "▁niektórzy": 3816, "lega": 3817, "▁wóz": 3818, "▁nieje": 3819, "roni": 3820, "▁twoją": 3821, "▁możliwości": 3822, "▁Aby": 3823, "▁wchodzi": 3824, "▁wymie": 3825, "▁podobno": 3826, "mieniu": 3827, "▁oskar": 3828, "▁Hu": 3829, "▁pracowników": 3830, "gina": 3831, "▁Jej": 3832, "duje": 3833, "▁Jere": 3834, "▁rozpu": 3835, "▁ture": 3836, "▁oca": 3837, "usze": 3838, "▁strzela": 3839, "czas": 3840, "▁bó": 3841, "▁radością": 3842, "▁Któ": 3843, "▁następcy": 3844, "▁pięćdziesiąt": 3845, "▁chłopów": 3846, "▁tyłu": 3847, "▁sze": 3848, "cyjne": 3849, "▁twojej": 3850, "▁dokąd": 3851, "rej": 3852, "▁podniosła": 3853, "▁Szczę": 3854, "▁wrza": 3855, "▁cel": 3856, "▁przypad": 3857, "mio": 3858, "▁kościoła": 3859, "▁krzyż": 3860, "▁godz": 3861, "czące": 3862, "▁jedni": 3863, "▁odpowiedzial": 3864, "▁osoba": 3865, "▁okno": 3866, "dwie": 3867, "▁mą": 3868, "noś": 3869, "▁zem": 3870, "dan": 3871, "▁kupić": 3872, "▁śmi": 3873, "▁dłoni": 3874, "▁ciemności": 3875, "żono": 3876, "leniu": 3877, "▁pomy": 3878, "▁spły": 3879, "▁drzwiach": 3880, "▁ustach": 3881, "▁In": 3882, "▁straszne": 3883, "znę": 3884, "▁Zawsze": 3885, "nieniem": 3886, "▁szlachec": 3887, "▁mężczyzna": 3888, "▁lekko": 3889, "▁Pe": 3890, "wier": 3891, "▁służy": 3892, "▁dniem": 3893, "▁Aposto": 3894, "▁wola": 3895, "mówi": 3896, "▁śmiechem": 3897, "▁zbi": 3898, "▁Lip": 3899, "wska": 3900, "▁dłonie": 3901, "▁spostrze": 3902, "owników": 3903, "▁Bar": 3904, "skimi": 3905, "▁zrozumiał": 3906, "▁niektórych": 3907, "▁wniosek": 3908, "▁Janusz": 3909, "skać": 3910, "▁zmar": 3911, "▁mg": 3912, "▁żało": 3913, "▁czyni": 3914, "▁zapła": 3915, "▁postęp": 3916, "maty": 3917, "wka": 3918, "jest": 3919, "▁biały": 3920, "▁zupeł": 3921, "rzyło": 3922, "▁ol": 3923, "▁znaj": 3924, "▁Czeka": 3925, "▁puszcza": 3926, "▁prowadził": 3927, "czyna": 3928, "▁zasłu": 3929, "▁nazywa": 3930, "▁czo": 3931, "▁źre": 3932, "▁Dan": 3933, "▁Zgo": 3934, "▁Chwi": 3935, "▁nań": 3936, "▁usły": 3937, "uda": 3938, "▁zaczęli": 3939, "▁olbrzy": 3940, "▁służ": 3941, "▁nareszcie": 3942, "ec": 3943, "rych": 3944, "▁obrony": 3945, "dźcie": 3946, "mat": 3947, "sus": 3948, "łuje": 3949, "bili": 3950, "▁kilkadziesiąt": 3951, "▁cią": 3952, "wiony": 3953, "dziłem": 3954, "▁dwoma": 3955, "▁jeść": 3956, "▁projekt": 3957, "▁przeje": 3958, "▁ogro": 3959, "ciągnął": 3960, "▁przer": 3961, "świe": 3962, "sce": 3963, "dia": 3964, "▁wyje": 3965, "▁kola": 3966, "▁zapad": 3967, "▁przew": 3968, "▁pomimo": 3969, "▁działania": 3970, "▁dokoła": 3971, "▁try": 3972, "▁Wol": 3973, "▁pogar": 3974, "▁potrzeby": 3975, "▁wąt": 3976, "▁oprócz": 3977, "▁Egip": 3978, "bej": 3979, "▁udał": 3980, "▁odgad": 3981, "▁próż": 3982, "ust": 3983, "▁wyj": 3984, "żeni": 3985, "▁milczenia": 3986, "cznika": 3987, "krę": 3988, "▁ośmie": 3989, "ózł": 3990, "▁olbrzymie": 3991, "▁blu": 3992, "▁przewodni": 3993, "nisty": 3994, "lność": 3995, "▁dozna": 3996, "śle": 3997, "▁dziewięć": 3998, "▁prosić": 3999, "▁Kir": 4000, "▁powtó": 4001, "▁ostrze": 4002, "▁skrzydła": 4003, "niejszą": 4004, "sząc": 4005, "▁nocą": 4006, "▁sztuki": 4007, "▁służyć": 4008, "▁błogosła": 4009, "zer": 4010, "▁Księ": 4011, "▁posłu": 4012, "min": 4013, "▁oszu": 4014, "▁doszło": 4015, "▁Ponieważ": 4016, "▁przypu": 4017, "▁duchu": 4018, "▁nogach": 4019, "▁Takie": 4020, "▁przyszłości": 4021, "syła": 4022, "▁tysiąc": 4023, "▁Czasem": 4024, "▁stanowisko": 4025, "▁zde": 4026, "▁Dnie": 4027, "zel": 4028, "▁opowie": 4029, "▁Mah": 4030, "▁zi": 4031, "▁dziesią": 4032, "▁twoim": 4033, "▁Wido": 4034, "▁dostanie": 4035, "▁położył": 4036, "▁Kur": 4037, "twie": 4038, "▁współ": 4039, "▁obło": 4040, "▁koniecznie": 4041, "▁posł": 4042, "▁szukał": 4043, "▁gość": 4044, "▁stamtąd": 4045, "▁opowiadał": 4046, "ałoby": 4047, "▁bok": 4048, "▁umiera": 4049, "▁Sejm": 4050, "▁południe": 4051, "▁braci": 4052, "▁Kar": 4053, "len": 4054, "twę": 4055, "▁przekona": 4056, "▁zły": 4057, "▁boj": 4058, "szono": 4059, "▁rozmawiać": 4060, "▁powrotem": 4061, "▁zdaniem": 4062, "▁jasno": 4063, "▁krótko": 4064, "▁odrzu": 4065, "▁potrzeb": 4066, "ałym": 4067, "▁dro": 4068, "▁świad": 4069, "▁inna": 4070, "zdy": 4071, "▁dosta": 4072, "▁przery": 4073, "▁rozwi": 4074, "mis": 4075, "▁oznacza": 4076, "▁dłoń": 4077, "czeń": 4078, "▁zmart": 4079, "▁wzią": 4080, "▁spali": 4081, "beł": 4082, "▁zauważył": 4083, "▁dawnych": 4084, "bija": 4085, "▁wzajem": 4086, "▁naród": 4087, "wne": 4088, "▁wyru": 4089, "▁lasu": 4090, "Na": 4091, "▁wokół": 4092, "▁piękne": 4093, "▁narze": 4094, "▁żąda": 4095, "dziem": 4096, "▁uwie": 4097, "ałych": 4098, "▁ata": 4099, "▁wybor": 4100, "▁Następnie": 4101, "rzeń": 4102, "raj": 4103, "cała": 4104, "wio": 4105, "▁odkry": 4106, "▁ubra": 4107, "▁większa": 4108, "żek": 4109, "▁Niektórzy": 4110, "twa": 4111, "dzona": 4112, "▁Spo": 4113, "niona": 4114, "▁ogo": 4115, "ństwem": 4116, "danie": 4117, "▁niezna": 4118, "▁bracia": 4119, "dowa": 4120, "▁pójść": 4121, "▁bramy": 4122, "▁żegna": 4123, "▁lewo": 4124, "▁chra": 4125, "▁com": 4126, "żeli": 4127, "▁milczał": 4128, "cier": 4129, "zia": 4130, "▁radę": 4131, "▁układ": 4132, "▁oży": 4133, "▁sprawach": 4134, "▁pewne": 4135, "▁połowie": 4136, "kry": 4137, "▁szła": 4138, "lera": 4139, "win": 4140, "ler": 4141, "▁chory": 4142, "▁Bądź": 4143, "lając": 4144, "▁nowej": 4145, "▁wybiera": 4146, "dźmy": 4147, "chylił": 4148, "▁napa": 4149, "któ": 4150, "▁wych": 4151, "▁zga": 4152, "▁Niemiec": 4153, "▁pozosta": 4154, "ściami": 4155, "tował": 4156, "es": 4157, "▁rany": 4158, "▁złożył": 4159, "▁kont": 4160, "▁granicy": 4161, "▁moi": 4162, "▁ucha": 4163, "niono": 4164, "uka": 4165, "kanie": 4166, "▁niewoli": 4167, "nad": 4168, "źć": 4169, "▁Lor": 4170, "▁Inni": 4171, "▁wojewody": 4172, "▁rów": 4173, "naty": 4174, "▁wspar": 4175, "▁stanowi": 4176, "▁ne": 4177, "▁ono": 4178, "▁sku": 4179, "owni": 4180, "dzam": 4181, "▁przechodzi": 4182, "▁Unii": 4183, "ździe": 4184, "▁działalności": 4185, "▁zostali": 4186, "lnik": 4187, "▁żadna": 4188, "▁usłyszał": 4189, "ciło": 4190, "▁jed": 4191, "tó": 4192, "▁ponie": 4193, "lus": 4194, "▁miejscach": 4195, "▁owych": 4196, "▁biało": 4197, "▁przej": 4198, "▁nowa": 4199, "▁przesu": 4200, "▁śmiercią": 4201, "atów": 4202, "żonym": 4203, "tują": 4204, "▁historii": 4205, "cyjnej": 4206, "grze": 4207, "▁poto": 4208, "▁północy": 4209, "▁Krakowie": 4210, "tność": 4211, "▁wysokie": 4212, "▁podstawie": 4213, "kty": 4214, "H": 4215, "▁większy": 4216, "▁każde": 4217, "▁chci": 4218, "▁rado": 4219, "nisz": 4220, "▁zaprze": 4221, "▁wód": 4222, "▁wach": 4223, "▁ustą": 4224, "▁widziała": 4225, "▁pocał": 4226, "wami": 4227, "▁chodził": 4228, "jże": 4229, "▁ster": 4230, "▁zaczęły": 4231, "▁zabrał": 4232, "szku": 4233, "▁boi": 4234, "▁żonę": 4235, "▁wyku": 4236, "tkę": 4237, "▁duży": 4238, "▁zapytała": 4239, "▁pozwolił": 4240, "szak": 4241, "niesie": 4242, "▁niewolników": 4243, "brzy": 4244, "▁zabija": 4245, "koło": 4246, "▁ogromne": 4247, "▁progu": 4248, "▁porzu": 4249, "▁forte": 4250, "siła": 4251, "▁pilnie": 4252, "zor": 4253, "▁urzą": 4254, "knąć": 4255, "▁zobaczył": 4256, "▁Ce": 4257, "▁pary": 4258, "cyjnych": 4259, "▁zmieni": 4260, "tnej": 4261, "▁trwa": 4262, "▁jeź": 4263, "▁najpierw": 4264, "▁Adam": 4265, "▁zdanie": 4266, "les": 4267, "▁żalu": 4268, "▁łago": 4269, "▁zgroma": 4270, "▁Wiesz": 4271, "▁umar": 4272, "▁opad": 4273, "▁zwierzę": 4274, "▁las": 4275, "▁czynią": 4276, "▁ciężkie": 4277, "czeństwo": 4278, "▁odet": 4279, "▁utk": 4280, "▁zaro": 4281, "▁zby": 4282, "▁śniegu": 4283, "▁upo": 4284, "menta": 4285, "▁okrę": 4286, "▁ogniem": 4287, "▁młodzie": 4288, "pliwie": 4289, "sne": 4290, "▁myślałem": 4291, "▁Pru": 4292, "▁kie": 4293, "▁rozpacz": 4294, "▁mili": 4295, "▁lek": 4296, "▁sklepie": 4297, "▁ważne": 4298, "▁własnego": 4299, "▁ostro": 4300, "▁czymś": 4301, "▁książki": 4302, "▁Oczywiście": 4303, "▁zak": 4304, "wiała": 4305, "▁kościół": 4306, "czysz": 4307, "kazało": 4308, "▁uści": 4309, "▁oświe": 4310, "słu": 4311, "▁bur": 4312, "▁Cy": 4313, "▁wyjść": 4314, "▁zapro": 4315, "▁spotkał": 4316, "▁sej": 4317, "▁Pozna": 4318, "▁pozwo": 4319, "iła": 4320, "▁uczci": 4321, "por": 4322, "mer": 4323, "▁br": 4324, "pti": 4325, "▁podobnych": 4326, "▁Widzę": 4327, "IE": 4328, "▁niespodzia": 4329, "▁zwycięstwo": 4330, "▁wio": 4331, "▁trz": 4332, "▁nadzieja": 4333, "▁kamień": 4334, "▁opan": 4335, "▁wierzyć": 4336, "▁wierz": 4337, "stka": 4338, "▁komisji": 4339, "▁powinni": 4340, "▁USA": 4341, "▁robią": 4342, "chodzą": 4343, "▁zasy": 4344, "▁wyłącznie": 4345, "dować": 4346, "▁cen": 4347, "▁zer": 4348, "▁cichy": 4349, "tować": 4350, "▁wątpliwości": 4351, "▁Pło": 4352, "▁Rad": 4353, "▁wyjechał": 4354, "▁tur": 4355, "▁szyi": 4356, "▁krok": 4357, "▁nienawi": 4358, "▁wsty": 4359, "▁spotkać": 4360, "niejszego": 4361, "▁wieki": 4362, "▁ban": 4363, "▁kary": 4364, "hm": 4365, "▁przezna": 4366, "▁niedzielę": 4367, "▁gminy": 4368, "cznymi": 4369, "▁miło": 4370, "rzone": 4371, "▁wychy": 4372, "▁chmu": 4373, "▁j": 4374, "▁uko": 4375, "▁głup": 4376, "▁dę": 4377, "leciał": 4378, "dko": 4379, "▁szla": 4380, "gam": 4381, "▁ruszyli": 4382, "łego": 4383, "niać": 4384, "tany": 4385, "▁ge": 4386, "▁Tro": 4387, "▁zginął": 4388, "▁otwarte": 4389, "cać": 4390, "▁język": 4391, "▁szef": 4392, "▁Wę": 4393, "▁zaj": 4394, "▁dobrym": 4395, "▁piękna": 4396, "▁Czyli": 4397, "▁południu": 4398, "▁szczy": 4399, "▁niewolni": 4400, "▁Sara": 4401, "▁poszła": 4402, "▁pochylił": 4403, "▁najp": 4404, "▁jakiejś": 4405, "▁Paweł": 4406, "▁gwiazdy": 4407, "▁oczami": 4408, "▁szer": 4409, "▁terenie": 4410, "▁dźwi": 4411, "tow": 4412, "▁wiecie": 4413, "▁czytać": 4414, "▁przywie": 4415, "▁odprowa": 4416, "chodni": 4417, "▁dziwne": 4418, "▁tło": 4419, "▁Coś": 4420, "▁ofiary": 4421, "kcji": 4422, "róci": 4423, "▁pić": 4424, "staw": 4425, "▁bio": 4426, "▁Pra": 4427, "cyjny": 4428, "▁Niestety": 4429, "▁zwo": 4430, "▁jakkolwiek": 4431, "▁wyrze": 4432, "piał": 4433, "gdzie": 4434, "row": 4435, "leb": 4436, "▁starszy": 4437, "nąłem": 4438, "lono": 4439, "gier": 4440, "▁natury": 4441, "rok": 4442, "▁Lo": 4443, "stanie": 4444, "szała": 4445, "Po": 4446, "▁burza": 4447, "▁prezydent": 4448, "▁klasy": 4449, "▁chłopa": 4450, "▁Karol": 4451, "▁system": 4452, "▁grzbie": 4453, "nionych": 4454, "▁orze": 4455, "▁bitwa": 4456, "▁stycznia": 4457, "szymi": 4458, "pla": 4459, "owę": 4460, "▁CH": 4461, "▁krzywdy": 4462, "▁przyci": 4463, "▁Rzecz": 4464, "▁Ost": 4465, "lot": 4466, "rzuca": 4467, "▁wszystkimi": 4468, "▁wyw": 4469, "mami": 4470, "▁owi": 4471, "▁uży": 4472, "▁kolum": 4473, "▁Pierwszy": 4474, "▁strasznie": 4475, "ryw": 4476, "▁Zaś": 4477, "▁wido": 4478, "▁wzy": 4479, "▁przeczy": 4480, "▁problem": 4481, "▁zakry": 4482, "▁musisz": 4483, "▁byłaby": 4484, "▁złote": 4485, "▁Wśród": 4486, "▁wiedzieli": 4487, "▁sprawiedliwości": 4488, "cąc": 4489, "▁Marek": 4490, "▁stare": 4491, "▁królowi": 4492, "komo": 4493, "biegła": 4494, "▁działo": 4495, "▁roze": 4496, "▁Sędzia": 4497, "▁rozpro": 4498, "▁abym": 4499, "▁cieka": 4500, "▁następ": 4501, "▁weźmie": 4502, "▁powstał": 4503, "sunął": 4504, "▁prag": 4505, "▁zamk": 4506, "▁macie": 4507, "▁słyszałem": 4508, "▁pełni": 4509, "▁wyglądał": 4510, "▁oł": 4511, "▁Jerzy": 4512, "▁pierwszą": 4513, "▁miesiące": 4514, "stępu": 4515, "tyczne": 4516, "jeżdżał": 4517, "dował": 4518, "niusza": 4519, "▁kochał": 4520, "▁spodziewał": 4521, "▁gada": 4522, "wó": 4523, "▁przypomniał": 4524, "naście": 4525, "niny": 4526, "▁koszt": 4527, "rego": 4528, "▁ostatnim": 4529, "gły": 4530, "▁kopy": 4531, "▁czerwone": 4532, "▁poku": 4533, "owaną": 4534, "mistrz": 4535, "▁gotowi": 4536, "▁wolność": 4537, "▁otrzymał": 4538, "▁skończył": 4539, "rób": 4540, "Za": 4541, "▁wiedzy": 4542, "▁niektóre": 4543, "▁kupi": 4544, "▁zdr": 4545, "nować": 4546, "nków": 4547, "▁schro": 4548, "▁szpitala": 4549, "▁Zyg": 4550, "▁naw": 4551, "▁ucho": 4552, "▁zdołał": 4553, "▁ur": 4554, "▁krokiem": 4555, "▁żadne": 4556, "▁waszych": 4557, "▁rozko": 4558, "gór": 4559, "▁czyta": 4560, "▁ogród": 4561, "▁Lud": 4562, "▁pisze": 4563, "▁ojcu": 4564, "lim": 4565, "▁wycie": 4566, "▁kościele": 4567, "byt": 4568, "▁okazało": 4569, "▁zatrzyma": 4570, "▁ziar": 4571, "▁marszałek": 4572, "rzeniu": 4573, "▁Im": 4574, "▁obchodzi": 4575, "▁skoń": 4576, "▁sobotę": 4577, "▁weszli": 4578, "▁twierdzi": 4579, "łom": 4580, "he": 4581, "▁organizacji": 4582, "▁klęski": 4583, "▁Jutro": 4584, "▁zo": 4585, "▁Ksiądz": 4586, "▁idąc": 4587, "▁stronach": 4588, "▁cof": 4589, "ntem": 4590, "▁iz": 4591, "▁zapamię": 4592, "▁szereg": 4593, "liby": 4594, "tości": 4595, "dek": 4596, "▁zwa": 4597, "▁powtarz": 4598, "▁ściąg": 4599, "tru": 4600, "towi": 4601, "dzkiego": 4602, "▁wodza": 4603, "▁dziesięciu": 4604, "ator": 4605, "▁V": 4606, "kaza": 4607, "▁służba": 4608, "▁wróż": 4609, "lili": 4610, "▁rzek": 4611, "▁Szczy": 4612, "▁Sar": 4613, "▁żą": 4614, "▁kamienia": 4615, "▁pełen": 4616, "▁łez": 4617, "▁władzę": 4618, "▁Komisji": 4619, "Ch": 4620, "▁pozostał": 4621, "▁far": 4622, "szkę": 4623, "▁przyszłość": 4624, "▁Kilka": 4625, "▁córki": 4626, "▁wysy": 4627, "▁Michała": 4628, "lar": 4629, "▁momencie": 4630, "▁naz": 4631, "▁socja": 4632, "▁kosz": 4633, "strz": 4634, "▁układa": 4635, "owanej": 4636, "▁chciałbym": 4637, "▁powinny": 4638, "czkach": 4639, "▁at": 4640, "▁blasku": 4641, "wica": 4642, "▁wyciąga": 4643, "▁przygo": 4644, "▁Głu": 4645, "▁musimy": 4646, "▁zasta": 4647, "▁większej": 4648, "▁Noc": 4649, "łej": 4650, "▁twego": 4651, "▁drzwiami": 4652, "nce": 4653, "czyński": 4654, "tera": 4655, "▁godzina": 4656, "▁włosów": 4657, "▁n": 4658, "dzeniem": 4659, "kla": 4660, "▁XX": 4661, "▁poświę": 4662, "▁podzie": 4663, "miar": 4664, "snęła": 4665, "▁niedaleko": 4666, "▁projektu": 4667, "tku": 4668, "▁wszech": 4669, "fy": 4670, "▁wiedziała": 4671, "▁rozumiał": 4672, "▁kamieni": 4673, "▁zdawał": 4674, "▁kawale": 4675, "▁upadł": 4676, "▁chęć": 4677, "▁Bur": 4678, "▁widzenia": 4679, "onów": 4680, "▁sznu": 4681, "żnym": 4682, "▁uderza": 4683, "▁złu": 4684, "▁głowami": 4685, "loną": 4686, "▁kró": 4687, "▁mężczyzn": 4688, "▁bronią": 4689, "▁Mil": 4690, "▁Dzięki": 4691, "▁czyn": 4692, "▁prac": 4693, "nist": 4694, "▁owej": 4695, "▁pierś": 4696, "▁jeńców": 4697, "▁oficerowie": 4698, "▁lasy": 4699, "roka": 4700, "czami": 4701, "▁nauki": 4702, "▁przebra": 4703, "▁Długo": 4704, "▁Pola": 4705, "▁Ol": 4706, "wicza": 4707, "▁cofa": 4708, "EN": 4709, "listy": 4710, "▁nazwiska": 4711, "▁wysłał": 4712, "chodząc": 4713, "▁zaci": 4714, "▁poż": 4715, "▁ojcem": 4716, "▁rzadko": 4717, "▁liczne": 4718, "▁oboję": 4719, "▁zagro": 4720, "▁wstrzą": 4721, "▁twier": 4722, "▁Zamo": 4723, "▁najczęściej": 4724, "▁warunki": 4725, "▁dyrektor": 4726, "▁Znowu": 4727, "▁szum": 4728, "▁chwil": 4729, "dzię": 4730, "▁białą": 4731, "dera": 4732, "▁podar": 4733, "▁pisał": 4734, "▁bę": 4735, "▁służą": 4736, "▁resztę": 4737, "▁usiadł": 4738, "lec": 4739, "▁napo": 4740, "sili": 4741, "robi": 4742, "▁okresie": 4743, "żać": 4744, "chałem": 4745, "KA": 4746, "▁przywo": 4747, "ują": 4748, "▁laty": 4749, "leli": 4750, "▁kana": 4751, "▁gad": 4752, "▁Krzysztof": 4753, "żała": 4754, "▁Tauro": 4755, "▁poja": 4756, "pij": 4757, "▁oblicze": 4758, "▁podnieść": 4759, "▁godzinie": 4760, "▁bólu": 4761, "▁Widać": 4762, "▁bal": 4763, "▁Mat": 4764, "▁białych": 4765, "▁czuje": 4766, "▁Rzymie": 4767, "▁córka": 4768, "▁prosił": 4769, "▁ozna": 4770, "▁wydało": 4771, "▁wargi": 4772, "▁kształ": 4773, "▁Spraw": 4774, "▁zmienił": 4775, "▁tygodni": 4776, "▁opuszcza": 4777, "▁nabra": 4778, "▁zdą": 4779, "dzki": 4780, "▁Kon": 4781, "▁środków": 4782, "▁plan": 4783, "▁czerwca": 4784, "lew": 4785, "żni": 4786, "▁nowym": 4787, "legły": 4788, "▁reszty": 4789, "owem": 4790, "▁porze": 4791, "stać": 4792, "▁kwiaty": 4793, "ałość": 4794, "▁rozdzie": 4795, "▁poły": 4796, "▁Pow": 4797, "▁szczęśliwy": 4798, "▁płaszcz": 4799, "▁mała": 4800, "▁wygo": 4801, "▁Sp": 4802, "▁wyba": 4803, "pkę": 4804, "▁wstyd": 4805, "rob": 4806, "▁ludzkich": 4807, "prowa": 4808, "▁popraw": 4809, "▁oznaj": 4810, "▁pry": 4811, "▁Wier": 4812, "▁Dwa": 4813, "czeniu": 4814, "cj": 4815, "mina": 4816, "▁otwo": 4817, "▁damy": 4818, "▁królewskiej": 4819, "▁szepnęła": 4820, "▁owym": 4821, "▁oświadczył": 4822, "▁uciekać": 4823, "▁ruszyć": 4824, "▁gó": 4825, "nota": 4826, "▁tysią": 4827, "▁spokojny": 4828, "▁zabra": 4829, "▁przysta": 4830, "działem": 4831, "▁bunt": 4832, "atami": 4833, "tno": 4834, "▁film": 4835, "zny": 4836, "▁Cza": 4837, "gania": 4838, "▁pieśń": 4839, "▁sposob": 4840, "▁mia": 4841, "▁trze": 4842, "▁zapo": 4843, "▁murów": 4844, "for": 4845, "śniej": 4846, "czonej": 4847, "niesi": 4848, "lika": 4849, "▁przybył": 4850, "▁przyjm": 4851, "▁trafił": 4852, "prawia": 4853, "▁powinno": 4854, "▁działalność": 4855, "leż": 4856, "▁odpowiadał": 4857, "▁puścił": 4858, "▁nasy": 4859, "chło": 4860, "tnik": 4861, "żały": 4862, "▁uszu": 4863, "▁dob": 4864, "▁bał": 4865, "vel": 4866, "▁Mało": 4867, "▁zapy": 4868, "▁Hele": 4869, "▁podobnego": 4870, "▁błyska": 4871, "▁dawał": 4872, "▁Wal": 4873, "▁nag": 4874, "▁poczy": 4875, "▁przym": 4876, "▁skały": 4877, "▁blask": 4878, "▁przycho": 4879, "▁wisi": 4880, "▁wiemy": 4881, "▁przestał": 4882, "▁dowiedział": 4883, "▁uchy": 4884, "▁stry": 4885, "▁zostaną": 4886, "▁doszedł": 4887, "▁okres": 4888, "▁polski": 4889, "padł": 4890, "▁niestety": 4891, "wanych": 4892, "łon": 4893, "czeniem": 4894, "▁rozło": 4895, "▁członków": 4896, "▁prawdopodobnie": 4897, "▁spotkania": 4898, "▁zgrzy": 4899, "▁twoich": 4900, "rać": 4901, "▁Usły": 4902, "▁żebym": 4903, "▁zabił": 4904, "▁kochan": 4905, "▁prę": 4906, "czonego": 4907, "▁chmur": 4908, "▁armat": 4909, "▁istnieje": 4910, "▁Tyle": 4911, "▁Wielki": 4912, "▁zmienić": 4913, "▁Młody": 4914, "▁kłó": 4915, "knęła": 4916, "▁pomysł": 4917, "▁wymaga": 4918, "sio": 4919, "szyli": 4920, "▁chleb": 4921, "logii": 4922, "▁praca": 4923, "▁zbieg": 4924, "▁widowi": 4925, "▁mocniej": 4926, "czeni": 4927, "▁chleba": 4928, "pienie": 4929, "▁potrzebuje": 4930, "▁królem": 4931, "▁niewo": 4932, "blą": 4933, "▁słusznie": 4934, "▁pewną": 4935, "▁słyszy": 4936, "▁opowiadać": 4937, "▁dotk": 4938, "TA": 4939, "▁płaci": 4940, "▁,": 4941, "▁ścią": 4942, "▁jasne": 4943, "▁Ó": 4944, "▁zgoła": 4945, "▁kuchni": 4946, "▁spło": 4947, "▁święta": 4948, "▁oddziały": 4949, "▁dziećmi": 4950, "▁spojrzenia": 4951, "▁dodatku": 4952, "wymi": 4953, "▁wodzie": 4954, "ti": 4955, "chodzić": 4956, "▁czarny": 4957, "▁Były": 4958, "peł": 4959, "dzonych": 4960, "▁nieo": 4961, "▁Myślę": 4962, "▁przebieg": 4963, "▁bogi": 4964, "rzask": 4965, "▁zapomniał": 4966, "▁Egipcie": 4967, "▁patrzyli": 4968, "▁skórę": 4969, "▁dzikich": 4970, "▁chaty": 4971, "jął": 4972, "▁Mówił": 4973, "▁chcecie": 4974, "▁Rzeczpospolita": 4975, "▁zasła": 4976, "nieśli": 4977, "miony": 4978, "▁pytać": 4979, "nięta": 4980, "▁figu": 4981, "▁wywie": 4982, "▁przedstawia": 4983, "▁znaczenie": 4984, "▁schy": 4985, "▁rozma": 4986, "▁psy": 4987, "ńczy": 4988, "▁linii": 4989, "▁uczucia": 4990, "niało": 4991, "▁porę": 4992, "sma": 4993, "kor": 4994, "▁powięk": 4995, "▁charakter": 4996, "▁zabić": 4997, "▁armii": 4998, "▁dole": 4999, "▁nóż": 5000, "czycy": 5001, "▁morza": 5002, "▁decyzji": 5003, "▁tygodnie": 5004, "byw": 5005, "▁sieci": 5006, "lały": 5007, "▁samochód": 5008, "▁ogromny": 5009, "▁możliwe": 5010, "▁stoją": 5011, "żną": 5012, "▁rozbu": 5013, "▁boju": 5014, "ckiemu": 5015, "▁prosta": 5016, "▁ruchem": 5017, "▁drzewo": 5018, "▁połą": 5019, "▁służbę": 5020, "czać": 5021, "▁dymu": 5022, "raca": 5023, "▁dwudziestu": 5024, "Co": 5025, "▁odparła": 5026, "▁kawał": 5027, "▁despe": 5028, "▁koły": 5029, "▁Moja": 5030, "szały": 5031, "▁uprze": 5032, "▁zmienia": 5033, "kują": 5034, "lonych": 5035, "▁połowy": 5036, "▁powsta": 5037, "wną": 5038, "▁starych": 5039, "▁przyszły": 5040, "▁płacz": 5041, "▁siedzieć": 5042, "dała": 5043, "▁wybu": 5044, "nnego": 5045, "kując": 5046, "lety": 5047, "▁polskim": 5048, "▁dym": 5049, "▁zwłoki": 5050, "▁wpływ": 5051, "jami": 5052, "rzeniem": 5053, "▁Europy": 5054, "▁świetle": 5055, "▁puł": 5056, "▁AW": 5057, "noszą": 5058, "▁mart": 5059, "ręt": 5060, "▁chwyta": 5061, "▁zago": 5062, "▁krzesła": 5063, "nat": 5064, "▁zbliż": 5065, "ściła": 5066, "▁anio": 5067, "atem": 5068, "▁mowy": 5069, "▁szeregi": 5070, "▁palce": 5071, "▁przepa": 5072, "▁moż": 5073, "cona": 5074, "▁własny": 5075, "lności": 5076, "▁środka": 5077, "▁odpowiedzieć": 5078, "ownik": 5079, "▁wieczor": 5080, "▁chmury": 5081, "▁rę": 5082, "▁Byli": 5083, "▁zag": 5084, "stąpił": 5085, "▁wracać": 5086, "ot": 5087, "▁dobrej": 5088, "▁długim": 5089, "▁śpiewa": 5090, "nar": 5091, "▁ryb": 5092, "▁pismo": 5093, "▁wysta": 5094, "▁auto": 5095, "▁pada": 5096, "ciąga": 5097, "▁Podczas": 5098, "▁św": 5099, "▁wystarczy": 5100, "dzają": 5101, "▁mistrza": 5102, "dzem": 5103, "orun": 5104, "▁Lit": 5105, "▁boję": 5106, "▁żołnierza": 5107, "usa": 5108, "▁psu": 5109, "dry": 5110, "EL": 5111, "▁lepsze": 5112, "▁płó": 5113, "rzym": 5114, "▁klej": 5115, "▁samemu": 5116, "czyków": 5117, "ier": 5118, "▁języka": 5119, "waża": 5120, "▁małej": 5121, "▁wieś": 5122, "▁owego": 5123, "▁Trudno": 5124, "▁słyszeć": 5125, "▁wszelkich": 5126, "▁rozmowa": 5127, "dzkich": 5128, "▁zało": 5129, "▁paru": 5130, "▁wart": 5131, "rwa": 5132, "▁Dzień": 5133, "▁obawy": 5134, "▁spotyka": 5135, "nioną": 5136, "▁mówiono": 5137, "▁dziecię": 5138, "▁naro": 5139, "▁Ojciec": 5140, "▁Przyj": 5141, "▁zrozumieć": 5142, "▁suk": 5143, "▁niepew": 5144, "▁Szlach": 5145, "rzach": 5146, "▁Pol": 5147, "▁spółki": 5148, "▁środek": 5149, "▁nagrody": 5150, "▁obecnych": 5151, "▁wysłu": 5152, "▁ustawi": 5153, "▁poważnie": 5154, "▁Nu": 5155, "▁zato": 5156, "▁Krakowa": 5157, "nosząc": 5158, "▁sio": 5159, "▁Ile": 5160, "tana": 5161, "▁Zosta": 5162, "▁ludzkiej": 5163, "▁policja": 5164, "▁rolę": 5165, "▁rękami": 5166, "ost": 5167, "▁wbrew": 5168, "▁straży": 5169, "▁miesz": 5170, "pod": 5171, "pl": 5172, "oba": 5173, "▁porząd": 5174, "▁Miej": 5175, "▁dwoje": 5176, "lonym": 5177, "▁błysz": 5178, "▁Toteż": 5179, "owiada": 5180, "▁zali": 5181, "▁klasztor": 5182, "▁zwróci": 5183, "▁ramieniu": 5184, "▁słowach": 5185, "▁fotelu": 5186, "nowski": 5187, "▁stanęła": 5188, "stawia": 5189, "▁długą": 5190, "▁War": 5191, "▁dochodzi": 5192, "▁Cały": 5193, "▁czuję": 5194, "▁kle": 5195, "paść": 5196, "▁Zd": 5197, "▁lubię": 5198, "▁psa": 5199, "▁wiarę": 5200, "rzysta": 5201, "jak": 5202, "▁centrum": 5203, "▁Czas": 5204, "▁tworzy": 5205, "▁głosowania": 5206, "▁wypeł": 5207, "▁poł": 5208, "cyjnego": 5209, "▁ciemno": 5210, "sno": 5211, "▁bogini": 5212, "▁Justy": 5213, "▁małym": 5214, "▁złożyć": 5215, "ięk": 5216, "żąc": 5217, "kan": 5218, "▁koro": 5219, "nące": 5220, "▁uciekł": 5221, "cisnął": 5222, "▁nogą": 5223, "szona": 5224, "▁pru": 5225, "▁Bogiem": 5226, "▁uto": 5227, "▁pobi": 5228, "myka": 5229, "▁rusza": 5230, "biega": 5231, "▁Jezu": 5232, "▁Helena": 5233, "kot": 5234, "▁krajów": 5235, "lub": 5236, "▁gier": 5237, "▁Zło": 5238, "▁pojedyn": 5239, "bła": 5240, "żeniu": 5241, "▁Chodź": 5242, "▁słone": 5243, "piąc": 5244, "cono": 5245, "cer": 5246, "▁PiS": 5247, "ią": 5248, "▁boki": 5249, "▁gą": 5250, "▁pur": 5251, "▁równi": 5252, "▁szo": 5253, "▁przypom": 5254, "▁Gdybym": 5255, "▁kocham": 5256, "mić": 5257, "śla": 5258, "▁kol": 5259, "pienia": 5260, "▁pozba": 5261, "▁zbrodni": 5262, "let": 5263, "▁zdania": 5264, "▁ogląda": 5265, "▁lesie": 5266, "▁napi": 5267, "▁wydawał": 5268, "▁złoty": 5269, "▁wysoki": 5270, "▁Wz": 5271, "▁pochodzi": 5272, "szyły": 5273, "▁nierucho": 5274, "▁dobrych": 5275, "▁bezpieczeństwa": 5276, "▁typu": 5277, "▁owszem": 5278, "bina": 5279, "▁miesza": 5280, "▁rzym": 5281, "▁niecier": 5282, "▁stolicy": 5283, "cko": 5284, "▁warunkach": 5285, "mbu": 5286, "▁małą": 5287, "▁có": 5288, "▁przyjąć": 5289, "▁oczeki": 5290, "nionym": 5291, "lana": 5292, "▁szczegól": 5293, "▁heł": 5294, "▁grzy": 5295, "▁fra": 5296, "▁narodu": 5297, "▁podobna": 5298, "zuje": 5299, "▁świętego": 5300, "▁Powie": 5301, "▁mówiłem": 5302, "rzmi": 5303, "▁kochać": 5304, "rowi": 5305, "ns": 5306, "▁wyle": 5307, "▁Oczy": 5308, "▁Musi": 5309, "onu": 5310, "towa": 5311, "▁prawdy": 5312, "▁wspom": 5313, "▁ślady": 5314, "▁życiem": 5315, "Ja": 5316, "▁dziękuję": 5317, "▁programu": 5318, "▁Jedna": 5319, "▁wojsku": 5320, "▁dziewczynę": 5321, "▁zwycięstwa": 5322, "▁zmarsz": 5323, "▁przynosi": 5324, "▁weź": 5325, "▁ochotę": 5326, "zji": 5327, "wen": 5328, "▁punktu": 5329, "▁Chciał": 5330, "▁ryba": 5331, "sek": 5332, "▁codziennie": 5333, "nosi": 5334, "▁elegan": 5335, "▁mięk": 5336, "▁gardło": 5337, "lda": 5338, "▁okazy": 5339, "▁rodziców": 5340, "▁ramach": 5341, "▁dziwnie": 5342, "▁rocznie": 5343, "▁załat": 5344, "pier": 5345, "▁mieszkańcy": 5346, "trop": 5347, "▁Vi": 5348, "▁umrzeć": 5349, "▁Który": 5350, "th": 5351, "ciach": 5352, "▁Jesteś": 5353, "▁Kamie": 5354, "▁zle": 5355, "ństwie": 5356, "▁trzę": 5357, "▁wra": 5358, "▁mieczem": 5359, "▁rzeczą": 5360, "▁Pre": 5361, "zen": 5362, "▁zarzu": 5363, "▁Krzyż": 5364, "▁ceny": 5365, "▁Jaki": 5366, "▁wydawało": 5367, "▁począ": 5368, "▁tań": 5369, "niając": 5370, "▁Wło": 5371, "▁mieszkanie": 5372, "Ż": 5373, "sja": 5374, "chan": 5375, "▁spogląda": 5376, "bój": 5377, "▁pułkownik": 5378, "mował": 5379, "▁należało": 5380, "▁nigdzie": 5381, "ryn": 5382, "▁konfe": 5383, "▁wzięli": 5384, "rywa": 5385, "leniem": 5386, "chow": 5387, "▁słońcu": 5388, "▁zmo": 5389, "▁pierście": 5390, "▁skle": 5391, "▁sześciu": 5392, "▁ćwi": 5393, "pol": 5394, "▁pokazał": 5395, "sji": 5396, "▁byśmy": 5397, "▁Ró": 5398, "▁wyr": 5399, "▁nieza": 5400, "▁pog": 5401, "▁duszą": 5402, "▁stanąć": 5403, "▁zanie": 5404, "▁Jaka": 5405, "▁Jed": 5406, "▁roli": 5407, "▁stawia": 5408, "▁zim": 5409, "▁odczu": 5410, "▁odbiera": 5411, "▁liczyć": 5412, "▁trzymać": 5413, "▁wypada": 5414, "▁pomi": 5415, "▁wejść": 5416, "▁trakt": 5417, "berg": 5418, "▁informacje": 5419, "wiło": 5420, "wale": 5421, "▁stanęli": 5422, "▁powierzchni": 5423, "nim": 5424, "nką": 5425, "szonym": 5426, "suje": 5427, "▁pracuje": 5428, "owskich": 5429, "OS": 5430, "▁Chociaż": 5431, "▁suł": 5432, "▁gęsto": 5433, "▁gromady": 5434, "▁zg": 5435, "▁dłonią": 5436, "▁ogniu": 5437, "▁Lepiej": 5438, "żym": 5439, "ałości": 5440, "▁doda": 5441, "▁wyszli": 5442, "szany": 5443, "▁wrze": 5444, "▁popat": 5445, "▁rozpoczął": 5446, "skając": 5447, "▁ochrony": 5448, "kru": 5449, "▁prawej": 5450, "▁lasach": 5451, "▁stanowiska": 5452, "ON": 5453, "klę": 5454, "owu": 5455, "▁zabrać": 5456, "▁przykry": 5457, "▁Podla": 5458, "▁czasami": 5459, "chając": 5460, "czniej": 5461, "▁zro": 5462, "▁niepoko": 5463, "▁towarzystwie": 5464, "bek": 5465, "▁zmian": 5466, "▁zewnątrz": 5467, "▁pisać": 5468, "cham": 5469, "▁palą": 5470, "▁niezbyt": 5471, "▁rozm": 5472, "▁Być": 5473, "▁grunt": 5474, "▁lipca": 5475, "▁trudności": 5476, "owiem": 5477, "▁Rada": 5478, "▁Rzym": 5479, "▁powtarzać": 5480, "cjusz": 5481, "▁rodu": 5482, "skó": 5483, "ństw": 5484, "▁śpią": 5485, "▁obyczaj": 5486, "▁cierpi": 5487, "niętą": 5488, "▁przyszli": 5489, "▁powietrza": 5490, "▁potom": 5491, "▁wyd": 5492, "▁póź": 5493, "▁wypły": 5494, "▁rozumiesz": 5495, "▁lepszego": 5496, "ple": 5497, "▁podwó": 5498, "▁Mamy": 5499, "▁największą": 5500, "▁Flo": 5501, "▁synem": 5502, "mowi": 5503, "▁czoła": 5504, "▁wzniesi": 5505, "szty": 5506, "tania": 5507, "▁głoś": 5508, "▁kłę": 5509, "zmu": 5510, "▁liczba": 5511, "▁księży": 5512, "▁Żydzi": 5513, "moc": 5514, "%": 5515, "▁wtrą": 5516, "▁umarł": 5517, "powie": 5518, "▁zgło": 5519, "▁umowy": 5520, "▁usługi": 5521, "manów": 5522, "cjan": 5523, "not": 5524, "▁zwycza": 5525, "▁śnieg": 5526, "czeństwa": 5527, "▁nędz": 5528, "▁cudow": 5529, "▁ró": 5530, "▁pięknie": 5531, "▁fal": 5532, "owani": 5533, "ari": 5534, "▁zamiesz": 5535, "▁tle": 5536, "▁szło": 5537, "RA": 5538, "cielem": 5539, "nięcia": 5540, "▁Mikołaj": 5541, "IA": 5542, "▁dokoń": 5543, "▁oszczę": 5544, "▁przyrze": 5545, "▁gwiazd": 5546, "▁największym": 5547, "pisa": 5548, "▁grupa": 5549, "▁Ich": 5550, "tnego": 5551, "▁polityki": 5552, "▁pełno": 5553, "stry": 5554, "wek": 5555, "▁domyś": 5556, "▁znajdują": 5557, "▁Europie": 5558, "▁prace": 5559, "▁właściciel": 5560, "▁zostawił": 5561, "▁won": 5562, "▁widy": 5563, "▁szaty": 5564, "▁MA": 5565, "▁odje": 5566, "▁Marta": 5567, "▁koł": 5568, "cały": 5569, "▁Ber": 5570, "▁tonem": 5571, "▁sprzę": 5572, "▁okrzyk": 5573, "obo": 5574, "▁modlitwy": 5575, "siedli": 5576, "▁tygodniu": 5577, "son": 5578, "▁Czer": 5579, "lka": 5580, "▁władze": 5581, "▁ufa": 5582, "▁obiecał": 5583, "▁uspo": 5584, "▁zdo": 5585, "mal": 5586, "▁rozpaczy": 5587, "▁braku": 5588, "▁sierpnia": 5589, "▁młode": 5590, "▁świeżo": 5591, "▁fakt": 5592, "szczenie": 5593, "▁Dość": 5594, "▁oddech": 5595, "▁wierzę": 5596, "▁wielo": 5597, "waniem": 5598, "kre": 5599, "rzch": 5600, "racji": 5601, "▁zakresie": 5602, "▁staną": 5603, "▁związane": 5604, "▁polega": 5605, "▁pomaga": 5606, "▁szkole": 5607, "▁Słuchaj": 5608, "▁Zapo": 5609, "▁piasku": 5610, "słucha": 5611, "▁żart": 5612, "ńcem": 5613, "▁sławy": 5614, "▁honor": 5615, "▁Sko": 5616, "▁Pla": 5617, "gieł": 5618, "per": 5619, "▁zobaczy": 5620, "▁kończy": 5621, "kój": 5622, "<0xA9>": 5623, "lonej": 5624, "wor": 5625, "▁Trzy": 5626, "▁dowiedzieć": 5627, "▁Muszę": 5628, "▁przekonać": 5629, "▁Szcze": 5630, "▁najpięk": 5631, "▁Wito": 5632, "▁III": 5633, "gowie": 5634, "szeniem": 5635, "▁zacie": 5636, "▁Dro": 5637, "▁przyniósł": 5638, "▁poprzez": 5639, "▁utwo": 5640, "nkiem": 5641, "▁akurat": 5642, "▁policjanci": 5643, "▁pił": 5644, "czyn": 5645, "▁szele": 5646, "▁śmiać": 5647, "▁niezmiernie": 5648, "▁Lin": 5649, "chowski": 5650, "▁czekając": 5651, "▁Patrz": 5652, "▁gościa": 5653, "▁pokazać": 5654, "▁Tę": 5655, "▁majątku": 5656, "cow": 5657, "lat": 5658, "atach": 5659, "▁słyszę": 5660, "▁westchnął": 5661, "▁wład": 5662, "wat": 5663, "▁ostatniego": 5664, "▁pełną": 5665, "▁Ligi": 5666, "▁zacznie": 5667, "zami": 5668, "▁PO": 5669, "▁całych": 5670, "czyłem": 5671, "▁ziemią": 5672, "▁Obaj": 5673, "▁Czym": 5674, "▁objął": 5675, "▁uczuć": 5676, "▁rozmawiał": 5677, "▁zamyka": 5678, "ąt": 5679, "ownie": 5680, "leje": 5681, "▁krzyczeć": 5682, "▁doktor": 5683, "▁przewo": 5684, "▁września": 5685, "▁pracować": 5686, "▁Polacy": 5687, "▁scho": 5688, "▁sumie": 5689, "▁och": 5690, "▁należą": 5691, "bią": 5692, "▁grudnia": 5693, "▁opieku": 5694, "▁piątek": 5695, "▁stosunku": 5696, "▁napisał": 5697, "▁kamienie": 5698, "▁zdjął": 5699, "▁przestrzeni": 5700, "elle": 5701, "▁Gla": 5702, "▁niesły": 5703, "▁Twarz": 5704, "▁znasz": 5705, "pt": 5706, "▁bieda": 5707, "▁Pięk": 5708, "tarz": 5709, "▁szkoda": 5710, "czeli": 5711, "▁podnosząc": 5712, "▁przyło": 5713, "▁chi": 5714, "▁miałam": 5715, "▁fo": 5716, "▁Kazimierza": 5717, "▁prof": 5718, "piła": 5719, "▁doby": 5720, "▁południa": 5721, "▁wynik": 5722, "▁zmu": 5723, "▁znalazła": 5724, "wer": 5725, "▁Prus": 5726, "żki": 5727, "▁skrom": 5728, "▁głębo": 5729, "▁zapach": 5730, "▁indziej": 5731, "▁nisko": 5732, "▁idę": 5733, "▁możliwość": 5734, "ppe": 5735, "szczenia": 5736, "▁potra": 5737, "▁ukazy": 5738, "▁przepisy": 5739, "▁danych": 5740, "▁przeby": 5741, "▁Byłem": 5742, "▁myś": 5743, "▁podobnie": 5744, "dowali": 5745, "▁Gór": 5746, "▁abyś": 5747, "▁pok": 5748, "▁zgra": 5749, "▁złość": 5750, "▁przysto": 5751, "▁oświad": 5752, "▁poczucie": 5753, "▁senator": 5754, "pały": 5755, "▁ustami": 5756, "▁bogaty": 5757, "▁pier": 5758, "AN": 5759, "▁Widziałem": 5760, "gląda": 5761, "▁usług": 5762, "▁dodała": 5763, "▁wygra": 5764, "mawia": 5765, "▁wyprawy": 5766, "▁młoda": 5767, "▁okien": 5768, "▁lepszy": 5769, "owny": 5770, "▁walce": 5771, "▁Oba": 5772, "▁dwudzie": 5773, "skami": 5774, "▁ak": 5775, "▁kontroli": 5776, "▁przytom": 5777, "▁Dzieci": 5778, "▁dba": 5779, "▁mięsa": 5780, "▁spoczy": 5781, "▁wręcz": 5782, "▁przyznać": 5783, "▁milionów": 5784, "▁straci": 5785, "▁chan": 5786, "▁zwracając": 5787, "Ba": 5788, "▁brzę": 5789, "▁wykrzy": 5790, "gich": 5791, "▁mądro": 5792, "dycha": 5793, "▁zamiar": 5794, "▁wieków": 5795, "licy": 5796, "stąpić": 5797, "▁byłam": 5798, "▁drapie": 5799, "szne": 5800, "łość": 5801, "▁Rę": 5802, "▁wniosku": 5803, "▁granic": 5804, "pnie": 5805, "▁pomóc": 5806, "stość": 5807, "▁walkę": 5808, "▁nastąpi": 5809, "SZ": 5810, "▁jazda": 5811, "▁poroz": 5812, "▁przewi": 5813, "szami": 5814, "▁Chcę": 5815, "▁pomo": 5816, "tacji": 5817, "▁każdemu": 5818, "▁żyją": 5819, "br": 5820, "▁odszedł": 5821, "▁zbior": 5822, "▁wiek": 5823, "▁metrów": 5824, "▁odmie": 5825, "bry": 5826, "▁wyła": 5827, "▁Poza": 5828, "▁umysł": 5829, "▁Sąd": 5830, "▁folwar": 5831, "▁ludzka": 5832, "dzież": 5833, "walił": 5834, "▁pkt": 5835, "pieniu": 5836, "▁biorąc": 5837, "▁sos": 5838, "▁wyczer": 5839, "biony": 5840, "czku": 5841, "▁duchy": 5842, "▁XIX": 5843, "AT": 5844, "▁wyrok": 5845, "▁Bro": 5846, "▁dowo": 5847, "▁Tra": 5848, "▁przestęp": 5849, "▁telewizji": 5850, "szny": 5851, "▁chłopca": 5852, "▁wys": 5853, "▁wyobra": 5854, "▁pisarz": 5855, "▁pragnął": 5856, "▁domem": 5857, "▁przyjaciela": 5858, "▁ilu": 5859, "▁całkowicie": 5860, "▁grana": 5861, "▁niedługo": 5862, "nują": 5863, "▁obowiązek": 5864, "ccy": 5865, "rząd": 5866, "<0x99>": 5867, "▁zrę": 5868, "▁Taka": 5869, "▁roślin": 5870, "▁patrzą": 5871, "▁premier": 5872, "kowo": 5873, "▁goście": 5874, "▁przedsiębior": 5875, "▁dyskusji": 5876, "▁itp": 5877, "▁wnu": 5878, "▁potrzebne": 5879, "▁Min": 5880, "▁hrabia": 5881, "many": 5882, "▁gdybyś": 5883, "▁nosił": 5884, "▁złoto": 5885, "cku": 5886, "▁dzien": 5887, "▁myśląc": 5888, "▁opiekę": 5889, "▁rzucić": 5890, "▁prowadzić": 5891, "▁Idź": 5892, "▁wpada": 5893, "działa": 5894, "▁Wkrótce": 5895, "▁znaki": 5896, "▁numer": 5897, "szonych": 5898, "ade": 5899, "▁ponu": 5900, "rzucił": 5901, "▁wyjdzie": 5902, "łó": 5903, "niesz": 5904, "▁siedzieli": 5905, "▁burzy": 5906, "▁ca": 5907, "szkiem": 5908, "ruje": 5909, "obie": 5910, "▁silnie": 5911, "▁Tłu": 5912, "▁głąb": 5913, "kowym": 5914, "▁strzały": 5915, "▁lekar": 5916, "▁woje": 5917, "Ś": 5918, "dzieć": 5919, "▁wartość": 5920, "▁przeszka": 5921, "wskim": 5922, "▁Rosji": 5923, "▁Poli": 5924, "▁stos": 5925, "▁obronie": 5926, "▁firma": 5927, "▁zatrzymy": 5928, "▁Polskiej": 5929, "▁kwate": 5930, "▁nakry": 5931, "▁niezwy": 5932, "▁chrześcijan": 5933, "▁klasztoru": 5934, "▁przemo": 5935, "▁cyr": 5936, "▁spad": 5937, "!!": 5938, "▁północ": 5939, "ówi": 5940, "▁Par": 5941, "tycznych": 5942, "pania": 5943, "nictwa": 5944, "▁Rzymu": 5945, "▁zacze": 5946, "▁bezpie": 5947, "▁szwa": 5948, "▁handlu": 5949, "▁zara": 5950, "▁kolejne": 5951, "jąco": 5952, "▁obiad": 5953, "żnego": 5954, "▁kwiatów": 5955, "gani": 5956, "wala": 5957, "▁kolor": 5958, "pka": 5959, "cieli": 5960, "▁palcami": 5961, "▁gruby": 5962, "fer": 5963, "To": 5964, "▁wielkości": 5965, "ard": 5966, "▁ciał": 5967, "▁chcemy": 5968, "szyło": 5969, "▁choroby": 5970, "▁Fi": 5971, "▁udziału": 5972, "▁Jar": 5973, "zał": 5974, "▁rozmów": 5975, "▁kolejny": 5976, "▁kilkudziesięciu": 5977, "▁szkół": 5978, "▁synów": 5979, "▁potrafił": 5980, "▁firm": 5981, "▁bramę": 5982, "ÓR": 5983, "▁podniesi": 5984, "▁dzikie": 5985, "ist": 5986, "▁ule": 5987, "▁dawne": 5988, "▁Nim": 5989, "▁popę": 5990, "▁granicę": 5991, "▁światem": 5992, "rzyna": 5993, "dzkiej": 5994, "▁granicą": 5995, "▁gotowe": 5996, "róg": 5997, "▁latar": 5998, "▁ide": 5999, "nos": 6000, "▁kultury": 6001, "ke": 6002, "żoną": 6003, "czących": 6004, "latu": 6005, "patry": 6006, "sał": 6007, "▁zrozumie": 6008, "▁Ger": 6009, "▁rozpoczyna": 6010, "▁cenę": 6011, "▁Wielu": 6012, "▁zra": 6013, "▁ciemne": 6014, "▁bara": 6015, "▁her": 6016, "▁poniedziałek": 6017, "▁stopniu": 6018, "▁niebawem": 6019, "siada": 6020, "szeniu": 6021, "▁lewej": 6022, "tury": 6023, "▁Cała": 6024, "▁rozwoju": 6025, "▁rośnie": 6026, "▁Mak": 6027, "▁muzyka": 6028, "▁pamią": 6029, "ral": 6030, "▁karku": 6031, "▁Konie": 6032, "▁zatrzy": 6033, "▁topo": 6034, "▁Żołnierze": 6035, "▁krak": 6036, "▁bronił": 6037, "▁córkę": 6038, "▁odsu": 6039, "▁zazna": 6040, "erw": 6041, "tent": 6042, "▁kroku": 6043, "▁peł": 6044, "▁winien": 6045, "▁gorz": 6046, "▁zgody": 6047, "▁wpływem": 6048, "▁sytuacja": 6049, "▁spadł": 6050, "▁krajach": 6051, "▁wyjeżdża": 6052, "▁:": 6053, "▁ratować": 6054, "▁piwa": 6055, "▁wyniku": 6056, "▁Słońce": 6057, "▁kolej": 6058, "▁sekre": 6059, "▁połowę": 6060, "▁kobietę": 6061, "▁Jednocześnie": 6062, "▁przywy": 6063, "▁XIII": 6064, "cjami": 6065, "▁zajmuje": 6066, "▁kap": 6067, "▁ostatnio": 6068, "▁województwa": 6069, "▁żebyś": 6070, "mentu": 6071, "▁gospodar": 6072, "nięto": 6073, "wiona": 6074, "▁brzmi": 6075, "▁księżyc": 6076, "▁uważał": 6077, "▁księżyca": 6078, "▁dusze": 6079, "tności": 6080, "▁Ros": 6081, "▁światłem": 6082, "▁posel": 6083, "rzało": 6084, "chód": 6085, "▁Obie": 6086, "▁żebra": 6087, "żało": 6088, "mont": 6089, "▁poj": 6090, "▁sędzia": 6091, "▁Nare": 6092, "▁przykładem": 6093, "▁początek": 6094, "owców": 6095, "▁śpi": 6096, "▁ochło": 6097, "▁nagro": 6098, "▁wszyst": 6099, "▁wyło": 6100, "▁pis": 6101, "▁wracał": 6102, "▁okazać": 6103, "rał": 6104, "▁Świat": 6105, "▁San": 6106, "▁obiecy": 6107, "▁trakcie": 6108, "▁zajęcia": 6109, "▁zagad": 6110, "▁stosunki": 6111, "▁Sma": 6112, "rii": 6113, "trą": 6114, "zacji": 6115, "kowskiego": 6116, "▁wię": 6117, "▁oglądać": 6118, "▁sąsie": 6119, "▁zamknię": 6120, "▁czole": 6121, "▁cofnął": 6122, "▁tem": 6123, "▁wierzył": 6124, "▁obrazy": 6125, "▁myślała": 6126, "▁Azji": 6127, "▁zmę": 6128, "▁Aha": 6129, "▁ludność": 6130, "▁Dal": 6131, "▁che": 6132, "<0x9C>": 6133, "▁święto": 6134, "▁idź": 6135, "nicze": 6136, "▁przeszko": 6137, "som": 6138, "▁proce": 6139, "▁kwiat": 6140, "chowy": 6141, "dej": 6142, "▁sprawiedli": 6143, "▁rozpę": 6144, "rować": 6145, "▁wierzch": 6146, "▁Wrze": 6147, "▁objęcia": 6148, "▁ryby": 6149, "▁budzi": 6150, "▁zostawić": 6151, "stru": 6152, "▁Widział": 6153, "hr": 6154, "▁miastem": 6155, "▁wskazał": 6156, "▁jednostki": 6157, "▁budynku": 6158, "▁śmierte": 6159, "▁Sejmu": 6160, "lazł": 6161, "▁młodzieży": 6162, "tałem": 6163, "▁przyprowa": 6164, "▁wypę": 6165, "▁przepra": 6166, "▁Litwie": 6167, "szemu": 6168, "▁darmo": 6169, "sać": 6170, "▁kwad": 6171, "▁mogłaby": 6172, "▁przyjaciele": 6173, "szeli": 6174, "snym": 6175, "▁oporu": 6176, "tło": 6177, "▁trzymając": 6178, "▁jesteście": 6179, "zda": 6180, "▁przejść": 6181, "▁wzięła": 6182, "mawiać": 6183, "▁zadu": 6184, "▁Panu": 6185, "▁pou": 6186, "conych": 6187, "▁dawać": 6188, "zł": 6189, "▁fał": 6190, "żyło": 6191, "▁ostrożnie": 6192, "kowego": 6193, "▁two": 6194, "▁obóz": 6195, "szeni": 6196, "▁barwy": 6197, "▁zębami": 6198, "słuchi": 6199, "ji": 6200, "▁środowiska": 6201, "▁młod": 6202, "▁sławę": 6203, "▁premiera": 6204, "cznością": 6205, "pis": 6206, "▁przyro": 6207, "szach": 6208, "▁ozdob": 6209, "śmie": 6210, "▁zawa": 6211, "▁wypła": 6212, "▁Później": 6213, "ścili": 6214, "▁bliska": 6215, "▁marca": 6216, "▁związ": 6217, "pospolitą": 6218, "powiada": 6219, "ATA": 6220, "pełnia": 6221, "▁nos": 6222, "▁służył": 6223, "▁om": 6224, "▁ataku": 6225, "▁gan": 6226, "▁śmiechu": 6227, "▁królowej": 6228, "▁mej": 6229, "▁tamtych": 6230, "▁przyczyną": 6231, "▁dziad": 6232, "▁zostaje": 6233, "▁sre": 6234, "▁słab": 6235, "▁Pamię": 6236, "▁gospodarki": 6237, "▁wid": 6238, "▁płyną": 6239, "▁dała": 6240, "▁października": 6241, "▁gre": 6242, "▁rzekę": 6243, "▁Aleksandra": 6244, "▁czynienia": 6245, "▁cien": 6246, "▁przygot": 6247, "▁ładu": 6248, "▁Cu": 6249, "żegna": 6250, "▁zajął": 6251, "▁spojrzenie": 6252, "▁dzierża": 6253, "▁znakomi": 6254, "▁starym": 6255, "▁Znam": 6256, "▁służbie": 6257, "▁tłuma": 6258, "▁orę": 6259, "styczne": 6260, "puszcza": 6261, "▁trwało": 6262, "▁biała": 6263, "niejsi": 6264, "▁ton": 6265, "▁Francji": 6266, "▁Ktoś": 6267, "Prze": 6268, "ałach": 6269, "▁publicznych": 6270, "mawiał": 6271, "▁Rozu": 6272, "▁przeży": 6273, "▁królowa": 6274, "▁zadr": 6275, "▁śpiewać": 6276, "▁Ly": 6277, "▁lubił": 6278, "▁adwokat": 6279, "głę": 6280, "wiec": 6281, "owską": 6282, "▁Słyszałem": 6283, "▁silne": 6284, "▁wielko": 6285, "▁stojący": 6286, "▁odez": 6287, "▁osobą": 6288, "▁siada": 6289, "▁chciało": 6290, "▁zniknął": 6291, "▁zagra": 6292, "żach": 6293, "log": 6294, "▁mieszkaniu": 6295, "▁kroki": 6296, "▁wydać": 6297, "▁błyskawi": 6298, "liny": 6299, "▁powiedziałem": 6300, "▁poczu": 6301, "▁Cię": 6302, "▁blo": 6303, "▁zwierzęta": 6304, "▁Skoro": 6305, "▁ulicę": 6306, "kier": 6307, "szewski": 6308, "▁największy": 6309, "▁cudzoziem": 6310, "pień": 6311, "▁policzki": 6312, "▁potęgi": 6313, "▁obycza": 6314, "▁rzuciła": 6315, "bły": 6316, "▁potężny": 6317, "▁dziewczę": 6318, "▁głosie": 6319, "spa": 6320, "▁Ita": 6321, "▁Komisja": 6322, "czął": 6323, "▁łańcu": 6324, "▁unosi": 6325, "▁ludzką": 6326, "▁będziecie": 6327, "ciele": 6328, "▁Lubi": 6329, "▁ć": 6330, "czaj": 6331, "▁uczucie": 6332, "▁ud": 6333, "lów": 6334, "▁walczyć": 6335, "▁mniejsze": 6336, "▁top": 6337, "obi": 6338, "kazy": 6339, "▁znajdował": 6340, "▁mógłbym": 6341, "▁rodzice": 6342, "▁czterdzieści": 6343, "▁bodaj": 6344, "▁wyboru": 6345, "▁zapan": 6346, "▁czuła": 6347, "▁prawem": 6348, "naj": 6349, "pisz": 6350, "▁zapłacić": 6351, "▁gorąco": 6352, "▁Mary": 6353, "▁przywiąza": 6354, "rium": 6355, "▁poka": 6356, "▁obli": 6357, "bierze": 6358, "▁przyjęcie": 6359, "▁tajemnicy": 6360, "wca": 6361, "▁stal": 6362, "▁Chciałbym": 6363, "▁zamierza": 6364, "▁siost": 6365, "▁sporo": 6366, "▁określa": 6367, "▁Kra": 6368, "▁Uj": 6369, "lego": 6370, "▁rozja": 6371, "dziana": 6372, "▁skro": 6373, "▁snem": 6374, "▁krótki": 6375, "▁trum": 6376, "▁zasa": 6377, "pili": 6378, "▁opuści": 6379, "▁delika": 6380, "dzeni": 6381, "▁Dalej": 6382, "ownicy": 6383, "▁tka": 6384, "▁złodzie": 6385, "▁diabła": 6386, "▁spada": 6387, "▁Wielko": 6388, "▁sal": 6389, "▁występ": 6390, "▁odwrócił": 6391, "▁dzieckiem": 6392, "▁ogrod": 6393, "▁siedziała": 6394, "▁parku": 6395, "▁nożem": 6396, "ując": 6397, "▁szkla": 6398, "▁gotowa": 6399, "▁kop": 6400, "▁biskup": 6401, "▁odwagi": 6402, "▁dzię": 6403, "▁uś": 6404, "stwu": 6405, "▁hała": 6406, "▁wywo": 6407, "▁następuje": 6408, "bny": 6409, "▁odtąd": 6410, "▁wari": 6411, "piony": 6412, "rując": 6413, "▁von": 6414, "tyk": 6415, "▁bała": 6416, "▁dziwnego": 6417, "▁mle": 6418, "tko": 6419, "▁puste": 6420, "▁najlepsze": 6421, "prz": 6422, "▁żadnym": 6423, "▁Obok": 6424, "▁zaczęło": 6425, "▁dotyczące": 6426, "▁Anna": 6427, "szczu": 6428, "▁naboże": 6429, "▁stopnia": 6430, "▁zapowiada": 6431, "▁Jacek": 6432, "▁ścianę": 6433, "bnie": 6434, "▁śmiało": 6435, "▁rozumu": 6436, "▁stawał": 6437, "▁utrzymać": 6438, "▁trwała": 6439, "▁Chry": 6440, "dzka": 6441, "▁Szkoda": 6442, "▁gory": 6443, "▁pogrze": 6444, "▁leżały": 6445, "▁głodu": 6446, "▁wytr": 6447, "gając": 6448, "▁El": 6449, "▁grani": 6450, "▁miłością": 6451, "▁Tru": 6452, "▁płat": 6453, "▁Minister": 6454, "▁Widzisz": 6455, "▁sł": 6456, "▁Kościoła": 6457, "ST": 6458, "▁mał": 6459, "▁lekarz": 6460, "▁powy": 6461, "▁leżała": 6462, "▁zrobiła": 6463, "▁zdarzyło": 6464, "▁decyzję": 6465, "▁adres": 6466, "▁Paryża": 6467, "dzoną": 6468, "▁ulicach": 6469, "inę": 6470, "tory": 6471, "▁Mógł": 6472, "wieniu": 6473, "▁chłopiec": 6474, "▁płacić": 6475, "▁stojąc": 6476, "▁ogrodu": 6477, "sławie": 6478, "?\"": 6479, "jąć": 6480, "▁równo": 6481, "▁wejścia": 6482, "▁Czuł": 6483, "▁walka": 6484, "▁postępowania": 6485, "▁miesiąca": 6486, "▁Gru": 6487, "fie": 6488, "cen": 6489, "owca": 6490, "▁przeprowa": 6491, "▁budżetu": 6492, "▁środki": 6493, "kazał": 6494, "▁dodaje": 6495, "▁wzgórza": 6496, "prawdę": 6497, "▁pirami": 6498, "▁karcz": 6499, "dały": 6500, "sków": 6501, "▁cięż": 6502, "wna": 6503, "▁Jedni": 6504, "▁arystokra": 6505, "jni": 6506, "▁piekie": 6507, "OM": 6508, "nieść": 6509, "czewski": 6510, "▁kościo": 6511, "▁prześla": 6512, "▁słowy": 6513, "▁Będę": 6514, "▁szczu": 6515, "▁rzeczywistości": 6516, "▁spra": 6517, "▁set": 6518, "▁zaprowa": 6519, "▁wyzwo": 6520, "kłada": 6521, "mniej": 6522, "▁dane": 6523, "▁ostatecznie": 6524, "▁ogrodzie": 6525, "▁okręt": 6526, "▁Zda": 6527, "mian": 6528, "▁uli": 6529, "kową": 6530, "wiąza": 6531, "▁uzna": 6532, "▁przepisów": 6533, "▁niewie": 6534, "▁Isto": 6535, "▁rozmaitych": 6536, "▁Następ": 6537, "jeżd": 6538, "▁żywności": 6539, "▁rzą": 6540, "▁pamię": 6541, "▁Urzędu": 6542, "▁czarno": 6543, "▁Rob": 6544, "▁barbarzy": 6545, "wiły": 6546, "gim": 6547, "rzyn": 6548, "▁fala": 6549, "▁białym": 6550, "stoj": 6551, "▁próbował": 6552, "rócić": 6553, "▁starał": 6554, "▁psów": 6555, "▁dziwny": 6556, "sna": 6557, "▁odpu": 6558, "róz": 6559, "▁spła": 6560, "▁pewnej": 6561, "▁okrą": 6562, "▁patrz": 6563, "rab": 6564, "niejszej": 6565, "NA": 6566, "▁nap": 6567, "▁cieszy": 6568, "▁czuć": 6569, "dzkim": 6570, "▁pokazy": 6571, "wkę": 6572, "chały": 6573, "▁pytam": 6574, "▁radzie": 6575, "▁szero": 6576, "▁sąsia": 6577, "▁dźwięk": 6578, "tyw": 6579, "▁ską": 6580, "wnych": 6581, "deł": 6582, "ńczyk": 6583, "cel": 6584, "▁rozdra": 6585, "▁cich": 6586, "▁wypo": 6587, "▁rzad": 6588, "▁nogę": 6589, "stało": 6590, "▁ścianie": 6591, "▁zwrócić": 6592, "▁nur": 6593, "▁dalszych": 6594, "anki": 6595, "▁Marszał": 6596, "▁formie": 6597, "czącego": 6598, "▁Europejskiej": 6599, "▁badań": 6600, "▁listopada": 6601, "▁dolarów": 6602, "strzy": 6603, "▁pieczę": 6604, "▁znany": 6605, "▁kij": 6606, "▁opór": 6607, "▁oparł": 6608, "▁żywy": 6609, "▁dziewczy": 6610, "▁Naz": 6611, "▁jacy": 6612, "▁uk": 6613, "patrywał": 6614, "wów": 6615, "▁poprawki": 6616, "▁ręko": 6617, "▁wzrostu": 6618, "nikom": 6619, "▁Zam": 6620, "▁spadnie": 6621, "▁mniejsza": 6622, "pane": 6623, "dowy": 6624, "nących": 6625, "▁biorą": 6626, "▁reszta": 6627, "▁tamten": 6628, "▁powrocie": 6629, "▁intere": 6630, "▁wynosi": 6631, "▁sprawą": 6632, "bki": 6633, "▁Czu": 6634, "mur": 6635, "▁miej": 6636, "▁oddali": 6637, "▁wyjścia": 6638, "▁dwieście": 6639, "▁mono": 6640, "bur": 6641, "▁większości": 6642, "▁garść": 6643, "▁omi": 6644, "▁ptaki": 6645, "niętych": 6646, "▁opinii": 6647, "▁wypowie": 6648, "▁wysyła": 6649, "▁stanowczo": 6650, "▁miastach": 6651, "▁fale": 6652, "▁awan": 6653, "▁opieki": 6654, "▁asy": 6655, "▁uczniów": 6656, "▁zapu": 6657, "dziel": 6658, "bacz": 6659, "▁siero": 6660, "▁Ate": 6661, "▁przem": 6662, "▁uwię": 6663, "▁Sła": 6664, "▁wyraź": 6665, "biła": 6666, "▁losy": 6667, "któw": 6668, "▁piękną": 6669, "▁pance": 6670, "▁nagrodę": 6671, "▁przysła": 6672, "▁kło": 6673, "lię": 6674, "▁wolny": 6675, "▁pó": 6676, "▁placu": 6677, "▁zwraca": 6678, "noc": 6679, "▁weszła": 6680, "▁cesar": 6681, "▁plany": 6682, "▁porusza": 6683, "ówić": 6684, "Pa": 6685, "▁Znaj": 6686, "▁tytuł": 6687, "▁większym": 6688, "▁takimi": 6689, "tacja": 6690, "onych": 6691, "▁zrobiło": 6692, "▁ukra": 6693, "▁zajm": 6694, "▁Józef": 6695, "▁Słowa": 6696, "zję": 6697, "▁rozmowie": 6698, "▁starej": 6699, "▁Bor": 6700, "▁energii": 6701, "▁dróg": 6702, "▁telefon": 6703, "▁zmniej": 6704, "ktu": 6705, "▁wyprost": 6706, "▁znane": 6707, "▁potężne": 6708, "▁towar": 6709, "▁tajemni": 6710, "▁wodo": 6711, "bienie": 6712, "▁pracował": 6713, "cyjnym": 6714, "▁otwarcie": 6715, "▁towarzystwa": 6716, "▁badania": 6717, "▁sprzedaży": 6718, "▁znają": 6719, "▁zachować": 6720, "▁klubu": 6721, "▁Łodzi": 6722, "dzu": 6723, "▁synu": 6724, "▁drżą": 6725, "▁małżon": 6726, "▁dopu": 6727, "▁żo": 6728, "▁waszym": 6729, "▁przytu": 6730, "rol": 6731, "▁wrócili": 6732, "▁obcych": 6733, "▁dołu": 6734, "▁Komu": 6735, "biny": 6736, "▁smutku": 6737, "▁plecy": 6738, "▁Piotra": 6739, "bin": 6740, "▁Wiele": 6741, "▁bohater": 6742, "pierw": 6743, "▁okazał": 6744, "▁zakończył": 6745, "▁pełna": 6746, "▁zakrę": 6747, "kiewicza": 6748, "pce": 6749, "▁palcem": 6750, "patrz": 6751, "▁zanu": 6752, "dzała": 6753, "▁studen": 6754, "▁matkę": 6755, "▁częścią": 6756, "▁wrę": 6757, ".),": 6758, "▁cieniu": 6759, "▁sztu": 6760, "▁Rozumiem": 6761, "▁pojęcia": 6762, "▁Samo": 6763, "▁seksu": 6764, "▁zdobyć": 6765, "▁Op": 6766, "▁zatrzymali": 6767, "fo": 6768, "sch": 6769, "▁spotkaniu": 6770, "▁Mazow": 6771, "▁władz": 6772, "▁widzą": 6773, "▁rodzaj": 6774, "▁szwedzki": 6775, "manem": 6776, "▁stopniowo": 6777, "▁kapelu": 6778, "▁zaszczy": 6779, "▁przykro": 6780, "▁Gło": 6781, "lom": 6782, "▁kolanach": 6783, "▁medy": 6784, "▁zwróciła": 6785, "▁marszał": 6786, "▁zapis": 6787, "cyj": 6788, "▁wście": 6789, "▁zamę": 6790, "▁wcześnie": 6791, "▁wej": 6792, "▁pewnych": 6793, "▁zamian": 6794, "cieka": 6795, "▁łóżka": 6796, "▁spał": 6797, "two": 6798, "▁żoną": 6799, "▁tajem": 6800, "▁poran": 6801, "▁prawdziwy": 6802, "▁pań": 6803, "▁ciep": 6804, "▁wpat": 6805, "▁pokaże": 6806, "▁grup": 6807, "▁zaczer": 6808, "▁trzydzie": 6809, "trz": 6810, "▁Serce": 6811, "niają": 6812, "▁alkoholu": 6813, "wic": 6814, "ższe": 6815, "▁nau": 6816, "▁sięga": 6817, "▁stanowią": 6818, "▁koła": 6819, "szczyk": 6820, "▁rozle": 6821, "▁zu": 6822, "▁Staro": 6823, "▁Obecnie": 6824, "zją": 6825, "▁Człowiek": 6826, "arą": 6827, "▁Musz": 6828, "▁oli": 6829, "▁ciemnej": 6830, "▁ukazu": 6831, "▁widokiem": 6832, "▁zatrzymać": 6833, "▁Każ": 6834, "tery": 6835, "▁tutej": 6836, "▁Poto": 6837, "▁sena": 6838, "▁Cicho": 6839, "kta": 6840, "▁pode": 6841, "laj": 6842, "▁Koniec": 6843, "▁wiatru": 6844, "▁poro": 6845, "▁pozwól": 6846, "wanym": 6847, "▁szat": 6848, "▁bada": 6849, "char": 6850, "▁pach": 6851, "▁nadszedł": 6852, "▁wewnątrz": 6853, "▁Weź": 6854, "▁Przede": 6855, "dzonym": 6856, "▁młodzież": 6857, "▁ciemność": 6858, "▁czarnych": 6859, "▁pomoże": 6860, "▁skaza": 6861, "nikowi": 6862, "mują": 6863, "rząc": 6864, "zin": 6865, "▁polska": 6866, "▁trzeciego": 6867, "▁nieśmier": 6868, "▁wiat": 6869, "tuję": 6870, "stępuje": 6871, "dzeń": 6872, "trzyma": 6873, "▁przynieść": 6874, "Mo": 6875, "równa": 6876, "▁otoczony": 6877, "▁wpadła": 6878, "tując": 6879, "▁wydała": 6880, "gen": 6881, "▁pą": 6882, "cyjna": 6883, "ort": 6884, "▁systemu": 6885, "▁siód": 6886, "▁piętnaście": 6887, "dują": 6888, "▁obywatel": 6889, "cyjną": 6890, "▁mama": 6891, "wską": 6892, "▁mężem": 6893, "ros": 6894, "▁lekarza": 6895, "▁licz": 6896, "▁ujaw": 6897, "▁zespół": 6898, "▁silny": 6899, "▁zdobył": 6900, "▁skutek": 6901, "cin": 6902, "▁sprze": 6903, "▁kwietnia": 6904, "▁dojść": 6905, "nacie": 6906, "▁komenda": 6907, "▁powieki": 6908, "▁potrzebował": 6909, "▁But": 6910, "▁mianowicie": 6911, "▁rozmawiali": 6912, "▁kule": 6913, "▁Naturalnie": 6914, "▁brzuch": 6915, "▁ukryć": 6916, "▁Stan": 6917, "▁odpra": 6918, "giego": 6919, "▁chó": 6920, "cjum": 6921, "▁biegu": 6922, "▁Pomyś": 6923, "▁miar": 6924, "▁Hali": 6925, "▁kieszeni": 6926, "czonymi": 6927, "▁niebezpiecze": 6928, "▁wieży": 6929, "▁termin": 6930, "▁Zdaje": 6931, "▁dachu": 6932, "▁mni": 6933, "szczone": 6934, "▁piw": 6935, "▁państw": 6936, "▁doktora": 6937, "dzką": 6938, "▁otrzyma": 6939, "żby": 6940, "mani": 6941, "liły": 6942, "▁długiej": 6943, "ZE": 6944, "lonego": 6945, "żyłem": 6946, "▁przeło": 6947, "▁młodym": 6948, "▁odejść": 6949, "żeń": 6950, "lacji": 6951, "▁Dłu": 6952, "▁dalsze": 6953, "▁klu": 6954, "▁oddziału": 6955, "tnika": 6956, "▁przestrzeń": 6957, "▁zapewnia": 6958, "▁Centrum": 6959, "▁rodzina": 6960, "▁sad": 6961, "tację": 6962, "tyczny": 6963, "dzając": 6964, "▁pobli": 6965, "▁Związku": 6966, "▁grać": 6967, "▁Sobie": 6968, "▁szeregu": 6969, "tum": 6970, "▁kat": 6971, "żar": 6972, "▁oboz": 6973, "▁karę": 6974, "▁marszałka": 6975, "▁opieką": 6976, "nionej": 6977, "łat": 6978, "▁kapita": 6979, "panie": 6980, "anu": 6981, "▁Kościół": 6982, "▁łodzi": 6983, "lki": 6984, "▁układy": 6985, "ct": 6986, "niosły": 6987, "▁posy": 6988, "stami": 6989, "OP": 6990, "tarza": 6991, ".).": 6992, "bienia": 6993, "▁odej": 6994, "▁dopuszcza": 6995, "szeń": 6996, "▁starannie": 6997, "▁robisz": 6998, "▁zamknął": 6999, "▁zoba": 7000, "▁zmy": 7001, "▁Chciałem": 7002, "cowie": 7003, "▁imienia": 7004, "▁wyłą": 7005, "▁pisa": 7006, "▁serdecznie": 7007, "▁ściga": 7008, "rzono": 7009, "▁wytrzyma": 7010, "▁gospodarz": 7011, "▁ciężar": 7012, "▁warunków": 7013, "▁szara": 7014, "▁doświadczenia": 7015, "▁wystąpił": 7016, "▁zapowiedział": 7017, "▁największe": 7018, "▁mięso": 7019, "▁zdziwiony": 7020, "▁tłumaczy": 7021, "▁kolan": 7022, "▁szczęśliwie": 7023, "▁zgodził": 7024, "dzonego": 7025, "▁książkę": 7026, "▁kr": 7027, "▁małych": 7028, "mym": 7029, "▁sprawiedliwość": 7030, "▁gardła": 7031, "liwością": 7032, "▁oknem": 7033, "▁młodo": 7034, "▁reli": 7035, "gosła": 7036, "▁posiadał": 7037, "▁zdej": 7038, "mir": 7039, "▁twierdzą": 7040, "mot": 7041, "▁cienie": 7042, "▁ota": 7043, "ssa": 7044, "▁łóżku": 7045, "▁wstęp": 7046, "▁kuzy": 7047, "zną": 7048, "lali": 7049, "▁ciągnie": 7050, "nował": 7051, "tały": 7052, "ńskiemu": 7053, "niemy": 7054, "▁przyjacielem": 7055, "bud": 7056, "▁śmiech": 7057, "▁zimno": 7058, "▁postawił": 7059, "▁uzbro": 7060, "▁Ca": 7061, "▁naukę": 7062, "ził": 7063, "łku": 7064, "▁problemy": 7065, "▁rozporządzenia": 7066, "▁nada": 7067, "▁powodów": 7068, "▁Prę": 7069, "▁litości": 7070, "▁dodać": 7071, "▁udzie": 7072, "rzona": 7073, "wiały": 7074, "ing": 7075, "tten": 7076, "torów": 7077, "▁rozmaite": 7078, "▁Mieszka": 7079, "▁zmarł": 7080, "torem": 7081, "▁wnętrza": 7082, "▁zająć": 7083, "▁tygodnia": 7084, "▁porządek": 7085, "rój": 7086, "▁przewidy": 7087, "▁zawiera": 7088, "▁zasady": 7089, "szczęśli": 7090, "▁deszczu": 7091, "▁drobne": 7092, "▁urzędu": 7093, "▁rynek": 7094, "▁mieści": 7095, "▁kół": 7096, "▁muzyki": 7097, "▁jedne": 7098, "ciłem": 7099, "▁budowę": 7100, "▁węgier": 7101, "▁areszt": 7102, "▁gmin": 7103, "▁Mał": 7104, "▁magna": 7105, "wiast": 7106, "pur": 7107, "ląc": 7108, "jnie": 7109, "około": 7110, "▁westch": 7111, "▁listu": 7112, "▁Pew": 7113, "▁komor": 7114, "▁chwali": 7115, "▁wyglądała": 7116, "▁wzruszył": 7117, "dąc": 7118, "▁Kowalski": 7119, "▁niezawo": 7120, "▁ostat": 7121, "▁skończyć": 7122, "czach": 7123, "▁władza": 7124, "▁nik": 7125, "▁ukazała": 7126, "▁zamknięte": 7127, "▁wynalaz": 7128, "kład": 7129, "▁wszelką": 7130, "owość": 7131, "▁osobę": 7132, "lum": 7133, "ander": 7134, "▁licy": 7135, "▁prezen": 7136, "▁brzegiem": 7137, "wiają": 7138, "ger": 7139, "▁Sama": 7140, "▁twór": 7141, "▁sens": 7142, "▁Najpierw": 7143, "▁przewodniczący": 7144, "łód": 7145, "▁ciężki": 7146, "▁papier": 7147, "▁tabli": 7148, "▁pisto": 7149, "▁trosk": 7150, "▁towarzystwo": 7151, "▁rzeczach": 7152, "▁czynności": 7153, "▁zabrakło": 7154, "pre": 7155, "▁potrzą": 7156, "świad": 7157, "▁wycię": 7158, "zić": 7159, "▁ciepło": 7160, "nność": 7161, "▁rozpozna": 7162, "▁wytrzymać": 7163, "▁czytał": 7164, "▁der": 7165, "▁dyrektora": 7166, "▁ogniska": 7167, "▁tatu": 7168, "▁żu": 7169, "▁zaklę": 7170, "▁krzyczał": 7171, "atki": 7172, "▁odnaj": 7173, "▁gład": 7174, "▁podobną": 7175, "▁dusz": 7176, "szczały": 7177, "▁Tobie": 7178, "▁ber": 7179, "gwia": 7180, "▁niew": 7181, "▁swobo": 7182, "▁jakichś": 7183, "pany": 7184, "▁zry": 7185, "▁przyjeżdża": 7186, "▁autor": 7187, "▁przeczu": 7188, "▁twe": 7189, "▁błę": 7190, "▁wysa": 7191, "nionego": 7192, "▁wypi": 7193, "▁sąsiadów": 7194, "▁jaw": 7195, "tnicy": 7196, "▁opar": 7197, "zio": 7198, "▁kiedykolwiek": 7199, "niesieniu": 7200, "▁podatku": 7201, "AM": 7202, "▁Senatu": 7203, "żonego": 7204, "▁jeziora": 7205, "▁rozpocznie": 7206, "▁ciekawość": 7207, "▁wykrę": 7208, "tków": 7209, "▁Por": 7210, "▁historię": 7211, "jały": 7212, "▁konfi": 7213, "las": 7214, "▁siostra": 7215, "fra": 7216, "▁Zie": 7217, "▁znajomych": 7218, "rócz": 7219, "▁Prawie": 7220, "▁dowcip": 7221, "▁płynie": 7222, "▁spodziewać": 7223, "▁et": 7224, "▁ostatnia": 7225, "dziane": 7226, "▁Janusza": 7227, "▁Prezes": 7228, "▁weł": 7229, "sor": 7230, "ili": 7231, "▁wysko": 7232, "▁napast": 7233, "diego": 7234, "▁pł": 7235, "▁skał": 7236, "▁godności": 7237, "▁wróciła": 7238, "▁dogo": 7239, "▁ustęp": 7240, "nieli": 7241, "▁wypa": 7242, "▁gorącz": 7243, "num": 7244, "Czy": 7245, "▁doje": 7246, "▁zaopat": 7247, "▁kan": 7248, "▁żela": 7249, "czkami": 7250, "dziesią": 7251, "▁bawi": 7252, "▁jedwa": 7253, "▁nied": 7254, "▁Zad": 7255, "▁bel": 7256, "▁wszelki": 7257, "▁X": 7258, "▁naby": 7259, "▁napły": 7260, "stawa": 7261, "▁nawo": 7262, "▁kopa": 7263, "▁znajdziesz": 7264, "▁Ser": 7265, "▁chciałby": 7266, "mena": 7267, "jać": 7268, "▁uważ": 7269, "▁Poje": 7270, "uj": 7271, "▁kawałek": 7272, "▁czwartek": 7273, "trzą": 7274, "▁mno": 7275, "▁ptak": 7276, "▁sier": 7277, "▁dzieciom": 7278, "▁malu": 7279, "▁zrobię": 7280, "dam": 7281, "▁nawy": 7282, "▁wypowiedzi": 7283, "linie": 7284, "▁karty": 7285, "▁posłowie": 7286, "▁jedynym": 7287, "dzali": 7288, "ałę": 7289, "▁stacji": 7290, "letnia": 7291, "▁setki": 7292, "▁błogosławie": 7293, "▁ramionach": 7294, "▁potwor": 7295, "▁popatrzył": 7296, "▁spojrzała": 7297, "▁zakłopo": 7298, "▁ofi": 7299, "▁świeże": 7300, "▁zmieniła": 7301, "▁smutek": 7302, "▁opowiedział": 7303, "▁uderzyć": 7304, "▁brz": 7305, "▁znosi": 7306, "▁Zawi": 7307, "▁wszel": 7308, "▁doro": 7309, "▁uznał": 7310, "▁wile": 7311, "▁Także": 7312, "▁świecą": 7313, "kam": 7314, "▁pełnym": 7315, "żnej": 7316, "▁natar": 7317, "▁wiodą": 7318, "▁nauka": 7319, "▁brzegi": 7320, "▁Emi": 7321, "▁triumf": 7322, "▁Możesz": 7323, "licz": 7324, "▁Myślałem": 7325, "▁kilkaset": 7326, "▁Macie": 7327, "▁ludzki": 7328, "IN": 7329, "▁czwarty": 7330, "▁cokolwiek": 7331, "▁wymyś": 7332, "▁Pierwsze": 7333, "▁pójdą": 7334, "▁osobie": 7335, "▁zarę": 7336, "▁niezwykle": 7337, "▁lodow": 7338, "wskie": 7339, "▁zapłaci": 7340, "▁sprzeci": 7341, "lam": 7342, "wiąz": 7343, "▁postanowi": 7344, "jając": 7345, "muję": 7346, "▁odwo": 7347, "▁morder": 7348, "▁odwa": 7349, "▁wystawi": 7350, "▁krza": 7351, "<0xB6>": 7352, "zła": 7353, "zyn": 7354, "▁odczy": 7355, "▁wschód": 7356, "stkę": 7357, "▁demokra": 7358, "jenia": 7359, "arki": 7360, "▁siostry": 7361, "▁interesu": 7362, "▁człowiekowi": 7363, "▁inten": 7364, "▁Syna": 7365, "▁kontakt": 7366, "Ę": 7367, "▁znaczne": 7368, "▁Ojca": 7369, "tyki": 7370, "pek": 7371, "▁oce": 7372, "▁Klu": 7373, "▁doty": 7374, "▁odległości": 7375, "wców": 7376, "wamy": 7377, "▁teren": 7378, "sięg": 7379, "atę": 7380, "dat": 7381, "▁przyłą": 7382, "▁łuk": 7383, "▁zazdro": 7384, "don": 7385, "▁głód": 7386, "▁święte": 7387, "▁przestrze": 7388, "nicza": 7389, "▁wor": 7390, "▁jedyna": 7391, "▁towarzyszy": 7392, "▁naje": 7393, "▁natura": 7394, "▁Drugi": 7395, "▁postacie": 7396, "▁Sło": 7397, "▁upadku": 7398, "▁słody": 7399, "▁Benedykt": 7400, "▁przeszła": 7401, "▁wah": 7402, "▁doku": 7403, "▁usił": 7404, "▁zamach": 7405, "▁pomyśleć": 7406, "▁Zrobi": 7407, "tkiem": 7408, "▁trzeź": 7409, "wicy": 7410, "▁skrzydeł": 7411, "▁nało": 7412, "▁SA": 7413, "▁zbrojnych": 7414, "▁czekają": 7415, "▁liczbę": 7416, "▁najlepszy": 7417, "▁rozkazał": 7418, "▁pojawił": 7419, "▁przeważnie": 7420, "▁ran": 7421, "nicę": 7422, "▁Wprawdzie": 7423, "▁białego": 7424, "dnik": 7425, "nięciu": 7426, "▁wybrać": 7427, "▁Rzu": 7428, "▁podłogę": 7429, "▁bab": 7430, "stek": 7431, "▁pogrzeb": 7432, "▁Mały": 7433, "▁poziom": 7434, "▁Stani": 7435, "alny": 7436, "ryt": 7437, "ąż": 7438, "iło": 7439, "▁Niemczech": 7440, "▁dziewią": 7441, "▁lutego": 7442, "oną": 7443, "▁kłopo": 7444, "▁skra": 7445, "szków": 7446, "▁Inaczej": 7447, "▁stosuje": 7448, "▁prośbę": 7449, "▁popra": 7450, "kłady": 7451, "▁zboża": 7452, "żonej": 7453, "działy": 7454, "▁wiedziałem": 7455, "▁kart": 7456, "▁produkcji": 7457, "owcy": 7458, "▁wojną": 7459, "▁Jedno": 7460, "▁wyjaśnia": 7461, "▁dzieła": 7462, "▁władca": 7463, "▁promienie": 7464, "▁błą": 7465, "▁niewidzi": 7466, "orą": 7467, "▁odgłos": 7468, "▁oczom": 7469, "▁ofice": 7470, "▁wyrwał": 7471, "X": 7472, "▁zapowie": 7473, "giej": 7474, "▁dadzą": 7475, "▁wyści": 7476, "▁rozciąg": 7477, "▁rosły": 7478, "▁dźwię": 7479, "kiet": 7480, "▁pułkownika": 7481, "▁waha": 7482, "▁wstrę": 7483, "▁wskazując": 7484, "▁jedyny": 7485, "▁wydawała": 7486, "tus": 7487, "▁wrócę": 7488, "▁ulu": 7489, "owiadał": 7490, "▁zakład": 7491, "▁siedząc": 7492, "▁własnymi": 7493, "▁zamor": 7494, "▁racji": 7495, "▁komendant": 7496, "CH": 7497, "odła": 7498, "▁skarbu": 7499, "kazać": 7500, "▁wybra": 7501, "▁plecami": 7502, "▁opiera": 7503, "▁wzrost": 7504, "▁mieszkał": 7505, "▁mija": 7506, "▁mieliśmy": 7507, "▁zapomina": 7508, "▁zapytać": 7509, "▁wiara": 7510, "▁Chcesz": 7511, "owaliśmy": 7512, "▁krześle": 7513, "▁For": 7514, "▁spoglądając": 7515, "▁trawy": 7516, "▁Miała": 7517, "▁zdję": 7518, "▁śród": 7519, "▁długa": 7520, "▁zamil": 7521, "▁prezent": 7522, "▁liczby": 7523, "▁państwie": 7524, "▁zech": 7525, "▁nienawiść": 7526, "▁trudem": 7527, "vi": 7528, "▁trój": 7529, "▁groźne": 7530, "▁Bli": 7531, "▁przeszłości": 7532, "▁dostar": 7533, "▁Pawła": 7534, "lizmu": 7535, "prawie": 7536, "▁wyto": 7537, "luje": 7538, "chodem": 7539, "▁Wojciech": 7540, "▁sędzi": 7541, "▁ciele": 7542, "▁samochodów": 7543, "▁punkt": 7544, "▁Jo": 7545, "▁Jerzego": 7546, "conym": 7547, "▁publicznej": 7548, "▁Chodzi": 7549, "▁podać": 7550, "▁XVIII": 7551, "▁patrzyła": 7552, "▁kwit": 7553, "▁ostatnią": 7554, "ema": 7555, "siński": 7556, "▁jada": 7557, "▁przybyli": 7558, "▁Tadeusza": 7559, "ES": 7560, "łoby": 7561, "▁chęci": 7562, "it": 7563, "leć": 7564, "▁wyrzuca": 7565, "▁dziwa": 7566, "▁sposoby": 7567, "▁spojrzeć": 7568, "▁skru": 7569, "szar": 7570, "▁wle": 7571, "laz": 7572, "▁wejście": 7573, "▁treści": 7574, "owią": 7575, "▁Ziemi": 7576, "▁moty": 7577, "▁ucieczki": 7578, "▁dostrze": 7579, "dowe": 7580, "▁łódź": 7581, "▁prosty": 7582, "▁Nowy": 7583, "▁choroba": 7584, "komu": 7585, "niosła": 7586, "pomina": 7587, "▁realizacji": 7588, "▁terminie": 7589, "▁pewność": 7590, "▁kłam": 7591, "▁byłeś": 7592, "▁Dobra": 7593, "▁teat": 7594, "▁nawie": 7595, "▁lip": 7596, "▁wojskowych": 7597, "ździ": 7598, "▁ciepła": 7599, "▁IV": 7600, "▁ramion": 7601, "czało": 7602, "śnięte": 7603, "▁wysłać": 7604, "▁przeszkadza": 7605, "▁ogło": 7606, "mek": 7607, "▁nasta": 7608, "▁uważam": 7609, "▁jar": 7610, "niczych": 7611, "▁Sad": 7612, "▁jał": 7613, "▁piwo": 7614, "▁mężczyźni": 7615, "Do": 7616, "żeć": 7617, "▁bos": 7618, "fera": 7619, "▁małże": 7620, "▁najstar": 7621, "▁Marcin": 7622, "▁spoza": 7623, "▁rzecznik": 7624, "letniego": 7625, "▁książek": 7626, "▁Pamiętaj": 7627, "iły": 7628, "tyna": 7629, "▁machi": 7630, "▁Głos": 7631, "wsze": 7632, "kając": 7633, "nastu": 7634, "▁matce": 7635, "▁wezwał": 7636, "▁wyzy": 7637, "OW": 7638, "▁stę": 7639, "▁zdaw": 7640, "▁powrócił": 7641, "wicę": 7642, "▁Oby": 7643, "▁noce": 7644, "▁rozsze": 7645, "▁kompa": 7646, "▁sile": 7647, "▁Mę": 7648, "kałem": 7649, "▁szkody": 7650, "▁ilości": 7651, "bał": 7652, "▁czarną": 7653, "▁wyrazem": 7654, "▁Rzeczywiście": 7655, "▁wszelkiego": 7656, "▁zasadzie": 7657, "▁gałą": 7658, "wła": 7659, "▁błąd": 7660, "▁trudniej": 7661, "mentar": 7662, "▁propo": 7663, "▁lecą": 7664, "▁NATO": 7665, "▁właściwy": 7666, "tasz": 7667, "▁obda": 7668, "owań": 7669, "▁wojennych": 7670, "▁odebrał": 7671, "▁przejdzie": 7672, "▁kilometrów": 7673, "▁sprzed": 7674, "▁ścianą": 7675, "kcja": 7676, "chało": 7677, "▁zagranicznych": 7678, "kiety": 7679, "▁drzewami": 7680, "▁osobiście": 7681, "▁drę": 7682, "▁profesor": 7683, "▁oświet": 7684, "dnością": 7685, "▁kolegów": 7686, "pą": 7687, "▁ogromną": 7688, "chnęła": 7689, "mentów": 7690, "▁wysłucha": 7691, "pała": 7692, "nikach": 7693, "▁Ź": 7694, "▁Pamiętam": 7695, "▁społeczeństwa": 7696, "▁spośród": 7697, "▁taj": 7698, "atą": 7699, "sim": 7700, "▁pięści": 7701, "tycznego": 7702, "nicki": 7703, "▁Dar": 7704, "▁Polskiego": 7705, "▁zorganiz": 7706, "▁potrzebie": 7707, "▁podjął": 7708, "▁zała": 7709, "▁humor": 7710, "▁gł": 7711, "bione": 7712, "▁palec": 7713, "▁grzechy": 7714, "▁pch": 7715, "▁mowę": 7716, "▁pozwolić": 7717, "▁twa": 7718, "▁Chło": 7719, "▁otworzyły": 7720, "▁gospody": 7721, "▁udziela": 7722, "▁spadła": 7723, "▁zdy": 7724, "rzeni": 7725, "▁wilgot": 7726, "▁fla": 7727, "▁tytułu": 7728, "▁mieszcza": 7729, "▁ułat": 7730, "▁psycho": 7731, "▁lam": 7732, "rzałem": 7733, "czam": 7734, "▁prowadzą": 7735, "▁Coraz": 7736, "▁komple": 7737, "▁bije": 7738, "▁niedob": 7739, "▁brakuje": 7740, "▁trzecie": 7741, "zmem": 7742, "▁wspólnego": 7743, "▁Ab": 7744, "▁okolicach": 7745, "▁Sch": 7746, "kaz": 7747, "▁sprawi": 7748, "mon": 7749, "dyn": 7750, "▁uwi": 7751, "▁sądzi": 7752, "ras": 7753, "chodzę": 7754, "▁uważnie": 7755, "▁masy": 7756, "▁szefa": 7757, "dowych": 7758, "▁musiało": 7759, "▁Około": 7760, "▁fali": 7761, "▁Matka": 7762, "tak": 7763, "▁mły": 7764, "▁akt": 7765, "tura": 7766, "▁dochody": 7767, "▁miejscowości": 7768, "▁wyborów": 7769, "uro": 7770, "▁Kos": 7771, "▁Kat": 7772, "▁przewyż": 7773, "▁obejrzał": 7774, "▁róża": 7775, "▁dal": 7776, "▁ź": 7777, "▁Mir": 7778, "▁wyz": 7779, "▁kraje": 7780, "▁zemsty": 7781, "▁nadzieją": 7782, "▁przeci": 7783, "czko": 7784, "▁wiosen": 7785, "▁złam": 7786, "▁słowami": 7787, "ium": 7788, "▁zar": 7789, "▁proś": 7790, "▁Widzi": 7791, "▁człowieku": 7792, "liwa": 7793, "▁Bara": 7794, "▁ciekawo": 7795, "▁aksami": 7796, "▁kata": 7797, "▁zgła": 7798, "▁Dom": 7799, "▁ski": 7800, "▁osło": 7801, "▁wybór": 7802, "▁przygotowania": 7803, "▁głę": 7804, "cisnąć": 7805, "del": 7806, "▁poczuł": 7807, "▁zdziwił": 7808, "NI": 7809, "▁Państwa": 7810, "▁drugich": 7811, "tłu": 7812, "▁odmówi": 7813, "▁popa": 7814, "▁drą": 7815, "▁określonych": 7816, "▁traci": 7817, "▁niosą": 7818, "▁pożąda": 7819, "▁celem": 7820, "▁Paryżu": 7821, "szan": 7822, "▁Miasta": 7823, "▁kolo": 7824, "▁przepraszam": 7825, "rzać": 7826, "pow": 7827, "▁dwanaście": 7828, "▁Mają": 7829, "▁Zdaniem": 7830, "▁pracownicy": 7831, "▁przegra": 7832, "▁pią": 7833, "▁przyszłym": 7834, "owości": 7835, "▁znajomości": 7836, "▁Tej": 7837, "▁poła": 7838, "torzy": 7839, "▁zasad": 7840, "▁pamiętać": 7841, "▁Zbigniew": 7842, "▁odebra": 7843, "▁suchy": 7844, "miot": 7845, "▁rezolu": 7846, "stąpiła": 7847, "▁jakimi": 7848, "niętym": 7849, "lane": 7850, "▁zapło": 7851, "▁żółte": 7852, "wiono": 7853, "▁ruchy": 7854, "▁historia": 7855, "▁Bir": 7856, "▁niżej": 7857, "▁zajęty": 7858, "nictwo": 7859, "▁samochodu": 7860, "dziny": 7861, "▁wspomniał": 7862, "dowej": 7863, "▁Zapewne": 7864, "▁świadków": 7865, "!)": 7866, "▁więzie": 7867, "▁gabinetu": 7868, "▁stopy": 7869, "fał": 7870, "▁złą": 7871, "▁Nasz": 7872, "eri": 7873, "▁wyrzą": 7874, "▁złości": 7875, "▁wyjątkiem": 7876, "▁działać": 7877, "▁Wiel": 7878, "▁zmianie": 7879, "▁Che": 7880, "▁śnia": 7881, "▁szere": 7882, "larz": 7883, "czno": 7884, "▁większych": 7885, "kcję": 7886, "▁forma": 7887, "rzonych": 7888, "▁odw": 7889, "▁krzyknęła": 7890, "jna": 7891, "▁tom": 7892, "głem": 7893, "▁otchła": 7894, "ciami": 7895, "▁przyjaźń": 7896, "▁piwnicy": 7897, "▁oddy": 7898, "▁Zoba": 7899, "▁trzecim": 7900, "▁sek": 7901, "▁głośniej": 7902, "▁prawdziwe": 7903, "▁Uważa": 7904, "▁tkwi": 7905, "▁kobietą": 7906, "▁wyko": 7907, "▁Więcej": 7908, "mali": 7909, "▁ocenia": 7910, "▁godzinach": 7911, "▁gwałtownie": 7912, "▁rodzin": 7913, "▁cele": 7914, "▁interesów": 7915, "▁naśla": 7916, "▁upra": 7917, "▁krótkie": 7918, "▁Szy": 7919, "▁mazowie": 7920, "▁zastrze": 7921, "▁Kultury": 7922, "▁Szko": 7923, "lają": 7924, "▁opie": 7925, "▁zaprasza": 7926, "▁niep": 7927, "▁ilość": 7928, "▁Two": 7929, "▁zaku": 7930, "▁natch": 7931, "▁jasny": 7932, "łowa": 7933, "▁pijany": 7934, "marz": 7935, "▁Mówię": 7936, "ff": 7937, "▁poleg": 7938, "niak": 7939, "▁honoru": 7940, "kara": 7941, "▁wolą": 7942, "▁kupił": 7943, "▁chowa": 7944, "▁lekka": 7945, "▁traf": 7946, "▁oficera": 7947, "▁serde": 7948, "rodą": 7949, "▁przyznał": 7950, "▁nastąpić": 7951, "▁Przepraszam": 7952, "▁Wielka": 7953, "▁jab": 7954, "▁okrucie": 7955, "▁podej": 7956, "▁spowie": 7957, "▁upływie": 7958, "kona": 7959, "czanie": 7960, "ach": 7961, "▁szczycie": 7962, "▁poczeka": 7963, "▁wita": 7964, "▁piasek": 7965, "▁przytomność": 7966, "niąc": 7967, "▁Podobno": 7968, "▁brodę": 7969, "▁cios": 7970, "cik": 7971, "pil": 7972, "▁prób": 7973, "▁przyczyn": 7974, "▁całości": 7975, "▁przodu": 7976, "▁niemiec": 7977, "tkach": 7978, "▁miałby": 7979, "▁pozostałych": 7980, "▁nieśmi": 7981, "▁Robert": 7982, "▁sądzę": 7983, "rki": 7984, "ctwem": 7985, "▁obywateli": 7986, "▁nadto": 7987, "▁najwyżej": 7988, "▁przepad": 7989, "wieni": 7990, "▁Wła": 7991, "▁robota": 7992, "▁przyzwycza": 7993, "▁pośród": 7994, "▁przenik": 7995, "▁rozpra": 7996, "ser": 7997, "▁cienia": 7998, "▁post": 7999, "▁zapasy": 8000, "kiwał": 8001, "▁Myśli": 8002, "▁Ciebie": 8003, "▁plecach": 8004, "▁wypadł": 8005, "lany": 8006, "▁fu": 8007, "▁pokryte": 8008, "▁wyjątkowo": 8009, "ryka": 8010, "▁administracji": 8011, "gowa": 8012, "▁wrogów": 8013, "▁okoliczności": 8014, "▁zaufa": 8015, "▁ukara": 8016, "are": 8017, "▁Wiadomo": 8018, "szliśmy": 8019, "▁powiat": 8020, "▁odpowiednio": 8021, "▁instytucji": 8022, "▁zapadła": 8023, "▁przyw": 8024, "▁litera": 8025, "▁nauczyciel": 8026, "▁czując": 8027, "▁włos": 8028, "prawdy": 8029, "▁ścianach": 8030, "▁pałac": 8031, "gować": 8032, "▁salonu": 8033, "sad": 8034, "ciągnąć": 8035, "wiając": 8036, "▁przepy": 8037, "kur": 8038, "DA": 8039, "▁płu": 8040, "AP": 8041, "▁przedpo": 8042, "▁pozostaje": 8043, "▁kawa": 8044, "▁płakać": 8045, "▁robotę": 8046, "▁ście": 8047, "ziem": 8048, "▁dostali": 8049, "wcy": 8050, "▁wyją": 8051, "▁uję": 8052, "▁ST": 8053, "wan": 8054, "▁spełnić": 8055, "szają": 8056, "▁ucze": 8057, "▁morzu": 8058, "▁podwój": 8059, "uz": 8060, "▁nar": 8061, "▁Brze": 8062, "▁obowiązków": 8063, "szna": 8064, "▁pokoj": 8065, "menty": 8066, "źnia": 8067, "▁sztuk": 8068, "▁włą": 8069, "▁Cieka": 8070, "▁cichu": 8071, "▁Ministrów": 8072, "▁mod": 8073, "▁przekonał": 8074, "ami": 8075, "▁oknie": 8076, "▁[": 8077, "▁RP": 8078, "▁rzeka": 8079, "▁próby": 8080, "▁starszych": 8081, "▁swoimi": 8082, "cając": 8083, "▁wiszą": 8084, "▁szerokie": 8085, "▁przepro": 8086, "▁moment": 8087, "nowie": 8088, "tli": 8089, "▁podwór": 8090, "▁rozu": 8091, "▁handl": 8092, "▁usi": 8093, "sje": 8094, "ris": 8095, "▁materia": 8096, "▁Har": 8097, "▁mld": 8098, "▁przychodzą": 8099, "pani": 8100, "mania": 8101, "▁przemy": 8102, "wskich": 8103, "▁sądem": 8104, "▁funkcji": 8105, "▁prezesa": 8106, "▁odu": 8107, "▁dawny": 8108, "mierz": 8109, "▁białej": 8110, "▁podobnym": 8111, "▁dumą": 8112, "▁dojrzał": 8113, "▁zachodzi": 8114, "▁naczy": 8115, "sowi": 8116, "▁jutra": 8117, "▁uwagą": 8118, "▁wydobyć": 8119, "▁Bog": 8120, "ly": 8121, "▁szale": 8122, "▁najdro": 8123, "mych": 8124, "pel": 8125, "▁odbędzie": 8126, "▁cuda": 8127, "ległe": 8128, "ległych": 8129, "towe": 8130, "▁Maciej": 8131, "stawić": 8132, "tano": 8133, "▁opła": 8134, "▁stojących": 8135, "dyna": 8136, "siewicz": 8137, "▁trzeciej": 8138, "nes": 8139, "dzimy": 8140, "▁Kul": 8141, "kujemy": 8142, "▁ludności": 8143, "▁sztuka": 8144, "miu": 8145, "▁Am": 8146, "▁kompanii": 8147, "dnicy": 8148, "▁naszemu": 8149, "rzan": 8150, "▁zatru": 8151, "dru": 8152, "▁zadania": 8153, "▁Koło": 8154, "▁Świ": 8155, "▁rozpoczęła": 8156, "▁niebieskie": 8157, "▁odwró": 8158, "▁twarzach": 8159, "▁zabawy": 8160, "▁bynajmniej": 8161, "▁obietni": 8162, "▁wszak": 8163, "▁przemysł": 8164, "▁kapelusz": 8165, "▁długości": 8166, "▁zadowo": 8167, "Bo": 8168, "bierz": 8169, "▁byliśmy": 8170, "▁dotyczących": 8171, "▁połowa": 8172, "urę": 8173, "▁politycznych": 8174, "sarz": 8175, "▁pisma": 8176, "▁zarząd": 8177, "▁tor": 8178, "▁stłu": 8179, "nności": 8180, "▁odzyska": 8181, "▁gaz": 8182, "▁Żołnie": 8183, "▁dokumentów": 8184, "▁układu": 8185, "oważ": 8186, "lizacji": 8187, "▁dotyczy": 8188, "▁podejrze": 8189, "cjo": 8190, "▁zdjęcia": 8191, "ścig": 8192, "▁narodów": 8193, "dob": 8194, "▁koście": 8195, "▁rozkoszy": 8196, "▁przechy": 8197, "łała": 8198, "ksa": 8199, "▁szó": 8200, "▁Ukrainie": 8201, "▁Dwie": 8202, "jazdu": 8203, "▁wspiera": 8204, "▁znajdą": 8205, "eli": 8206, "ater": 8207, "gnęła": 8208, "▁odpo": 8209, "▁buty": 8210, "▁wspól": 8211, "▁świętej": 8212, "cle": 8213, "▁v": 8214, "tona": 8215, "▁sar": 8216, "▁ambi": 8217, "stęp": 8218, "▁powstała": 8219, "▁sypia": 8220, "▁metal": 8221, "ownika": 8222, "!!!": 8223, "▁dalszym": 8224, "▁rozwój": 8225, "▁roman": 8226, "coną": 8227, "torze": 8228, "towych": 8229, "▁wska": 8230, "▁zmarłych": 8231, "▁bandy": 8232, "▁Ewa": 8233, "▁ciekawe": 8234, "▁arab": 8235, "▁banku": 8236, "▁sprzęt": 8237, "▁krótkim": 8238, "▁ciężkiej": 8239, "▁relacji": 8240, "▁;": 8241, "▁miliony": 8242, "ległej": 8243, "tele": 8244, "▁Chłop": 8245, "▁największych": 8246, "▁ubiegłym": 8247, "▁Warszawa": 8248, "▁ścian": 8249, "▁wyszły": 8250, "▁Lub": 8251, "▁kosztów": 8252, "▁szpitalu": 8253, "▁członkowie": 8254, "▁siedli": 8255, "▁przod": 8256, "▁Zbro": 8257, "▁kazała": 8258, "▁pew": 8259, "▁licząc": 8260, "▁wspomnienia": 8261, "▁mszy": 8262, "kłe": 8263, "▁wielkimi": 8264, "▁bydła": 8265, "▁pobra": 8266, "▁docho": 8267, "lanie": 8268, "▁Litwy": 8269, "▁zjawi": 8270, "racając": 8271, "tąd": 8272, "▁Hor": 8273, "▁gli": 8274, "▁Sem": 8275, "▁drga": 8276, "kowany": 8277, "jga": 8278, "▁bawić": 8279, "▁dna": 8280, "▁czerwonych": 8281, "siąść": 8282, "▁działań": 8283, "▁potwier": 8284, "▁grzech": 8285, "▁przeciwnie": 8286, "▁ludzkiego": 8287, "iono": 8288, "▁formy": 8289, "▁Bel": 8290, "▁Miasto": 8291, "tycznie": 8292, "piął": 8293, "▁załogi": 8294, "▁Jakub": 8295, "▁śpiew": 8296, "▁swemu": 8297, "▁Twoje": 8298, "▁kilkakrotnie": 8299, "▁Zamiast": 8300, "▁wyraża": 8301, "▁Doro": 8302, "▁płyt": 8303, "▁piętra": 8304, "▁straty": 8305, "▁ośmiu": 8306, "działam": 8307, "▁znika": 8308, "▁związanych": 8309, "uszu": 8310, "▁Nasi": 8311, "▁publi": 8312, "▁dokona": 8313, "lla": 8314, "▁zdolności": 8315, "ób": 8316, "▁Jad": 8317, "▁poinformował": 8318, "▁ptaków": 8319, "▁zwy": 8320, "▁dysku": 8321, "owałam": 8322, "▁umo": 8323, "▁stwierdził": 8324, "▁popeł": 8325, "▁pracą": 8326, "▁Marian": 8327, "▁liczy": 8328, "▁wyborach": 8329, "▁wybrał": 8330, "▁pobytu": 8331, "▁bili": 8332, "▁Żad": 8333, "▁fran": 8334, "▁kolumny": 8335, "▁rozgło": 8336, "▁prowa": 8337, "▁Mor": 8338, "▁minie": 8339, "▁stanow": 8340, "mały": 8341, "▁zaży": 8342, "▁sumienia": 8343, "▁upoko": 8344, "▁ranny": 8345, "▁pró": 8346, "tes": 8347, "▁prawdziwie": 8348, "▁koszy": 8349, "▁dzieło": 8350, "▁zachę": 8351, "▁fil": 8352, "▁Pozwól": 8353, "▁ostroż": 8354, "▁wozu": 8355, "▁mur": 8356, "stein": 8357, "▁zapra": 8358, "stawił": 8359, "▁równe": 8360, "gląd": 8361, "▁cywi": 8362, "koj": 8363, "▁uderzyła": 8364, "▁obję": 8365, "▁rozsy": 8366, "▁ginie": 8367, "▁czarna": 8368, "▁wspólnie": 8369, "Je": 8370, "▁poniżej": 8371, "▁współpracy": 8372, "▁wspaniały": 8373, "▁młodości": 8374, "▁pokolenia": 8375, "snąć": 8376, "...\"": 8377, "▁logi": 8378, "▁Oprócz": 8379, "▁Pewnego": 8380, "▁zaja": 8381, "▁opę": 8382, "▁gorsze": 8383, "▁Kom": 8384, "▁polsku": 8385, "▁wydzie": 8386, "▁angiel": 8387, "▁ochoty": 8388, "▁armia": 8389, "▁stoli": 8390, "▁procesu": 8391, "▁grobu": 8392, "▁chro": 8393, "▁zdarza": 8394, "owiska": 8395, "▁boją": 8396, "lizm": 8397, "▁Kiedyś": 8398, "▁polską": 8399, "▁zakaz": 8400, "liwym": 8401, "▁preten": 8402, "seł": 8403, "▁nieprzy": 8404, "▁mieszkań": 8405, "wające": 8406, "lania": 8407, "▁Stąd": 8408, "▁schodach": 8409, "▁przygotowy": 8410, "dor": 8411, "Sa": 8412, "unku": 8413, "▁sąsiada": 8414, "▁Lubo": 8415, "▁Zba": 8416, "▁Wir": 8417, "bne": 8418, "▁gołę": 8419, "▁długich": 8420, "jskiego": 8421, "waną": 8422, "atek": 8423, "▁pasa": 8424, "kany": 8425, "▁osia": 8426, "▁znad": 8427, "▁wysoka": 8428, "▁strzelać": 8429, "osia": 8430, "▁most": 8431, "czyka": 8432, "▁powróci": 8433, "▁kula": 8434, "▁Ucie": 8435, "▁niepokojem": 8436, "▁Świe": 8437, "▁jednemu": 8438, "▁piętrze": 8439, "▁Ło": 8440, "koju": 8441, "▁polscy": 8442, "▁proste": 8443, "▁przepły": 8444, "▁kwestia": 8445, "▁tysiąca": 8446, "▁szyder": 8447, "▁rannych": 8448, "▁lekcewa": 8449, "▁szczyt": 8450, "▁dżun": 8451, "miej": 8452, "racja": 8453, "▁Gnie": 8454, "▁dziedzinie": 8455, "▁płci": 8456, "▁zabezpie": 8457, "▁hi": 8458, "▁podaje": 8459, "▁musiały": 8460, "miona": 8461, "czyńskiego": 8462, "▁budowa": 8463, "▁układów": 8464, "łko": 8465, "▁urzę": 8466, "▁językiem": 8467, "uję": 8468, "▁schodzi": 8469, "▁obi": 8470, "▁jasna": 8471, "▁granice": 8472, "▁media": 8473, "▁znisz": 8474, "▁Gi": 8475, "▁zadań": 8476, "▁przemian": 8477, "▁złośli": 8478, "▁zainteres": 8479, "▁żydow": 8480, "▁miną": 8481, "▁drewnia": 8482, "ir": 8483, "▁powtórzyła": 8484, "▁zama": 8485, "▁przedo": 8486, "dzały": 8487, "▁boli": 8488, "▁zmieniło": 8489, "▁Moje": 8490, "▁patrzę": 8491, "▁klęskę": 8492, "▁gwałtow": 8493, "osob": 8494, "▁problemu": 8495, "ństwu": 8496, "gowi": 8497, "▁duża": 8498, "strzega": 8499, "czącym": 8500, "▁budowy": 8501, "▁słońcem": 8502, "▁Chce": 8503, "▁gotowy": 8504, "dzonej": 8505, "▁Policja": 8506, "▁spotkała": 8507, "▁dużą": 8508, "alne": 8509, "▁ląd": 8510, "▁Pła": 8511, "▁Nowego": 8512, "▁przypuszcza": 8513, "mysł": 8514, "▁Tom": 8515, "spól": 8516, "▁ciepły": 8517, "▁toczy": 8518, "▁podpisa": 8519, "▁policjantów": 8520, "▁pracu": 8521, "▁organiz": 8522, "wór": 8523, "▁Najświętszej": 8524, "▁lżej": 8525, "▁pouf": 8526, "▁kwie": 8527, "▁dostrzegł": 8528, "▁mig": 8529, "▁równa": 8530, "▁słysząc": 8531, "▁śla": 8532, "▁kaplicy": 8533, "cało": 8534, "▁dalszą": 8535, "▁zjawił": 8536, "▁Ski": 8537, "▁of": 8538, "▁więzieniu": 8539, "tary": 8540, "ciał": 8541, "▁Kara": 8542, "▁wspomnienie": 8543, "▁opuścić": 8544, "▁zamieszanie": 8545, "▁Góry": 8546, "▁pożaru": 8547, "rował": 8548, "żeby": 8549, "▁obyd": 8550, "rywała": 8551, "iera": 8552, "▁ubiera": 8553, "gno": 8554, "star": 8555, "▁resztki": 8556, "▁zapał": 8557, "▁powszechnie": 8558, "▁języku": 8559, "▁Ara": 8560, "▁Port": 8561, "ve": 8562, "▁Nowym": 8563, "▁Gar": 8564, "▁umiem": 8565, "▁kali": 8566, "wionych": 8567, "▁ustaw": 8568, "daje": 8569, "▁odezwała": 8570, "▁Krak": 8571, "▁cudzy": 8572, "▁powrotu": 8573, "▁powstrzymać": 8574, "atora": 8575, "▁odło": 8576, "poli": 8577, "▁specjalnie": 8578, "▁em": 8579, "▁hotelu": 8580, "▁pracow": 8581, "▁pogot": 8582, "▁opuściła": 8583, "tycznym": 8584, "▁proponuje": 8585, "▁ulice": 8586, "Wie": 8587, "▁administra": 8588, "▁czterdzie": 8589, "▁Pia": 8590, "łata": 8591, "▁brzu": 8592, "śpie": 8593, "▁nauczy": 8594, "▁społecznych": 8595, "▁łok": 8596, "▁związek": 8597, "▁dol": 8598, "liło": 8599, "▁chwa": 8600, "▁przesła": 8601, "▁Będą": 8602, "▁wysokiej": 8603, "wóz": 8604, "▁chłopcy": 8605, "▁kolejnych": 8606, "▁obecności": 8607, "▁dach": 8608, "logicznych": 8609, "▁Przeciw": 8610, "ninem": 8611, "dl": 8612, "niek": 8613, "fę": 8614, "cież": 8615, "▁przeklę": 8616, "▁szeroki": 8617, "chom": 8618, "twier": 8619, "▁oże": 8620, "kąd": 8621, "Wi": 8622, "▁wygna": 8623, "tarł": 8624, "▁pociągnął": 8625, "▁powro": 8626, "▁gmachu": 8627, "▁rzece": 8628, "Ko": 8629, "▁Praw": 8630, "▁polach": 8631, "Wy": 8632, "▁przyjmuje": 8633, "legło": 8634, "▁zmierza": 8635, "▁złożone": 8636, "wasz": 8637, "▁Anto": 8638, "▁wysokim": 8639, "▁prośbą": 8640, "▁miesiącu": 8641, "▁córką": 8642, "▁najgor": 8643, "▁bywają": 8644, "▁ham": 8645, "owne": 8646, "▁hand": 8647, "▁wychodzą": 8648, "▁pochodzą": 8649, "▁Wieczorem": 8650, "▁francu": 8651, "orę": 8652, "▁nerw": 8653, "cła": 8654, "))": 8655, "▁piętna": 8656, "▁senatorów": 8657, "▁Dra": 8658, "▁wer": 8659, "▁Bene": 8660, "▁obia": 8661, "towania": 8662, "czes": 8663, "dowała": 8664, "▁Większość": 8665, "tz": 8666, "dzący": 8667, "▁zmęczony": 8668, "▁bran": 8669, "▁zapew": 8670, "▁partyj": 8671, "demu": 8672, "\"?": 8673, "▁jedyną": 8674, "rząt": 8675, "Ma": 8676, "▁znaczenia": 8677, "▁czyste": 8678, "▁zmiana": 8679, "▁cierpienia": 8680, "sen": 8681, "▁sport": 8682, "▁Zanim": 8683, "▁zachowania": 8684, "▁powiatu": 8685, "ceni": 8686, "▁wyjazd": 8687, "▁podpa": 8688, "▁Wobec": 8689, "▁kwestii": 8690, "▁kryty": 8691, "▁przesa": 8692, "▁ożenił": 8693, "▁Spoj": 8694, "▁skutkiem": 8695, "fre": 8696, "▁przybiera": 8697, "▁skórze": 8698, "▁wypoczy": 8699, "pch": 8700, "▁pióra": 8701, "ery": 8702, "▁otworzyć": 8703, "lonymi": 8704, "każe": 8705, "owskie": 8706, "chanie": 8707, "▁dobrowolnie": 8708, "▁gałęzi": 8709, "szczony": 8710, "▁Zbli": 8711, "cieć": 8712, "▁jeździe": 8713, "▁obcy": 8714, "▁wyprawę": 8715, "gała": 8716, "▁oby": 8717, "mona": 8718, "pło": 8719, "▁Igna": 8720, "▁znali": 8721, "▁doli": 8722, "kowali": 8723, "▁podziemia": 8724, "▁nosem": 8725, "▁Dia": 8726, "rzyłem": 8727, "księ": 8728, "▁noga": 8729, "wioną": 8730, "▁Karola": 8731, "▁poszło": 8732, "▁Dowie": 8733, "▁chwile": 8734, "▁przyjaźni": 8735, "sion": 8736, "▁At": 8737, "giel": 8738, "▁Ewe": 8739, "▁Wojska": 8740, "kowała": 8741, "▁ładnie": 8742, "▁komis": 8743, "▁pojawia": 8744, "▁kapitan": 8745, "▁trafić": 8746, "▁światowej": 8747, "▁Millera": 8748, "kowania": 8749, "▁szansę": 8750, "skała": 8751, "▁przerwała": 8752, "▁fak": 8753, "▁nadzieje": 8754, "▁zachęca": 8755, "prawy": 8756, "▁Sejmie": 8757, "▁Podobnie": 8758, "▁odbył": 8759, "▁zamo": 8760, "▁grube": 8761, "▁zatrzymała": 8762, "osła": 8763, "gl": 8764, "▁tele": 8765, "niętymi": 8766, "▁uroczystości": 8767, "▁poziomie": 8768, "▁niezgo": 8769, "▁Wraz": 8770, "▁wprowa": 8771, "▁dawnego": 8772, "▁euro": 8773, "▁głębokie": 8774, "▁problemów": 8775, "▁służb": 8776, "raź": 8777, "▁dzieli": 8778, "krotnie": 8779, "▁dojdzie": 8780, "▁wiej": 8781, "▁liczył": 8782, "gó": 8783, "▁mogłoby": 8784, "▁następnego": 8785, "▁bezpieczeństwo": 8786, "▁wchodzić": 8787, "▁licznych": 8788, "▁należ": 8789, "▁Zatem": 8790, "▁Aleksander": 8791, "▁robotników": 8792, "▁urzędników": 8793, "▁niemi": 8794, "▁ub": 8795, "▁Kan": 8796, "▁prote": 8797, "▁czerni": 8798, "▁fizjo": 8799, "dziany": 8800, "▁usłu": 8801, "▁obdar": 8802, "▁nies": 8803, "▁uciec": 8804, "▁mgła": 8805, "▁rozkosz": 8806, "▁Iz": 8807, "▁łup": 8808, "▁Jez": 8809, "szczo": 8810, "▁Sę": 8811, "▁krzesło": 8812, "▁skarbów": 8813, "▁smutkiem": 8814, "▁Grze": 8815, "▁niemieckich": 8816, "▁lekarze": 8817, "▁meczu": 8818, "biał": 8819, "Jak": 8820, "▁palcach": 8821, "▁MAR": 8822, "▁zacię": 8823, "▁rozpad": 8824, "▁radośnie": 8825, "▁znamy": 8826, "▁przeciąg": 8827, "▁Fo": 8828, "▁śmiertel": 8829, "tacza": 8830, "▁obecność": 8831, "▁ledwo": 8832, "▁Droga": 8833, "mierza": 8834, "▁pytań": 8835, "▁dużej": 8836, "▁żelaza": 8837, "▁przyda": 8838, "czkiem": 8839, "▁ubó": 8840, "▁wyniki": 8841, "mom": 8842, "▁wyższych": 8843, "▁podsta": 8844, "▁spełnia": 8845, "▁świętych": 8846, "▁uczestni": 8847, "▁nocleg": 8848, "▁dokład": 8849, "▁mogliby": 8850, "▁skinął": 8851, "▁słup": 8852, "▁pusto": 8853, "▁szary": 8854, "▁odzna": 8855, "▁zabój": 8856, "▁wyb": 8857, "▁atak": 8858, "▁zdarzenia": 8859, "▁panowanie": 8860, "▁porozumie": 8861, "▁brzy": 8862, "▁tworzą": 8863, "żają": 8864, "tycznej": 8865, "▁lasów": 8866, "▁Nowa": 8867, "▁nazwę": 8868, "alnego": 8869, "nó": 8870, "No": 8871, "▁ludziach": 8872, "▁kierow": 8873, "▁Krew": 8874, "rali": 8875, "▁pierwsi": 8876, "▁robię": 8877, "Ą": 8878, "▁pięknej": 8879, "▁zdążył": 8880, "▁obliczu": 8881, "ien": 8882, "▁uła": 8883, "▁łańcuch": 8884, "ógł": 8885, "▁dzielni": 8886, "▁nieprawda": 8887, "wemu": 8888, "▁kamienicy": 8889, "▁ogromnym": 8890, "pione": 8891, "NIE": 8892, "▁buntu": 8893, "▁Zer": 8894, "▁nios": 8895, "▁zdrowiu": 8896, "▁listów": 8897, "▁kącie": 8898, "▁Wiedział": 8899, "▁wstydu": 8900, "▁zdawała": 8901, "▁możecie": 8902, "▁Wiatr": 8903, "▁pokazuje": 8904, "ceniem": 8905, "▁drogach": 8906, "kowska": 8907, "▁policję": 8908, "▁budow": 8909, "skar": 8910, "▁skrzyż": 8911, "▁podwyż": 8912, "▁ramienia": 8913, "▁Przyzna": 8914, "▁przyjmie": 8915, "artą": 8916, "rósł": 8917, "▁Daw": 8918, "▁trzema": 8919, "▁zy": 8920, "▁plac": 8921, "▁wyci": 8922, "▁najbliższych": 8923, "▁znieść": 8924, "▁urzędnicy": 8925, "▁przyję": 8926, "▁ugo": 8927, "▁osad": 8928, "▁przo": 8929, "czając": 8930, "▁zadanie": 8931, "▁odpowiadać": 8932, "onym": 8933, "pisy": 8934, "lnymi": 8935, "▁rządy": 8936, "▁gruncie": 8937, "▁zakłada": 8938, "▁chodzą": 8939, "▁oprzeć": 8940, "▁uważają": 8941, "▁rosną": 8942, "dania": 8943, "▁wyry": 8944, "świę": 8945, "▁Reje": 8946, "▁mądrości": 8947, "mit": 8948, "▁oglądał": 8949, "▁statek": 8950, "▁statku": 8951, "▁Strze": 8952, "▁potrzebuję": 8953, "▁grob": 8954, "ściej": 8955, "▁ciemnych": 8956, "▁losu": 8957, "▁Uro": 8958, "zią": 8959, "▁Ano": 8960, "▁narod": 8961, "▁wizyty": 8962, "▁szybkością": 8963, "▁poszczególnych": 8964, "taniu": 8965, "będzie": 8966, "bus": 8967, "▁skończyła": 8968, "▁stwier": 8969, "▁powraca": 8970, "▁domach": 8971, "ps": 8972, "▁pokar": 8973, "▁rozstrzyg": 8974, "▁zakoń": 8975, "▁miliona": 8976, "▁postawy": 8977, "▁materiałów": 8978, "▁polityczne": 8979, "▁polityka": 8980, "▁czerwony": 8981, "▁przychy": 8982, "▁zbierać": 8983, "▁Zygmunt": 8984, "▁zao": 8985, "▁nieruchomości": 8986, "dak": 8987, "▁potrafią": 8988, "▁zarządu": 8989, "▁katoli": 8990, "▁popro": 8991, "anka": 8992, "▁wymy": 8993, "▁Zat": 8994, "▁odbyła": 8995, "▁zajmował": 8996, "ól": 8997, "▁Sene": 8998, "▁wierze": 8999, "▁jaskra": 9000, "▁sukni": 9001, "jała": 9002, "▁wst": 9003, "▁nai": 9004, "▁bezsen": 9005, "grzy": 9006, "▁zachodzie": 9007, "▁Augu": 9008, "▁zastąpi": 9009, "ryk": 9010, "▁Konstanty": 9011, "▁uważać": 9012, "gnąć": 9013, "owisko": 9014, "▁boles": 9015, "▁trzej": 9016, "▁cierp": 9017, "▁chora": 9018, "▁ciotka": 9019, "▁pomieścić": 9020, "▁prezyden": 9021, "▁Poch": 9022, "psu": 9023, "nci": 9024, "▁sprawdzić": 9025, "dało": 9026, "▁mroku": 9027, "▁niemieckiej": 9028, "▁pogoda": 9029, "pieć": 9030, "▁stracić": 9031, "▁Wcześniej": 9032, "▁Ang": 9033, "▁używa": 9034, "▁chę": 9035, "▁rzemieś": 9036, "▁zmarłego": 9037, "pnął": 9038, "▁sty": 9039, "▁niesie": 9040, "ers": 9041, "▁przecha": 9042, "▁cud": 9043, "▁grub": 9044, "tat": 9045, "lant": 9046, "▁świadomość": 9047, "▁Tych": 9048, "▁ogromna": 9049, "▁półtora": 9050, "▁widzów": 9051, "▁dalszej": 9052, "▁zdecydowanie": 9053, "▁arty": 9054, "syć": 9055, "▁widziałam": 9056, "▁Aleksand": 9057, "▁zata": 9058, "▁obce": 9059, "▁Win": 9060, "gany": 9061, "szałam": 9062, "▁ojców": 9063, "niłem": 9064, "▁space": 9065, "▁obowiązki": 9066, "▁Miło": 9067, "▁czarnej": 9068, "dałem": 9069, "▁naszymi": 9070, "kowane": 9071, "▁naci": 9072, "▁uczyć": 9073, "▁astro": 9074, "▁dało": 9075, "▁puła": 9076, "▁podło": 9077, "▁Kru": 9078, "▁któryś": 9079, "▁Domu": 9080, "▁przyczy": 9081, "▁rodzinie": 9082, "▁dokumenty": 9083, "▁uniknąć": 9084, "▁sesji": 9085, "słem": 9086, "▁skargi": 9087, "▁lubią": 9088, "▁dop": 9089, "▁okropnie": 9090, "bło": 9091, "▁klucz": 9092, "▁udać": 9093, "▁rzeką": 9094, "▁ciałem": 9095, "▁Wraca": 9096, "▁prowincji": 9097, "kało": 9098, "▁dziewczyną": 9099, "▁bezbro": 9100, "niosą": 9101, "▁dyscypli": 9102, "▁nienawiści": 9103, "▁bać": 9104, "▁żadną": 9105, "▁zajęli": 9106, "▁niepokoju": 9107, "▁skali": 9108, "▁przecię": 9109, "▁spój": 9110, "▁wyrazy": 9111, "▁wyli": 9112, "dawała": 9113, "uszka": 9114, "wój": 9115, "los": 9116, "▁ocze": 9117, "kus": 9118, "▁dziewczynka": 9119, "▁czyny": 9120, "(": 9121, "szając": 9122, "snej": 9123, "▁Pier": 9124, "▁uzyskać": 9125, "▁tłumu": 9126, "▁trybu": 9127, "▁tch": 9128, "▁wynagro": 9129, "▁żywi": 9130, "▁poprowa": 9131, "▁województwie": 9132, "▁gruntu": 9133, "towy": 9134, "▁an": 9135, "▁posłusze": 9136, "▁filmu": 9137, "▁Stanisława": 9138, "▁Gry": 9139, "▁trwał": 9140, "▁powin": 9141, "▁bezpiecznie": 9142, "mencie": 9143, "▁ana": 9144, "▁popi": 9145, "▁pospie": 9146, "▁wyprze": 9147, "▁traw": 9148, "▁melo": 9149, "▁największej": 9150, "▁nacze": 9151, "▁wydo": 9152, "▁bogactwa": 9153, "▁śladu": 9154, "▁Kobieta": 9155, "▁rogu": 9156, "wiązy": 9157, "▁wtorek": 9158, "▁powstanie": 9159, "▁zapomnieć": 9160, "kania": 9161, "▁odbywa": 9162, "▁otworzy": 9163, "▁cm": 9164, "kol": 9165, "▁tragi": 9166, "▁ponownie": 9167, "▁Odpowie": 9168, "zują": 9169, "V": 9170, "▁Wielkiego": 9171, "▁religij": 9172, "tyczną": 9173, "▁Polak": 9174, "▁najpo": 9175, "▁zespołu": 9176, "▁pięcio": 9177, "▁poszu": 9178, "▁klientów": 9179, "sowe": 9180, "glądając": 9181, "▁znaleziono": 9182, "▁funda": 9183, "▁przedmioty": 9184, "▁Pracy": 9185, "▁przedmiotów": 9186, "▁srebra": 9187, "▁głupo": 9188, "niesienie": 9189, "spi": 9190, "▁instru": 9191, "▁pomiar": 9192, "wnie": 9193, "▁potrafię": 9194, "▁funkcję": 9195, "cyjnie": 9196, "▁blaskiem": 9197, "▁monar": 9198, "▁zepsu": 9199, "▁Pil": 9200, "▁roba": 9201, "▁łopat": 9202, "▁gałęzie": 9203, "▁ramieniem": 9204, "▁pieszczo": 9205, "▁próg": 9206, "▁Och": 9207, "▁wyjazdu": 9208, "jki": 9209, "▁fon": 9210, "▁współczu": 9211, "▁wago": 9212, "▁zwierzch": 9213, "żami": 9214, "▁are": 9215, "rzysz": 9216, "cisz": 9217, "▁XII": 9218, "▁znakiem": 9219, "▁Poja": 9220, "▁wysokich": 9221, "▁ubi": 9222, "▁kos": 9223, "▁Zu": 9224, "▁władcy": 9225, "▁Zaledwie": 9226, "hra": 9227, "▁Póki": 9228, "magał": 9229, "▁panował": 9230, "▁korzyści": 9231, "▁krzywdę": 9232, "ziono": 9233, "▁Spodzie": 9234, "▁chciałam": 9235, "▁nazy": 9236, "▁powiedzia": 9237, "▁abyśmy": 9238, "▁nadchodzi": 9239, "lij": 9240, "▁rozpo": 9241, "▁głęb": 9242, "▁fol": 9243, "▁złych": 9244, "▁rozsąd": 9245, "▁sposobu": 9246, "mowa": 9247, "▁przypadek": 9248, "▁napis": 9249, "▁kochanie": 9250, "▁Małgorzata": 9251, "grani": 9252, "▁czarnym": 9253, "▁kłu": 9254, "▁matką": 9255, "▁inter": 9256, "chni": 9257, "AL": 9258, "▁pamiętaj": 9259, "▁podstaw": 9260, "▁zaka": 9261, "▁musiałem": 9262, "▁trzecia": 9263, "▁kłopoty": 9264, "▁kału": 9265, "▁Prawo": 9266, "▁Pół": 9267, "▁ks": 9268, "▁palców": 9269, "▁Żaden": 9270, "wiązał": 9271, "▁dźwięki": 9272, "▁różno": 9273, "▁listę": 9274, "▁różnica": 9275, "▁kolejno": 9276, "▁wystar": 9277, "▁oder": 9278, "▁przezroczy": 9279, "▁apte": 9280, "szania": 9281, "▁tryb": 9282, "▁punktów": 9283, "▁...": 9284, "żące": 9285, "chaną": 9286, "▁Jakby": 9287, "▁zjeść": 9288, "▁ubrany": 9289, "▁zdumie": 9290, "▁stwo": 9291, "▁dotyka": 9292, "▁zachowanie": 9293, "▁opłat": 9294, "logia": 9295, "▁imprezy": 9296, "▁skur": 9297, "▁powiecie": 9298, "▁Wojewódz": 9299, "▁partia": 9300, "▁wykona": 9301, "▁odzież": 9302, "▁popiera": 9303, "sier": 9304, "dności": 9305, "szom": 9306, "▁przygody": 9307, "czają": 9308, "▁Krymu": 9309, "▁zasię": 9310, "bierać": 9311, "▁umrze": 9312, "▁odzie": 9313, "▁ukoń": 9314, "▁czekali": 9315, "▁Śpie": 9316, "▁napra": 9317, "▁Powiem": 9318, "mało": 9319, "▁uciekła": 9320, "dur": 9321, "▁Bom": 9322, "rans": 9323, "▁dostała": 9324, "▁chciały": 9325, "niosło": 9326, "▁włosami": 9327, "▁zapyta": 9328, "▁miałbym": 9329, "▁rzucając": 9330, "▁szczo": 9331, "rzyj": 9332, "jnych": 9333, "▁rab": 9334, "▁ukazały": 9335, "▁ziemie": 9336, "wiłem": 9337, "▁dokonać": 9338, "▁prawą": 9339, "▁sprawia": 9340, "▁bezsi": 9341, "▁spro": 9342, "▁Życie": 9343, "▁przebiega": 9344, "▁środ": 9345, "▁pomagać": 9346, "śliz": 9347, "▁hałas": 9348, "▁hur": 9349, "tch": 9350, "zło": 9351, "▁ogromnie": 9352, "▁kres": 9353, "▁rachunek": 9354, "▁pięknych": 9355, "▁zacząć": 9356, "▁wojen": 9357, "▁stylu": 9358, "▁zysku": 9359, "mentem": 9360, "▁przekonania": 9361, "▁zastanowi": 9362, "▁pomyślałem": 9363, "▁lewą": 9364, "▁papie": 9365, "▁gotowości": 9366, "▁kosztuje": 9367, "ceniu": 9368, "▁Muzeum": 9369, "▁Twój": 9370, "▁Rząd": 9371, "skry": 9372, "▁uch": 9373, "▁celów": 9374, "▁szpi": 9375, "▁kier": 9376, "▁Nowo": 9377, "zdem": 9378, "▁rozpocząć": 9379, "▁dziennikarzy": 9380, "▁jednych": 9381, "▁wskazuje": 9382, "▁ulic": 9383, "▁itd": 9384, "▁najwyższej": 9385, "▁przeze": 9386, "▁nama": 9387, "▁podejm": 9388, "▁zaśpie": 9389, "▁gen": 9390, "▁protest": 9391, "▁człowie": 9392, "▁wystrze": 9393, "▁śniadanie": 9394, "▁pojawiły": 9395, "▁stopni": 9396, "▁Auto": 9397, "▁mieszkają": 9398, "▁chroni": 9399, "▁własność": 9400, "▁pielgrzy": 9401, "▁spacer": 9402, "▁kąpie": 9403, "▁wspani": 9404, "towej": 9405, "wce": 9406, "▁otwartymi": 9407, "▁bud": 9408, "waliśmy": 9409, "▁spoży": 9410, "▁zaczynają": 9411, "torium": 9412, "▁Niektóre": 9413, "▁pozycji": 9414, "▁Stwier": 9415, "▁siedmiu": 9416, "czymy": 9417, "▁ukocha": 9418, "▁głównym": 9419, "▁usprawiedli": 9420, "maj": 9421, "rzymy": 9422, "▁sprzyja": 9423, "▁Czo": 9424, "▁uderzenia": 9425, "▁wypadki": 9426, "conej": 9427, "▁studni": 9428, "▁fami": 9429, "era": 9430, "▁pozostała": 9431, "▁pobu": 9432, "▁Powiedział": 9433, "▁dotknął": 9434, "▁niemiecki": 9435, "snego": 9436, "▁młodą": 9437, "▁odzyskał": 9438, "dziu": 9439, "▁wykrzyknął": 9440, "wionym": 9441, "▁kw": 9442, "▁zadowolony": 9443, "▁ist": 9444, "▁Panowie": 9445, "▁twardy": 9446, "▁sznur": 9447, "▁zawar": 9448, "▁Medi": 9449, "▁zrobili": 9450, "▁najlepszym": 9451, "▁spojrzeniem": 9452, "▁uwiel": 9453, "▁zamieszka": 9454, "▁pasy": 9455, "▁uchwa": 9456, "▁dają": 9457, "▁wiernych": 9458, "dowanych": 9459, "▁zrobiłem": 9460, "▁kapitał": 9461, "▁Postanowi": 9462, "▁gazety": 9463, "▁zimna": 9464, "▁wróg": 9465, "▁wykonania": 9466, "▁starą": 9467, "wani": 9468, "▁przyjęła": 9469, "▁uwo": 9470, "▁zobaczymy": 9471, "▁zachodzą": 9472, "▁XVII": 9473, "▁politycznej": 9474, "▁wybory": 9475, "▁umi": 9476, "....": 9477, "▁ochro": 9478, "die": 9479, "bka": 9480, "▁pragnę": 9481, "▁Woł": 9482, "▁następne": 9483, "▁zakładu": 9484, "▁obecny": 9485, "▁przerwy": 9486, "▁miasteczka": 9487, "▁tłumaczył": 9488, "▁ciekawie": 9489, "▁ostrzega": 9490, "bit": 9491, "czników": 9492, "▁wstąpił": 9493, "▁liści": 9494, "▁lekarzy": 9495, "ręcz": 9496, "▁wyż": 9497, "▁napisać": 9498, "▁pozostanie": 9499, "twór": 9500, "nkami": 9501, "▁tekst": 9502, "▁przysłu": 9503, "miła": 9504, "ńczyków": 9505, "▁Ponad": 9506, "▁Kowal": 9507, "▁wzajemnie": 9508, "▁zabrali": 9509, "▁odpowiednie": 9510, "▁ciąży": 9511, "▁dostęp": 9512, "▁zgodę": 9513, "wanego": 9514, "stom": 9515, "▁źródła": 9516, "▁najlepszych": 9517, "▁koszu": 9518, "▁wilgo": 9519, "▁gospoda": 9520, "▁Tutaj": 9521, "▁Dr": 9522, "▁naczelnik": 9523, "▁zawód": 9524, "▁Przyby": 9525, "▁piśmie": 9526, "▁inwestycji": 9527, "▁eko": 9528, "▁straża": 9529, "▁społecznej": 9530, "▁mający": 9531, "▁całość": 9532, "▁poprzedni": 9533, "▁okresu": 9534, "▁schroni": 9535, "biec": 9536, "▁dając": 9537, "▁ponuro": 9538, "▁ciężka": 9539, "▁doszła": 9540, "▁tamtym": 9541, "alnym": 9542, "▁paste": 9543, "▁przeszli": 9544, "▁Brzo": 9545, "▁przeciwnika": 9546, "▁ali": 9547, "fin": 9548, "▁mocny": 9549, "▁przyjęciem": 9550, "▁pomógł": 9551, "tuj": 9552, "▁Lan": 9553, "▁zaniepoko": 9554, "cząca": 9555, "▁żywność": 9556, "▁Kę": 9557, "▁przyrody": 9558, "▁Per": 9559, "▁szczytu": 9560, "▁zebrał": 9561, "▁wschodniej": 9562, "▁powoła": 9563, "▁kontu": 9564, "▁ostre": 9565, "arę": 9566, "uch": 9567, "cowych": 9568, "▁vi": 9569, "▁Gdańsku": 9570, "▁Wcale": 9571, "▁starusz": 9572, "▁społeczeństwo": 9573, "uszki": 9574, "▁skupi": 9575, "ciej": 9576, "▁soli": 9577, "▁Tere": 9578, "żność": 9579, "▁operacji": 9580, "▁zapeł": 9581, "▁właściwego": 9582, "▁nieczy": 9583, "▁nazwy": 9584, "▁prokurator": 9585, "▁Rado": 9586, "▁bank": 9587, "▁świadectwo": 9588, "▁Akademii": 9589, "miary": 9590, "nowskiego": 9591, "▁kilkuset": 9592, "▁chorych": 9593, "▁wymienia": 9594, "▁wje": 9595, "▁gwiazda": 9596, "▁sytuację": 9597, "▁znajomość": 9598, "▁następnych": 9599, "▁pozostali": 9600, "▁rozumieć": 9601, "pola": 9602, "▁potwierdził": 9603, "▁ciężkich": 9604, "▁Zgodnie": 9605, "▁potrzebny": 9606, "▁żywio": 9607, "▁warsza": 9608, "jej": 9609, "▁odpar": 9610, "iado": 9611, "▁Wró": 9612, "▁wydawać": 9613, "▁doznał": 9614, "▁Fran": 9615, "graf": 9616, "ówki": 9617, "dzią": 9618, "bl": 9619, "▁doszli": 9620, "▁Zapom": 9621, "▁wsa": 9622, "duję": 9623, "▁spóź": 9624, "twy": 9625, "niałem": 9626, "▁studentów": 9627, "mas": 9628, "ksy": 9629, "▁przewie": 9630, "▁kimś": 9631, "▁czerwoną": 9632, "▁dziwić": 9633, "▁Wielkiej": 9634, "rony": 9635, "▁autora": 9636, "▁wyja": 9637, "jek": 9638, "▁wiosny": 9639, "lacja": 9640, "logicznej": 9641, "nięciem": 9642, "stor": 9643, "▁prokuratury": 9644, "wający": 9645, "▁przedstawiciele": 9646, "▁Wojna": 9647, "▁oblicza": 9648, "▁Rosja": 9649, "▁rachunki": 9650, "▁powieści": 9651, "▁cesarz": 9652, "▁Kam": 9653, "osen": 9654, "▁miejscami": 9655, "▁mnó": 9656, "żych": 9657, "▁skończyło": 9658, "▁gospo": 9659, "▁Ude": 9660, "▁poszły": 9661, "▁niespo": 9662, "▁przypominał": 9663, "fir": 9664, "▁lustra": 9665, "wol": 9666, "▁dno": 9667, "▁przeja": 9668, "▁przele": 9669, "▁salę": 9670, "OL": 9671, "▁nosa": 9672, "▁stają": 9673, "▁żyli": 9674, "▁dzier": 9675, "łm": 9676, "▁wezmą": 9677, "▁ex": 9678, "▁namię": 9679, "▁powodzi": 9680, "▁Kraj": 9681, "waga": 9682, "▁biur": 9683, "▁wyjechać": 9684, "logów": 9685, "▁towarów": 9686, "▁Jakiś": 9687, "kuję": 9688, "▁wyników": 9689, "▁poe": 9690, "lak": 9691, "▁popły": 9692, "ślić": 9693, "▁piór": 9694, "▁przyjmować": 9695, "▁wysokość": 9696, "loty": 9697, "▁zarzuca": 9698, "nicą": 9699, "▁istocie": 9700, "▁wykry": 9701, "▁lekkie": 9702, "▁Orze": 9703, "▁uczył": 9704, "▁powiesz": 9705, "▁deleg": 9706, "▁obojętnie": 9707, "▁występuje": 9708, "▁przeszkody": 9709, "snych": 9710, "maga": 9711, "▁prywat": 9712, "▁okazuje": 9713, "▁lewicy": 9714, "mii": 9715, "▁uczestników": 9716, "bać": 9717, "▁Henryk": 9718, "▁prawdą": 9719, "▁wizy": 9720, "▁testa": 9721, "nący": 9722, "▁znanych": 9723, "▁trwały": 9724, "▁brała": 9725, "▁wspólne": 9726, "▁sensu": 9727, "▁komputer": 9728, "▁Poznaniu": 9729, "▁wiosną": 9730, "▁rozg": 9731, "niane": 9732, "▁budynek": 9733, "▁wchodzą": 9734, "▁ratow": 9735, "▁szeregach": 9736, "▁owoce": 9737, "▁pono": 9738, "▁Marka": 9739, "woje": 9740, "▁morzem": 9741, "godzi": 9742, "▁trzydziestu": 9743, "▁zre": 9744, "dowania": 9745, "▁Jednym": 9746, "▁Ryszard": 9747, "▁Ad": 9748, "obra": 9749, "ńczycy": 9750, "▁zasługi": 9751, "rzak": 9752, "▁Paw": 9753, "nowe": 9754, "▁rodzinę": 9755, "▁radio": 9756, "jsko": 9757, "▁styczniu": 9758, "▁Roman": 9759, "▁pułk": 9760, "▁tchó": 9761, "▁Cezar": 9762, "ino": 9763, "▁księżnej": 9764, "▁otwór": 9765, "▁Niby": 9766, "szel": 9767, "▁opuścili": 9768, "▁głęboki": 9769, "▁ścia": 9770, "▁wesel": 9771, "bna": 9772, "wień": 9773, "▁tajemnicę": 9774, "▁zno": 9775, "▁potrzebna": 9776, "stały": 9777, "▁serc": 9778, "ższych": 9779, "mować": 9780, "wychw": 9781, "▁końcem": 9782, "▁kieł": 9783, "▁wiersze": 9784, "▁kołnie": 9785, "▁Lau": 9786, "▁ściąga": 9787, "▁powtór": 9788, "▁gene": 9789, "▁Które": 9790, "▁korzysta": 9791, "siach": 9792, "▁wyobrazić": 9793, "▁papieru": 9794, "sse": 9795, "▁spróbu": 9796, "Ó": 9797, "▁Dwóch": 9798, "dziera": 9799, "▁ksią": 9800, "▁hym": 9801, "▁niemieckie": 9802, "▁zebrać": 9803, "erwała": 9804, "sik": 9805, "▁pancer": 9806, "▁Ws": 9807, "temu": 9808, "▁troski": 9809, "▁obronę": 9810, "▁PSL": 9811, "▁zgar": 9812, "▁noszą": 9813, "▁dłońmi": 9814, "▁okaże": 9815, "żam": 9816, "▁Całe": 9817, "liwą": 9818, "pieniem": 9819, "lis": 9820, "▁powyżej": 9821, "▁Mogę": 9822, "▁urodzi": 9823, "▁Świętego": 9824, "▁ós": 9825, "▁malar": 9826, "szane": 9827, "▁min": 9828, "▁dowody": 9829, "pisu": 9830, "▁ciemnościach": 9831, "▁kano": 9832, "pas": 9833, "▁wywoła": 9834, "▁Ję": 9835, "▁cmenta": 9836, "▁przygód": 9837, "▁hasło": 9838, "▁różni": 9839, "fia": 9840, "▁alkohol": 9841, "▁Stu": 9842, "szało": 9843, "▁obrad": 9844, "▁upa": 9845, "▁lekki": 9846, "▁gałę": 9847, "▁ciężką": 9848, "sobie": 9849, "▁wystarcza": 9850, "▁panuje": 9851, "▁donosi": 9852, "czków": 9853, "▁przechodzą": 9854, "▁obserw": 9855, "mała": 9856, "▁wiosnę": 9857, "szta": 9858, "▁szerokim": 9859, "▁usłyszeć": 9860, "▁uchwy": 9861, "▁języ": 9862, "niz": 9863, "▁Wielkie": 9864, "▁przebywa": 9865, "▁poważ": 9866, "cają": 9867, "▁zabaw": 9868, "▁papieża": 9869, "▁ogół": 9870, "bliż": 9871, "▁sympat": 9872, "dol": 9873, "▁naru": 9874, "▁sieć": 9875, "▁sztuce": 9876, "▁obrzy": 9877, "▁udaje": 9878, "▁szor": 9879, "▁UE": 9880, "bezpie": 9881, "▁przedłu": 9882, "▁wyjściu": 9883, "▁konkuren": 9884, "▁wsz": 9885, "dzieja": 9886, "▁minął": 9887, "▁materiały": 9888, "nko": 9889, "zyj": 9890, "▁Zwie": 9891, "▁potrą": 9892, "▁rozpat": 9893, "▁patrio": 9894, "nień": 9895, "▁programie": 9896, "▁Pomimo": 9897, "▁komór": 9898, "fon": 9899, "▁szukając": 9900, "pon": 9901, "▁kobiecie": 9902, "żon": 9903, "▁form": 9904, "▁fut": 9905, "rią": 9906, "▁strą": 9907, "▁piersią": 9908, "▁mieszkać": 9909, "▁stojące": 9910, "atru": 9911, "ót": 9912, "▁tara": 9913, "▁bezwzglę": 9914, "▁odzieży": 9915, "▁Ostro": 9916, "▁prąd": 9917, "▁robili": 9918, "▁zachód": 9919, "▁wprowadzić": 9920, "▁zawsty": 9921, "▁dobi": 9922, "▁biura": 9923, "▁politykę": 9924, "cep": 9925, "▁mikro": 9926, "▁użyć": 9927, "▁należał": 9928, "▁kape": 9929, "▁biskupa": 9930, "▁Ant": 9931, "▁Najświęt": 9932, "▁ostry": 9933, "▁korzyść": 9934, "mione": 9935, "▁Sami": 9936, "▁bratem": 9937, "▁Dobry": 9938, "▁Słucha": 9939, "▁przypomnieć": 9940, "▁podział": 9941, "▁ciemną": 9942, "▁pozostało": 9943, "▁prawdopodob": 9944, "▁Bla": 9945, "▁gda": 9946, "onem": 9947, "▁Jarosław": 9948, "▁państwowych": 9949, "tycz": 9950, "dowanie": 9951, "▁szczęśliwa": 9952, "dując": 9953, "szuki": 9954, "czącej": 9955, "▁urody": 9956, "▁odsło": 9957, "▁czuj": 9958, "▁inżynie": 9959, "▁regular": 9960, "▁wspominał": 9961, "▁przysz": 9962, "▁właściciela": 9963, "▁Teresa": 9964, "▁ślad": 9965, "▁Nau": 9966, "dniem": 9967, "▁największego": 9968, "▁Kal": 9969, "▁finansowych": 9970, "sję": 9971, "▁przyszłego": 9972, "▁pracują": 9973, "▁szybciej": 9974, "tniej": 9975, "▁klaszto": 9976, "▁obejrzeć": 9977, "dzania": 9978, "▁dużym": 9979, "▁dużych": 9980, "▁trak": 9981, "▁wyma": 9982, "▁zmysł": 9983, "▁działanie": 9984, "koń": 9985, "▁obraca": 9986, "▁Ponadto": 9987, "▁procesie": 9988, "skanie": 9989, "▁straciła": 9990, "▁wrażenia": 9991, "▁Ode": 9992, "ciec": 9993, "▁pokład": 9994, "żając": 9995, "▁śledztwo": 9996, "▁Również": 9997, "▁znę": 9998, "każ": 9999, "zacja": 10000, "chody": 10001, "▁znana": 10002, "▁niedu": 10003, "▁dziennie": 10004, "ale": 10005, "stan": 10006, "▁nieod": 10007, "▁Szkoły": 10008, "wien": 10009, "▁powstania": 10010, "op": 10011, "▁Caro": 10012, "▁Prezydent": 10013, "mag": 10014, "▁rozwiązanie": 10015, "▁środę": 10016, "▁podlega": 10017, "owanymi": 10018, "▁świadomości": 10019, "▁przypadkach": 10020, "▁zwykły": 10021, "gram": 10022, "▁wnioski": 10023, "onie": 10024, "▁robót": 10025, "▁upro": 10026, "▁dostarcza": 10027, "▁zezna": 10028, "▁protek": 10029, "▁decyzja": 10030, "▁obecni": 10031, "▁koledzy": 10032, "ciw": 10033, "▁gromada": 10034, "▁wielbi": 10035, "▁Musiał": 10036, "urów": 10037, "▁Panny": 10038, "▁wodzą": 10039, "▁odważ": 10040, "wających": 10041, "ałami": 10042, "▁Syn": 10043, "▁Cio": 10044, "▁podatki": 10045, "▁grudniu": 10046, "pta": 10047, "żności": 10048, "▁stworzył": 10049, "▁marsz": 10050, "▁konieczność": 10051, "gały": 10052, "▁prywaty": 10053, "▁zmianę": 10054, "▁piekła": 10055, "▁upar": 10056, "▁er": 10057, "▁objąć": 10058, "szoną": 10059, "▁ofiarę": 10060, "zw": 10061, "OT": 10062, "▁zeszłym": 10063, "▁grę": 10064, "ższy": 10065, "▁przyjęcia": 10066, "▁ciężarem": 10067, "Ka": 10068, "ósł": 10069, "▁artysty": 10070, "▁porównaniu": 10071, "alna": 10072, "▁przetar": 10073, "dową": 10074, "▁jaśniej": 10075, "▁zasu": 10076, "▁miejscem": 10077, "▁kwadra": 10078, "▁zbrodnia": 10079, "▁padła": 10080, "▁krótkiej": 10081, "▁poście": 10082, "▁Obej": 10083, "▁komisja": 10084, "▁dziewczynki": 10085, "▁umiesz": 10086, "▁rządzi": 10087, "▁tron": 10088, "▁Ostatnie": 10089, "▁węgla": 10090, "rót": 10091, "niczy": 10092, "conego": 10093, "▁wczes": 10094, "▁drużyny": 10095, "▁fabry": 10096, "▁polsko": 10097, "▁finansów": 10098, "▁dziwnym": 10099, "▁nabiera": 10100, "▁słyszała": 10101, "▁przeszły": 10102, "▁stwierdza": 10103, "▁Przypomina": 10104, "lskiego": 10105, ".\"": 10106, "▁posie": 10107, "▁najmłod": 10108, "czom": 10109, "▁here": 10110, "▁doprowadzić": 10111, "▁wyłu": 10112, "nęliśmy": 10113, "ralne": 10114, "▁uczniowie": 10115, "▁potu": 10116, "▁utrzymanie": 10117, "▁dały": 10118, "▁pośredni": 10119, "▁podatków": 10120, "▁normalnie": 10121, "▁pos": 10122, "▁oznajmił": 10123, "▁rzeczywistość": 10124, "▁trwać": 10125, "▁ustawie": 10126, "▁ślu": 10127, "▁zawodu": 10128, "▁pełnej": 10129, "▁zajęć": 10130, "▁Musimy": 10131, "▁przecią": 10132, "▁Pierwsza": 10133, "▁zgadza": 10134, "▁humo": 10135, "▁zaczynał": 10136, "▁odby": 10137, "▁śmieci": 10138, "▁spowo": 10139, "▁sprzedać": 10140, "▁zwrot": 10141, "stal": 10142, "▁remont": 10143, "skały": 10144, "▁mniejszych": 10145, "▁zazwyczaj": 10146, "▁odmówił": 10147, "▁PRL": 10148, "▁rysu": 10149, "szką": 10150, "▁wuj": 10151, "▁zadzi": 10152, "▁wstą": 10153, "ktyki": 10154, "▁wschodzie": 10155, "▁synowie": 10156, "▁Dam": 10157, "▁sę": 10158, "▁nadej": 10159, "▁wroga": 10160, "gali": 10161, "▁db": 10162, "chnąć": 10163, "▁Rozumie": 10164, "▁urodził": 10165, "kłem": 10166, "▁One": 10167, "▁Kre": 10168, "▁kun": 10169, "▁nieuf": 10170, "▁przepaść": 10171, "▁oszal": 10172, "▁zawiadomi": 10173, "lano": 10174, "▁wydatki": 10175, "▁lekkim": 10176, "▁wyrwać": 10177, "pera": 10178, "dzina": 10179, "▁bun": 10180, "▁geografi": 10181, "▁pasie": 10182, "gona": 10183, "▁Chy": 10184, "nak": 10185, "boru": 10186, "▁wieczo": 10187, "▁powstały": 10188, "▁przestała": 10189, "▁ab": 10190, "pamię": 10191, "▁położyć": 10192, "bski": 10193, "▁but": 10194, "▁dokonał": 10195, "▁odmawia": 10196, "▁sub": 10197, "▁wysokiego": 10198, "▁stop": 10199, "▁łat": 10200, "łymi": 10201, "▁odra": 10202, "▁skutki": 10203, "▁Kazi": 10204, "▁Wez": 10205, "▁przenosi": 10206, "szczała": 10207, "▁Pomo": 10208, "▁obejmuje": 10209, "▁podo": 10210, "▁jesie": 10211, "▁mózgu": 10212, "szanie": 10213, "▁udziałem": 10214, "▁ds": 10215, "ian": 10216, "sti": 10217, "▁niedaw": 10218, "▁wyższe": 10219, "▁minę": 10220, "▁pewności": 10221, "▁Kwaśniewski": 10222, "▁nazwał": 10223, "▁Spra": 10224, "▁brali": 10225, "drze": 10226, "▁salonie": 10227, "▁nosić": 10228, "bat": 10229, "▁szczero": 10230, "▁Feli": 10231, "▁absolu": 10232, "▁Lech": 10233, "▁Mich": 10234, "▁czą": 10235, "▁łagodnie": 10236, "▁wieczy": 10237, "alną": 10238, "▁charakterze": 10239, "▁Ole": 10240, "▁powoduje": 10241, "▁odgłosy": 10242, "gru": 10243, "▁pokaza": 10244, "nieniu": 10245, "▁san": 10246, "▁kasy": 10247, "▁typ": 10248, "dziesięciu": 10249, "▁większego": 10250, "▁kąpieli": 10251, "▁Cią": 10252, "▁uz": 10253, "▁XVI": 10254, "▁zapewnić": 10255, "▁niemożliwe": 10256, "▁rucho": 10257, "▁zaufania": 10258, "▁mężczyzny": 10259, "▁krąg": 10260, "▁sukces": 10261, "▁telefo": 10262, "lko": 10263, "▁sądy": 10264, "▁głupie": 10265, "turę": 10266, "letniej": 10267, "▁Zdzi": 10268, "▁piszę": 10269, "▁dawnej": 10270, "▁Prowa": 10271, "▁maszyn": 10272, "▁Zjednoczonych": 10273, "czak": 10274, "▁Kaczyński": 10275, "lewski": 10276, "fun": 10277, "▁znacznej": 10278, "▁składać": 10279, "▁Mło": 10280, "▁past": 10281, "▁Kocha": 10282, "▁trudne": 10283, "sper": 10284, "▁Państwo": 10285, "▁najważniejsze": 10286, "▁służący": 10287, "jną": 10288, "▁wielkość": 10289, "rzanie": 10290, "▁tegoż": 10291, "biegło": 10292, "▁opowiedzieć": 10293, "▁odwiedzić": 10294, "▁otwartym": 10295, "nieć": 10296, "Ju": 10297, "▁prośby": 10298, "▁zdarzyć": 10299, "▁prakty": 10300, "▁spos": 10301, "gią": 10302, "▁pomyślała": 10303, "cyna": 10304, "▁nagroda": 10305, "pr": 10306, "czucie": 10307, "Tak": 10308, "▁przyniesie": 10309, "▁porucznik": 10310, "▁pozostać": 10311, "▁rozej": 10312, "▁tan": 10313, "▁sądzić": 10314, "▁przenieść": 10315, "▁wierzą": 10316, "▁roześmiał": 10317, "▁prawy": 10318, "▁jezior": 10319, "▁podając": 10320, "ld": 10321, "▁bogat": 10322, "▁unika": 10323, "▁siat": 10324, "▁Ostatnio": 10325, "▁nazywają": 10326, "▁Gan": 10327, "▁robotni": 10328, "''": 10329, "▁sprawił": 10330, "▁uwierzy": 10331, "pina": 10332, "▁niemieckiego": 10333, "▁szare": 10334, "▁rzut": 10335, "gat": 10336, "▁nierów": 10337, "wczy": 10338, "▁szyb": 10339, "▁żyły": 10340, "▁di": 10341, "śnił": 10342, "▁Żół": 10343, "▁energi": 10344, "▁Niez": 10345, "▁istoty": 10346, "▁czynu": 10347, "▁Ste": 10348, "▁wzroku": 10349, "▁oczywi": 10350, "▁postępowanie": 10351, "▁Władysław": 10352, "▁obcią": 10353, "▁Kilku": 10354, "▁Józefa": 10355, "▁zbie": 10356, "EK": 10357, "▁powiedzieli": 10358, "▁ubezpie": 10359, "▁kwa": 10360, "▁(\"": 10361, "▁przeraża": 10362, "lałam": 10363, "▁Najbardziej": 10364, "▁bite": 10365, "▁przek": 10366, "▁Dzia": 10367, "▁warunkiem": 10368, "▁oddaje": 10369, "tyczna": 10370, "pni": 10371, "żonymi": 10372, "▁podszedł": 10373, "▁komuś": 10374, "▁lepsza": 10375, "działo": 10376, "▁jaj": 10377, "rka": 10378, "▁pochło": 10379, "woj": 10380, "▁drobnych": 10381, "szer": 10382, "▁zachodu": 10383, "▁fałszy": 10384, "▁łączy": 10385, "▁PR": 10386, "kają": 10387, "▁..": 10388, "▁członkiem": 10389, "▁eks": 10390, "▁postanowili": 10391, "▁grupę": 10392, "▁powszech": 10393, "arek": 10394, "▁klub": 10395, "▁Urząd": 10396, "▁Ministerstwo": 10397, "▁Grzegorz": 10398, "dowie": 10399, "▁doprowa": 10400, "trzymać": 10401, "▁złotym": 10402, "śń": 10403, "▁Rusi": 10404, "▁zadać": 10405, "▁wszakże": 10406, "gady": 10407, "▁nieznacznie": 10408, "▁odrzucił": 10409, "▁wytrzy": 10410, "▁sięg": 10411, "szana": 10412, "mowo": 10413, "▁chociażby": 10414, "▁najwyższy": 10415, "lop": 10416, "▁znajomy": 10417, "▁kuch": 10418, "▁głębiej": 10419, "▁stosunków": 10420, "unki": 10421, "wet": 10422, "ed": 10423, "▁rys": 10424, "▁dreszcz": 10425, "▁ogrom": 10426, "▁zakładni": 10427, "▁państwu": 10428, "▁człon": 10429, "▁zadał": 10430, "▁podobnej": 10431, "kręcił": 10432, "▁południ": 10433, "▁głównej": 10434, "kcie": 10435, "▁słabo": 10436, "▁zażądał": 10437, "▁usy": 10438, "wardii": 10439, "▁Wzię": 10440, "▁zima": 10441, "▁dniami": 10442, "berga": 10443, "Ra": 10444, "koła": 10445, "▁Kraków": 10446, "cznikiem": 10447, "▁zwycięz": 10448, "▁marzy": 10449, "▁polityce": 10450, "cjona": 10451, "nen": 10452, "▁lot": 10453, "▁char": 10454, "▁upi": 10455, "▁podkreśla": 10456, "▁wierzcho": 10457, "▁echo": 10458, "skrzy": 10459, "▁zej": 10460, "▁przesy": 10461, "▁kondy": 10462, "ownych": 10463, "▁najem": 10464, "▁rozkłada": 10465, "świet": 10466, "▁rozkwi": 10467, "▁powody": 10468, "▁położeniu": 10469, "▁Ostatni": 10470, "▁odebrać": 10471, "▁epi": 10472, "▁Ter": 10473, "▁wojennej": 10474, "▁Medy": 10475, "▁uraz": 10476, "▁przepeł": 10477, "▁wzor": 10478, "biego": 10479, "dii": 10480, "▁CZ": 10481, "▁sumy": 10482, "▁góra": 10483, "▁Towarzy": 10484, "▁Wojewo": 10485, "▁ZSRR": 10486, "▁Zwycię": 10487, "▁obowiązku": 10488, "▁rzędu": 10489, "▁kandydatów": 10490, "▁przestępstwa": 10491, "▁poruszył": 10492, "syj": 10493, "ET": 10494, "▁wnosi": 10495, "▁Ojczy": 10496, "▁mogłyby": 10497, "▁liczbie": 10498, "wisko": 10499, "▁otwar": 10500, "▁Biało": 10501, "▁świateł": 10502, "▁urząd": 10503, "niego": 10504, "▁dotarł": 10505, "zek": 10506, "▁sobo": 10507, "▁niedzie": 10508, "▁dowci": 10509, "]": 10510, "▁przeznaczone": 10511, "▁czekała": 10512, "▁fajnie": 10513, "▁koryta": 10514, "▁wysoką": 10515, "ya": 10516, "twor": 10517, "▁łóżko": 10518, "▁twierdzy": 10519, "nkach": 10520, "cim": 10521, "ciny": 10522, "▁Jakim": 10523, "▁Ska": 10524, "▁Izrael": 10525, "▁szóstej": 10526, "▁rozsta": 10527, "▁Jesteśmy": 10528, "▁wpu": 10529, "▁zaprosił": 10530, "▁ludzkim": 10531, "▁polityków": 10532, "ralnej": 10533, "stką": 10534, "▁Trochę": 10535, "▁latem": 10536, "▁zielone": 10537, "▁praktyki": 10538, "▁Chłopiec": 10539, "▁Śmierć": 10540, "▁zasko": 10541, "▁rezerw": 10542, "▁krajem": 10543, "▁oprac": 10544, "▁korzystać": 10545, "▁przeła": 10546, "pełnie": 10547, "▁skierowa": 10548, "▁czynów": 10549, "▁Bożego": 10550, "▁uchwały": 10551, "▁prokuratura": 10552, "▁wyglądać": 10553, "▁zabro": 10554, "▁świetnie": 10555, "▁drobiaz": 10556, "▁Adama": 10557, "czości": 10558, "▁rolni": 10559, "▁burmistrz": 10560, "dowego": 10561, "glądała": 10562, "▁tracić": 10563, "▁znaczną": 10564, "▁nazywał": 10565, "▁odziedzi": 10566, "▁godność": 10567, "▁mocą": 10568, "▁wrzasnął": 10569, "cząć": 10570, "▁Parla": 10571, "▁postrze": 10572, "ściły": 10573, "▁wymiar": 10574, "▁jezio": 10575, "▁żywe": 10576, "▁rysy": 10577, "▁wyjeździe": 10578, "▁domo": 10579, "▁orygina": 10580, "▁gorszy": 10581, "▁Rzy": 10582, "Mi": 10583, "▁hoł": 10584, "ganie": 10585, "▁Bło": 10586, "targ": 10587, "▁uwol": 10588, "▁wewnętrznych": 10589, "tani": 10590, "biona": 10591, "sh": 10592, "▁podłodze": 10593, "▁bawią": 10594, "▁usłyszy": 10595, "▁burz": 10596, "▁mających": 10597, "łk": 10598, "▁koalicji": 10599, "▁dwukrotnie": 10600, "▁wojenne": 10601, "nuję": 10602, "▁zary": 10603, "▁najwyższym": 10604, "▁skó": 10605, "tkami": 10606, "▁Duch": 10607, "▁złym": 10608, "▁wspomnień": 10609, "▁odro": 10610, "▁rośli": 10611, "▁cało": 10612, "▁prawdziwego": 10613, "▁Zak": 10614, "▁zarzą": 10615, "▁sztukę": 10616, "▁Łatwo": 10617, "▁cechy": 10618, "▁Twoja": 10619, "bom": 10620, "steina": 10621, "▁opada": 10622, "▁spis": 10623, "▁lamp": 10624, "▁mó": 10625, "np": 10626, "▁str": 10627, "▁wymu": 10628, "▁poruszać": 10629, "▁ślubu": 10630, "▁uni": 10631, "▁pochodzenia": 10632, "▁dochodzą": 10633, "▁odeszła": 10634, "▁chorobę": 10635, "bru": 10636, "▁kad": 10637, "▁grupie": 10638, "▁osobom": 10639, "▁kampanii": 10640, "▁Dotychczas": 10641, "▁zniechę": 10642, "▁kopie": 10643, "▁rezultacie": 10644, "▁Słowo": 10645, "liwych": 10646, "▁chwilach": 10647, "▁domaga": 10648, "▁rozwo": 10649, "CE": 10650, "▁istnieją": 10651, "▁opłaty": 10652, "▁prawdziwą": 10653, "▁spotkali": 10654, "▁nauczyć": 10655, "▁leśnych": 10656, "▁murem": 10657, "▁wypadków": 10658, "▁kryształ": 10659, "▁Miałem": 10660, "siadła": 10661, "▁skórza": 10662, "▁konkursu": 10663, "metr": 10664, "▁publiczności": 10665, "▁podejrza": 10666, "??": 10667, "▁pośpiechu": 10668, "vo": 10669, "▁oddzie": 10670, "niętej": 10671, "▁niewątpliwie": 10672, "szuka": 10673, "▁niechę": 10674, "chaliśmy": 10675, "▁Polskę": 10676, "▁postawić": 10677, "▁salo": 10678, "▁kli": 10679, "ant": 10680, "▁atrak": 10681, "▁zastanawia": 10682, "▁ulega": 10683, "lizacja": 10684, "▁wice": 10685, "▁Zarząd": 10686, "▁Policjanci": 10687, "Ni": 10688, "▁Krzysztofa": 10689, "▁niezadowo": 10690, "▁Usta": 10691, "▁handel": 10692, "▁sprzętu": 10693, "▁koszty": 10694, "▁gospodarczej": 10695, "▁wskutek": 10696, "ryte": 10697, "▁Stefan": 10698, "kowanie": 10699, "▁Skar": 10700, "▁pasz": 10701, "szeć": 10702, "▁stawić": 10703, "▁Ky": 10704, "▁niepewności": 10705, "owin": 10706, "▁tajemnic": 10707, "▁wytłuma": 10708, "▁Czyż": 10709, "▁równym": 10710, "arski": 10711, "szczer": 10712, "śliła": 10713, "▁cierpią": 10714, "▁Znów": 10715, "czów": 10716, "▁nikim": 10717, "liwej": 10718, "▁młodszy": 10719, "▁prowin": 10720, "sąd": 10721, "▁niskie": 10722, "▁posi": 10723, "▁Głowa": 10724, "atorów": 10725, "zować": 10726, "▁polityczny": 10727, "▁odpoczynku": 10728, "▁gościem": 10729, "▁przedni": 10730, "niowej": 10731, "▁model": 10732, "▁rozmai": 10733, "▁Anglii": 10734, "▁Zaczę": 10735, "iach": 10736, "▁odm": 10737, "▁zwany": 10738, "órki": 10739, "▁Zrozu": 10740, "▁znajdowała": 10741, "rus": 10742, "▁wychodzić": 10743, "ose": 10744, "prawa": 10745, "▁wyga": 10746, "polsce": 10747, "▁odkrył": 10748, "▁głosi": 10749, "):": 10750, "▁pojęcie": 10751, "▁oczekiwania": 10752, "▁utrzyma": 10753, "▁zachodniej": 10754, "up": 10755, "▁Miłość": 10756, "▁Y": 10757, "▁Powoli": 10758, "jony": 10759, "▁zwracał": 10760, "▁korytarza": 10761, "▁Świad": 10762, "▁kierowcy": 10763, "▁pomor": 10764, "▁chodni": 10765, "▁Ul": 10766, "▁czterdziestu": 10767, "▁protestu": 10768, "▁podnoszą": 10769, "▁metody": 10770, "▁szczególności": 10771, "▁koncert": 10772, "▁mody": 10773, "▁pió": 10774, "▁okolic": 10775, "▁sekretarz": 10776, "▁portre": 10777, "▁aktu": 10778, "▁rokiem": 10779, "polski": 10780, "▁oszczędności": 10781, "▁lewym": 10782, "arem": 10783, "▁mleko": 10784, "▁mile": 10785, "lesa": 10786, "▁zetk": 10787, "▁Każda": 10788, "▁zysk": 10789, "▁Para": 10790, "▁okazała": 10791, "▁such": 10792, "▁Han": 10793, "▁przygotować": 10794, "▁cierpliwie": 10795, "▁Pio": 10796, "śnią": 10797, "▁pamiętał": 10798, "tane": 10799, "▁ząb": 10800, "▁przyjemność": 10801, "▁zrzu": 10802, "▁przeję": 10803, "ione": 10804, "▁włosach": 10805, "▁dziwi": 10806, "▁obsługi": 10807, "▁konieczne": 10808, "▁podwo": 10809, "▁dzieciństwa": 10810, "▁obowiąz": 10811, "▁nieprzytom": 10812, "▁bezpośrednio": 10813, "zydium": 10814, "▁uzasad": 10815, "▁Klubu": 10816, "▁Jezusa": 10817, "▁obrazu": 10818, "▁przyniosła": 10819, "śnicy": 10820, "▁sprowadza": 10821, "▁tr": 10822, "▁sztyw": 10823, "▁dramaty": 10824, "▁wszczę": 10825, "▁zbunt": 10826, "rzonym": 10827, "żący": 10828, "wnym": 10829, "▁właściwym": 10830, "▁opinię": 10831, "dawca": 10832, "▁źródeł": 10833, "czyni": 10834, "▁komendanta": 10835, "▁Wystarczy": 10836, "ssi": 10837, "▁Bał": 10838, "▁przedstawicieli": 10839, "▁Zaczyna": 10840, "▁zamknąć": 10841, "▁trafiła": 10842, "wałam": 10843, "czniku": 10844, "▁As": 10845, "▁decyzje": 10846, "▁Apol": 10847, "▁odwagę": 10848, "▁wschodu": 10849, "▁przewa": 10850, "▁dama": 10851, "▁wynu": 10852, "▁odgło": 10853, "niesienia": 10854, "▁state": 10855, "stań": 10856, "▁Wróci": 10857, "▁okrąg": 10858, "▁kanclerz": 10859, "mul": 10860, "lad": 10861, "▁uwolnić": 10862, "▁trafia": 10863, "ódź": 10864, "▁waż": 10865, "▁Domi": 10866, "▁duchow": 10867, "▁wyprawa": 10868, "▁najwyższe": 10869, "▁ucią": 10870, "▁krainy": 10871, "sunęła": 10872, "▁PAN": 10873, "rzyk": 10874, "▁pociąga": 10875, "▁zajmować": 10876, "▁bólem": 10877, "▁wyspy": 10878, "▁kapitału": 10879, "sztu": 10880, "▁zad": 10881, "▁kąt": 10882, "▁powścią": 10883, "▁pozy": 10884, "lata": 10885, "▁szta": 10886, "▁zgoda": 10887, "▁filozof": 10888, "polu": 10889, "▁życzenia": 10890, "▁kandydat": 10891, "▁zgodzić": 10892, "kazuje": 10893, "mane": 10894, "▁skie": 10895, "▁warte": 10896, "żąt": 10897, "▁obawa": 10898, "▁Pad": 10899, "▁koper": 10900, "▁Dziewczy": 10901, "▁najmniejszej": 10902, "▁pojawiła": 10903, "▁nieży": 10904, "▁prowadzenia": 10905, "▁przedstawił": 10906, "▁żałob": 10907, "żli": 10908, "▁Narodowej": 10909, "▁wnętrz": 10910, "dzieliśmy": 10911, "skro": 10912, "▁Inne": 10913, "▁Mia": 10914, "▁zdoł": 10915, "▁pobiera": 10916, "▁fos": 10917, "▁Dem": 10918, "karz": 10919, "▁popu": 10920, "▁podjąć": 10921, "▁przyjem": 10922, "▁wyży": 10923, "▁naczynia": 10924, "miec": 10925, "▁sprzedaż": 10926, "▁skon": 10927, "▁Kobiety": 10928, "▁odde": 10929, "▁kadencji": 10930, "▁kuli": 10931, "▁Zakład": 10932, "<0xA7>": 10933, "▁pracowi": 10934, "▁szybkie": 10935, "▁ek": 10936, "łują": 10937, "szal": 10938, "ory": 10939, "▁inform": 10940, "▁poważne": 10941, "▁jedyne": 10942, "▁potwierdza": 10943, "▁mleka": 10944, "▁King": 10945, "bal": 10946, "rozu": 10947, "ądź": 10948, "lio": 10949, "▁przygotowane": 10950, "▁międzynarod": 10951, "▁odnaleźć": 10952, "▁leżące": 10953, "▁otrzymać": 10954, "▁zapadł": 10955, "▁Sen": 10956, "▁wyczy": 10957, "wanej": 10958, "▁rozstrze": 10959, "▁szanse": 10960, "▁małżeństwa": 10961, "▁Stał": 10962, "▁filmów": 10963, "▁Warto": 10964, "▁podała": 10965, "▁ćwiczenia": 10966, "▁miesiącach": 10967, "stii": 10968, "wiu": 10969, "tką": 10970, "▁zostawi": 10971, "▁Czyżby": 10972, "lt": 10973, "▁senty": 10974, "▁winni": 10975, "▁politycy": 10976, "▁ofiarą": 10977, "▁młodej": 10978, "▁wygrał": 10979, "rody": 10980, "▁adi": 10981, "▁zau": 10982, "pew": 10983, "▁persona": 10984, "▁zawodowej": 10985, "▁Karo": 10986, "▁okolice": 10987, "▁kręci": 10988, "▁faktycznie": 10989, "▁Sprawa": 10990, "▁chłopców": 10991, "▁Zgi": 10992, "▁jezioro": 10993, "▁rozwiązania": 10994, "▁poezji": 10995, "▁ogólno": 10996, "▁Policji": 10997, "▁płacą": 10998, "▁zapisa": 10999, "godnie": 11000, "▁założył": 11001, "▁wojewódz": 11002, "▁fortepia": 11003, "▁Nasze": 11004, "▁lep": 11005, "▁wyroku": 11006, ">>": 11007, "▁obwi": 11008, "nium": 11009, "óc": 11010, "▁dłuższy": 11011, "▁myślami": 11012, "▁połączyć": 11013, "▁krople": 11014, "ład": 11015, "▁zli": 11016, "▁nadejdzie": 11017, "wit": 11018, "tale": 11019, "va": 11020, "▁Senat": 11021, "ini": 11022, "nnik": 11023, "▁rozbija": 11024, "▁grał": 11025, "▁pogody": 11026, "▁Mazu": 11027, "▁dotrzeć": 11028, "▁ranem": 11029, "▁sądzisz": 11030, "▁Przygot": 11031, "▁upom": 11032, "▁Bry": 11033, "gają": 11034, "▁suche": 11035, "▁Got": 11036, "▁przystoj": 11037, "▁nadą": 11038, "▁główne": 11039, "ati": 11040, "lizny": 11041, "owałeś": 11042, "był": 11043, "▁kapli": 11044, "▁smak": 11045, "▁Zygmunta": 11046, "▁unik": 11047, "dność": 11048, "▁dyskusję": 11049, "▁krajobraz": 11050, "▁szata": 11051, "wom": 11052, "CZ": 11053, "▁zyska": 11054, "walić": 11055, "bow": 11056, "▁ruszyła": 11057, "▁spoczynku": 11058, "▁maju": 11059, "▁umowę": 11060, "dników": 11061, "▁ogromnej": 11062, "łowski": 11063, "▁Tr": 11064, "▁wiatrem": 11065, "▁okra": 11066, "szewskiego": 11067, "▁Mag": 11068, "▁najgo": 11069, "▁tk": 11070, "▁pośrodku": 11071, "▁grób": 11072, "▁dachem": 11073, "▁podbi": 11074, "▁Wolności": 11075, "▁zajęcie": 11076, "▁skór": 11077, "▁odna": 11078, "▁odwiedził": 11079, "▁krótka": 11080, "▁jesieni": 11081, "atyw": 11082, "IS": 11083, "▁gospodarstwa": 11084, "▁związków": 11085, "▁Oko": 11086, "▁zabierze": 11087, "▁rozpoznać": 11088, "▁zapar": 11089, "jenie": 11090, "rodzi": 11091, "▁jednostek": 11092, "▁kontrol": 11093, "▁położenie": 11094, "▁rękawi": 11095, "▁obiecu": 11096, "▁wyszło": 11097, "▁szpie": 11098, "jnym": 11099, "▁kapu": 11100, "▁Leszek": 11101, "▁wpły": 11102, "▁toa": 11103, "Ć": 11104, "▁Radzie": 11105, "▁trójką": 11106, "▁ludzkości": 11107, "▁dziesięcio": 11108, "ralnym": 11109, "▁nazwać": 11110, "▁Baran": 11111, "▁pozbyć": 11112, "▁wali": 11113, "▁tamtego": 11114, "▁pozdr": 11115, "▁Nor": 11116, "▁pewni": 11117, "▁naturze": 11118, "▁skok": 11119, "▁książ": 11120, "▁nieznane": 11121, "▁piętro": 11122, "▁przybywa": 11123, "▁opi": 11124, "▁wspaniałe": 11125, "▁nakazał": 11126, "▁nocnej": 11127, "fil": 11128, "▁prawdziwym": 11129, "▁zagi": 11130, "▁nieskoń": 11131, "▁nale": 11132, "▁stosunek": 11133, "▁KO": 11134, "▁Brak": 11135, "▁puch": 11136, "▁Gminy": 11137, "▁wystawia": 11138, "szczeniu": 11139, "▁gatunku": 11140, "▁niechęć": 11141, "▁rozwija": 11142, "▁wolne": 11143, "▁obecnej": 11144, "▁czytania": 11145, "▁moskie": 11146, "▁Ok": 11147, "▁sympaty": 11148, "▁zwal": 11149, "▁oceny": 11150, "lica": 11151, "▁chirur": 11152, "órka": 11153, "▁przemawia": 11154, "▁wkład": 11155, "▁pozwolenie": 11156, "ńsku": 11157, "▁fragment": 11158, "▁gmina": 11159, "▁<<": 11160, "kuj": 11161, "▁traktat": 11162, "▁ukryte": 11163, "▁gospodarza": 11164, "▁depu": 11165, "▁Inny": 11166, "▁śmieje": 11167, "str": 11168, "▁dziewi": 11169, "▁Więk": 11170, "▁willi": 11171, "▁morskich": 11172, "▁Właściwie": 11173, "między": 11174, "bior": 11175, "▁Śmie": 11176, "▁grają": 11177, "▁spytałem": 11178, "wiera": 11179, "▁uszach": 11180, "▁gładko": 11181, "Ń": 11182, "▁kibi": 11183, "▁zdradził": 11184, "▁własności": 11185, "▁uspokoić": 11186, "▁specjalne": 11187, "▁Moskwy": 11188, "cal": 11189, "▁gniazdo": 11190, "▁zawah": 11191, "▁Dziewczyna": 11192, "▁miłe": 11193, "▁morskie": 11194, "▁spory": 11195, "sel": 11196, "▁wypowiedzieć": 11197, "▁wbi": 11198, "▁zwykłą": 11199, "▁pokona": 11200, "hen": 11201, "nasto": 11202, "▁myślałam": 11203, "▁postanowiła": 11204, "▁słaby": 11205, "▁wzmoc": 11206, "▁armię": 11207, "▁kierunek": 11208, "▁papiery": 11209, "bię": 11210, "▁lista": 11211, "▁przekonany": 11212, "▁Marii": 11213, "▁Należy": 11214, "▁przedstawić": 11215, "▁źródło": 11216, "▁niespodzian": 11217, "tników": 11218, "<0xAB>": 11219, "▁Nam": 11220, "▁znalazło": 11221, "usta": 11222, "▁Niemcami": 11223, "onymi": 11224, "tła": 11225, "lnicy": 11226, "▁przedmiot": 11227, "▁przekracza": 11228, "▁gieł": 11229, "▁rozgrze": 11230, "▁obawia": 11231, "▁zawodowych": 11232, "▁zę": 11233, "▁Kaczy": 11234, "▁koli": 11235, "▁fata": 11236, "▁podstęp": 11237, "CA": 11238, "▁Wen": 11239, "▁pieniędzmi": 11240, "▁poznała": 11241, "▁wyciągnąć": 11242, "▁współpracow": 11243, "▁Dale": 11244, "▁leni": 11245, "▁Zdrowia": 11246, "▁kilkoma": 11247, "▁Białego": 11248, "▁cukier": 11249, "▁Sku": 11250, "▁kłopotów": 11251, "▁zakończenie": 11252, "ndy": 11253, "fię": 11254, "▁członek": 11255, "▁publiczne": 11256, "▁Ban": 11257, "▁zakresu": 11258, "▁Jur": 11259, "▁odbyło": 11260, "▁pragnienia": 11261, "▁przestrzega": 11262, "▁jedzenia": 11263, "▁lokalu": 11264, "▁trudna": 11265, "polskiego": 11266, "▁aka": 11267, "▁teatru": 11268, "▁Woli": 11269, "rucho": 11270, "▁lepszą": 11271, "▁podziem": 11272, "letu": 11273, "▁książka": 11274, "gij": 11275, "▁zadzwo": 11276, "▁pokaz": 11277, "▁Okazało": 11278, "▁byłego": 11279, "▁godne": 11280, "▁okaz": 11281, "▁Bru": 11282, "▁wyna": 11283, "▁bier": 11284, "▁porozumienia": 11285, "▁dostrzega": 11286, "Wo": 11287, "wiało": 11288, "▁Zw": 11289, "▁kanał": 11290, "▁kg": 11291, "▁kultural": 11292, "lecie": 11293, "▁podzię": 11294, "▁literatury": 11295, "▁Barbara": 11296, "ktach": 11297, "▁ruchów": 11298, "▁radzić": 11299, "atorzy": 11300, "▁tematy": 11301, "wina": 11302, "czuk": 11303, "▁krewnych": 11304, "▁wycieczki": 11305, "▁redakcji": 11306, "▁Mart": 11307, "▁Zawo": 11308, "▁Fabia": 11309, "▁Ducha": 11310, "▁draż": 11311, "▁Przyja": 11312, "▁warta": 11313, "▁panowania": 11314, "▁odpoczynek": 11315, "▁opowiadania": 11316, "▁stojącego": 11317, "▁ciężkim": 11318, "▁wydawały": 11319, "▁sprawić": 11320, "▁zrze": 11321, "▁mające": 11322, "▁sprzymie": 11323, "▁(...)": 11324, "cek": 11325, "zje": 11326, "▁ironi": 11327, "▁Pły": 11328, "▁strona": 11329, "czeka": 11330, "trudno": 11331, "▁Arab": 11332, "▁dziewiętna": 11333, "łkę": 11334, "▁odpoczy": 11335, "▁poradzić": 11336, "▁toteż": 11337, "▁narzeka": 11338, "▁minęło": 11339, "▁sypialni": 11340, "▁druku": 11341, "pru": 11342, "▁wyobraźni": 11343, "▁Zatrzyma": 11344, "js": 11345, "▁Sł": 11346, "▁szkodzi": 11347, "mor": 11348, "▁składał": 11349, "▁budżet": 11350, "▁włożyć": 11351, "gował": 11352, "▁okaza": 11353, "turze": 11354, "▁kość": 11355, "▁nielu": 11356, "▁małżonka": 11357, "▁Świę": 11358, "▁rozłą": 11359, "rzonej": 11360, "owna": 11361, "▁Mikołaja": 11362, "▁przedmiotem": 11363, "▁odesła": 11364, "▁mówimy": 11365, "▁dociera": 11366, "▁przejściu": 11367, "▁Dnia": 11368, "▁wykład": 11369, "▁Gor": 11370, "▁zaleca": 11371, "▁gronie": 11372, "▁Stara": 11373, "▁przeprowadzić": 11374, "▁trzecią": 11375, "▁wystąpić": 11376, "▁ostrożności": 11377, "jscy": 11378, "▁Szczegól": 11379, "▁niski": 11380, "kana": 11381, "▁wypraw": 11382, "▁postępu": 11383, "Gdy": 11384, "▁zagrożenia": 11385, "▁Ministerstwa": 11386, "▁Andrze": 11387, "Solidarności": 11388, "▁dzielnicy": 11389, "▁pisarza": 11390, "▁Wydaje": 11391, "▁stworzyć": 11392, "▁wał": 11393, "▁czę": 11394, "▁główną": 11395, "▁TR": 11396, "▁mas": 11397, "sują": 11398, "▁sklepów": 11399, "▁nazwa": 11400, "▁opóź": 11401, "▁naturalnie": 11402, "▁defini": 11403, "▁Specja": 11404, "▁założy": 11405, "▁usiłował": 11406, "▁pokoje": 11407, "▁sufi": 11408, "lice": 11409, "▁siedzenia": 11410, "▁wyroki": 11411, "chwy": 11412, "▁ustawa": 11413, "▁upew": 11414, "▁garni": 11415, "▁wydarzeń": 11416, "sjona": 11417, "▁osobno": 11418, "▁akcje": 11419, "owemu": 11420, "▁Anny": 11421, "▁ustala": 11422, "rują": 11423, "▁darem": 11424, "nując": 11425, "▁ważną": 11426, "▁zejść": 11427, "▁zaangaż": 11428, "▁chrzą": 11429, "▁formę": 11430, "▁ozd": 11431, "▁wydatków": 11432, "▁przykłada": 11433, "atorem": 11434, "▁dyrek": 11435, "▁Dost": 11436, "▁tradycji": 11437, "▁złożony": 11438, "▁kiep": 11439, "słe": 11440, "▁Podob": 11441, "▁lęk": 11442, "▁praktycznie": 11443, "▁elementów": 11444, "▁Sier": 11445, "atego": 11446, "▁Uważ": 11447, "▁przyśpie": 11448, "cielu": 11449, "▁rebe": 11450, "ądał": 11451, "▁Kogo": 11452, "▁wchodził": 11453, "▁zaciąg": 11454, "nien": 11455, "▁przyjacielu": 11456, "▁odwro": 11457, "mieć": 11458, "▁szcz": 11459, "lanej": 11460, "▁skóra": 11461, "rant": 11462, "▁duchem": 11463, "▁skrzydło": 11464, "łaś": 11465, "▁księgi": 11466, "▁czujesz": 11467, "▁manew": 11468, "▁sob": 11469, "▁kryje": 11470, "▁imiona": 11471, "▁istnieć": 11472, "szczono": 11473, "▁nakazuje": 11474, "prasza": 11475, "▁włożył": 11476, "▁dług": 11477, "▁szeroką": 11478, "▁tygry": 11479, "chani": 11480, "tw": 11481, "▁słabość": 11482, "głów": 11483, "jeni": 11484, "▁Otwo": 11485, "▁podejrzenia": 11486, "▁rodziną": 11487, "▁Ali": 11488, "słała": 11489, "lian": 11490, "▁głównego": 11491, "▁komunisty": 11492, "mowy": 11493, "atych": 11494, "▁uwolni": 11495, "▁uwierzyć": 11496, "▁drogie": 11497, "▁bana": 11498, "▁posiadać": 11499, "▁pojawiają": 11500, "wką": 11501, "▁jo": 11502, "▁próbę": 11503, "▁TVP": 11504, "mak": 11505, "<0xBB>": 11506, "wóch": 11507, "▁Bła": 11508, "▁wciąg": 11509, "▁smaku": 11510, "▁Tuż": 11511, "▁filmy": 11512, "▁wojskowej": 11513, "dla": 11514, "▁Rodzi": 11515, "cowe": 11516, "▁powód": 11517, "▁przeprowadza": 11518, "lałem": 11519, "▁tekstu": 11520, "▁swobodnie": 11521, "▁bą": 11522, "▁sformuł": 11523, "▁procesów": 11524, "▁informuje": 11525, "▁stołe": 11526, "tuł": 11527, "▁przyjemności": 11528, "▁marzenia": 11529, "▁entuzja": 11530, "▁znaków": 11531, "▁znaku": 11532, "▁spe": 11533, "<0xBC>": 11534, "sam": 11535, "▁odpły": 11536, "▁Czerwo": 11537, "▁nauczycieli": 11538, "▁kieru": 11539, "▁odległość": 11540, "▁spodnie": 11541, "rąg": 11542, "▁artykuł": 11543, "▁PZPR": 11544, "▁zasięg": 11545, "▁europejskiej": 11546, "▁Bank": 11547, "▁wypełnia": 11548, "▁przekonanie": 11549, "▁nauczył": 11550, "▁Dokąd": 11551, "▁wahania": 11552, "▁podtrzy": 11553, "▁śmiesz": 11554, "▁Opie": 11555, "Sz": 11556, "▁przybli": 11557, "▁ciężarów": 11558, "▁Nar": 11559, "▁Skoń": 11560, "▁zwar": 11561, "▁dziewcząt": 11562, "▁wyjaśnić": 11563, "▁popy": 11564, "ret": 11565, "▁bezkar": 11566, "▁Hel": 11567, "▁nabo": 11568, "▁biega": 11569, "▁słuch": 11570, "▁podejrz": 11571, "ora": 11572, "▁dyplo": 11573, "▁samochodem": 11574, "▁zatrza": 11575, "▁rea": 11576, "▁wyspie": 11577, "▁zobaczysz": 11578, "▁spółek": 11579, "▁publicznie": 11580, "▁niena": 11581, "▁Os": 11582, "▁dziecku": 11583, "▁religii": 11584, "▁polecenia": 11585, "▁uznać": 11586, "dym": 11587, "▁Pozwo": 11588, "▁zakłady": 11589, "▁stale": 11590, "▁Szwecji": 11591, "ownym": 11592, "▁Obu": 11593, "▁krótką": 11594, "▁informację": 11595, "▁uszko": 11596, "▁Obec": 11597, "▁odnale": 11598, "▁przysługuje": 11599, "▁stałe": 11600, "▁studia": 11601, "▁studiów": 11602, "▁uzależ": 11603, "▁Prokuratura": 11604, "▁zamknięty": 11605, "▁doświadczenie": 11606, "▁posiedzeniu": 11607, "▁Dużo": 11608, "▁poprzednich": 11609, "rowany": 11610, "▁głównych": 11611, "▁ROZDZIAŁ": 11612, "▁Litwa": 11613, "wałe": 11614, "▁aler": 11615, "mysłu": 11616, "▁ober": 11617, "tre": 11618, "▁skórą": 11619, "▁poni": 11620, "▁kal": 11621, "cis": 11622, "▁pere": 11623, "▁Prawdę": 11624, "Jeśli": 11625, "▁łatwością": 11626, "siem": 11627, "gorz": 11628, "▁przodków": 11629, "▁korzystając": 11630, "▁zał": 11631, "▁wezwanie": 11632, "▁skutku": 11633, "▁długów": 11634, "▁chor": 11635, "▁zajęła": 11636, "▁sied": 11637, "▁rozważa": 11638, "▁głębokim": 11639, "▁innemu": 11640, "Przy": 11641, "▁przewidzieć": 11642, "▁upraw": 11643, "szce": 11644, "▁świer": 11645, "▁zamar": 11646, "▁sztab": 11647, "▁Instytutu": 11648, "▁czystą": 11649, "▁Stało": 11650, "▁kłopot": 11651, "▁osą": 11652, "▁ważnych": 11653, "▁mniejszy": 11654, "▁zob": 11655, "▁Ża": 11656, "▁Razem": 11657, "▁wzmo": 11658, "▁przepu": 11659, "daniu": 11660, "▁owoc": 11661, "▁zacieka": 11662, "▁zarys": 11663, "▁Urzę": 11664, "▁stworzenia": 11665, "▁zio": 11666, "▁wzrasta": 11667, "▁wędrow": 11668, "▁strzelił": 11669, "▁żonie": 11670, "▁zapomnia": 11671, "▁masa": 11672, "lonu": 11673, "cowa": 11674, "▁miano": 11675, "▁zimy": 11676, "▁rozda": 11677, "▁pograni": 11678, "▁spółka": 11679, "prawdopodobniej": 11680, "▁bezdom": 11681, "▁Dawniej": 11682, "▁Gier": 11683, "▁podejrzenie": 11684, "ninie": 11685, "▁terminu": 11686, "▁wydania": 11687, "▁żarty": 11688, "▁stwarza": 11689, "▁ważna": 11690, "lie": 11691, "▁jesienią": 11692, "▁przemysłu": 11693, "▁Dru": 11694, "Le": 11695, "▁stanowisku": 11696, "▁spodziewa": 11697, "▁as": 11698, "▁najdalej": 11699, "▁posze": 11700, "▁robiła": 11701, "▁kurs": 11702, "▁książce": 11703, "stymi": 11704, "▁uzyskania": 11705, "▁szyby": 11706, "szłam": 11707, "nięci": 11708, "▁Zapy": 11709, "▁istnienia": 11710, "▁sowie": 11711, "▁wprowadził": 11712, "▁teatr": 11713, "kazują": 11714, "▁Trzyma": 11715, "zki": 11716, "▁en": 11717, "▁czterna": 11718, "▁wykonywania": 11719, "▁napię": 11720, "▁Kinga": 11721, "▁gdybyśmy": 11722, "▁przystąpi": 11723, "mus": 11724, "▁uśmiechu": 11725, "nich": 11726, "▁okup": 11727, "▁Di": 11728, "▁Rok": 11729, "pisał": 11730, "nawi": 11731, "nowała": 11732, "▁pojąć": 11733, "dnymi": 11734, "▁dokument": 11735, "▁przeszkód": 11736, "land": 11737, "nimy": 11738, "szewicz": 11739, "▁karet": 11740, "▁świąte": 11741, "▁porównać": 11742, "▁stanowić": 11743, "▁telefonu": 11744, "▁skom": 11745, "▁pusta": 11746, "▁matematy": 11747, "zon": 11748, "▁Nazy": 11749, "▁budynków": 11750, "▁ogrze": 11751, "▁uśmiechnęła": 11752, "▁Funduszu": 11753, "▁zdobę": 11754, "▁kandydata": 11755, "▁:)": 11756, "▁uczelni": 11757, "▁kawałki": 11758, "▁konferencji": 11759, "▁niezależnie": 11760, "▁zaczną": 11761, "▁sucho": 11762, "▁największa": 11763, "▁otworzyła": 11764, "▁Część": 11765, "▁prywatnych": 11766, "▁Śląsku": 11767, "▁długość": 11768, "zury": 11769, "jają": 11770, "▁istotę": 11771, "▁imieniem": 11772, "▁pomniej": 11773, "zując": 11774, "▁restaura": 11775, "róciła": 11776, "tęż": 11777, "▁urządzenia": 11778, "and": 11779, "▁indy": 11780, "▁oskarżenia": 11781, "▁pokrzyw": 11782, "▁ograni": 11783, "▁począwszy": 11784, "▁Cent": 11785, "▁pojawi": 11786, "▁Należ": 11787, "▁Druga": 11788, "wód": 11789, "▁dziesiątki": 11790, "▁wakacje": 11791, "▁Rejon": 11792, "▁narko": 11793, "▁Mieszkańcy": 11794, "▁akcep": 11795, "▁taksów": 11796, "PS": 11797, "▁zwykłym": 11798, "▁Radzi": 11799, "▁rolników": 11800, "sady": 11801, "▁Lep": 11802, "▁Chal": 11803, "▁wykra": 11804, "rodę": 11805, "piały": 11806, "▁królów": 11807, "▁dóbr": 11808, "▁twojego": 11809, "tant": 11810, "▁skłon": 11811, "▁Peł": 11812, "▁sprawozdania": 11813, "żer": 11814, "żera": 11815, "▁obrazów": 11816, "▁zrówna": 11817, "▁siłami": 11818, "cale": 11819, "jka": 11820, "▁dowódca": 11821, "▁towary": 11822, "▁Raj": 11823, "▁ocalić": 11824, "▁rodziciel": 11825, "mija": 11826, "▁fotel": 11827, "▁uratować": 11828, "▁Anglicy": 11829, "▁główny": 11830, "▁widoku": 11831, "▁zarob": 11832, "▁krawędzi": 11833, "▁Partii": 11834, "▁mecena": 11835, "▁sum": 11836, "siąc": 11837, "onego": 11838, "▁edukacji": 11839, "▁zaszko": 11840, "▁zasia": 11841, "anów": 11842, "▁luź": 11843, "▁mózg": 11844, "▁bul": 11845, "▁stosunkach": 11846, "karze": 11847, "▁jeździć": 11848, "▁teatrze": 11849, "BA": 11850, "▁szans": 11851, "▁man": 11852, "głos": 11853, "▁pól": 11854, "▁jazdę": 11855, "▁wynieść": 11856, "towali": 11857, "sławem": 11858, "ert": 11859, "rysty": 11860, "▁zwięk": 11861, "▁uczą": 11862, "▁pięknym": 11863, "▁nastawi": 11864, "▁koszuli": 11865, "▁bokach": 11866, "▁wyglądały": 11867, "▁Pis": 11868, "tacje": 11869, "▁wzięło": 11870, "▁zdjęć": 11871, "id": 11872, "▁doz": 11873, "▁doskona": 11874, "dzanie": 11875, "▁Mer": 11876, "▁różnymi": 11877, "▁Spi": 11878, "▁energię": 11879, "▁karze": 11880, "▁Księżyc": 11881, "cent": 11882, "▁Kot": 11883, "▁repu": 11884, "▁zmęczenia": 11885, "▁oddziałów": 11886, "▁zawdzięcza": 11887, "▁lepszej": 11888, "rzci": 11889, "▁Matki": 11890, "▁zwane": 11891, "▁Bernar": 11892, "▁wielokrotnie": 11893, "▁herbatę": 11894, "▁prostym": 11895, "▁rozwie": 11896, "ben": 11897, "▁opiece": 11898, "▁zainteresowania": 11899, "▁poziomu": 11900, "▁podję": 11901, "▁wyniósł": 11902, "▁ato": 11903, "▁pragnienie": 11904, "▁partie": 11905, "▁popar": 11906, "owiadać": 11907, "wiński": 11908, "▁pane": 11909, "▁Pole": 11910, "aa": 11911, "▁zagłę": 11912, "cześnie": 11913, "▁cesarza": 11914, "▁Kwaśnie": 11915, "▁deski": 11916, "▁niewielki": 11917, "▁iro": 11918, "▁czysty": 11919, "▁przejście": 11920, "▁otwarty": 11921, "▁mierzyć": 11922, "▁dem": 11923, "zj": 11924, "piona": 11925, "▁korpu": 11926, "▁wydłu": 11927, "▁uprzejmie": 11928, "owiu": 11929, "▁podstawowych": 11930, "tań": 11931, "mili": 11932, "▁zdrowe": 11933, "▁mówie": 11934, "▁poparcie": 11935, "▁amerykańskich": 11936, "siek": 11937, "▁Towarzystwo": 11938, "▁Ogólno": 11939, "logiczne": 11940, "▁powstaje": 11941, "▁trawie": 11942, "▁kuchen": 11943, "dowano": 11944, "▁barwę": 11945, "▁nieroz": 11946, "▁parafia": 11947, "▁proboszcz": 11948, "▁wieczoru": 11949, "rum": 11950, "▁walczył": 11951, "▁przekonaniu": 11952, "▁wypadkach": 11953, "▁anonim": 11954, "▁intelektu": 11955, "▁gabinecie": 11956, "óź": 11957, "▁otrzymała": 11958, "▁zakup": 11959, "▁klas": 11960, "zka": 11961, "▁ciekawy": 11962, "▁otrzymali": 11963, "▁Stru": 11964, "▁budynki": 11965, "▁ordyna": 11966, "▁celi": 11967, "▁wypoczynku": 11968, "▁Prawdopodobnie": 11969, "ktora": 11970, "▁wicepre": 11971, "▁omawia": 11972, "▁Podstaw": 11973, "▁gminie": 11974, "▁samotności": 11975, "▁obudził": 11976, "▁firmie": 11977, "▁posługi": 11978, "▁uzyska": 11979, "▁Wszyst": 11980, "▁Zwłaszcza": 11981, "▁Dzisiaj": 11982, "▁wędrów": 11983, "▁pieszych": 11984, "▁Litwi": 11985, "▁zwycięstwie": 11986, "▁nieznajo": 11987, "wierciad": 11988, "▁podtrzymy": 11989, "▁wspo": 11990, "▁port": 11991, "▁sprzy": 11992, "ćmi": 11993, "▁utru": 11994, "▁poprawek": 11995, "▁tre": 11996, "rag": 11997, "▁Com": 11998, "▁kiw": 11999, "▁nocnych": 12000, "kłego": 12001, "▁ławce": 12002, "▁pozwalał": 12003, "▁chorego": 12004, "▁musicie": 12005, "wart": 12006, "▁przeko": 12007, "żen": 12008, "▁Skrzy": 12009, "▁młodzień": 12010, "▁bankru": 12011, "▁sygna": 12012, "▁groźby": 12013, "▁słabym": 12014, "▁pułku": 12015, "▁mrów": 12016, "▁wnętrze": 12017, "▁sprzedał": 12018, "▁Psy": 12019, "▁surowe": 12020, "▁oddechu": 12021, "▁złapać": 12022, "▁Napoleon": 12023, "▁wschodni": 12024, "▁walczących": 12025, "▁skutecznie": 12026, "EM": 12027, "▁Musisz": 12028, "▁cudem": 12029, "▁czoł": 12030, "▁trzymała": 12031, "▁Opowie": 12032, "▁umiejętności": 12033, "▁kredytu": 12034, "▁grona": 12035, "▁napisa": 12036, "▁posłem": 12037, "II": 12038, "▁wzrostem": 12039, "błę": 12040, "▁najmniejszego": 12041, "▁zajmie": 12042, "▁myślenia": 12043, "▁wiersz": 12044, "▁barw": 12045, "▁UW": 12046, "▁Gda": 12047, "▁zdawać": 12048, "pet": 12049, "zan": 12050, "▁zwyczajnie": 12051, "rzoną": 12052, "▁cmentarz": 12053, "▁świadkiem": 12054, "▁oceanu": 12055, "▁pomnik": 12056, "▁myli": 12057, "@": 12058, "▁postawa": 12059, "▁spółkę": 12060, "▁osady": 12061, "dowana": 12062, "dale": 12063, "UR": 12064, "▁Niekiedy": 12065, "▁nadzor": 12066, "▁kierowca": 12067, "▁ulgi": 12068, "zdu": 12069, "▁odmówić": 12070, "▁przygotowany": 12071, "ckimi": 12072, "▁walk": 12073, "▁przegląd": 12074, "▁kompu": 12075, "▁przedw": 12076, "▁kartę": 12077, "▁zależało": 12078, "ruch": 12079, "▁sala": 12080, "▁miejskich": 12081, "▁korzyst": 12082, "▁konkurs": 12083, "▁pt": 12084, "▁lodu": 12085, "▁dochód": 12086, "▁Zwy": 12087, "▁nieporozu": 12088, "▁skorzystać": 12089, "▁znaczą": 12090, "▁złotego": 12091, "▁reali": 12092, "▁okazję": 12093, "▁niełat": 12094, "▁NA": 12095, "ctwie": 12096, "▁jedy": 12097, "▁propozycję": 12098, "▁następny": 12099, "▁górach": 12100, "▁harmo": 12101, "▁zieleni": 12102, "stości": 12103, "sień": 12104, "▁pomagał": 12105, "▁jeżd": 12106, "▁mostu": 12107, "dzkę": 12108, "▁wrócą": 12109, "▁zegarek": 12110, "fle": 12111, "Ro": 12112, "▁moimi": 12113, "▁komunika": 12114, "wnego": 12115, "▁oparty": 12116, "▁doło": 12117, "▁!": 12118, "▁dochodów": 12119, "▁Wspom": 12120, "▁wypłaca": 12121, "▁kale": 12122, "▁posiłki": 12123, "▁super": 12124, "▁zarzut": 12125, "▁klo": 12126, "▁światu": 12127, "▁lśnią": 12128, "▁Władze": 12129, "▁zapozna": 12130, "nel": 12131, "▁tragedii": 12132, "▁przeszłość": 12133, "▁ubiegłego": 12134, "kowana": 12135, "▁przyjechała": 12136, "▁drog": 12137, "▁Wiktor": 12138, "▁samorząd": 12139, "▁PS": 12140, "▁zagospodar": 12141, "▁klat": 12142, "▁wyrówna": 12143, "kacji": 12144, "▁Pę": 12145, "letnią": 12146, "▁przekaza": 12147, "▁zobaczyła": 12148, "▁Mea": 12149, "▁promieni": 12150, "▁słysz": 12151, "▁surowo": 12152, "▁kwar": 12153, "hat": 12154, "legła": 12155, "▁dochodziło": 12156, "mion": 12157, "▁nast": 12158, "▁podobało": 12159, "▁pen": 12160, "▁obłę": 12161, "▁mon": 12162, "▁Niepo": 12163, "rztu": 12164, "▁kupuje": 12165, "▁Mistrz": 12166, "▁upu": 12167, "▁Ada": 12168, "▁minutach": 12169, "padła": 12170, "▁dzielić": 12171, "▁najlepszego": 12172, "▁hono": 12173, "▁Francu": 12174, "▁Bos": 12175, "▁tri": 12176, "lor": 12177, "▁zesz": 12178, "▁uwaga": 12179, "▁najwyższych": 12180, "▁wypro": 12181, "▁ministrem": 12182, "▁prawicy": 12183, "towała": 12184, "biu": 12185, "▁żywych": 12186, "▁poprawił": 12187, "▁kawy": 12188, "▁promie": 12189, "cowy": 12190, "▁Napoleona": 12191, "▁epo": 12192, "cali": 12193, "▁dzielą": 12194, "▁muru": 12195, "▁grzechu": 12196, "▁rozebra": 12197, "▁wyśmie": 12198, "end": 12199, "▁Osie": 12200, "▁Polskie": 12201, "▁Zim": 12202, "▁spokojne": 12203, "▁Ukrainy": 12204, "▁tajemnice": 12205, "▁Leo": 12206, "▁fio": 12207, "dzących": 12208, "▁Boskiej": 12209, "▁zastąpić": 12210, "▁chór": 12211, "▁cieszyć": 12212, "▁Królew": 12213, "▁figury": 12214, "▁strój": 12215, "▁Święty": 12216, "▁smy": 12217, "▁niesłu": 12218, "zur": 12219, "▁czwartej": 12220, "IER": 12221, "▁miejscowych": 12222, "▁papież": 12223, "▁najlepszą": 12224, "▁stroju": 12225, "▁Was": 12226, "▁Środ": 12227, "▁ślą": 12228, "▁niejako": 12229, "▁czerwona": 12230, "▁Zaba": 12231, "▁świadczy": 12232, "▁pojedyncze": 12233, "▁dopuścić": 12234, "kształ": 12235, "gowe": 12236, "▁powiado": 12237, "kas": 12238, "czącą": 12239, "miesię": 12240, "▁car": 12241, "▁emocji": 12242, "ujesz": 12243, "▁niebezpieczne": 12244, "▁samocho": 12245, "▁Będziesz": 12246, "gow": 12247, "cowej": 12248, "▁takiemu": 12249, "▁eksper": 12250, "▁history": 12251, "▁drewniane": 12252, "▁ad": 12253, "▁urzędni": 12254, "▁chemi": 12255, "SP": 12256, "▁placówki": 12257, "▁bre": 12258, "▁specyfi": 12259, "▁gardle": 12260, "▁Śle": 12261, "▁ZUS": 12262, "▁paro": 12263, "▁małymi": 12264, "▁niepowo": 12265, "▁wytwarza": 12266, "▁ściśle": 12267, "▁przekony": 12268, "▁ogłosił": 12269, "znaw": 12270, "▁powiedzenia": 12271, "▁padło": 12272, "▁Wisły": 12273, "▁rządów": 12274, "dłu": 12275, "▁cmentarzu": 12276, "▁rodzinne": 12277, "▁prasy": 12278, "▁skierował": 12279, "cuje": 12280, "▁zimny": 12281, "▁bohatera": 12282, "▁wejdzie": 12283, "ana": 12284, "▁nieustannie": 12285, "▁kwietniu": 12286, "mki": 12287, "▁gotowych": 12288, "▁gaze": 12289, "miera": 12290, "▁babcia": 12291, "▁ciemnym": 12292, "▁wynaj": 12293, "▁Jaro": 12294, "kowskiej": 12295, "▁Ład": 12296, "łd": 12297, "▁zjawisko": 12298, "▁nastąpił": 12299, "listów": 12300, "ft": 12301, "▁Spojrzał": 12302, "▁Woda": 12303, "▁taniec": 12304, "mij": 12305, "▁spotkań": 12306, "▁prowadzone": 12307, "▁charakteru": 12308, "GA": 12309, "niam": 12310, "▁towarzyszą": 12311, "▁unie": 12312, "▁Dominika": 12313, "▁Czasami": 12314, "▁występują": 12315, "gowej": 12316, "▁dłu": 12317, "▁domi": 12318, "▁rozważ": 12319, "▁Kle": 12320, "▁Przyszło": 12321, "rzut": 12322, "▁poglądy": 12323, "▁przewiduje": 12324, "dzin": 12325, "▁Poseł": 12326, "▁sejm": 12327, "▁samobój": 12328, "▁piszą": 12329, "▁dyżur": 12330, "▁przypadkiem": 12331, "▁ustawę": 12332, "wiska": 12333, "▁wpra": 12334, "▁Straży": 12335, "▁końc": 12336, "▁wymo": 12337, "▁kultur": 12338, "▁Unia": 12339, "▁wpła": 12340, "▁wkro": 12341, "▁bloku": 12342, "▁mieszkaniec": 12343, "▁stracili": 12344, "▁poświęcić": 12345, "▁Biał": 12346, "▁zapada": 12347, "dziesiątych": 12348, "▁przedsiębiorstw": 12349, "▁znajo": 12350, "▁prowadzenie": 12351, "----------------": 12352, "▁ciemny": 12353, "▁suknię": 12354, "▁sprowadzić": 12355, "skrze": 12356, "▁zaspoko": 12357, "▁córce": 12358, "▁dwunastu": 12359, "dzcy": 12360, "▁sierp": 12361, "▁Białorusi": 12362, "OG": 12363, "▁dojrze": 12364, "lepia": 12365, "▁królestwa": 12366, "▁pozwal": 12367, "▁przestro": 12368, "▁wyjazdem": 12369, "wań": 12370, "▁Hy": 12371, "Te": 12372, "▁zapasów": 12373, "lle": 12374, "▁ruiny": 12375, "▁ołta": 12376, "▁kurzu": 12377, "▁Wola": 12378, "niczej": 12379, "▁wprowadza": 12380, "▁Sal": 12381, "▁spotkało": 12382, "▁niemniej": 12383, "▁Jedy": 12384, "▁doliny": 12385, "▁udawać": 12386, "TY": 12387, "▁sięgnął": 12388, "▁prawym": 12389, "▁wychowaw": 12390, "▁stosunkowo": 12391, "▁Lecha": 12392, "▁postrzega": 12393, "▁drogo": 12394, "▁miałaby": 12395, "cinie": 12396, "▁cierpliwość": 12397, "▁konieczności": 12398, "▁przyjechać": 12399, "▁przedsię": 12400, "▁myślach": 12401, "▁doświadczeń": 12402, "▁sędziów": 12403, "und": 12404, "▁wierszy": 12405, "aria": 12406, "▁miesię": 12407, "▁odwoła": 12408, "▁lepszych": 12409, "▁prywatyzacji": 12410, "▁organ": 12411, "łąb": 12412, "▁sceny": 12413, "▁Toma": 12414, "ktem": 12415, "▁przyrzą": 12416, "▁rozryw": 12417, "▁magne": 12418, "▁Szuka": 12419, "▁wagi": 12420, "▁przesz": 12421, "▁przyznaje": 12422, "▁opis": 12423, "owce": 12424, "▁stoliku": 12425, "▁traktować": 12426, "▁nisz": 12427, "▁wiedzę": 12428, "▁najwyższego": 12429, "nda": 12430, "UN": 12431, "▁niecierp": 12432, "▁obrotu": 12433, "▁pióro": 12434, "▁kolega": 12435, "terem": 12436, "▁karto": 12437, "mego": 12438, "▁zapowiedzi": 12439, "▁poprzedza": 12440, "fikacji": 12441, "▁Hal": 12442, "▁poszukiwania": 12443, "▁satysfak": 12444, "pej": 12445, "ÓW": 12446, "Cz": 12447, "lików": 12448, "▁ekonomi": 12449, "▁Skarb": 12450, "▁partner": 12451, "▁złożyła": 12452, "▁podzielić": 12453, "letnie": 12454, "▁Pięć": 12455, "▁wspina": 12456, "▁Działa": 12457, "▁obszarze": 12458, "▁rej": 12459, "▁uniósł": 12460, "▁referendum": 12461, "▁szacunku": 12462, "▁Komitetu": 12463, "▁przedstawiciel": 12464, "▁metra": 12465, "atr": 12466, "▁Jowi": 12467, "▁przyto": 12468, "▁niezmie": 12469, "▁południowej": 12470, "▁lato": 12471, "▁doga": 12472, "▁zagrani": 12473, "▁Wer": 12474, "▁Ryb": 12475, "▁Monika": 12476, "▁pacjentów": 12477, "▁Gospodarki": 12478, "▁Przypom": 12479, "▁własnością": 12480, "▁treść": 12481, "gowych": 12482, "▁nawzajem": 12483, "nau": 12484, "▁natk": 12485, "▁porozumienie": 12486, "▁Prób": 12487, "kin": 12488, "▁podchodzi": 12489, "▁emocje": 12490, "▁zrozumienia": 12491, "KS": 12492, "tnością": 12493, "▁umoc": 12494, "▁przypada": 12495, "▁afryka": 12496, "▁dany": 12497, "▁szkołach": 12498, "nizm": 12499,
[...]
